{
  "<s>": 0,
  "</s>": 1,
  "<pad>": 2,
  "<unk>": 3,
  "<special0>": 4,
  "<special1>": 5,
  "<special2>": 6,
  "<special3>": 7,
  "<special4>": 8,
  "<special5>": 9,
  "<special6>": 10,
  "<special7>": 11,
  "<special8>": 12,
  "<special9>": 13,
  ",</w>": 14,
  ".</w>": 15,
  "the</w>": 16,
  "\"</w>": 17,
  "in</w>": 18,
  "der</w>": 19,
  "die</w>": 20,
  "to</w>": 21,
  "of</w>": 22,
  "a</w>": 23,
  "and</w>": 24,
  "und</w>": 25,
  ":</w>": 26,
  "den</w>": 27,
  "-</w>": 28,
  "'s</w>": 29,
  "that</w>": 30,
  "for</w>": 31,
  "mit</w>": 32,
  "is</w>": 33,
  "on</w>": 34,
  "an</w>": 35,
  ")</w>": 36,
  "von</w>": 37,
  "(</w>": 38,
  "das</w>": 39,
  "zu</w>": 40,
  "was</w>": 41,
  "ist</w>": 42,
  "im</w>": 43,
  "auf</w>": 44,
  "sich</w>": 45,
  "f\u00fcr</w>": 46,
  "The</w>": 47,
  "Die</w>": 48,
  "with</w>": 49,
  "dem</w>": 50,
  "es</w>": 51,
  "nicht</w>": 52,
  "ein</w>": 53,
  "des</w>": 54,
  "said</w>": 55,
  "it</w>": 56,
  "as</w>": 57,
  "at</w>": 58,
  "eine</w>": 59,
  "auch</w>": 60,
  "am</w>": 61,
  "he</w>": 62,
  "be</w>": 63,
  "by</w>": 64,
  "er</w>": 65,
  "I</w>": 66,
  "als</w>": 67,
  "have</w>": 68,
  "from</w>": 69,
  "are</w>": 70,
  "aus</w>": 71,
  "his</w>": 72,
  "has</w>": 73,
  "will</w>": 74,
  "Der</w>": 75,
  "dass</w>": 76,
  "hat</w>": 77,
  "bei</w>": 78,
  "/</w>": 79,
  "nach</w>": 80,
  "so</w>": 81,
  "sie</w>": 82,
  "um</w>": 83,
  "werden</w>": 84,
  "not</w>": 85,
  "war</w>": 86,
  "'</w>": 87,
  "Das</w>": 88,
  "In</w>": 89,
  "einem</w>": 90,
  "who</w>": 91,
  "noch</w>": 92,
  "sind</w>": 93,
  "vor</w>": 94,
  "?</w>": 95,
  "einen</w>": 96,
  "einer</w>": 97,
  "wird</w>": 98,
  "wie</w>": 99,
  "they</w>": 100,
  "had</w>": 101,
  "but</w>": 102,
  "this</w>": 103,
  "their</w>": 104,
  "haben</w>": 105,
  "zum</w>": 106,
  "or</w>": 107,
  "been</w>": 108,
  "were</w>": 109,
  "-": 110,
  "man</w>": 111,
  "aber</w>": 112,
  "\u00fcber</w>": 113,
  "more</w>": 114,
  "'t</w>": 115,
  "her</w>": 116,
  "which</w>": 117,
  "about</w>": 118,
  "you</w>": 119,
  "we</w>": 120,
  "nur</w>": 121,
  "would</w>": 122,
  "one</w>": 123,
  "It</w>": 124,
  "its</w>": 125,
  "up</w>": 126,
  "also</w>": 127,
  "mehr</w>": 128,
  "out</w>": 129,
  "after</w>": 130,
  "oder</w>": 131,
  "gegen</w>": 132,
  "wurde</w>": 133,
  "bis</w>": 134,
  "hatte</w>": 135,
  "all</w>": 136,
  "can</w>": 137,
  "she</w>": 138,
  "sein</w>": 139,
  "than</w>": 140,
  "when</w>": 141,
  "sei</w>": 142,
  "Sie</w>": 143,
  "people</w>": 144,
  "zur</w>": 145,
  "Euro</w>": 146,
  "He</w>": 147,
  "$</w>": 148,
  "A</w>": 149,
  "Es</w>": 150,
  "year</w>": 151,
  "wir</w>": 152,
  "over</w>": 153,
  "But</w>": 154,
  "ich</w>": 155,
  "there</w>": 156,
  "into</w>": 157,
  ";</w>": 158,
  "habe</w>": 159,
  "time</w>": 160,
  "1</w>": 161,
  "wieder</w>": 162,
  "un": 163,
  "sagte</w>": 164,
  "Uhr</w>": 165,
  "durch</w>": 166,
  "two</w>": 167,
  "first</w>": 168,
  "schon</w>": 169,
  "kann</w>": 170,
  "unter</w>": 171,
  "last</w>": 172,
  "new</w>": 173,
  "er": 174,
  "could</w>": 175,
  "vom</w>": 176,
  "what</w>": 177,
  "years</w>": 178,
  "zwei</w>": 179,
  "other</w>": 180,
  "just</w>": 181,
  "Prozent</w>": 182,
  "Jahr</w>": 183,
  "We</w>": 184,
  "dann</w>": 185,
  "en": 186,
  "them</w>": 187,
  "s</w>": 188,
  "some</w>": 189,
  "Jahren</w>": 190,
  "like</w>": 191,
  "if</w>": 192,
  "no</w>": 193,
  "beim</w>": 194,
  "k\u00f6nnen</w>": 195,
  "gibt</w>": 196,
  "ver": 197,
  "do</w>": 198,
  "i</w>": 199,
  "Und</w>": 200,
  "him</w>": 201,
  "soll</w>": 202,
  "Im</w>": 203,
  "Wir</w>": 204,
  "seine</w>": 205,
  "2</w>": 206,
  "immer</w>": 207,
  "Ein</w>": 208,
  "our</w>": 209,
  "sagt</w>": 210,
  "ihre</w>": 211,
  "Er</w>": 212,
  "S": 213,
  "Ich</w>": 214,
  "wenn</w>": 215,
  "t": 216,
  "Auch</w>": 217,
  "f": 218,
  "de</w>": 219,
  "waren</w>": 220,
  "ab": 221,
  "only</w>": 222,
  "now</w>": 223,
  "an": 224,
  "K": 225,
  "back</w>": 226,
  "te</w>": 227,
  "B": 228,
  "s": 229,
  "before</w>": 230,
  "T": 231,
  "my</w>": 232,
  "ab</w>": 233,
  "keine</w>": 234,
  "Mit</w>": 235,
  "says</w>": 236,
  "because</w>": 237,
  "So</w>": 238,
  "me</w>": 239,
  "get</w>": 240,
  "most</w>": 241,
  "Nach</w>": 242,
  "seiner</w>": 243,
  "per</w>": 244,
  "d": 245,
  "drei</w>": 246,
  "ten</w>": 247,
  "New</w>": 248,
  "!</w>": 249,
  "being</w>": 250,
  "P": 251,
  "k": 252,
  "n": 253,
  "seit</w>": 254,
  "b": 255,
  "G": 256,
  "re": 257,
  "o</w>": 258,
  "wurden</w>": 259,
  "told</w>": 260,
  "us</w>": 261,
  "Menschen</w>": 262,
  "Jahre</w>": 263,
  "where</w>": 264,
  "muss</w>": 265,
  "da</w>": 266,
  "government</w>": 267,
  "A": 268,
  "R": 269,
  "geht</w>": 270,
  "alle</w>": 271,
  "L": 272,
  "against</w>": 273,
  "eines</w>": 274,
  "sehr</w>": 275,
  "Mr</w>": 276,
  "ersten</w>": 277,
  "20</w>": 278,
  "made</w>": 279,
  "off</w>": 280,
  "E": 281,
  "bereits</w>": 282,
  "nun</w>": 283,
  "in": 284,
  "3</w>": 285,
  "ins</w>": 286,
  "ge": 287,
  "worden</w>": 288,
  "way</w>": 289,
  "down</w>": 290,
  "m": 291,
  "...</w>": 292,
  "how</w>": 293,
  "gut</w>": 294,
  "any</w>": 295,
  "en</w>": 296,
  "end</w>": 297,
  "--</w>": 298,
  "10</w>": 299,
  "H": 300,
  "W": 301,
  "M": 302,
  "three</w>": 303,
  "F\u00fcr</w>": 304,
  "million</w>": 305,
  "diese</w>": 306,
  "be": 307,
  "z": 308,
  "make</w>": 309,
  "This</w>": 310,
  "30</w>": 311,
  "many</w>": 312,
  "while</w>": 313,
  "uns</w>": 314,
  "D": 315,
  "F": 316,
  "N": 317,
  "Bei</w>": 318,
  "Am</w>": 319,
  "very</w>": 320,
  "ein": 321,
  "dieser</w>": 322,
  "diesem</w>": 323,
  "neue</w>": 324,
  "e</w>": 325,
  "through</w>": 326,
  "those</w>": 327,
  "week</w>": 328,
  "And</w>": 329,
  "Deutschland</w>": 330,
  "then</w>": 331,
  "zwischen</w>": 332,
  "damit</w>": 333,
  "viel</w>": 334,
  "15</w>": 335,
  "0</w>": 336,
  "aus": 337,
  "l</w>": 338,
  "ihr</w>": 339,
  "jetzt</w>": 340,
  "j": 341,
  "even</w>": 342,
  "They</w>": 343,
  "day</w>": 344,
  "g": 345,
  "rund</w>": 346,
  "ch": 347,
  "C": 348,
  "still</w>": 349,
  "world</w>": 350,
  "work</w>": 351,
  "well</w>": 352,
  "Sch": 353,
  "seinen</w>": 354,
  "home</w>": 355,
  "Eine</w>": 356,
  "An": 357,
  "much</w>": 358,
  "Ende</w>": 359,
  "viele</w>": 360,
  "your</w>": 361,
  "such</w>": 362,
  "say</w>": 363,
  "'": 364,
  "going</w>": 365,
  "Zeit</w>": 366,
  "m\u00fcssen</w>": 367,
  "since</w>": 368,
  "'re</w>": 369,
  "hatten</w>": 370,
  "see</w>": 371,
  "don</w>": 372,
  "l": 373,
  "U.S.</w>": 374,
  "did</w>": 375,
  "should</w>": 376,
  "ing</w>": 377,
  "take</w>": 378,
  "Millionen</w>": 379,
  "weiter</w>": 380,
  "Ver": 381,
  "selbst</w>": 382,
  "el": 383,
  "ter</w>": 384,
  "neuen</w>": 385,
  "go</w>": 386,
  "may</w>": 387,
  "ihren</w>": 388,
  "Ab": 389,
  "p": 390,
  "seinem</w>": 391,
  "Polizei</w>": 392,
  "Stadt</w>": 393,
  "4</w>": 394,
  "h": 395,
  "think</w>": 396,
  "Doch</w>": 397,
  "percent</w>": 398,
  "Aber</w>": 399,
  "during</w>": 400,
  "al": 401,
  "etwa</w>": 402,
  "between</w>": 403,
  "ers</w>": 404,
  "st": 405,
  "There</w>": 406,
  "sowie</w>": 407,
  "ganz</w>": 408,
  "police</w>": 409,
  "including</w>": 410,
  "le</w>": 411,
  "around</w>": 412,
  "c": 413,
  "doch</w>": 414,
  "country</w>": 415,
  "seien</w>": 416,
  "machen</w>": 417,
  "ihrer</w>": 418,
  "O": 419,
  "anderen</w>": 420,
  "auf": 421,
  "good</w>": 422,
  "ent": 423,
  "allem</w>": 424,
  "company</w>": 425,
  "Obama</w>": 426,
  "hier</w>": 427,
  "2014</w>": 428,
  "u</w>": 429,
  "weil</w>": 430,
  "steht</w>": 431,
  "dabei</w>": 432,
  "y</w>": 433,
  "sch": 434,
  "Wie</w>": 435,
  "o": 436,
  "etwas</w>": 437,
  "next</w>": 438,
  "team</w>": 439,
  "ohne</w>": 440,
  "kommen</w>": 441,
  "\u00a3</w>": 442,
  "under</w>": 443,
  "Berlin</w>": 444,
  "2013</w>": 445,
  "V": 446,
  "found</w>": 447,
  "Z": 448,
  "e": 449,
  "vier</w>": 450,
  "gab</w>": 451,
  "vergangenen</w>": 452,
  "n</w>": 453,
  "wollen</w>": 454,
  "these</w>": 455,
  "y": 456,
  "state</w>": 457,
  "dpa</w>": 458,
  "She</w>": 459,
  "mann</w>": 460,
  "wegen</w>": 461,
  "That</w>": 462,
  "50</w>": 463,
  "5</w>": 464,
  "part</w>": 465,
  "sondern</w>": 466,
  "m</w>": 467,
  "v": 468,
  "know</w>": 469,
  "k</w>": 470,
  "men</w>": 471,
  "r": 472,
  "beiden</w>": 473,
  "ung</w>": 474,
  "werde</w>": 475,
  "sollen</w>": 476,
  "want</w>": 477,
  "ihn</w>": 478,
  "t</w>": 479,
  "kommt</w>": 480,
  "Als</w>": 481,
  "\u00fcber": 482,
  "right</w>": 483,
  "able</w>": 484,
  "6</w>": 485,
  "Auf</w>": 486,
  "ner</w>": 487,
  "game</w>": 488,
  "Kinder</w>": 489,
  "If</w>": 490,
  "Von</w>": 491,
  "einmal</w>": 492,
  "ern</w>": 493,
  "ler</w>": 494,
  "former</w>": 495,
  "erst</w>": 496,
  "Mann</w>": 497,
  "%</w>": 498,
  "ar": 499,
  "US</w>": 500,
  "heute</w>": 501,
  "'ve</w>": 502,
  "own</w>": 503,
  "di": 504,
  "ihm</w>": 505,
  "another</w>": 506,
  "2015</w>": 507,
  "China</w>": 508,
  "public</w>": 509,
  "United</w>": 510,
  "i": 511,
  "J": 512,
  "es": 513,
  "12</w>": 514,
  "too</w>": 515,
  "set</w>": 516,
  "Wenn</w>": 517,
  "life</w>": 518,
  "family</w>": 519,
  "Trump</w>": 520,
  "second</w>": 521,
  "York</w>": 522,
  "d</w>": 523,
  "four</w>": 524,
  "Aus": 525,
  "Mr.</w>": 526,
  "14</w>": 527,
  "&</w>": 528,
  "alles</w>": 529,
  "Platz</w>": 530,
  "both</w>": 531,
  "same</w>": 532,
  "11</w>": 533,
  "16</w>": 534,
  "group</w>": 535,
  "18</w>": 536,
  "Ein": 537,
  "2012</w>": 538,
  "need</w>": 539,
  "cent</w>": 540,
  "left</w>": 541,
  "de": 542,
  "show</w>": 543,
  "help</w>": 544,
  "Michael</w>": 545,
  "z</w>": 546,
  "lassen</w>": 547,
  "andere</w>": 548,
  "long</w>": 549,
  "stehen</w>": 550,
  "used</w>": 551,
  "U": 552,
  "I": 553,
  "vor": 554,
  "u": 555,
  "use</w>": 556,
  "kam</w>": 557,
  "mal</w>": 558,
  "dort</w>": 559,
  "kein</w>": 560,
  "come</w>": 561,
  "w": 562,
  "25</w>": 563,
  "ungen</w>": 564,
  "konnte</w>": 565,
  "um": 566,
  "season</w>": 567,
  "'m</w>": 568,
  "got</w>": 569,
  "Welt</w>": 570,
  "children</w>": 571,
  "k\u00f6nnte</w>": 572,
  "ed</w>": 573,
  "13</w>": 574,
  "a": 575,
  "As</w>": 576,
  "17</w>": 577,
  "really</w>": 578,
  "Bau": 579,
  "days</w>": 580,
  "fast</w>": 581,
  "100</w>": 582,
  "best</w>": 583,
  "f\u00fcnf</w>": 584,
  "7</w>": 585,
  "ke</w>": 586,
  "place</w>": 587,
  "Vor": 588,
  "daf\u00fcr</w>": 589,
  "ob</w>": 590,
  "September</w>": 591,
  "Sonntag</w>": 592,
  "ungs": 593,
  "berg</w>": 594,
  "ja</w>": 595,
  "London</w>": 596,
  "ar</w>": 597,
  "months</w>": 598,
  "month</w>": 599,
  "An</w>": 600,
  "You</w>": 601,
  "American</w>": 602,
  "stand</w>": 603,
  "Be": 604,
  "gen</w>": 605,
  "40</w>": 606,
  "called</w>": 607,
  "mich</w>": 608,
  "th": 609,
  "put</w>": 610,
  "night</w>": 611,
  "gehen</w>": 612,
  "ischen</w>": 613,
  "Spiel</w>": 614,
  "FC</w>": 615,
  "women</w>": 616,
  "April</w>": 617,
  "\u00e9": 618,
  "is": 619,
  "le": 620,
  "Land</w>": 621,
  "ger</w>": 622,
  "ische</w>": 623,
  "geben</w>": 624,
  "Re": 625,
  "five</w>": 626,
  "allerdings</w>": 627,
  "ging</w>": 628,
  "never</w>": 629,
  "b</w>": 630,
  "Al": 631,
  "Frau</w>": 632,
  "g</w>": 633,
  "nichts</w>": 634,
  "age</w>": 635,
  "dazu</w>": 636,
  "Da</w>": 637,
  "market</w>": 638,
  "Er": 639,
  "less</w>": 640,
  "p</w>": 641,
  "ihrem</w>": 642,
  "Was</w>": 643,
  "won</w>": 644,
  "report</w>": 645,
  "business</w>": 646,
  "al</w>": 647,
  "President</w>": 648,
  "ingen</w>": 649,
  "sehen</w>": 650,
  "took</w>": 651,
  "jedoch</w>": 652,
  "gro\u00dfen</w>": 653,
  "here</w>": 654,
  "erste</w>": 655,
  "number</w>": 656,
  "big</w>": 657,
  "stra\u00dfe</w>": 658,
  "For</w>": 659,
  "top</w>": 660,
  "macht</w>": 661,
  "w\u00e4re</w>": 662,
  "might</w>": 663,
  "2011</w>": 664,
  "case</w>": 665,
  "city</w>": 666,
  "Tag</w>": 667,
  "away</w>": 668,
  "according</w>": 669,
  "on": 670,
  "November</w>": 671,
  "der": 672,
  "president</w>": 673,
  "8</w>": 674,
  "zu": 675,
  "system</w>": 676,
  "Trainer</w>": 677,
  "ate</w>": 678,
  "000</w>": 679,
  "support</w>": 680,
  "play</w>": 681,
  "gro\u00dfe</w>": 682,
  "e-": 683,
  "2016</w>": 684,
  "letzten</w>": 685,
  "came</w>": 686,
  "added</w>": 687,
  "later</w>": 688,
  "weitere</w>": 689,
  "or": 690,
  "few</w>": 691,
  "wo</w>": 692,
  "money</w>": 693,
  "ber": 694,
  "gewesen</w>": 695,
  "Leben</w>": 696,
  "Friday</w>": 697,
  "sollte</w>": 698,
  "at": 699,
  "son</w>": 700,
  "en-": 701,
  "win</w>": 702,
  "w\u00fcrde</w>": 703,
  "ts</w>": 704,
  "zur\u00fcck</w>": 705,
  "ende</w>": 706,
  "Un": 707,
  "USA</w>": 708,
  "Freitag</w>": 709,
  "zehn</w>": 710,
  "When</w>": 711,
  "el</w>": 712,
  "ter": 713,
  "ago</w>": 714,
  "Mal</w>": 715,
  "deutschen</w>": 716,
  "high</w>": 717,
  "John</w>": 718,
  "2008</w>": 719,
  "Samstag</w>": 720,
  "St": 721,
  "little</w>": 722,
  "Denn</w>": 723,
  "Monday</w>": 724,
  "sogar</w>": 725,
  "Stra\u00dfe</w>": 726,
  "every</w>": 727,
  "Tuesday</w>": 728,
  "9</w>": 729,
  "h\u00e4tten</w>": 730,
  "Ober": 731,
  "ie</w>": 732,
  "denn</w>": 733,
  "se": 734,
  "officials</w>": 735,
  "past</w>": 736,
  "David</w>": 737,
  "without</w>": 738,
  "2009</w>": 739,
  "davon</w>": 740,
  "lot</w>": 741,
  "Man</w>": 742,
  "il": 743,
  "mir</w>": 744,
  "gemacht</w>": 745,
  "ten": 746,
  "x": 747,
  "Unternehmen</w>": 748,
  "better</w>": 749,
  "er-": 750,
  "am": 751,
  "bin</w>": 752,
  "dieses</w>": 753,
  "Team</w>": 754,
  "chen</w>": 755,
  "inger</w>": 756,
  "laut</w>": 757,
  "ro": 758,
  "fest</w>": 759,
  "isch</w>": 760,
  "lange</w>": 761,
  "+</w>": 762,
  "zwar</w>": 763,
  "Ro": 764,
  "court</w>": 765,
  "5": 766,
  "something</w>": 767,
  "Woche</w>": 768,
  "19</w>": 769,
  "2010</w>": 770,
  "land</w>": 771,
  "t-": 772,
  "party</w>": 773,
  "look</w>": 774,
  "ge</w>": 775,
  "early</w>": 776,
  "Wednesday</w>": 777,
  "led</w>": 778,
  "a-": 779,
  "Thursday</w>": 780,
  "didn</w>": 781,
  "far</w>": 782,
  "Thomas</w>": 783,
  "seen</w>": 784,
  "August</w>": 785,
  "school</w>": 786,
  "21</w>": 787,
  "enden</w>": 788,
  "point</w>": 789,
  "already</w>": 790,
  "iert</w>": 791,
  "One</w>": 792,
  "ag": 793,
  "sieht</w>": 794,
  "Wer</w>": 795,
  "whether</w>": 796,
  "Geld</w>": 797,
  "h</w>": 798,
  "House</w>": 799,
  "start</w>": 800,
  "deal</w>": 801,
  "each</w>": 802,
  "until</w>": 803,
  "side</w>": 804,
  "Diese</w>": 805,
  "Fall</w>": 806,
  "ger": 807,
  "gen": 808,
  "In": 809,
  "ens</w>": 810,
  "sp": 811,
  "Sunday</w>": 812,
  ".": 813,
  "political</w>": 814,
  "head</w>": 815,
  "ch</w>": 816,
  "ation</w>": 817,
  "billion</w>": 818,
  "least</w>": 819,
  "4": 820,
  "au</w>": 821,
  "te": 822,
  "Vor</w>": 823,
  "it": 824,
  "run</w>": 825,
  "et</w>": 826,
  "On</w>": 827,
  "Weg</w>": 828,
  "f</w>": 829,
  "Foto</w>": 830,
  "sten</w>": 831,
  "Zeitung</w>": 832,
  "Peter</w>": 833,
  "health</w>": 834,
  "reported</w>": 835,
  "[</w>": 836,
  "went</w>": 837,
  "Bank</w>": 838,
  "UK</w>": 839,
  "zweiten</w>": 840,
  "making</w>": 841,
  "Mar": 842,
  "again</w>": 843,
  "change</w>": 844,
  "denen</w>": 845,
  "Washington</w>": 846,
  "Schul": 847,
  "liegt</w>": 848,
  "musste</w>": 849,
  "South</w>": 850,
  "things</w>": 851,
  "campaign</w>": 852,
  "sp\u00e4ter</w>": 853,
  "]</w>": 854,
  "City</w>": 855,
  "se</w>": 856,
  "Wochen</w>": 857,
  "gar</w>": 858,
  "six</w>": 859,
  "wohl</w>": 860,
  "law</w>": 861,
  "au": 862,
  "great</w>": 863,
  "At</w>": 864,
  "across</w>": 865,
  "deutlich</w>": 866,
  "w\u00fcrden</w>": 867,
  "tes</w>": 868,
  "today</w>": 869,
  "Montag</w>": 870,
  "expected</w>": 871,
  "3": 872,
  "Frauen</w>": 873,
  "power</w>": 874,
  "Mittwoch</w>": 875,
  "EU</w>": 876,
  "Donnerstag</w>": 877,
  "Dabei</w>": 878,
  "24</w>": 879,
  "statement</w>": 880,
  "hei\u00dft</w>": 881,
  "einfach</w>": 882,
  "sh": 883,
  "ur": 884,
  "diesen</w>": 885,
  "England</w>": 886,
  "British</w>": 887,
  "does</w>": 888,
  "TV</w>": 889,
  "Arbeit</w>": 890,
  "line</w>": 891,
  "recent</w>": 892,
  "allen</w>": 893,
  "sechs</w>": 894,
  "half</w>": 895,
  "World</w>": 896,
  "plan</w>": 897,
  ".de</w>": 898,
  "1.</w>": 899,
  "li": 900,
  "derzeit</w>": 901,
  "as": 902,
  "news</w>": 903,
  "wollte</w>": 904,
  "www.": 905,
  "SPD</w>": 906,
  "darauf</w>": 907,
  "Dienstag</w>": 908,
  "Den</w>": 909,
  "dies</w>": 910,
  "taken</w>": 911,
  "local</w>": 912,
  "Bayern</w>": 913,
  "22</w>": 914,
  "find</w>": 915,
  "Saturday</w>": 916,
  "among</w>": 917,
  "saying</w>": 918,
  "information</w>": 919,
  "security</w>": 920,
  "become</w>": 921,
  "old</w>": 922,
  "h\u00e4tte</w>": 923,
  "likely</w>": 924,
  "Regierung</w>": 925,
  "ans</w>": 926,
  "US-": 927,
  "points</w>": 928,
  "De": 929,
  "unter": 930,
  "gerade</w>": 931,
  "military</w>": 932,
  "young</w>": 933,
  "mit": 934,
  "-S": 935,
  "liche</w>": 936,
  "6": 937,
  "always</w>": 938,
  "ber</w>": 939,
  "r</w>": 940,
  "9": 941,
  "eigenen</w>": 942,
  "times</w>": 943,
  "hit</w>": 944,
  "Angaben</w>": 945,
  "Ge": 946,
  "working</w>": 947,
  "sen</w>": 948,
  "Landes": 949,
  "st</w>": 950,
  "bach</w>": 951,
  "7": 952,
  "Thema</w>": 953,
  "M\u00fcnchen</w>": 954,
  "Minuten</w>": 955,
  "having</w>": 956,
  "Le": 957,
  "death</w>": 958,
  "lich</w>": 959,
  "stellen</w>": 960,
  "States</w>": 961,
  "What</w>": 962,
  "Australia</w>": 963,
  "Y": 964,
  "w\u00e4hrend</w>": 965,
  "members</w>": 966,
  "Mannschaft</w>": 967,
  "erkl\u00e4rte</w>": 968,
  "B\u00fcrgermeister</w>": 969,
  "media</w>": 970,
  "wenig</w>": 971,
  "vielen</w>": 972,
  "Martin</w>": 973,
  "erkl\u00e4rt</w>": 974,
  "weniger</w>": 975,
  "ant</w>": 976,
  "den": 977,
  "North</w>": 978,
  "Stadt": 979,
  "car</w>": 980,
  "heim</w>": 981,
  "Frage</w>": 982,
  "give</w>": 983,
  "Spiel": 984,
  "deutsche</w>": 985,
  "National</w>": 986,
  "j\u00e4hrige</w>": 987,
  "s-": 988,
  "different</w>": 989,
  "spielen</w>": 990,
  "several</w>": 991,
  "60</w>": 992,
  "players</w>": 993,
  "8": 994,
  "einige</w>": 995,
  "ne": 996,
  "2017</w>": 997,
  "third</w>": 998,
  "ieren</w>": 999,
  "ri": 1000,
  "chief</w>": 1001,
  "SV</w>": 1002,
  "bleibt</w>": 1003,
  "Seit</w>": 1004,
  "final</w>": 1005,
  "zusammen</w>": 1006,
  "though</w>": 1007,
  "finden</w>": 1008,
  "us": 1009,
  "im": 1010,
  "pay</w>": 1011,
  "S</w>": 1012,
  "face</w>": 1013,
  "enough</w>": 1014,
  "University</w>": 1015,
  "ad": 1016,
  "asked</w>": 1017,
  "companies</w>": 1018,
  "killed</w>": 1019,
  "ihnen</w>": 1020,
  "May</w>": 1021,
  "given</w>": 1022,
  "financial</w>": 1023,
  "Bo": 1024,
  "Auf": 1025,
  "ing": 1026,
  "os</w>": 1027,
  "lead</w>": 1028,
  "West</w>": 1029,
  "State</w>": 1030,
  "Teil</w>": 1031,
  "house</w>": 1032,
  "must</w>": 1033,
  "known</w>": 1034,
  "sk": 1035,
  "keep</w>": 1036,
  "international</w>": 1037,
  "ebenfalls</w>": 1038,
  "move</w>": 1039,
  "ti": 1040,
  "\u00df": 1041,
  "ne</w>": 1042,
  "After</w>": 1043,
  "lichen</w>": 1044,
  "23</w>": 1045,
  "area</w>": 1046,
  "Milliarden</w>": 1047,
  "n\u00e4chsten</w>": 1048,
  "future</w>": 1049,
  "Dass</w>": 1050,
  "Minister</w>": 1051,
  "fall</w>": 1052,
  "tax</w>": 1053,
  "anderem</w>": 1054,
  "woman</w>": 1055,
  "online</w>": 1056,
  "statt</w>": 1057,
  "job</w>": 1058,
  "keinen</w>": 1059,
  "acht</w>": 1060,
  "'ll</w>": 1061,
  "bleiben</w>": 1062,
  "decision</w>": 1063,
  "Deutschen</w>": 1064,
  "taking</w>": 1065,
  "Unter": 1066,
  "European</w>": 1067,
  "L</w>": 1068,
  "ia</w>": 1069,
  "bank</w>": 1070,
  "m\u00f6glich</w>": 1071,
  "zun\u00e4chst</w>": 1072,
  "D</w>": 1073,
  "League</w>": 1074,
  "lost</w>": 1075,
  "important</w>": 1076,
  "Union</w>": 1077,
  "l\u00e4sst</w>": 1078,
  "weg</w>": 1079,
  "major</w>": 1080,
  "Sp": 1081,
  "nie</w>": 1082,
  "si": 1083,
  "lo": 1084,
  "weeks</w>": 1085,
  "thing</w>": 1086,
  "Kreis": 1087,
  "water</w>": 1088,
  "national</w>": 1089,
  "B</w>": 1090,
  "2007</w>": 1091,
  "ever</w>": 1092,
  "hard</w>": 1093,
  "haus</w>": 1094,
  "Haus</w>": 1095,
  "ated</w>": 1096,
  "schnell</w>": 1097,
  "Mo": 1098,
  "ly</w>": 1099,
  "live</w>": 1100,
  "et": 1101,
  "k\u00f6nne</w>": 1102,
  "gute</w>": 1103,
  "Saison</w>": 1104,
  "care</w>": 1105,
  "bisher</w>": 1106,
  "small</w>": 1107,
  "bar</w>": 1108,
  "thought</w>": 1109,
  "attack</w>": 1110,
  "Zum</w>": 1111,
  "News</w>": 1112,
  "why</w>": 1113,
  "close</w>": 1114,
  "Her": 1115,
  "film</w>": 1116,
  "director</w>": 1117,
  "Beispiel</w>": 1118,
  "service</w>": 1119,
  "ale</w>": 1120,
  "With</w>": 1121,
  "ra": 1122,
  "ac": 1123,
  "behind</w>": 1124,
  "CDU</w>": 1125,
  "club</w>": 1126,
  "ker</w>": 1127,
  "His</w>": 1128,
  "ste</w>": 1129,
  "bringen</w>": 1130,
  "em": 1131,
  "held</w>": 1132,
  "ster</w>": 1133,
  "ine</w>": 1134,
  "Ar": 1135,
  "http</w>": 1136,
  "-K": 1137,
  "America</w>": 1138,
  "economic</w>": 1139,
  "500</w>": 1140,
  "bekommen</w>": 1141,
  "gekommen</w>": 1142,
  "Bar": 1143,
  "O</w>": 1144,
  "besser</w>": 1145,
  "Familie</w>": 1146,
  "aller</w>": 1147,
  "trying</w>": 1148,
  "gleich</w>": 1149,
  "tun</w>": 1150,
  "Mai</w>": 1151,
  "yet</w>": 1152,
  "ck": 1153,
  "zeigt</w>": 1154,
  "ert</w>": 1155,
  "qu": 1156,
  "often</w>": 1157,
  "la</w>": 1158,
  "late</w>": 1159,
  "halten</w>": 1160,
  "March</w>": 1161,
  "real</w>": 1162,
  "done</w>": 1163,
  "bo": 1164,
  "rate</w>": 1165,
  "erin</w>": 1166,
  "No</w>": 1167,
  "gilt</w>": 1168,
  "Europa</w>": 1169,
  "los</w>": 1170,
  "once</w>": 1171,
  "following</w>": 1172,
  "hours</w>": 1173,
  "Meter</w>": 1174,
  "Damit</w>": 1175,
  "looking</w>": 1176,
  "ting</w>": 1177,
  "almost</w>": 1178,
  "\u00dcber": 1179,
  "ent</w>": 1180,
  "po": 1181,
  "Zu</w>": 1182,
  "arbeiten</w>": 1183,
  "oft</w>": 1184,
  "believe</w>": 1185,
  "kaum</w>": 1186,
  "k\u00f6nnten</w>": 1187,
  "nehmen</w>": 1188,
  "R</w>": 1189,
  "\u00f6": 1190,
  "ol": 1191,
  "Police</w>": 1192,
  "further</w>": 1193,
  "series</w>": 1194,
  "economy</w>": 1195,
  "Ch": 1196,
  "Land": 1197,
  "Ziel</w>": 1198,
  "Har": 1199,
  "Christian</w>": 1200,
  "kommenden</w>": 1201,
  "Neu": 1202,
  "clear</w>": 1203,
  "ic</w>": 1204,
  "election</w>": 1205,
  "Anfang</w>": 1206,
  "ierte</w>": 1207,
  "free</w>": 1208,
  "Paul</w>": 1209,
  "Pr\u00e4sident</w>": 1210,
  "ball</w>": 1211,
  "countries</w>": 1212,
  "minister</w>": 1213,
  "klar</w>": 1214,
  "Um": 1215,
  "doing</w>": 1216,
  "wei\u00df</w>": 1217,
  "Sport": 1218,
  "near</w>": 1219,
  "getting</w>": 1220,
  "mer": 1221,
  "durch": 1222,
  "18": 1223,
  "died</w>": 1224,
  "office</w>": 1225,
  "leader</w>": 1226,
  "ck</w>": 1227,
  "ken</w>": 1228,
  "'d</w>": 1229,
  "call</w>": 1230,
  "using</w>": 1231,
  "El": 1232,
  "announced</w>": 1233,
  "besonders</w>": 1234,
  "earlier</w>": 1235,
  "feel</w>": 1236,
  "field</w>": 1237,
  "Bad</w>": 1238,
  "0": 1239,
  "based</w>": 1240,
  "Spieler</w>": 1241,
  "study</w>": 1242,
  "games</w>": 1243,
  "sagen</w>": 1244,
  "knapp</w>": 1245,
  "Einsatz</w>": 1246,
  "al-": 1247,
  "weit</w>": 1248,
  "Internet</w>": 1249,
  "ak": 1250,
  "zuletzt</w>": 1251,
  "th</w>": 1252,
  "gegeben</w>": 1253,
  "plans</w>": 1254,
  "konnten</w>": 1255,
  "her": 1256,
  "Dann</w>": 1257,
  "industry</w>": 1258,
  "record</w>": 1259,
  "ap": 1260,
  "shot</w>": 1261,
  "growth</w>": 1262,
  "Aus</w>": 1263,
  "Oktober</w>": 1264,
  "let</w>": 1265,
  "others</w>": 1266,
  "d-": 1267,
  "sicher</w>": 1268,
  "Tage</w>": 1269,
  "45</w>": 1270,
  "ischer</w>": 1271,
  "M\u00e4rz</w>": 1272,
  "St.</w>": 1273,
  "per": 1274,
  "nat\u00fcrlich</w>": 1275,
  "Mitarbeiter</w>": 1276,
  "coming</w>": 1277,
  "schwer</w>": 1278,
  "G</w>": 1279,
  "services</w>": 1280,
  "ha": 1281,
  "outside</w>": 1282,
  "June</w>": 1283,
  "fen</w>": 1284,
  "gel": 1285,
  "les</w>": 1286,
  "private</w>": 1287,
  "200</w>": 1288,
  "risk</w>": 1289,
  "played</w>": 1290,
  "bekannt</w>": 1291,
  "open</w>": 1292,
  "hinter</w>": 1293,
  "dessen</w>": 1294,
  "x</w>": 1295,
  "started</w>": 1296,
  "Um</w>": 1297,
  "Britain</w>": 1298,
  "Stunden</w>": 1299,
  "comes</w>": 1300,
  "T</w>": 1301,
  "stadt</w>": 1302,
  "Facebook</w>": 1303,
  "Politik</w>": 1304,
  "Cup</w>": 1305,
  "However</w>": 1306,
  "along</w>": 1307,
  "full</w>": 1308,
  "Juni</w>": 1309,
  "kurz</w>": 1310,
  "Geschichte</w>": 1311,
  "within</w>": 1312,
  "Eltern</w>": 1313,
  "possible</w>": 1314,
  "together</w>": 1315,
  "op": 1316,
  "nach": 1317,
  "\u00e4": 1318,
  "due</w>": 1319,
  "ig</w>": 1320,
  "return</w>": 1321,
  "person</w>": 1322,
  "sollten</w>": 1323,
  "food</w>": 1324,
  "course</w>": 1325,
  "policy</w>": 1326,
  "En": 1327,
  "Fahr": 1328,
  "minutes</w>": 1329,
  "All</w>": 1330,
  "Europe</w>": 1331,
  "doesn</w>": 1332,
  "star</w>": 1333,
  "27</w>": 1334,
  "neben</w>": 1335,
  "deren</w>": 1336,
  "issue</w>": 1337,
  "insgesamt</w>": 1338,
  "cut</w>": 1339,
  "we": 1340,
  "em</w>": 1341,
  "G\u00e4ste</w>": 1342,
  "Ger": 1343,
  "Zukunft</w>": 1344,
  "official</w>": 1345,
  "Sieg</w>": 1346,
  "executive</w>": 1347,
  "28</w>": 1348,
  "35</w>": 1349,
  "c</w>": 1350,
  "name</w>": 1351,
  "26</w>": 1352,
  "Paris</w>": 1353,
  "ft</w>": 1354,
  "ka</w>": 1355,
  "pro</w>": 1356,
  "While</w>": 1357,
  "findet</w>": 1358,
  "_</w>": 1359,
  "geh\u00f6rt</w>": 1360,
  "Bild</w>": 1361,
  "Gruppe</w>": 1362,
  "ut": 1363,
  "Ort</w>": 1364,
  "body</w>": 1365,
  "ach</w>": 1366,
  "sen": 1367,
  "social</w>": 1368,
  "share</w>": 1369,
  "ling</w>": 1370,
  "ley</w>": 1371,
  "data</w>": 1372,
  "ons</w>": 1373,
  "bad</w>": 1374,
  "control</w>": 1375,
  "jeder</w>": 1376,
  "red</w>": 1377,
  "Dr.</w>": 1378,
  "ere</w>": 1379,
  "genau</w>": 1380,
  "deshalb</w>": 1381,
  "lang</w>": 1382,
  "Schule</w>": 1383,
  "ton</w>": 1384,
  "20": 1385,
  "om": 1386,
  "fahren</w>": 1387,
  "70</w>": 1388,
  "wanted</w>": 1389,
  "Se": 1390,
  "kind</w>": 1391,
  "Zu": 1392,
  "co": 1393,
  "vote</w>": 1394,
  "oil</w>": 1395,
  "Car": 1396,
  "hin</w>": 1397,
  "Iran</w>": 1398,
  "damals</w>": 1399,
  "Seite</w>": 1400,
  "est</w>": 1401,
  "1.": 1402,
  "Verein</w>": 1403,
  "continue</w>": 1404,
  "Merkel</w>": 1405,
  "video</w>": 1406,
  "leben</w>": 1407,
  "try</w>": 1408,
  "role</w>": 1409,
  "quarter</w>": 1410,
  "began</w>": 1411,
  "Punkte</w>": 1412,
  "low</w>": 1413,
  "80</w>": 1414,
  "Gemeinde</w>": 1415,
  "Clinton</w>": 1416,
  "mo": 1417,
  "story</w>": 1418,
  "Nur</w>": 1419,
  "strong</w>": 1420,
  "mer</w>": 1421,
  "meeting</w>": 1422,
  "Kinder": 1423,
  "whose</w>": 1424,
  "To</w>": 1425,
  "level</w>": 1426,
  "Australian</w>": 1427,
  "bit</w>": 1428,
  "federal</w>": 1429,
  "released</w>": 1430,
  "ung": 1431,
  "Entscheidung</w>": 1432,
  "White</w>": 1433,
  "weiteren</w>": 1434,
  "ben</w>": 1435,
  "Berliner</w>": 1436,
  "sa": 1437,
  "Bre": 1438,
  "stark</w>": 1439,
  "mother</w>": 1440,
  "sales</w>": 1441,
  "elle</w>": 1442,
  "problem</w>": 1443,
  "do": 1444,
  "90</w>": 1445,
  "m\u00fcsse</w>": 1446,
  "Beim</w>": 1447,
  "sieben</w>": 1448,
  "mehrere</w>": 1449,
  "Richtung</w>": 1450,
  "James</w>": 1451,
  "Juli</w>": 1452,
  "large</w>": 1453,
  "interest</w>": 1454,
  "history</w>": 1455,
  "ted</w>": 1456,
  "Erfolg</w>": 1457,
  "alte</w>": 1458,
  "action</w>": 1459,
  "fer": 1460,
  "M\u00e4nner</w>": 1461,
  "gebracht</w>": 1462,
  "Jugend": 1463,
  "price</w>": 1464,
  "00</w>": 1465,
  "current</w>": 1466,
  "room</w>": 1467,
  "ze</w>": 1468,
  "Some</w>": 1469,
  "fire</w>": 1470,
  "verletzt</w>": 1471,
  "platz</w>": 1472,
  "cost</w>": 1473,
  "nen</w>": 1474,
  "Co": 1475,
  "alten</w>": 1476,
  "Auto</w>": 1477,
  "C</w>": 1478,
  "Fans</w>": 1479,
  "ie": 1480,
  "form</w>": 1481,
  "zeit</w>": 1482,
  "key</w>": 1483,
  "zuvor</w>": 1484,
  "Ber": 1485,
  "fact</w>": 1486,
  "love</w>": 1487,
  "erhalten</w>": 1488,
  "Di": 1489,
  "child</w>": 1490,
  "Hier</w>": 1491,
  "global</w>": 1492,
  "eher</w>": 1493,
  "che</w>": 1494,
  "ach": 1495,
  "himself</w>": 1496,
  "berichtet</w>": 1497,
  "spokesman</w>": 1498,
  "y-": 1499,
  "Blick</w>": 1500,
  "gegen\u00fcber</w>": 1501,
  "Grund</w>": 1502,
  "Jetzt</w>": 1503,
  "Last</w>": 1504,
  "Russia</w>": 1505,
  "wrote</w>": 1506,
  "nearly</w>": 1507,
  "Tagen</w>": 1508,
  "darf</w>": 1509,
  "morning</w>": 1510,
  "pre": 1511,
  "31</w>": 1512,
  "w</w>": 1513,
  "Dollar</w>": 1514,
  "Jahres</w>": 1515,
  "Gro\u00df": 1516,
  "fer</w>": 1517,
  "Art</w>": 1518,
  "innen</w>": 1519,
  "Pro": 1520,
  "zudem</w>": 1521,
  "front</w>": 1522,
  "kleinen</w>": 1523,
  "\u00e9</w>": 1524,
  "ts": 1525,
  "h\u00e4lt</w>": 1526,
  "Kar": 1527,
  "Region</w>": 1528,
  "board</w>": 1529,
  "order</w>": 1530,
  "ul": 1531,
  "Israel</w>": 1532,
  "Bis</w>": 1533,
  "By</w>": 1534,
  "eigentlich</w>": 1535,
  "air</w>": 1536,
  "tw": 1537,
  "saw</w>": 1538,
  "lie\u00df</w>": 1539,
  "berger</w>": 1540,
  "II</w>": 1541,
  "rather</w>": 1542,
  "increase</w>": 1543,
  "shows</w>": 1544,
  "staff</w>": 1545,
  "process</w>": 1546,
  "1": 1547,
  "building</w>": 1548,
  "Or": 1549,
  "research</w>": 1550,
  "v</w>": 1551,
  "community</w>": 1552,
  "stellt</w>": 1553,
  "July</w>": 1554,
  "position</w>": 1555,
  "Dort</w>": 1556,
  "ad</w>": 1557,
  "program</w>": 1558,
  "Sch\u00fcler</w>": 1559,
  "stellte</w>": 1560,
  "Mitglieder</w>": 1561,
  "eb": 1562,
  "R\u00fcck": 1563,
  "Street</w>": 1564,
  "forward</w>": 1565,
  "Deutsche</w>": 1566,
  "Partei</w>": 1567,
  "hand</w>": 1568,
  "Abend</w>": 1569,
  "du</w>": 1570,
  "ds</w>": 1571,
  "playing</w>": 1572,
  "Nicht</w>": 1573,
  "reports</w>": 1574,
  "France</w>": 1575,
  "prices</w>": 1576,
  "Chef</w>": 1577,
  "ahead</w>": 1578,
  "Zahl</w>": 1579,
  "eln</w>": 1580,
  "Department</w>": 1581,
  "capital</w>": 1582,
  "geworden</w>": 1583,
  "Twitter</w>": 1584,
  "Con": 1585,
  "wife</w>": 1586,
  "rights</w>": 1587,
  "leaders</w>": 1588,
  "dar\u00fcber</w>": 1589,
  "Scotland</w>": 1590,
  "burg</w>": 1591,
  "X": 1592,
  "seven</w>": 1593,
  "Besucher</w>": 1594,
  "Programm</w>": 1595,
  "match</w>": 1596,
  "Januar</w>": 1597,
  "Los</w>": 1598,
  "book</w>": 1599,
  "he": 1600,
  "f\u00fchren</w>": 1601,
  "unsere</w>": 1602,
  "meisten</w>": 1603,
  "2": 1604,
  "Dezember</w>": 1605,
  "Bundes": 1606,
  "wissen</w>": 1607,
  "Nacht</w>": 1608,
  "ho": 1609,
  "Nach": 1610,
  "K</w>": 1611,
  "Lo": 1612,
  "junge</w>": 1613,
  "ating</w>": 1614,
  "ig": 1615,
  "kamen</w>": 1616,
  "town</w>": 1617,
  "1,": 1618,
  "became</w>": 1619,
  "Th": 1620,
  "liegen</w>": 1621,
  "Court</w>": 1622,
  "evidence</w>": 1623,
  "dorf</w>": 1624,
  "Park</w>": 1625,
  "sure</w>": 1626,
  "W</w>": 1627,
  "ange": 1628,
  "Mit": 1629,
  "father</w>": 1630,
  "AP</w>": 1631,
  "ff": 1632,
  "art</w>": 1633,
  "dis": 1634,
  "Robert</w>": 1635,
  "P</w>": 1636,
  "dagegen</w>": 1637,
  "manager</w>": 1638,
  "makes</w>": 1639,
  "Haupt": 1640,
  "con": 1641,
  "Ho": 1642,
  "bau": 1643,
  "ige</w>": 1644,
  "machte</w>": 1645,
  "Monaten</w>": 1646,
  "site</w>": 1647,
  "ern": 1648,
  "include</w>": 1649,
  "zufolge</w>": 1650,
  "International</w>": 1651,
  "loss</w>": 1652,
  "di</w>": 1653,
  "result</w>": 1654,
  "W\u00e4hrend</w>": 1655,
  "chance</w>": 1656,
  "ina</w>": 1657,
  "V</w>": 1658,
  "Man": 1659,
  "cher</w>": 1660,
  "zeigen</w>": 1661,
  "29</w>": 1662,
  "Now</w>": 1663,
  "recently</w>": 1664,
  "tr": 1665,
  "stop</w>": 1666,
  "Zudem</w>": 1667,
  "2006</w>": 1668,
  "gemeinsam</w>": 1669,
  "Japan</w>": 1670,
  "forces</w>": 1671,
  "m\u00f6chte</w>": 1672,
  "hin": 1673,
  "So": 1674,
  "over": 1675,
  "George</w>": 1676,
  "results</w>": 1677,
  "id</w>": 1678,
  "wirklich</w>": 1679,
  "richtig</w>": 1680,
  "Frankfurt</w>": 1681,
  "ell</w>": 1682,
  "phone</w>": 1683,
  "B\u00fcrger": 1684,
  "feld</w>": 1685,
  "Times</w>": 1686,
  "Reuters</w>": 1687,
  "wer</w>": 1688,
  "ierten</w>": 1689,
  "erneut</w>": 1690,
  "Nachrichten</w>": 1691,
  "neu</w>": 1692,
  "event</w>": 1693,
  "H\u00f6he</w>": 1694,
  "couple</w>": 1695,
  "Viele</w>": 1696,
  "alen</w>": 1697,
  "\u00d6sterreich</w>": 1698,
  "parents</w>": 1699,
  "ings</w>": 1700,
  "leave</w>": 1701,
  "par": 1702,
  "Ma": 1703,
  "black</w>": 1704,
  "biggest</w>": 1705,
  "and": 1706,
  "students</w>": 1707,
  "January</w>": 1708,
  "Leute</w>": 1709,
  "Par": 1710,
  "seines</w>": 1711,
  "Au\u00dferdem</w>": 1712,
  "gave</w>": 1713,
  "E</w>": 1714,
  "We": 1715,
  "mon": 1716,
  "Fl\u00fcchtlinge</w>": 1717,
  "energy</w>": 1718,
  "means</w>": 1719,
  "erwartet</w>": 1720,
  "French</w>": 1721,
  "bislang</w>": 1722,
  "tet</w>": 1723,
  "leading</w>": 1724,
  "period</w>": 1725,
  "investigation</w>": 1726,
  "Republican</w>": 1727,
  "man": 1728,
  "eight</w>": 1729,
  "jeden</w>": 1730,
  "beide</w>": 1731,
  "B\u00fcrger</w>": 1732,
  "higher</w>": 1733,
  "recht</w>": 1734,
  "workers</w>": 1735,
  "groups</w>": 1736,
  "fans</w>": 1737,
  "all": 1738,
  "Wochenende</w>": 1739,
  "anders</w>": 1740,
  "issues</w>": 1741,
  "race</w>": 1742,
  "rates</w>": 1743,
  "He": 1744,
  "player</w>": 1745,
  "Februar</w>": 1746,
  "Kosten</w>": 1747,
  "experience</w>": 1748,
  "involved</w>": 1749,
  "general</w>": 1750,
  "ou": 1751,
  "ed": 1752,
  "Nun</w>": 1753,
  "total</w>": 1754,
  "Projekt</w>": 1755,
  "region</w>": 1756,
  "friends</w>": 1757,
  "stelle</w>": 1758,
  "crisis</w>": 1759,
  "Wahl</w>": 1760,
  "received</w>": 1761,
  "nation</w>": 1762,
  "ser": 1763,
  "offer</w>": 1764,
  "daran</w>": 1765,
  "Bereich</w>": 1766,
  "pe": 1767,
  "ies</w>": 1768,
  "provide</w>": 1769,
  "legal</w>": 1770,
  "pro": 1771,
  "sel": 1772,
  "\u00fc": 1773,
  "je</w>": 1774,
  "Musik</w>": 1775,
  "wichtig</w>": 1776,
  "BBC</w>": 1777,
  "schlie\u00dflich</w>": 1778,
  "average</w>": 1779,
  "paar</w>": 1780,
  "problems</w>": 1781,
  "Minute</w>": 1782,
  "ir": 1783,
  "N</w>": 1784,
  "foreign</w>": 1785,
  "available</w>": 1786,
  "Me": 1787,
  "anything</w>": 1788,
  "Wasser": 1789,
  "gesch": 1790,
  "ziehen</w>": 1791,
  "Dies</w>": 1792,
  "authorities</w>": 1793,
  "net</w>": 1794,
  "Du": 1795,
  "despite</w>": 1796,
  "stage</w>": 1797,
  "Chinese</w>": 1798,
  "nothing</w>": 1799,
  "licher</w>": 1800,
  "My</w>": 1801,
  "latest</w>": 1802,
  "ve</w>": 1803,
  "teilte</w>": 1804,
  "human</w>": 1805,
  "running</w>": 1806,
  "showed</w>": 1807,
  "coach</w>": 1808,
  ".com</w>": 1809,
  "Polizei": 1810,
  "goal</w>": 1811,
  "besten</w>": 1812,
  "needs</w>": 1813,
  "frei</w>": 1814,
  "zur\u00fcck": 1815,
  "kleine</w>": 1816,
  "jobs</w>": 1817,
  "gebe</w>": 1818,
  "December</w>": 1819,
  "hope</w>": 1820,
  "ur</w>": 1821,
  "sent</w>": 1822,
  "needed</w>": 1823,
  "member</w>": 1824,
  "Rolle</w>": 1825,
  "Mitte</w>": 1826,
  "senior</w>": 1827,
  "hospital</w>": 1828,
  "potential</w>": 1829,
  "end": 1830,
  "ding</w>": 1831,
  "career</w>": 1832,
  "Beginn</w>": 1833,
  "Problem</w>": 1834,
  "Sommer</w>": 1835,
  "Ergebnis</w>": 1836,
  "zweite</w>": 1837,
  "ik": 1838,
  "voll</w>": 1839,
  "situation</w>": 1840,
  "to": 1841,
  "however</w>": 1842,
  "California</w>": 1843,
  "2.</w>": 1844,
  "Film</w>": 1845,
  "force</w>": 1846,
  "question</w>": 1847,
  "gern</w>": 1848,
  "trotz</w>": 1849,
  "ken": 1850,
  "Mark</w>": 1851,
  "Allerdings</w>": 1852,
  "Ko": 1853,
  "est": 1854,
  "Po": 1855,
  "Probleme</w>": 1856,
  "Mon": 1857,
  "Mutter</w>": 1858,
  "someone</w>": 1859,
  "guten</w>": 1860,
  "d\u00fcrfen</w>": 1861,
  "turn</w>": 1862,
  "Angeles</w>": 1863,
  "lose</w>": 1864,
  "nimmt</w>": 1865,
  "costs</w>": 1866,
  "schule</w>": 1867,
  "Sport</w>": 1868,
  "-J\u00e4hrige</w>": 1869,
  "Go": 1870,
  "berichtete</w>": 1871,
  "turned</w>": 1872,
  "verein</w>": 1873,
  "states</w>": 1874,
  "rise</w>": 1875,
  "visit</w>": 1876,
  "Ste": 1877,
  "San</w>": 1878,
  "ster": 1879,
  "ens": 1880,
  "Fest": 1881,
  "test</w>": 1882,
  "ations</w>": 1883,
  "main</w>": 1884,
  "lives</w>": 1885,
  "ters</w>": 1886,
  "res</w>": 1887,
  "j\u00e4hrigen</w>": 1888,
  "wasn</w>": 1889,
  "elt</w>": 1890,
  "moment</w>": 1891,
  "difficult</w>": 1892,
  "Party</w>": 1893,
  "spent</w>": 1894,
  "einigen</w>": 1895,
  "Hilfe</w>": 1896,
  "Wal": 1897,
  "F\u00fchrung</w>": 1898,
  "ian</w>": 1899,
  "performance</w>": 1900,
  "list</w>": 1901,
  "Daniel</w>": 1902,
  "Wasser</w>": 1903,
  "300</w>": 1904,
  "Russian</w>": 1905,
  "gas</w>": 1906,
  "pressure</w>": 1907,
  "ums</w>": 1908,
  "training</w>": 1909,
  "fell</w>": 1910,
  "fight</w>": 1911,
  "ene</w>": 1912,
  "Zwei</w>": 1913,
  "mis": 1914,
  "Andreas</w>": 1915,
  "\u00dcber</w>": 1916,
  "f\u00fchrt</w>": 1917,
  "Wahl": 1918,
  "EU-": 1919,
  "Google</w>": 1920,
  "spielt</w>": 1921,
  "Informationen</w>": 1922,
  "actually</w>": 1923,
  "spending</w>": 1924,
  "summer</w>": 1925,
  "hoch</w>": 1926,
  "ei": 1927,
  "lingen</w>": 1928,
  "Wohn": 1929,
  "These</w>": 1930,
  "paid</w>": 1931,
  "ps</w>": 1932,
  "Musik": 1933,
  "Chance</w>": 1934,
  "zahlen</w>": 1935,
  "Ms</w>": 1936,
  "no": 1937,
  "ra</w>": 1938,
  "spiel</w>": 1939,
  "worked</w>": 1940,
  "bring</w>": 1941,
  "ex": 1942,
  "white</w>": 1943,
  "zeigte</w>": 1944,
  "enk": 1945,
  "ms</w>": 1946,
  "Unter</w>": 1947,
  "Qu": 1948,
  "Kreis</w>": 1949,
  "igen</w>": 1950,
  "Namen</w>": 1951,
  "Orts": 1952,
  "gro\u00df</w>": 1953,
  "Afghanistan</w>": 1954,
  "worth</w>": 1955,
  "tern</w>": 1956,
  "me": 1957,
  "inzwischen</w>": 1958,
  "probably</w>": 1959,
  "heard</w>": 1960,
  "idea</w>": 1961,
  "gefunden</w>": 1962,
  "living</w>": 1963,
  "zer</w>": 1964,
  "Hamburg</w>": 1965,
  "Hand</w>": 1966,
  "ground</w>": 1967,
  "sport</w>": 1968,
  "attacks</w>": 1969,
  "offenbar</w>": 1970,
  "gestellt</w>": 1971,
  "Mehr</w>": 1972,
  "themselves</w>": 1973,
  "music</w>": 1974,
  "ard</w>": 1975,
  "setzen</w>": 1976,
  "areas</w>": 1977,
  "ty</w>": 1978,
  "Feuerwehr</w>": 1979,
  "Titel</w>": 1980,
  "Tor</w>": 1981,
  "Lu": 1982,
  "-B": 1983,
  "M\u00fcller</w>": 1984,
  "bel": 1985,
  "tt": 1986,
  "claims</w>": 1987,
  "jungen</w>": 1988,
  "ier": 1989,
  "Ne": 1990,
  "Hoch": 1991,
  "Laut</w>": 1992,
  "fallen</w>": 1993,
  "Rad": 1994,
  "hold</w>": 1995,
  "Stuttgart</w>": 1996,
  "Wirtschaft</w>": 1997,
  "Frank</w>": 1998,
  "Entwicklung</w>": 1999,
  "met</w>": 2000,
  "ous</w>": 2001,
  "administration</w>": 2002,
  "Cor": 2003,
  "round</w>": 2004,
  "bl": 2005,
  "victory</w>": 2006,
  "ma": 2007,
  "lin": 2008,
  "32</w>": 2009,
  "hausen</w>": 2010,
  "Apple</w>": 2011,
  "d\u00fcrfte</w>": 2012,
  "Schon</w>": 2013,
  "ell": 2014,
  "Russland</w>": 2015,
  "Bu": 2016,
  "Kunden</w>": 2017,
  "remains</w>": 2018,
  "wer": 2019,
  "charges</w>": 2020,
  "leicht</w>": 2021,
  "=</w>": 2022,
  "allein</w>": 2023,
  "October</w>": 2024,
  "eben</w>": 2025,
  "technology</w>": 2026,
  "Am": 2027,
  "published</w>": 2028,
  "interview</w>": 2029,
  "lower</w>": 2030,
  "eigene</w>": 2031,
  "changes</w>": 2032,
  "born</w>": 2033,
  "M</w>": 2034,
  "soon</w>": 2035,
  "geb": 2036,
  "Center</w>": 2037,
  "Iraq</w>": 2038,
  "short</w>": 2039,
  "Kon": 2040,
  "erstmals</w>": 2041,
  "Noch</w>": 2042,
  "release</w>": 2043,
  "Ob</w>": 2044,
  "cases</w>": 2045,
  "ru": 2046,
  "Fragen</w>": 2047,
  "sc": 2048,
  "mar": 2049,
  "hie\u00df</w>": 2050,
  "Kilometer</w>": 2051,
  "mussten</w>": 2052,
  "-T": 2053,
  "Markt</w>": 2054,
  "ce</w>": 2055,
  "Dazu</w>": 2056,
  "bill</w>": 2057,
  "zusammen": 2058,
  "amt</w>": 2059,
  "personal</w>": 2060,
  "Br": 2061,
  "Lage</w>": 2062,
  "F</w>": 2063,
  "ally</w>": 2064,
  "felt</w>": 2065,
  "schen</w>": 2066,
  "ates</w>": 2067,
  "mindestens</w>": 2068,
  "Situation</w>": 2069,
  "Sh": 2070,
  "officers</w>": 2071,
  "ebenso</w>": 2072,
  "trade</w>": 2073,
  "Erst</w>": 2074,
  "ey</w>": 2075,
  "setzt</w>": 2076,
  "everything</w>": 2077,
  "weekend</w>": 2078,
  "light</w>": 2079,
  "Mc": 2080,
  "serious</w>": 2081,
  "Kritik</w>": 2082,
  "agency</w>": 2083,
  "similar</w>": 2084,
  "space</w>": 2085,
  "trial</w>": 2086,
  "matter</w>": 2087,
  "development</w>": 2088,
  "vielleicht</w>": 2089,
  "Alle</w>": 2090,
  "que</w>": 2091,
  "ender</w>": 2092,
  "Grund": 2093,
  "k\u00fcnftig</w>": 2094,
  "rest</w>": 2095,
  "Wien</w>": 2096,
  "wants</w>": 2097,
  "eren</w>": 2098,
  "pp": 2099,
  "id": 2100,
  "investment</w>": 2101,
  "Germany</w>": 2102,
  "East</w>": 2103,
  "single</w>": 2104,
  "conference</w>": 2105,
  "remain</w>": 2106,
  "Artikel</w>": 2107,
  "betonte</w>": 2108,
  "fest": 2109,
  "enz": 2110,
  "zen</w>": 2111,
  "l\u00e4uft</w>": 2112,
  "inside</w>": 2113,
  "football</w>": 2114,
  "Alexander</w>": 2115,
  "av": 2116,
  "*</w>": 2117,
  "brought</w>": 2118,
  "verloren</w>": 2119,
  "Wolfgang</w>": 2120,
  "ier</w>": 2121,
  "weiterhin</w>": 2122,
  "Unterst\u00fctzung</w>": 2123,
  "special</w>": 2124,
  "Fach": 2125,
  "erz\u00e4hlt</w>": 2126,
  "unserer</w>": 2127,
  "Neben</w>": 2128,
  "talk</w>": 2129,
  "del</w>": 2130,
  "ic": 2131,
  "heart</w>": 2132,
  "firm</w>": 2133,
  "park</w>": 2134,
  "longer</w>": 2135,
  "banks</w>": 2136,
  "gh": 2137,
  "men": 2138,
  "Gericht</w>": 2139,
  "Personen</w>": 2140,
  "ways</w>": 2141,
  "un</w>": 2142,
  "Mittel": 2143,
  "pl": 2144,
  "Opfer</w>": 2145,
  "ausge": 2146,
  "ended</w>": 2147,
  "largest</w>": 2148,
  "Not</w>": 2149,
  "accused</w>": 2150,
  "gr": 2151,
  "10": 2152,
  "stein</w>": 2153,
  "described</w>": 2154,
  "Hand": 2155,
  "Syria</w>": 2156,
  "helped</w>": 2157,
  "tried</w>": 2158,
  "Gr\u00fcnen</w>": 2159,
  "view</w>": 2160,
  "thousands</w>": 2161,
  "fo": 2162,
  "\u00a9</w>": 2163,
  "ben": 2164,
  "vo": 2165,
  "Finanz": 2166,
  "positive</w>": 2167,
  "gi": 2168,
  "meine</w>": 2169,
  "dritten</w>": 2170,
  "tell</w>": 2171,
  "quite</w>": 2172,
  "markets</w>": 2173,
  "lag</w>": 2174,
  "everyone</w>": 2175,
  "happened</w>": 2176,
  "on-": 2177,
  "Ex-": 2178,
  "whole</w>": 2179,
  "stay</w>": 2180,
  "Senate</w>": 2181,
  "Americans</w>": 2182,
  "dead</w>": 2183,
  "project</w>": 2184,
  "Wirtschafts": 2185,
  "da": 2186,
  "kl": 2187,
  "previous</w>": 2188,
  "February</w>": 2189,
  "Ihr</w>": 2190,
  "ats</w>": 2191,
  "customers</w>": 2192,
  "2005</w>": 2193,
  "daughter</w>": 2194,
  "\u00fcberhaupt</w>": 2195,
  "patients</w>": 2196,
  "Partie</w>": 2197,
  "especially</w>": 2198,
  "ganze</w>": 2199,
  "ability</w>": 2200,
  "Start</w>": 2201,
  "income</w>": 2202,
  "art": 2203,
  "gerne</w>": 2204,
  "Tra": 2205,
  "huge</w>": 2206,
  "IS": 2207,
  "break</w>": 2208,
  "gang</w>": 2209,
  "re</w>": 2210,
  "drug</w>": 2211,
  "letzte</w>": 2212,
  "ges": 2213,
  "blieb</w>": 2214,
  "jeweils</w>": 2215,
  "Brown</w>": 2216,
  "Labour</w>": 2217,
  "significant</w>": 2218,
  "seems</w>": 2219,
  "chen": 2220,
  "ks</w>": 2221,
  "Kultur": 2222,
  "cht</w>": 2223,
  "impact</w>": 2224,
  "K\u00f6ln</w>": 2225,
  "M\u00e4dchen</w>": 2226,
  "station</w>": 2227,
  "violence</w>": 2228,
  "Sprecher</w>": 2229,
  "Vater</w>": 2230,
  "ob": 2231,
  "Fahrer</w>": 2232,
  "West": 2233,
  "A-": 2234,
  "Ha": 2235,
  "meet</w>": 2236,
  "failed</w>": 2237,
  "il</w>": 2238,
  "Sein</w>": 2239,
  "Monate</w>": 2240,
  "Pre": 2241,
  "33</w>": 2242,
  "access</w>": 2243,
  "medical</w>": 2244,
  "families</w>": 2245,
  "growing</w>": 2246,
  "fe</w>": 2247,
  "B\u00fchne</w>": 2248,
  "Bi": 2249,
  "2000</w>": 2250,
  "Smith</w>": 2251,
  "Preis</w>": 2252,
  "officer</w>": 2253,
  "Kindern</w>": 2254,
  "Gar": 2255,
  "How</w>": 2256,
  "nuclear</w>": 2257,
  "management</w>": 2258,
  "arrested</w>": 2259,
  "road</w>": 2260,
  "tion</w>": 2261,
  "kosten</w>": 2262,
  "bu": 2263,
  "direkt</w>": 2264,
  "People</w>": 2265,
  "Seine</w>": 2266,
  "leiter</w>": 2267,
  "although</w>": 2268,
  "eng": 2269,
  "Gespr\u00e4ch</w>": 2270,
  "Druck</w>": 2271,
  "Group</w>": 2272,
  "Wei": 2273,
  "Sozial": 2274,
  "2.": 2275,
  "Verf\u00fcgung</w>": 2276,
  "auer</w>": 2277,
  "solche</w>": 2278,
  "debt</w>": 2279,
  "inter": 2280,
  "budget</w>": 2281,
  "sofort</w>": 2282,
  "Ukraine</w>": 2283,
  "Kind</w>": 2284,
  "mel": 2285,
  "Tor": 2286,
  "eh": 2287,
  "einge": 2288,
  "No": 2289,
  "appeared</w>": 2290,
  "Haus": 2291,
  "allowed</w>": 2292,
  "SC</w>": 2293,
  "Vorsitzende</w>": 2294,
  "ik</w>": 2295,
  "genommen</w>": 2296,
  "setzte</w>": 2297,
  "Stefan</w>": 2298,
  "Congress</w>": 2299,
  "Richard</w>": 2300,
  "fl": 2301,
  "ich": 2302,
  "zumindest</w>": 2303,
  "75</w>": 2304,
  "\u00e0</w>": 2305,
  "laufen</w>": 2306,
  "up": 2307,
  "ator</w>": 2308,
  "isn</w>": 2309,
  "q": 2310,
  "cause</w>": 2311,
  "either</w>": 2312,
  "production</w>": 2313,
  "anyone</w>": 2314,
  "products</w>": 2315,
  "War": 2316,
  "talks</w>": 2317,
  "spricht</w>": 2318,
  "India</w>": 2319,
  "gewinnen</w>": 2320,
  "Chris</w>": 2321,
  "neun</w>": 2322,
  "in-": 2323,
  "Publikum</w>": 2324,
  "gruppe</w>": 2325,
  "55</w>": 2326,
  "Li": 2327,
  "questions</w>": 2328,
  "buy</w>": 2329,
  "T\u00e4ter</w>": 2330,
  "More</w>": 2331,
  "unterwegs</w>": 2332,
  "for": 2333,
  "tz": 2334,
  "safety</w>": 2335,
  "ity</w>": 2336,
  "Mal": 2337,
  "looked</w>": 2338,
  "ati": 2339,
  "gestern</w>": 2340,
  "daher</w>": 2341,
  "sense</w>": 2342,
  "Kopf</w>": 2343,
  "Min": 2344,
  "allow</w>": 2345,
  "compared</w>": 2346,
  "Donald</w>": 2347,
  "Sydney</w>": 2348,
  "Pe": 2349,
  "Kampf</w>": 2350,
  "term</w>": 2351,
  "Post</w>": 2352,
  "terms</w>": 2353,
  "fahrt</w>": 2354,
  "Ihre</w>": 2355,
  "Manchester</w>": 2356,
  "response</w>": 2357,
  "ff</w>": 2358,
  "For": 2359,
  "winning</w>": 2360,
  "Weil</w>": 2361,
  "charged</w>": 2362,
  "schaffen</w>": 2363,
  "isches</w>": 2364,
  "zer": 2365,
  "forced</w>": 2366,
  "Rahmen</w>": 2367,
  "included</w>": 2368,
  "Angebot</w>": 2369,
  "offen</w>": 2370,
  "Frankreich</w>": 2371,
  "@</w>": 2372,
  "value</w>": 2373,
  "Korea</w>": 2374,
  "car": 2375,
  "Lebens": 2376,
  "step</w>": 2377,
  "enn": 2378,
  "-J\u00e4hrigen</w>": 2379,
  "pr": 2380,
  "example</w>": 2381,
  "opposition</w>": 2382,
  "ph": 2383,
  "zug</w>": 2384,
  "particularly</w>": 2385,
  "go": 2386,
  "Jones</w>": 2387,
  "bel</w>": 2388,
  "36</w>": 2389,
  "fand</w>": 2390,
  "Folge</w>": 2391,
  "gesagt</w>": 2392,
  "34</w>": 2393,
  "Q": 2394,
  "cancer</w>": 2395,
  "schw": 2396,
  "Klein": 2397,
  "takes</w>": 2398,
  "teams</w>": 2399,
  "TSV</w>": 2400,
  "la": 2401,
  "cash</w>": 2402,
  "Lau": 2403,
  "zw\u00f6lf</w>": 2404,
  "gel</w>": 2405,
  "Bal": 2406,
  "iz": 2407,
  "welche</w>": 2408,
  "Gesellschaft</w>": 2409,
  "press</w>": 2410,
  "Coach</w>": 2411,
  "conditions</w>": 2412,
  "400</w>": 2413,
  "Per": 2414,
  "pass</w>": 2415,
  "Liga</w>": 2416,
  "U</w>": 2417,
  "ing-": 2418,
  "\u00df</w>": 2419,
  "Gegner</w>": 2420,
  "ec": 2421,
  "alt</w>": 2422,
  "range</w>": 2423,
  "ist": 2424,
  "ise</w>": 2425,
  "bald</w>": 2426,
  "bringt</w>": 2427,
  "erk": 2428,
  "nine</w>": 2429,
  "stock</w>": 2430,
  "Welt": 2431,
  "investors</w>": 2432,
  "schools</w>": 2433,
  "plus</w>": 2434,
  "so": 2435,
  "miles</w>": 2436,
  "treatment</w>": 2437,
  "calls</w>": 2438,
  "werk</w>": 2439,
  "ta": 2440,
  "General</w>": 2441,
  "Texas</w>": 2442,
  "efforts</w>": 2443,
  "Kirche</w>": 2444,
  "prison</w>": 2445,
  "Johnson</w>": 2446,
  "Dieser</w>": 2447,
  "charge</w>": 2448,
  "gesehen</w>": 2449,
  "IS</w>": 2450,
  "moved</w>": 2451,
  "tre": 2452,
  "fe": 2453,
  "County</w>": 2454,
  "Day</w>": 2455,
  "ener</w>": 2456,
  "presidential</w>": 2457,
  "focus</w>": 2458,
  "du": 2459,
  "tag</w>": 2460,
  "geplant</w>": 2461,
  "Even</w>": 2462,
  "cannot</w>": 2463,
  "Prime</w>": 2464,
  "dern</w>": 2465,
  "o-": 2466,
  "property</w>": 2467,
  "events</w>": 2468,
  "Sal": 2469,
  "ma</w>": 2470,
  "quickly</w>": 2471,
  "brachte</w>": 2472,
  "Geb\u00e4ude</w>": 2473,
  "continued</w>": 2474,
  "Hal": 2475,
  "ys</w>": 2476,
  "rules</w>": 2477,
  "Williams</w>": 2478,
  "friend</w>": 2479,
  "credit</w>": 2480,
  "Runde</w>": 2481,
  "shares</w>": 2482,
  "meister</w>": 2483,
  "Firma</w>": 2484,
  "3.</w>": 2485,
  "incident</w>": 2486,
  "pm</w>": 2487,
  "Su": 2488,
  "Mat": 2489,
  "Tochter</w>": 2490,
  "ran</w>": 2491,
  "Cameron</w>": 2492,
  "Kur": 2493,
  "comment</w>": 2494,
  "ment</w>": 2495,
  "markt</w>": 2496,
  "liches</w>": 2497,
  "Au": 2498,
  "17": 2499,
  "voters</w>": 2500,
  "ven": 2501,
  "Two</w>": 2502,
  "nachdem</w>": 2503,
  "create</w>": 2504,
  "Club</w>": 2505,
  "ann": 2506,
  "Deshalb</w>": 2507,
  "Hause</w>": 2508,
  "currently</w>": 2509,
  "treffen</w>": 2510,
  "ir</w>": 2511,
  "Ball</w>": 2512,
  "popular</w>": 2513,
  "out": 2514,
  "ang": 2515,
  "nahm</w>": 2516,
  "opening</w>": 2517,
  "hoch": 2518,
  "under": 2519,
  "cap": 2520,
  "sprach</w>": 2521,
  "decided</w>": 2522,
  "ges</w>": 2523,
  "isten</w>": 2524,
  "gest": 2525,
  "lage</w>": 2526,
  "iger</w>": 2527,
  "reason</w>": 2528,
  "wolle</w>": 2529,
  "ellen</w>": 2530,
  "links</w>": 2531,
  "above</w>": 2532,
  "Durch</w>": 2533,
  "danach</w>": 2534,
  "\u00d6": 2535,
  "bereich</w>": 2536,
  "Zuschauer</w>": 2537,
  "increased</w>": 2538,
  "claimed</w>": 2539,
  "success</w>": 2540,
  "tt</w>": 2541,
  "Government</w>": 2542,
  "Sicherheit</w>": 2543,
  "wrong</w>": 2544,
  "To": 2545,
  "Star</w>": 2546,
  "sold</w>": 2547,
  "Staats": 2548,
  "Tom</w>": 2549,
  "works</w>": 2550,
  "scheint</w>": 2551,
  "Berg": 2552,
  "des": 2553,
  "gt</w>": 2554,
  "concerns</w>": 2555,
  "es-": 2556,
  "agreement</w>": 2557,
  "central</w>": 2558,
  "knew</w>": 2559,
  "br": 2560,
  "opportunity</w>": 2561,
  "19": 2562,
  "helfen</w>": 2563,
  "levels</w>": 2564,
  "gu": 2565,
  "fs</w>": 2566,
  "Bur": 2567,
  "Nieder": 2568,
  "wollten</w>": 2569,
  "gr\u00f6\u00dften</w>": 2570,
  "mean</w>": 2571,
  "ihres</w>": 2572,
  "Amt</w>": 2573,
  "bereit</w>": 2574,
  "agreed</w>": 2575,
  "re-": 2576,
  "Gu": 2577,
  "abge": 2578,
  "itself</w>": 2579,
  "television</w>": 2580,
  "Ru": 2581,
  "Einen</w>": 2582,
  "del": 2583,
  "believed</w>": 2584,
  "erreicht</w>": 2585,
  "giving</w>": 2586,
  "af": 2587,
  "beginnt</w>": 2588,
  "Dem</w>": 2589,
  "demand</w>": 2590,
  "Council</w>": 2591,
  "Raum</w>": 2592,
  "Arbeits": 2593,
  "neues</w>": 2594,
  "Autos</w>": 2595,
  "gone</w>": 2596,
  "homes</w>": 2597,
  "Dar": 2598,
  "politischen</w>": 2599,
  "15": 2600,
  "Volks": 2601,
  "Fu\u00dfball</w>": 2602,
  "Our</w>": 2603,
  "versch": 2604,
  "named</w>": 2605,
  "husband</w>": 2606,
  "fourth</w>": 2607,
  "St\u00fcck</w>": 2608,
  "plant</w>": 2609,
  "Tore</w>": 2610,
  "Vergleich</w>": 2611,
  "raised</w>": 2612,
  "bietet</w>": 2613,
  "via</w>": 2614,
  "su": 2615,
  "band</w>": 2616,
  "Mor": 2617,
  "Ur": 2618,
  "2004</w>": 2619,
  "effort</w>": 2620,
  "gespielt</w>": 2621,
  "debate</w>": 2622,
  "Ex": 2623,
  "Medien</w>": 2624,
  "goes</w>": 2625,
  "sign</w>": 2626,
  "war": 2627,
  "Tri": 2628,
  "erte</w>": 2629,
  "fully</w>": 2630,
  "sch</w>": 2631,
  "words</w>": 2632,
  "ci": 2633,
  "els</w>": 2634,
  "16": 2635,
  "Bush</w>": 2636,
  "happy</w>": 2637,
  "Republicans</w>": 2638,
  "tz</w>": 2639,
  "relationship</w>": 2640,
  "Fu\u00dfball-": 2641,
  "darunter</w>": 2642,
  "Sk": 2643,
  "hal": 2644,
  "vi": 2645,
  "fo</w>": 2646,
  "ko": 2647,
  "11.": 2648,
  "mittlerweile</w>": 2649,
  "kt</w>": 2650,
  "Barack</w>": 2651,
  "Gra": 2652,
  "neu": 2653,
  "king</w>": 2654,
  "Zahlen</w>": 2655,
  "Africa</w>": 2656,
  "scene</w>": 2657,
  "website</w>": 2658,
  "M\u00f6glichkeit</w>": 2659,
  "ite</w>": 2660,
  "F\u00f6rder": 2661,
  "Wil": 2662,
  "reach</w>": 2663,
  "ierung</w>": 2664,
  "ana</w>": 2665,
  "Nord": 2666,
  "Schritt</w>": 2667,
  "v\u00f6llig</w>": 2668,
  "Zeit": 2669,
  "gef\u00fchrt</w>": 2670,
  "review</w>": 2671,
  "Form</w>": 2672,
  "38</w>": 2673,
  "travel</w>": 2674,
  "tats\u00e4chlich</w>": 2675,
  "revealed</w>": 2676,
  "non-": 2677,
  "sm": 2678,
  "CNN</w>": 2679,
  "ile</w>": 2680,
  "title</w>": 2681,
  "braucht</w>": 2682,
  "looks</w>": 2683,
  "annual</w>": 2684,
  "beispielsweise</w>": 2685,
  "fordert</w>": 2686,
  "ler": 2687,
  "Unfall</w>": 2688,
  "education</w>": 2689,
  "instead</w>": 2690,
  "Landes</w>": 2691,
  "girl</w>": 2692,
  "weise</w>": 2693,
  "H\u00e4lfte</w>": 2694,
  "Wer": 2695,
  "oben</w>": 2696,
  "Landkreis</w>": 2697,
  "rose</w>": 2698,
  "Teilnehmer</w>": 2699,
  "aten</w>": 2700,
  "According</w>": 2701,
  "48</w>": 2702,
  "read</w>": 2703,
  "S\u00fcd": 2704,
  "10.": 2705,
  "Scottish</w>": 2706,
  "ran": 2707,
  "Niederlage</w>": 2708,
  "Her</w>": 2709,
  "Insgesamt</w>": 2710,
  "self-": 2711,
  "hr": 2712,
  "Fre": 2713,
  "Democrats</w>": 2714,
  "f\u00fchrte</w>": 2715,
  "genug</w>": 2716,
  "n\u00e4chste</w>": 2717,
  "certain</w>": 2718,
  "tigen</w>": 2719,
  "act</w>": 2720,
  "schaft</w>": 2721,
  "gr\u00f6\u00dfte</w>": 2722,
  "Ad": 2723,
  "Gesch\u00e4ftsf\u00fchrer</w>": 2724,
  "confirmed</w>": 2725,
  "message</w>": 2726,
  "simply</w>": 2727,
  "att": 2728,
  "mp": 2729,
  "Verkehrs": 2730,
  "ones</w>": 2731,
  "figures</w>": 2732,
  "cker</w>": 2733,
  "sah</w>": 2734,
  "War</w>": 2735,
  "else</w>": 2736,
  "tu": 2737,
  "Bilder</w>": 2738,
  "Tod</w>": 2739,
  "Gegen</w>": 2740,
  "hour</w>": 2741,
  "ep": 2742,
  "jede</w>": 2743,
  "Spiele</w>": 2744,
  "44</w>": 2745,
  "ren": 2746,
  "German</w>": 2747,
  "lu": 2748,
  "van</w>": 2749,
  "account</w>": 2750,
  "Putin</w>": 2751,
  "ei</w>": 2752,
  "Premier</w>": 2753,
  "Florida</w>": 2754,
  "Gen": 2755,
  "post</w>": 2756,
  "expect</w>": 2757,
  "judge</w>": 2758,
  "min": 2759,
  "quality</w>": 2760,
  "boy</w>": 2761,
  "ders</w>": 2762,
  "anti-": 2763,
  "L\u00e4ndern</w>": 2764,
  "amount</w>": 2765,
  "operations</w>": 2766,
  "Alter</w>": 2767,
  "J\u00fcrgen</w>": 2768,
  "pretty</w>": 2769,
  "sex</w>": 2770,
  "ves</w>": 2771,
  "Many</w>": 2772,
  "Experten</w>": 2773,
  "cke</w>": 2774,
  "m\u00fcssten</w>": 2775,
  "ta</w>": 2776,
  "fi": 2777,
  "37</w>": 2778,
  "beat</w>": 2779,
  "enen</w>": 2780,
  "T\u00fcrkei</w>": 2781,
  "Buch</w>": 2782,
  "Sicht</w>": 2783,
  "Idee</w>": 2784,
  "Bericht</w>": 2785,
  "bei": 2786,
  "gebiet</w>": 2787,
  "majority</w>": 2788,
  "42</w>": 2789,
  "Democratic</w>": 2790,
  "150</w>": 2791,
  "f\u00e4llt</w>": 2792,
  "leaving</w>": 2793,
  "hohen</w>": 2794,
  "Image</w>": 2795,
  "politische</w>": 2796,
  "numbers</w>": 2797,
  "Staatsanwaltschaft</w>": 2798,
  "challenge</w>": 2799,
  "partner</w>": 2800,
  "eller</w>": 2801,
  "caused</w>": 2802,
  "dienst</w>": 2803,
  "Daf\u00fcr</w>": 2804,
  "Do": 2805,
  "Wald": 2806,
  "Health</w>": 2807,
  "ary</w>": 2808,
  "Kraft</w>": 2809,
  "geh\u00f6ren</w>": 2810,
  "build</w>": 2811,
  "Pakistan</w>": 2812,
  "minute</w>": 2813,
  "scored</w>": 2814,
  "victims</w>": 2815,
  "gewonnen</w>": 2816,
  "Video</w>": 2817,
  "Museum</w>": 2818,
  "Markus</w>": 2819,
  "followed</w>": 2820,
  "Angela</w>": 2821,
  "Stein": 2822,
  "bar": 2823,
  "ationen</w>": 2824,
  "L\u00e4nder</w>": 2825,
  "speech</w>": 2826,
  "understand</w>": 2827,
  "Fu\u00dfball": 2828,
  "King</w>": 2829,
  "bau</w>": 2830,
  "Kollegen</w>": 2831,
  "14": 2832,
  "Die": 2833,
  "common</w>": 2834,
  "neuer</w>": 2835,
  "H</w>": 2836,
  "hinaus</w>": 2837,
  "ors</w>": 2838,
  "Wert</w>": 2839,
  "sonst</w>": 2840,
  "ver</w>": 2841,
  "attention</w>": 2842,
  "extra</w>": 2843,
  "fr\u00fcher</w>": 2844,
  "gets</w>": 2845,
  "erten</w>": 2846,
  "nutzen</w>": 2847,
  "tour</w>": 2848,
  "hands</w>": 2849,
  "Stra\u00dfen": 2850,
  "Tr": 2851,
  "Bereits</w>": 2852,
  "watch</w>": 2853,
  "kids</w>": 2854,
  "School</w>": 2855,
  "Finale</w>": 2856,
  "true</w>": 2857,
  "tem</w>": 2858,
  "\u00f6r": 2859,
  "entschieden</w>": 2860,
  "tor": 2861,
  "Kn": 2862,
  "Seiten</w>": 2863,
  "ehemaligen</w>": 2864,
  "row</w>": 2865,
  "zeit": 2866,
  "cuts</w>": 2867,
  "claim</w>": 2868,
  "injury</w>": 2869,
  "65</w>": 2870,
  "Stunde</w>": 2871,
  "Park": 2872,
  "track</w>": 2873,
  "Bel": 2874,
  "versucht</w>": 2875,
  "Angst</w>": 2876,
  "Bill</w>": 2877,
  "Of</w>": 2878,
  "Teams</w>": 2879,
  "effect</w>": 2880,
  "Red</w>": 2881,
  "Klaus</w>": 2882,
  "Ra": 2883,
  "aren</w>": 2884,
  "fighting</w>": 2885,
  "chairman</w>": 2886,
  "gro\u00dfer</w>": 2887,
  "bevor</w>": 2888,
  "sector</w>": 2889,
  "ib": 2890,
  "Chancen</w>": 2891,
  "immediately</w>": 2892,
  "Stelle</w>": 2893,
  "Staat</w>": 2894,
  "Sohn</w>": 2895,
  "First</w>": 2896,
  "ready</w>": 2897,
  "created</w>": 2898,
  "built</w>": 2899,
  "ry</w>": 2900,
  "Sache</w>": 2901,
  "tri": 2902,
  "zieht</w>": 2903,
  "runs</w>": 2904,
  "legen</w>": 2905,
  "Interview</w>": 2906,
  "details</w>": 2907,
  "Prozess</w>": 2908,
  "erreichen</w>": 2909,
  "Cal": 2910,
  "threat</w>": 2911,
  "3.": 2912,
  "spiel": 2913,
  "contract</w>": 2914,
  "ut</w>": 2915,
  "Im": 2916,
  "Bor": 2917,
  "Veranstaltung</w>": 2918,
  "rat</w>": 2919,
  "Sa": 2920,
  "zog</w>": 2921,
  "bekommt</w>": 2922,
  "tragen</w>": 2923,
  "Hei": 2924,
  "sprechen</w>": 2925,
  "41</w>": 2926,
  "gar": 2927,
  "pf": 2928,
  "tel": 2929,
  "Alt": 2930,
  "n\u00e4mlich</w>": 2931,
  "tro": 2932,
  "warned</w>": 2933,
  "Heute</w>": 2934,
  "network</w>": 2935,
  "sw": 2936,
  "happen</w>": 2937,
  "Z</w>": 2938,
  "kon": 2939,
  "verlassen</w>": 2940,
  "zufrieden</w>": 2941,
  "adding</w>": 2942,
  "border</w>": 2943,
  "aufge": 2944,
  "darum</w>": 2945,
  "wenige</w>": 2946,
  "Punkten</w>": 2947,
  "movie</w>": 2948,
  "ish</w>": 2949,
  "brand</w>": 2950,
  "SG</w>": 2951,
  "ns</w>": 2952,
  "Mac": 2953,
  "includes</w>": 2954,
  "Krankenhaus</w>": 2955,
  "offered</w>": 2956,
  "sorgen</w>": 2957,
  "Sebastian</w>": 2958,
  "model</w>": 2959,
  "kept</w>": 2960,
  "Ent": 2961,
  "approach</w>": 2962,
  "FDP</w>": 2963,
  "Brand": 2964,
  "tige</w>": 2965,
  "Tier": 2966,
  "All": 2967,
  "Maria</w>": 2968,
  "langen</w>": 2969,
  "Gre": 2970,
  "search</w>": 2971,
  "murder</w>": 2972,
  "yesterday</w>": 2973,
  "poor</w>": 2974,
  "12.": 2975,
  "related</w>": 2976,
  "Super": 2977,
  "L\u00f6sung</w>": 2978,
  "ses</w>": 2979,
  "Dortmund</w>": 2980,
  "drive</w>": 2981,
  "Far": 2982,
  "Halle</w>": 2983,
  "verband</w>": 2984,
  "fre": 2985,
  "cars</w>": 2986,
  "aktualisiert</w>": 2987,
  "ay</w>": 2988,
  "Hotel</w>": 2989,
  "regional</w>": 2990,
  "vorbei</w>": 2991,
  "len</w>": 2992,
  "Mike</w>": 2993,
  "Open</w>": 2994,
  "Besuch</w>": 2995,
  "Zur</w>": 2996,
  "ah</w>": 2997,
  "Wohnung</w>": 2998,
  "base</w>": 2999,
  "aktuellen</w>": 3000,
  "businesses</w>": 3001,
  "residents</w>": 3002,
  "missing</w>": 3003,
  "sell</w>": 3004,
  "Spa\u00df</w>": 3005,
  "ko</w>": 3006,
  "previously</w>": 3007,
  "ban</w>": 3008,
  "From</w>": 3009,
  "NS": 3010,
  "eins</w>": 3011,
  "parts</w>": 3012,
  "Daten</w>": 3013,
  "centre</w>": 3014,
  "considered</w>": 3015,
  "gesetzt</w>": 3016,
  "starting</w>": 3017,
  "Gl\u00fcck</w>": 3018,
  "Winter": 3019,
  "Aktion</w>": 3020,
  "funding</w>": 3021,
  "Rennen</w>": 3022,
  "Politiker</w>": 3023,
  "ek</w>": 3024,
  "jedem</w>": 3025,
  "innerhalb</w>": 3026,
  "Then</w>": 3027,
  "sl": 3028,
  "shooting</w>": 3029,
  "version</w>": 3030,
  "gegangen</w>": 3031,
  "1-": 3032,
  "Band</w>": 3033,
  "wert</w>": 3034,
  "fin": 3035,
  "fund</w>": 3036,
  "39</w>": 3037,
  "Hil": 3038,
  "ask</w>": 3039,
  "opened</w>": 3040,
  "\u00e4r": 3041,
  "co-": 3042,
  "Ak": 3043,
  "ft": 3044,
  "easy</w>": 3045,
  "fahr": 3046,
  "43</w>": 3047,
  "Zusammenarbeit</w>": 3048,
  "Zeiten</w>": 3049,
  "betont</w>": 3050,
  "wald</w>": 3051,
  "Bezirks": 3052,
  "2,": 3053,
  "liga</w>": 3054,
  "date</w>": 3055,
  "ance</w>": 3056,
  "har": 3057,
  "Bahn</w>": 3058,
  "ah": 3059,
  "fit</w>": 3060,
  "Streit</w>": 3061,
  "moving</w>": 3062,
  "Holz": 3063,
  "bieten</w>": 3064,
  "Also</w>": 3065,
  "gehe</w>": 3066,
  "brauchen</w>": 3067,
  "ars</w>": 3068,
  "dy</w>": 3069,
  "Air</w>": 3070,
  "competition</w>": 3071,
  "mu": 3072,
  "hotel</w>": 3073,
  "Griechenland</w>": 3074,
  "Gegen": 3075,
  "Steuer": 3076,
  "Punkt</w>": 3077,
  "figure</w>": 3078,
  "erst": 3079,
  "crime</w>": 3080,
  "ches</w>": 3081,
  "signed</w>": 3082,
  "Boden</w>": 3083,
  "Selbst": 3084,
  "durchaus</w>": 3085,
  "Jo": 3086,
  "ales</w>": 3087,
  "Ba": 3088,
  "injured</w>": 3089,
  "ang</w>": 3090,
  "letter</w>": 3091,
  "trip</w>": 3092,
  "jedes</w>": 3093,
  "English</w>": 3094,
  "zone</w>": 3095,
  "ort</w>": 3096,
  "burger</w>": 3097,
  "Studie</w>": 3098,
  "Fin": 3099,
  "ation": 3100,
  "hof</w>": 3101,
  "Richter</w>": 3102,
  "Royal</w>": 3103,
  "reached</w>": 3104,
  "gingen</w>": 3105,
  "Kunst": 3106,
  "CSU</w>": 3107,
  "land": 3108,
  "Gel": 3109,
  "Kevin</w>": 3110,
  "ensure</w>": 3111,
  "eg": 3112,
  "2003</w>": 3113,
  "troops</w>": 3114,
  "changed</w>": 3115,
  "Dr</w>": 3116,
  "\u00e4n": 3117,
  "ette</w>": 3118,
  "hearing</w>": 3119,
  "Tour</w>": 3120,
  "Press</w>": 3121,
  "Tim</w>": 3122,
  "Interesse</w>": 3123,
  "Fl": 3124,
  "meinte</w>": 3125,
  "returned</w>": 3126,
  "ner": 3127,
  "arbeitet</w>": 3128,
  "endlich</w>": 3129,
  "dennoch</w>": 3130,
  "closed</w>": 3131,
  "reform</w>": 3132,
  "Schmidt</w>": 3133,
  "Hel": 3134,
  "La": 3135,
  "Scott</w>": 3136,
  "Druck": 3137,
  "sexual</w>": 3138,
  "baby</w>": 3139,
  "systems</w>": 3140,
  "Aufgabe</w>": 3141,
  "class</w>": 3142,
  "hohe</w>": 3143,
  "Pause</w>": 3144,
  "Af": 3145,
  "Islamic</w>": 3146,
  "ino</w>": 3147,
  "Euro": 3148,
  "decades</w>": 3149,
  "committee</w>": 3150,
  "Kim</w>": 3151,
  "flight</w>": 3152,
  "candidate</w>": 3153,
  "aufgrund</w>": 3154,
  "Hol": 3155,
  "Leiter</w>": 3156,
  "Beh\u00f6rden</w>": 3157,
  "san": 3158,
  "itz</w>": 3159,
  "Gesamt": 3160,
  "mobile</w>": 3161,
  "student</w>": 3162,
  "Staaten</w>": 3163,
  "ets</w>": 3164,
  "hingegen</w>": 3165,
  "sel</w>": 3166,
  "Melbourne</w>": 3167,
  "Mehrheit</w>": 3168,
  "warum</w>": 3169,
  "Treffen</w>": 3170,
  "ste": 3171,
  "alone</w>": 3172,
  "trifft</w>": 3173,
  "couldn</w>": 3174,
  "source</w>": 3175,
  "chten</w>": 3176,
  "ism</w>": 3177,
  "posted</w>": 3178,
  "Banken</w>": 3179,
  "Kal": 3180,
  "benefits</w>": 3181,
  "bi": 3182,
  "researchers</w>": 3183,
  "pen": 3184,
  "ak</w>": 3185,
  "tung</w>": 3186,
  "mat": 3187,
  "prime</w>": 3188,
  "parties</w>": 3189,
  "Secretary</w>": 3190,
  "league</w>": 3191,
  "spot</w>": 3192,
  "Mu": 3193,
  "cover</w>": 3194,
  "Service</w>": 3195,
  "Company</w>": 3196,
  "hand": 3197,
  "Manager</w>": 3198,
  "launched</w>": 3199,
  "f\u00fchrung</w>": 3200,
  "Spielen</w>": 3201,
  "besch": 3202,
  "ast": 3203,
  "driving</w>": 3204,
  "ehemalige</w>": 3205,
  "l\u00e4ngst</w>": 3206,
  "13": 3207,
  "49</w>": 3208,
  "Ms.</w>": 3209,
  "drugs</w>": 3210,
  "target</w>": 3211,
  "weiter": 3212,
  "mind</w>": 3213,
  "Nachdem</w>": 3214,
  "Gefahr</w>": 3215,
  "Rie": 3216,
  "Most</w>": 3217,
  "talking</w>": 3218,
  "Auftritt</w>": 3219,
  "UPI</w>": 3220,
  "population</w>": 3221,
  "ship</w>": 3222,
  "Vertrag</w>": 3223,
  "Sonder": 3224,
  "46</w>": 3225,
  "straight</w>": 3226,
  "towards</w>": 3227,
  "Bev\u00f6lkerung</w>": 3228,
  "tig</w>": 3229,
  "raise</w>": 3230,
  "Association</w>": 3231,
  "h\u00f6ren</w>": 3232,
  "fuhr</w>": 3233,
  "lesen</w>": 3234,
  "center</w>": 3235,
  "handelt</w>": 3236,
  "Mer": 3237,
  "steigen</w>": 3238,
  "2018</w>": 3239,
  "Winter</w>": 3240,
  "killing</w>": 3241,
  "fiel</w>": 3242,
  "lack</w>": 3243,
  "zentrum</w>": 3244,
  "entscheiden</w>": 3245,
  "Ausstellung</w>": 3246,
  "Schulen</w>": 3247,
  "bus</w>": 3248,
  "elf</w>": 3249,
  "safe</w>": 3250,
  "Ermittlungen</w>": 3251,
  "certainly</w>": 3252,
  "p.m.</w>": 3253,
  "Office</w>": 3254,
  "mehreren</w>": 3255,
  "Wiener</w>": 3256,
  "Rede</w>": 3257,
  "bed</w>": 3258,
  "address</w>": 3259,
  "ure</w>": 3260,
  "employees</w>": 3261,
  "Drei</w>": 3262,
  "lichkeit</w>": 3263,
  "Romney</w>": 3264,
  "und": 3265,
  "ded</w>": 3266,
  "style</w>": 3267,
  "Geld": 3268,
  "europ\u00e4ischen</w>": 3269,
  "isch": 3270,
  "jo": 3271,
  "street</w>": 3272,
  "sale</w>": 3273,
  "Madrid</w>": 3274,
  "blood</w>": 3275,
  "Leistung</w>": 3276,
  "ations": 3277,
  "arbeit</w>": 3278,
  "mein</w>": 3279,
  "gewann</w>": 3280,
  "-year-old</w>": 3281,
  "spielte</w>": 3282,
  "Bundesregierung</w>": 3283,
  "funds</w>": 3284,
  "Bro": 3285,
  "Augen</w>": 3286,
  "hundreds</w>": 3287,
  "Trotz</w>": 3288,
  "600</w>": 3289,
  "aid</w>": 3290,
  "Gold</w>": 3291,
  "National": 3292,
  "V-": 3293,
  "beyond</w>": 3294,
  "gezeigt</w>": 3295,
  "beste</w>": 3296,
  "disease</w>": 3297,
  "Kr": 3298,
  "lagen</w>": 3299,
  "starken</w>": 3300,
  "ice</w>": 3301,
  "2001</w>": 3302,
  "Asyl": 3303,
  "52</w>": 3304,
  "Patrick</w>": 3305,
  "Inter": 3306,
  "wei": 3307,
  "kur": 3308,
  "bes": 3309,
  "Vorsitzender</w>": 3310,
  "Stimmen</w>": 3311,
  "cks</w>": 3312,
  "47</w>": 3313,
  "str": 3314,
  "Ke": 3315,
  "comments</w>": 3316,
  "verschiedenen</w>": 3317,
  "union</w>": 3318,
  "Polizisten</w>": 3319,
  "ill</w>": 3320,
  "protect</w>": 3321,
  "massive</w>": 3322,
  "Hor": 3323,
  "pe</w>": 3324,
  "Simon</w>": 3325,
  "seem</w>": 3326,
  "tough</w>": 3327,
  "Lin": 3328,
  "gew": 3329,
  "Voll": 3330,
  "measures</w>": 3331,
  "Chicago</w>": 3332,
  "Syrien</w>": 3333,
  "Hu": 3334,
  "unser</w>": 3335,
  "Hannover</w>": 3336,
  "schreibt</w>": 3337,
  "provided</w>": 3338,
  "users</w>": 3339,
  "niemand</w>": 3340,
  "len": 3341,
  "Einzel": 3342,
  "Champions</w>": 3343,
  "Italien</w>": 3344,
  "gew\u00e4hlt</w>": 3345,
  "door</w>": 3346,
  "condition</w>": 3347,
  "passed</w>": 3348,
  "Andrew</w>": 3349,
  "nahe</w>": 3350,
  "lediglich</w>": 3351,
  "appear</w>": 3352,
  "goals</w>": 3353,
  "einzu": 3354,
  "Stad": 3355,
  "Western</w>": 3356,
  "itz": 3357,
  "Gr": 3358,
  "insurance</w>": 3359,
  "defense</w>": 3360,
  "lei": 3361,
  "feet</w>": 3362,
  "ef": 3363,
  "Te": 3364,
  "Fe": 3365,
  "oh": 3366,
  "mark</w>": 3367,
  "Wales</w>": 3368,
  "Wall</w>": 3369,
  "seemed</w>": 3370,
  "alisierung</w>": 3371,
  "Bundesliga</w>": 3372,
  "cht": 3373,
  "bisschen</w>": 3374,
  "zahlreiche</w>": 3375,
  "issued</w>": 3376,
  "normal</w>": 3377,
  "perhaps</w>": 3378,
  "51</w>": 3379,
  "table</w>": 3380,
  "Mexico</w>": 3381,
  "agen</w>": 3382,
  "ve": 3383,
  "sucht</w>": 3384,
  "suchen</w>": 3385,
  "Christmas</w>": 3386,
  "12": 3387,
  "tete</w>": 3388,
  "meint</w>": 3389,
  "Real</w>": 3390,
  "natural</w>": 3391,
  "Mark": 3392,
  "Recht</w>": 3393,
  "Dem": 3394,
  "politics</w>": 3395,
  "esch": 3396,
  "Familien": 3397,
  "yer</w>": 3398,
  "N\u00e4he</w>": 3399,
  "au\u00dferdem</w>": 3400,
  "dr": 3401,
  "Ehren": 3402,
  "rat": 3403,
  "legte</w>": 3404,
  "Pu": 3405,
  "Win": 3406,
  "battle</w>": 3407,
  "ill": 3408,
  "erfolgreich</w>": 3409,
  "post": 3410,
  "Plan</w>": 3411,
  "schweren</w>": 3412,
  "ess": 3413,
  "original</w>": 3414,
  "Warum</w>": 3415,
  "damage</w>": 3416,
  "sub": 3417,
  "heraus</w>": 3418,
  "Steve</w>": 3419,
  "cken</w>": 3420,
  "Koalition</w>": 3421,
  "Heim": 3422,
  "pair</w>": 3423,
  "ski</w>": 3424,
  "besteht</w>": 3425,
  "Although</w>": 3426,
  "Au\u00dfen": 3427,
  "designed</w>": 3428,
  "bid</w>": 3429,
  "Gesch\u00e4fts": 3430,
  "plane</w>": 3431,
  "Weihnachts": 3432,
  "Test</w>": 3433,
  "Ost": 3434,
  "Krise</w>": 3435,
  "gl": 3436,
  "hielt</w>": 3437,
  "weather</w>": 3438,
  "ganzen</w>": 3439,
  "supporters</w>": 3440,
  "k-": 3441,
  "Urteil</w>": 3442,
  "os": 3443,
  "voll": 3444,
  "avoid</w>": 3445,
  "Institute</w>": 3446,
  "winner</w>": 3447,
  "sche</w>": 3448,
  "Gas": 3449,
  "Security</w>": 3450,
  "Verfahren</w>": 3451,
  "Show</w>": 3452,
  "mitteilte</w>": 3453,
  "Rund</w>": 3454,
  "2002</w>": 3455,
  "Canada</w>": 3456,
  "stars</w>": 3457,
  "Ben</w>": 3458,
  "Bl": 3459,
  "0,": 3460,
  "solle</w>": 3461,
  "experts</w>": 3462,
  "traf</w>": 3463,
  "halle</w>": 3464,
  "store</w>": 3465,
  "Vorstand</w>": 3466,
  "asse</w>": 3467,
  "attempt</w>": 3468,
  "WM</w>": 3469,
  "X</w>": 3470,
  "kn": 3471,
  "Film": 3472,
  "ub": 3473,
  "hen</w>": 3474,
  "written</w>": 3475,
  "Pf": 3476,
  "Werner</w>": 3477,
  "spend</w>": 3478,
  "\u00f6ffentlichen</w>": 3479,
  "bare</w>": 3480,
  "Can": 3481,
  "ien</w>": 3482,
  "box</w>": 3483,
  "Com": 3484,
  "mal": 3485,
  "Turn": 3486,
  "planned</w>": 3487,
  "standen</w>": 3488,
  "Dieses</w>": 3489,
  "anzu": 3490,
  "tel</w>": 3491,
  "Vertreter</w>": 3492,
  "Sel": 3493,
  "alleged</w>": 3494,
  "below</w>": 3495,
  "weltweit</w>": 3496,
  "anz": 3497,
  "trotzdem</w>": 3498,
  "Patienten</w>": 3499,
  "wenigen</w>": 3500,
  "zwei": 3501,
  "Beide</w>": 3502,
  "Is</w>": 3503,
  "obwohl</w>": 3504,
  "suggested</w>": 3505,
  "Chelsea</w>": 3506,
  "Weise</w>": 3507,
  "Rechts": 3508,
  "holen</w>": 3509,
  "ven</w>": 3510,
  "size</w>": 3511,
  "oo": 3512,
  "twe": 3513,
  "Herbst</w>": 3514,
  "trading</w>": 3515,
  "joined</w>": 3516,
  "forderte</w>": 3517,
  "une</w>": 3518,
  "save</w>": 3519,
  "dropped</w>": 3520,
  "Wort</w>": 3521,
  "Another</w>": 3522,
  "Kan": 3523,
  "newspaper</w>": 3524,
  "calling</w>": 3525,
  "climate</w>": 3526,
  "km</w>": 3527,
  "suffered</w>": 3528,
  "Online</w>": 3529,
  "l\u00e4nger</w>": 3530,
  "Bau</w>": 3531,
  "tens</w>": 3532,
  "arrived</w>": 3533,
  "Just</w>": 3534,
  "ages</w>": 3535,
  "decade</w>": 3536,
  "independent</w>": 3537,
  "j\u00e4hriger</w>": 3538,
  "4.</w>": 3539,
  "finally</w>": 3540,
  "lie\u00dfen</w>": 3541,
  "La</w>": 3542,
  "yn</w>": 3543,
  "Ben": 3544,
  "millions</w>": 3545,
  "hei": 3546,
  "word</w>": 3547,
  "Ab</w>": 3548,
  "ow": 3549,
  "teten</w>": 3550,
  "Aktu": 3551,
  "B-": 3552,
  "raum</w>": 3553,
  "reporters</w>": 3554,
  "sch\u00f6n</w>": 3555,
  "einzige</w>": 3556,
  "2-": 3557,
  "Abschluss</w>": 3558,
  "Sand": 3559,
  "Fehler</w>": 3560,
  "Justice</w>": 3561,
  "Moment</w>": 3562,
  "Arbeiten</w>": 3563,
  "#</w>": 3564,
  "fel": 3565,
  "Sekunden</w>": 3566,
  "emergency</w>": 3567,
  "Commission</w>": 3568,
  "choice</w>": 3569,
  "0.": 3570,
  "ring</w>": 3571,
  "erster</w>": 3572,
  "Matthias</w>": 3573,
  "chte</w>": 3574,
  "sometimes</w>": 3575,
  "Ri": 3576,
  "Zwar</w>": 3577,
  "ant": 3578,
  "successful</w>": 3579,
  "54</w>": 3580,
  "ess</w>": 3581,
  "product</w>": 3582,
  "improve</w>": 3583,
  "meist</w>": 3584,
  "ong</w>": 3585,
  "Kl": 3586,
  "Familien</w>": 3587,
  "leadership</w>": 3588,
  "appears</w>": 3589,
  "Jugendliche</w>": 3590,
  "Hauptstadt</w>": 3591,
  "William</w>": 3592,
  "afternoon</w>": 3593,
  "weapons</w>": 3594,
  "Sommer": 3595,
  "erinnert</w>": 3596,
  "driver</w>": 3597,
  "spoke</w>": 3598,
  "lan": 3599,
  "mission</w>": 3600,
  "host</w>": 3601,
  "additional</w>": 3602,
  "Lee</w>": 3603,
  "toward</w>": 3604,
  "Since</w>": 3605,
  "Other</w>": 3606,
  "abuse</w>": 3607,
  "gold</w>": 3608,
  "Josef</w>": 3609,
  "Ham": 3610,
  "laws</w>": 3611,
  "M\u00fcnchner</w>": 3612,
  "alter</w>": 3613,
  "stand": 3614,
  "Lehr": 3615,
  "confidence</w>": 3616,
  "Konzern</w>": 3617,
  "paper</w>": 3618,
  "operation</w>": 3619,
  "Eis": 3620,
  "Sol": 3621,
  "dollars</w>": 3622,
  "picture</w>": 3623,
  "800</w>": 3624,
  "Reihe</w>": 3625,
  "lines</w>": 3626,
  "best\u00e4tigt</w>": 3627,
  "Stand</w>": 3628,
  "Luft</w>": 3629,
  "chef</w>": 3630,
  "council</w>": 3631,
  "95</w>": 3632,
  "north</w>": 3633,
  "Ireland</w>": 3634,
  "places</w>": 3635,
  "rechnen</w>": 3636,
  "Hollywood</w>": 3637,
  "enten</w>": 3638,
  "Gewalt</w>": 3639,
  "seeking</w>": 3640,
  "Tu": 3641,
  "dar": 3642,
  "falls</w>": 3643,
  "About</w>": 3644,
  "ast</w>": 3645,
  "guilty</w>": 3646,
  "Dinge</w>": 3647,
  "revenue</w>": 3648,
  "believes</w>": 3649,
  "Gemeinde": 3650,
  "launch</w>": 3651,
  "Gesch\u00e4ft</w>": 3652,
  "throughout</w>": 3653,
  "housing</w>": 3654,
  "SPD-": 3655,
  "-F": 3656,
  "zi": 3657,
  "wouldn</w>": 3658,
  "complete</w>": 3659,
  "Big</w>": 3660,
  "Italy</w>": 3661,
  "Gastgeber</w>": 3662,
  "Spitze</w>": 3663,
  "Jugendlichen</w>": 3664,
  "fear</w>": 3665,
  "Ryan</w>": 3666,
  "ham</w>": 3667,
  "sort</w>": 3668,
  "walk</w>": 3669,
  "gra": 3670,
  "tin</w>": 3671,
  "mt</w>": 3672,
  "ini</w>": 3673,
  "reduce</w>": 3674,
  "tor</w>": 3675,
  "komplett</w>": 3676,
  "Monat</w>": 3677,
  "com": 3678,
  "ists</w>": 3679,
  "stu": 3680,
  "older</w>": 3681,
  "piece</w>": 3682,
  "tal</w>": 3683,
  "girls</w>": 3684,
  "ONLINE</w>": 3685,
  "Klasse</w>": 3686,
  "Universit\u00e4t</w>": 3687,
  "crowd</w>": 3688,
  "AS": 3689,
  "ili": 3690,
  "ick</w>": 3691,
  "1000</w>": 3692,
  "worst</w>": 3693,
  "image</w>": 3694,
  "Professor</w>": 3695,
  "Col": 3696,
  "caught</w>": 3697,
  "Sitzung</w>": 3698,
  "tsch": 3699,
  "train</w>": 3700,
  "served</w>": 3701,
  "losing</w>": 3702,
  "rule</w>": 3703,
  "4.": 3704,
  "present</w>": 3705,
  "kr": 3706,
  "sowohl</w>": 3707,
  "53</w>": 3708,
  "ani</w>": 3709,
  "Wein": 3710,
  "hopes</w>": 3711,
  "marriage</w>": 3712,
  "carried</w>": 3713,
  "legt</w>": 3714,
  "Nummer</w>": 3715,
  "Pol": 3716,
  "admitted</w>": 3717,
  "Wegen</w>": 3718,
  "highest</w>": 3719,
  "Ma\u00dfnahmen</w>": 3720,
  "fine</w>": 3721,
  "Themen</w>": 3722,
  "practice</w>": 3723,
  "Beamten</w>": 3724,
  "civil</w>": 3725,
  "ser</w>": 3726,
  "required</w>": 3727,
  "sal": 3728,
  "Vergangenheit</w>": 3729,
  "gezogen</w>": 3730,
  "Committee</w>": 3731,
  "aff": 3732,
  "ative</w>": 3733,
  "25": 3734,
  "era</w>": 3735,
  "reichen</w>": 3736,
  "Schluss</w>": 3737,
  "Stimmung</w>": 3738,
  "gesperrt</w>": 3739,
  "99</w>": 3740,
  "weg": 3741,
  "consider</w>": 3742,
  "domestic</w>": 3743,
  "20.</w>": 3744,
  "unterst\u00fctzt</w>": 3745,
  "internationalen</w>": 3746,
  "Despite</w>": 3747,
  "Hamburger</w>": 3748,
  "whom</w>": 3749,
  "Pl": 3750,
  "nahmen</w>": 3751,
  "brother</w>": 3752,
  "schutz</w>": 3753,
  "Schw": 3754,
  "elections</w>": 3755,
  "Dis": 3756,
  "illegal</w>": 3757,
  "Kunst</w>": 3758,
  "D-": 3759,
  "56</w>": 3760,
  "fair</w>": 3761,
  "selling</w>": 3762,
  "ties</w>": 3763,
  "ford</w>": 3764,
  "Vereins": 3765,
  "Dre": 3766,
  "female</w>": 3767,
  "assets</w>": 3768,
  "secretary</w>": 3769,
  "3-": 3770,
  "strategy</w>": 3771,
  "Hin": 3772,
  "Mel": 3773,
  "Buch": 3774,
  "thinking</w>": 3775,
  "holding</w>": 3776,
  "meiner</w>": 3777,
  "dre": 3778,
  "St</w>": 3779,
  "5.</w>": 3780,
  "Grad</w>": 3781,
  "ingly</w>": 3782,
  "criminal</w>": 3783,
  "anderer</w>": 3784,
  "Gi": 3785,
  "Schaden</w>": 3786,
  "gs</w>": 3787,
  "operating</w>": 3788,
  "warten</w>": 3789,
  "mes</w>": 3790,
  "Tiere</w>": 3791,
  "Kurz</w>": 3792,
  "Sicherheits": 3793,
  "deep</w>": 3794,
  "bur": 3795,
  "Syrian</w>": 3796,
  "Hintergrund</w>": 3797,
  "Stra\u00dfen</w>": 3798,
  "io</w>": 3799,
  "crash</w>": 3800,
  "yn": 3801,
  "movement</w>": 3802,
  "greater</w>": 3803,
  "tur": 3804,
  "injuries</w>": 3805,
  "rich</w>": 3806,
  "sa</w>": 3807,
  "bedeutet</w>": 3808,
  "owner</w>": 3809,
  "bs</w>": 3810,
  "benefit</w>": 3811,
  "get\u00f6tet</w>": 3812,
  "Barcelona</w>": 3813,
  "speak</w>": 3814,
  "lebt</w>": 3815,
  "passiert</w>": 3816,
  "hear</w>": 3817,
  "Joe</w>": 3818,
  "Franz</w>": 3819,
  "spiele</w>": 3820,
  "Pr\u00e4sidenten</w>": 3821,
  "Schweizer</w>": 3822,
  "Kom": 3823,
  "starke</w>": 3824,
  "Meister</w>": 3825,
  "04</w>": 3826,
  "begin</w>": 3827,
  "peace</w>": 3828,
  "finished</w>": 3829,
  "85</w>": 3830,
  "Weitere</w>": 3831,
  "Photo</w>": 3832,
  "card</w>": 3833,
  "schutz": 3834,
  "C-": 3835,
  "ade</w>": 3836,
  "solchen</w>": 3837,
  "Hans</w>": 3838,
  "Soldaten</w>": 3839,
  "sports</w>": 3840,
  "az": 3841,
  "As": 3842,
  "showing</w>": 3843,
  "Letzte</w>": 3844,
  "ass": 3845,
  "San": 3846,
  "ore</w>": 3847,
  "el-": 3848,
  "6.</w>": 3849,
  "Rang</w>": 3850,
  "freuen</w>": 3851,
  "Jackson</w>": 3852,
  "Opposition</w>": 3853,
  "Rathaus</w>": 3854,
  "Freunde</w>": 3855,
  "ya</w>": 3856,
  "Hinweise</w>": 3857,
  "gelten</w>": 3858,
  "activity</w>": 3859,
  "entwickelt</w>": 3860,
  "15.</w>": 3861,
  "Frei": 3862,
  "Ausland</w>": 3863,
  "Tre": 3864,
  "Tro": 3865,
  "department</w>": 3866,
  "i-": 3867,
  "baren</w>": 3868,
  "culture</w>": 3869,
  "kten</w>": 3870,
  "fragen</w>": 3871,
  "Danach</w>": 3872,
  "faces</w>": 3873,
  "concern</w>": 3874,
  "concerned</w>": 3875,
  "Ker": 3876,
  "weight</w>": 3877,
  "gun</w>": 3878,
  "verkauft</w>": 3879,
  "begonnen</w>": 3880,
  "Suche</w>": 3881,
  "Bahn": 3882,
  "ath": 3883,
  "Oder</w>": 3884,
  "Gro": 3885,
  "contact</w>": 3886,
  "lau": 3887,
  "Ist</w>": 3888,
  "particular</w>": 3889,
  "declined</w>": 3890,
  "Inc</w>": 3891,
  "Metern</w>": 3892,
  "Tat</w>": 3893,
  "Tat": 3894,
  "57</w>": 3895,
  "iti": 3896,
  "books</w>": 3897,
  "offers</w>": 3898,
  "middle</w>": 3899,
  "politik</w>": 3900,
  "cur": 3901,
  "kte</w>": 3902,
  "entire</w>": 3903,
  "w\u00e4ren</w>": 3904,
  "planning</w>": 3905,
  "Dennoch</w>": 3906,
  "Ergebnisse</w>": 3907,
  "sides</w>": 3908,
  "Dor": 3909,
  "gers</w>": 3910,
  "klasse</w>": 3911,
  "Neue</w>": 3912,
  "ack</w>": 3913,
  "vier": 3914,
  "K\u00fcnstler</w>": 3915,
  "mb": 3916,
  "Black</w>": 3917,
  "Both</w>": 3918,
  "Liebe</w>": 3919,
  "Folgen</w>": 3920,
  "Le</w>": 3921,
  "gro\u00dfes</w>": 3922,
  "fr\u00fcheren</w>": 3923,
  "sky</w>": 3924,
  "erung</w>": 3925,
  "denied</w>": 3926,
  "ju": 3927,
  "k\u00e4mpfen</w>": 3928,
  "wichtige</w>": 3929,
  "intelligence</w>": 3930,
  "Festival</w>": 3931,
  "evening</w>": 3932,
  "Today</w>": 3933,
  "strike</w>": 3934,
  "soldiers</w>": 3935,
  "det</w>": 3936,
  "Tony</w>": 3937,
  "basis</w>": 3938,
  "Verhandlungen</w>": 3939,
  "Bund</w>": 3940,
  "j\u00fcngsten</w>": 3941,
  "Kultur</w>": 3942,
  "addition</w>": 3943,
  "Heimat</w>": 3944,
  "vehicle</w>": 3945,
  "st\u00e4rker</w>": 3946,
  "shown</w>": 3947,
  "feeling</w>": 3948,
  "Tru": 3949,
  "double</w>": 3950,
  "Spar": 3951,
  "stieg</w>": 3952,
  "join</w>": 3953,
  "essen</w>": 3954,
  "Spain</w>": 3955,
  "enter</w>": 3956,
  "Ja</w>": 3957,
  "rising</w>": 3958,
  "genutzt</w>": 3959,
  "inn": 3960,
  "verhindern</w>": 3961,
  "Konzept</w>": 3962,
  "appeal</w>": 3963,
  "wide</w>": 3964,
  "\u00e4l": 3965,
  "CDU-": 3966,
  "bahn</w>": 3967,
  "Leit": 3968,
  "Linie</w>": 3969,
  "Max</w>": 3970,
  "Fotos</w>": 3971,
  "auszu": 3972,
  "reality</w>": 3973,
  "are": 3974,
  "Engagement</w>": 3975,
  "powerful</w>": 3976,
  "reden</w>": 3977,
  "answer</w>": 3978,
  "continues</w>": 3979,
  "Wit": 3980,
  "Mitglied</w>": 3981,
  "Mil": 3982,
  "M\u00f6glichkeiten</w>": 3983,
  "ese</w>": 3984,
  "allegations</w>": 3985,
  "58</w>": 3986,
  "to-": 3987,
  "Serie</w>": 3988,
  "Training</w>": 3989,
  "Gespr\u00e4che</w>": 3990,
  "Federal</w>": 3991,
  "m-": 3992,
  "stets</w>": 3993,
  "During</w>": 3994,
  "Parteien</w>": 3995,
  "co</w>": 3996,
  "ansicht</w>": 3997,
  "Freude</w>": 3998,
  "receive</w>": 3999,
  "ils</w>": 4000,
  "verkehr</w>": 4001,
  "Meinung</w>": 4002,
  "Auto": 4003,
  "Ku": 4004,
  "amp": 4005,
  "Natur": 4006,
  "Treffer</w>": 4007,
  "cre": 4008,
  "pa": 4009,
  "facing</w>": 4010,
  "material</w>": 4011,
  "Don</w>": 4012,
  "cities</w>": 4013,
  "Em": 4014,
  "unk": 4015,
  "meant</w>": 4016,
  "ola</w>": 4017,
  "Jugend</w>": 4018,
  "Alex</w>": 4019,
  "Betrieb</w>": 4020,
  "win": 4021,
  "Quelle</w>": 4022,
  "WM-": 4023,
  "gem": 4024,
  "Verwaltung</w>": 4025,
  "century</w>": 4026,
  "block</w>": 4027,
  "ass</w>": 4028,
  "voller</w>": 4029,
  "fte</w>": 4030,
  "geschlossen</w>": 4031,
  "Those</w>": 4032,
  "Bremen</w>": 4033,
  "Nat\u00fcrlich</w>": 4034,
  "prevent</w>": 4035,
  "jemand</w>": 4036,
  "ev": 4037,
  "haven</w>": 4038,
  "angesichts</w>": 4039,
  "Sir</w>": 4040,
  "Ministerpr\u00e4sident</w>": 4041,
  "uss": 4042,
  "modern</w>": 4043,
  "critical</w>": 4044,
  "ow</w>": 4045,
  "Gr\u00fcn": 4046,
  "steigt</w>": 4047,
  "form": 4048,
  "individual</w>": 4049,
  "singer</w>": 4050,
  "Why</w>": 4051,
  "Hoffnung</w>": 4052,
  "chs</w>": 4053,
  "Vorjahr</w>": 4054,
  "09</w>": 4055,
  "subject</w>": 4056,
  "Schlie\u00dflich</w>": 4057,
  "lawyer</w>": 4058,
  "Durch": 4059,
  "gleichen</w>": 4060,
  "Antrag</w>": 4061,
  "Partner</w>": 4062,
  "status</w>": 4063,
  "Wi": 4064,
  "Brand</w>": 4065,
  "wi": 4066,
  "overall</w>": 4067,
  "Essen</w>": 4068,
  "Men": 4069,
  "Jan</w>": 4070,
  "lernen</w>": 4071,
  "abzu": 4072,
  "putting</w>": 4073,
  "ag</w>": 4074,
  "K\u00f6lner</w>": 4075,
  "eu": 4076,
  "Parlament</w>": 4077,
  "Wel": 4078,
  "AG</w>": 4079,
  "Oliver</w>": 4080,
  "ads</w>": 4081,
  "Privat": 4082,
  "policies</w>": 4083,
  "ente</w>": 4084,
  "camp</w>": 4085,
  "Pal": 4086,
  "drop</w>": 4087,
  "Top": 4088,
  "design</w>": 4089,
  "angek\u00fcndigt</w>": 4090,
  "Antwort</w>": 4091,
  "feiern</w>": 4092,
  "Fo": 4093,
  "Besonders</w>": 4094,
  "0-": 4095,
  "wagen</w>": 4096,
  "stellten</w>": 4097,
  "serve</w>": 4098,
  "Ball": 4099,
  "traditional</w>": 4100,
  "Ob": 4101,
  "tritt</w>": 4102,
  "Fr": 4103,
  "heavy</w>": 4104,
  "estimated</w>": 4105,
  "Vier": 4106,
  "photo</w>": 4107,
  "vereins</w>": 4108,
  "proposed</w>": 4109,
  "candidates</w>": 4110,
  "Kirchen": 4111,
  "Organisation</w>": 4112,
  "actions</w>": 4113,
  "green</w>": 4114,
  "ark": 4115,
  "darin</w>": 4116,
  "beginning</w>": 4117,
  "Dieter</w>": 4118,
  "13.</w>": 4119,
  "gelang</w>": 4120,
  "one-": 4121,
  "Kein</w>": 4122,
  "ue</w>": 4123,
  "59</w>": 4124,
  "D\u00fcsseldorf</w>": 4125,
  "\u00e4ndern</w>": 4126,
  "south</w>": 4127,
  "Queen</w>": 4128,
  "enz</w>": 4129,
  "Wagen</w>": 4130,
  "Green</w>": 4131,
  "Daily</w>": 4132,
  "High</w>": 4133,
  "sur": 4134,
  "note</w>": 4135,
  "type</w>": 4136,
  "Prince</w>": 4137,
  "Ausbildung</w>": 4138,
  "ruling</w>": 4139,
  "05</w>": 4140,
  "versuchen</w>": 4141,
  "ack": 4142,
  "erwarten</w>": 4143,
  "geschichte</w>": 4144,
  "begann</w>": 4145,
  "Krieg</w>": 4146,
  "Schweiz</w>": 4147,
  "Gesetz</w>": 4148,
  "doctors</w>": 4149,
  "programme</w>": 4150,
  "page</w>": 4151,
  "deutschland": 4152,
  "broke</w>": 4153,
  "programm</w>": 4154,
  "signs</w>": 4155,
  "Here</w>": 4156,
  "tions</w>": 4157,
  "acher</w>": 4158,
  "Fox</w>": 4159,
  "Jahres": 4160,
  "Bes": 4161,
  "meinen</w>": 4162,
  "Liverpool</w>": 4163,
  "schreiben</w>": 4164,
  "legislation</w>": 4165,
  "eventually</w>": 4166,
  "Ges": 4167,
  "US": 4168,
  "19.</w>": 4169,
  "dt</w>": 4170,
  "seeing</w>": 4171,
  "gn": 4172,
  "discovered</w>": 4173,
  "ren</w>": 4174,
  "push</w>": 4175,
  "aufs</w>": 4176,
  "Adel": 4177,
  "Yet</w>": 4178,
  "floor</w>": 4179,
  "H\u00f6": 4180,
  "statements</w>": 4181,
  "Deutschlands</w>": 4182,
  "pick</w>": 4183,
  "sorgte</w>": 4184,
  "gefallen</w>": 4185,
  "ness</w>": 4186,
  "machten</w>": 4187,
  "urs</w>": 4188,
  "je": 4189,
  "Israeli</w>": 4190,
  "Bet": 4191,
  "por": 4192,
  "iere</w>": 4193,
  "stopped</w>": 4194,
  "vierten</w>": 4195,
  "Frankfurter</w>": 4196,
  "entfernt</w>": 4197,
  "kan": 4198,
  "rechts</w>": 4199,
  "bild</w>": 4200,
  "pl\u00f6tzlich</w>": 4201,
  "Angriff</w>": 4202,
  "aktiv</w>": 4203,
  "10.</w>": 4204,
  "Schl": 4205,
  "becoming</w>": 4206,
  "rec": 4207,
  "ful</w>": 4208,
  "kar": 4209,
  "Rei": 4210,
  "hart</w>": 4211,
  "schul": 4212,
  "11.</w>": 4213,
  "lig": 4214,
  "storm</w>": 4215,
  "ker": 4216,
  "ion</w>": 4217,
  "African</w>": 4218,
  "System</w>": 4219,
  "foot</w>": 4220,
  "Zeitpunkt</w>": 4221,
  "Boston</w>": 4222,
  "eyes</w>": 4223,
  "clearly</w>": 4224,
  "verb": 4225,
  "250</w>": 4226,
  "gro": 4227,
  "rein": 4228,
  "responsible</w>": 4229,
  "Menge</w>": 4230,
  "audience</w>": 4231,
  "ane</w>": 4232,
  "tru": 4233,
  "Konzert</w>": 4234,
  "Gruppen</w>": 4235,
  "Gemeinderat</w>": 4236,
  "Kontakt</w>": 4237,
  "Bra": 4238,
  "\u20ac</w>": 4239,
  "getroffen</w>": 4240,
  "dangerous</w>": 4241,
  "Stellen</w>": 4242,
  "Theater</w>": 4243,
  "Netz</w>": 4244,
  "Gesicht</w>": 4245,
  "Inst": 4246,
  "offering</w>": 4247,
  "Karriere</w>": 4248,
  "follow</w>": 4249,
  "museum</w>": 4250,
  "VfL</w>": 4251,
  "Spanien</w>": 4252,
  "\u00d6ffentlichkeit</w>": 4253,
  "consumers</w>": 4254,
  "plays</w>": 4255,
  "helping</w>": 4256,
  "Feuer</w>": 4257,
  "stag</w>": 4258,
  "Regional": 4259,
  "Mas": 4260,
  "primary</w>": 4261,
  "scheduled</w>": 4262,
  "committed</w>": 4263,
  "twice</w>": 4264,
  "champion</w>": 4265,
  "3,": 4266,
  "Hall</w>": 4267,
  "send</w>": 4268,
  "generation</w>": 4269,
  "08</w>": 4270,
  "Meanwhile</w>": 4271,
  "fr\u00fchere</w>": 4272,
  "schrieb</w>": 4273,
  "jedenfalls</w>": 4274,
  "Licht</w>": 4275,
  "seat</w>": 4276,
  "Harry</w>": 4277,
  "Kre": 4278,
  "Will</w>": 4279,
  "managed</w>": 4280,
  "Markt": 4281,
  "Reise</w>": 4282,
  "folgen</w>": 4283,
  "wearing</w>": 4284,
  "sorgt</w>": 4285,
  "Job</w>": 4286,
  "Schn": 4287,
  "identified</w>": 4288,
  "Br\u00fcssel</w>": 4289,
  "character</w>": 4290,
  "keiner</w>": 4291,
  "standards</w>": 4292,
  "bought</w>": 4293,
  "tiger</w>": 4294,
  "environment</w>": 4295,
  "geschrieben</w>": 4296,
  "west</w>": 4297,
  "Muslim</w>": 4298,
  "brain</w>": 4299,
  "lie</w>": 4300,
  "Act</w>": 4301,
  "dog</w>": 4302,
  "knows</w>": 4303,
  "k\u00fcndigte</w>": 4304,
  "Oster": 4305,
  "erg": 4306,
  "Central</w>": 4307,
  "-An": 4308,
  "Lei": 4309,
  "sogenannten</w>": 4310,
  "Ford</w>": 4311,
  "Is": 4312,
  "Walter</w>": 4313,
  "mental</w>": 4314,
  "telling</w>": 4315,
  "CEO</w>": 4316,
  "pel</w>": 4317,
  "res": 4318,
  "Sha": 4319,
  "college</w>": 4320,
  "ram</w>": 4321,
  "gives</w>": 4322,
  "fen": 4323,
  "asking</w>": 4324,
  "Their</w>": 4325,
  "married</w>": 4326,
  "army</w>": 4327,
  "Murray</w>": 4328,
  "programs</w>": 4329,
  "{</w>": 4330,
  "struck</w>": 4331,
  "8.</w>": 4332,
  "Taliban</w>": 4333,
  "Doppel": 4334,
  "diesmal</w>": 4335,
  "reicht</w>": 4336,
  "Motto</w>": 4337,
  "dadurch</w>": 4338,
  "aufgenommen</w>": 4339,
  "Grenzen</w>": 4340,
  "affected</w>": 4341,
  "7.": 4342,
  "profit</w>": 4343,
  "progress</w>": 4344,
  "5.": 4345,
  "fellow</w>": 4346,
  "Ser": 4347,
  "Immer</w>": 4348,
  "Nachmittag</w>": 4349,
  "\u00fcberzeugt</w>": 4350,
  "fuel</w>": 4351,
  "Nein</w>": 4352,
  "ungsp": 4353,
  "cast</w>": 4354,
  "30.</w>": 4355,
  "aged</w>": 4356,
  "yards</w>": 4357,
  "tr\u00e4gt</w>": 4358,
  "Mario</w>": 4359,
  "stre": 4360,
  "bro": 4361,
  "\u00f6l": 4362,
  "writing</w>": 4363,
  "Lie": 4364,
  "kennen</w>": 4365,
  "schlecht</w>": 4366,
  "Firmen</w>": 4367,
  "society</w>": 4368,
  "flo": 4369,
  "droht</w>": 4370,
  "30": 4371,
  "remember</w>": 4372,
  "14.</w>": 4373,
  "Bewegung</w>": 4374,
  "Tages": 4375,
  "unternehmen</w>": 4376,
  "schlagen</w>": 4377,
  "limited</w>": 4378,
  "Kor": 4379,
  "anderes</w>": 4380,
  "ay": 4381,
  "teilweise</w>": 4382,
  "carry</w>": 4383,
  "Partei": 4384,
  "Mensch</w>": 4385,
  "z-": 4386,
  "unterst\u00fctzen</w>": 4387,
  "waiting</w>": 4388,
  "simple</w>": 4389,
  "measure</w>": 4390,
  "18.</w>": 4391,
  "Research</w>": 4392,
  "\u00fcbernehmen</w>": 4393,
  "ai</w>": 4394,
  "7.</w>": 4395,
  "d\u00e9": 4396,
  "victim</w>": 4397,
  "Karl</w>": 4398,
  "completely</w>": 4399,
  "learn</w>": 4400,
  "gehalten</w>": 4401,
  "9.</w>": 4402,
  "Pet": 4403,
  "halt</w>": 4404,
  "ban": 4405,
  "preis</w>": 4406,
  "sitzen</w>": 4407,
  "Keine</w>": 4408,
  "hor": 4409,
  "geschlagen</w>": 4410,
  "Debatte</w>": 4411,
  "Christ": 4412,
  "difference</w>": 4413,
  "Teil": 4414,
  "increasingly</w>": 4415,
  "Strecke</w>": 4416,
  "fr": 4417,
  "zen": 4418,
  "weder</w>": 4419,
  "Nachfrage</w>": 4420,
  "treten</w>": 4421,
  "Gast": 4422,
  "Jeder</w>": 4423,
  "Information</w>": 4424,
  "commercial</w>": 4425,
  "shared</w>": 4426,
  "m\u00f6gliche</w>": 4427,
  "Diskussion</w>": 4428,
  "Alles</w>": 4429,
  "Nor": 4430,
  "m\u00f6glichst</w>": 4431,
  "Hill</w>": 4432,
  "Charles</w>": 4433,
  "teil": 4434,
  "besch\u00e4ftigt</w>": 4435,
  "noted</w>": 4436,
  "screen</w>": 4437,
  "Christoph</w>": 4438,
  "missed</w>": 4439,
  "Bernd</w>": 4440,
  "Verantwortung</w>": 4441,
  "gesamte</w>": 4442,
  "developed</w>": 4443,
  "Autofahrer</w>": 4444,
  "gehabt</w>": 4445,
  "entgegen</w>": 4446,
  "gebaut</w>": 4447,
  "Kontrolle</w>": 4448,
  "Borussia</w>": 4449,
  "dor": 4450,
  "eye</w>": 4451,
  "remained</w>": 4452,
  "bisherigen</w>": 4453,
  "beck</w>": 4454,
  "Fahrzeug</w>": 4455,
  "Rio</w>": 4456,
  "Chief</w>": 4457,
  "P-": 4458,
  "amid</w>": 4459,
  "er\u00f6ffnet</w>": 4460,
  "kennt</w>": 4461,
  "wal": 4462,
  "perfect</w>": 4463,
  "Vereine</w>": 4464,
  "ble</w>": 4465,
  "fun</w>": 4466,
  "add</w>": 4467,
  "Wetter</w>": 4468,
  "myself</w>": 4469,
  "unseren</w>": 4470,
  "ersch": 4471,
  "oll": 4472,
  "ek": 4473,
  "Freund</w>": 4474,
  "survey</w>": 4475,
  "streets</w>": 4476,
  "projects</w>": 4477,
  "4-": 4478,
  "freut</w>": 4479,
  "sea</w>": 4480,
  "placed</w>": 4481,
  "-J": 4482,
  "lief</w>": 4483,
  "n-": 4484,
  "See</w>": 4485,
  "6.": 4486,
  "Pl\u00e4ne</w>": 4487,
  "gemeinsamen</w>": 4488,
  "lauf</w>": 4489,
  "Hillary</w>": 4490,
  "highly</w>": 4491,
  "mittel</w>": 4492,
  "bre": 4493,
  "j</w>": 4494,
  "sitzt</w>": 4495,
  "schauen</w>": 4496,
  "gesellschaft</w>": 4497,
  "mel</w>": 4498,
  "fehlt</w>": 4499,
  "zeiten</w>": 4500,
  "gelegt</w>": 4501,
  "Personal": 4502,
  "wall</w>": 4503,
  "erinnen</w>": 4504,
  "Ohne</w>": 4505,
  "standing</w>": 4506,
  "Roman</w>": 4507,
  "wind</w>": 4508,
  "reasons</w>": 4509,
  "\u00c4rzte</w>": 4510,
  "Pri": 4511,
  "Luft": 4512,
  "Ki": 4513,
  "17.</w>": 4514,
  "Sen": 4515,
  "Kir": 4516,
  "gesamten</w>": 4517,
  "son": 4518,
  "700</w>": 4519,
  "spieler</w>": 4520,
  "church</w>": 4521,
  "Virginia</w>": 4522,
  "daily</w>": 4523,
  "Wander": 4524,
  "Innen": 4525,
  "paying</w>": 4526,
  "mittel": 4527,
  "refused</w>": 4528,
  "ath</w>": 4529,
  "regelm\u00e4\u00dfig</w>": 4530,
  "Verkehr</w>": 4531,
  "it\u00e4t</w>": 4532,
  "doubt</w>": 4533,
  "owners</w>": 4534,
  "fu": 4535,
  "clubs</w>": 4536,
  "Plus</w>": 4537,
  "gefragt</w>": 4538,
  "Preise</w>": 4539,
  "Vi": 4540,
  "teil</w>": 4541,
  "Lam": 4542,
  "usually</w>": 4543,
  "airport</w>": 4544,
  "bekam</w>": 4545,
  "Musiker</w>": 4546,
  "Zuletzt</w>": 4547,
  "ausschuss</w>": 4548,
  "demnach</w>": 4549,
  "Position</w>": 4550,
  "denken</w>": 4551,
  "schn": 4552,
  "Werk</w>": 4553,
  "wood</w>": 4554,
  "Lehrer</w>": 4555,
  "ute</w>": 4556,
  "professor</w>": 4557,
  "AT": 4558,
  "Don": 4559,
  "aut</w>": 4560,
  "views</w>": 4561,
  "largely</w>": 4562,
  "13.": 4563,
  "bor": 4564,
  "construction</w>": 4565,
  "Y</w>": 4566,
  "punkt</w>": 4567,
  "filed</w>": 4568,
  "balance</w>": 4569,
  "ismus</w>": 4570,
  "z\u00e4hlt</w>": 4571,
  "Schwarzw": 4572,
  "haft</w>": 4573,
  "prepared</w>": 4574,
  "risks</w>": 4575,
  "justice</w>": 4576,
  "Strom": 4577,
  "Fischer</w>": 4578,
  "Gesch": 4579,
  "focused</w>": 4580,
  "Grenze</w>": 4581,
  "Gr\u00fcne</w>": 4582,
  "r\u00e4": 4583,
  "arm</w>": 4584,
  "long-term</w>": 4585,
  "einst</w>": 4586,
  "gender</w>": 4587,
  "hol": 4588,
  "ABC</w>": 4589,
  "holiday</w>": 4590,
  "\u00f6n": 4591,
  "Gel\u00e4nde</w>": 4592,
  "tic</w>": 4593,
  "fordern</w>": 4594,
  "regular</w>": 4595,
  "9.": 4596,
  "ably</w>": 4597,
  "Carolina</w>": 4598,
  "fired</w>": 4599,
  "betrieb</w>": 4600,
  "Wall": 4601,
  "\u00dfen</w>": 4602,
  "schwere</w>": 4603,
  "exactly</w>": 4604,
  "watching</w>": 4605,
  "ky</w>": 4606,
  "unbe": 4607,
  "f-": 4608,
  "emp": 4609,
  "verantwortlich</w>": 4610,
  "scher</w>": 4611,
  "professional</w>": 4612,
  "Sach": 4613,
  "Heimat": 4614,
  "wing</w>": 4615,
  "Anteil</w>": 4616,
  "vehicles</w>": 4617,
  "Kandidaten</w>": 4618,
  "Kirch": 4619,
  "Turkey</w>": 4620,
  "der-": 4621,
  "faced</w>": 4622,
  "m\u00f6glichen</w>": 4623,
  "Pat": 4624,
  "actor</w>": 4625,
  "Arena</w>": 4626,
  "earnings</w>": 4627,
  "aden</w>": 4628,
  "16.</w>": 4629,
  "losses</w>": 4630,
  "Feuerwehr": 4631,
  "linked</w>": 4632,
  "Holl": 4633,
  "mi": 4634,
  "ter-": 4635,
  "recovery</w>": 4636,
  "betroffen</w>": 4637,
  "Fahrzeuge</w>": 4638,
  "Nick</w>": 4639,
  "Einige</w>": 4640,
  "fr\u00fch</w>": 4641,
  "sto": 4642,
  "anschlie\u00dfend</w>": 4643,
  "tal": 4644,
  "heraus": 4645,
  "Fl\u00fcchtling": 4646,
  "Mehr": 4647,
  "Ka": 4648,
  "attorney</w>": 4649,
  "spokeswoman</w>": 4650,
  "images</w>": 4651,
  "mor": 4652,
  "SPIEGEL</w>": 4653,
  "warning</w>": 4654,
  "Nar": 4655,
  "angeboten</w>": 4656,
  "kom": 4657,
  "stell": 4658,
  "MP</w>": 4659,
  "Adam</w>": 4660,
  "Mrs</w>": 4661,
  "heutigen</w>": 4662,
  "aw": 4663,
  "best\u00e4tigte</w>": 4664,
  "Online-": 4665,
  "Best": 4666,
  "G-": 4667,
  "pl\u00e4tze</w>": 4668,
  "responsibility</w>": 4669,
  "Joachim</w>": 4670,
  "computer</w>": 4671,
  "lieber</w>": 4672,
  "ching</w>": 4673,
  "Zusammenhang</w>": 4674,
  "Taylor</w>": 4675,
  "reg": 4676,
  "beginnen</w>": 4677,
  "defence</w>": 4678,
  "dritte</w>": 4679,
  "Initiative</w>": 4680,
  "Grand</w>": 4681,
  "selten</w>": 4682,
  "Jungen</w>": 4683,
  "fs": 4684,
  "Plan": 4685,
  "voice</w>": 4686,
  "Vielleicht</w>": 4687,
  "fanden</w>": 4688,
  "Sch\u00f6n": 4689,
  "index</w>": 4690,
  "wieder": 4691,
  "wa": 4692,
  "records</w>": 4693,
  "produced</w>": 4694,
  "Army</w>": 4695,
  "zt</w>": 4696,
  "J</w>": 4697,
  "ents</w>": 4698,
  "Unfall": 4699,
  "berg": 4700,
  "protest</w>": 4701,
  "Han": 4702,
  "score</w>": 4703,
  "Coast</w>": 4704,
  "Wechsel</w>": 4705,
  "supply</w>": 4706,
  "Fal": 4707,
  "heit</w>": 4708,
  "verdient</w>": 4709,
  "zeigten</w>": 4710,
  "Asia</w>": 4711,
  "assault</w>": 4712,
  "lived</w>": 4713,
  "gan": 4714,
  "Da": 4715,
  "7-": 4716,
  "Lewis</w>": 4717,
  "Erfahrung</w>": 4718,
  "oc": 4719,
  "geplanten</w>": 4720,
  "arrest</w>": 4721,
  "aircraft</w>": 4722,
  "gemeinschaft</w>": 4723,
  "wait</w>": 4724,
  "get": 4725,
  "tra": 4726,
  "f\u00fchrer</w>": 4727,
  "Island</w>": 4728,
  "shop</w>": 4729,
  "Bei": 4730,
  "Morgen</w>": 4731,
  "worse</w>": 4732,
  "12.</w>": 4733,
  "respect</w>": 4734,
  "radio</w>": 4735,
  "treated</w>": 4736,
  "96</w>": 4737,
  "Berufs": 4738,
  "ohnehin</w>": 4739,
  "Gabriel</w>": 4740,
  "governor</w>": 4741,
  "super": 4742,
  "author</w>": 4743,
  "Herr</w>": 4744,
  "dig</w>": 4745,
  "documents</w>": 4746,
  "check</w>": 4747,
  "\u00fcr": 4748,
  "Flug": 4749,
  "mostly</w>": 4750,
  "25.</w>": 4751,
  "rich": 4752,
  "famous</w>": 4753,
  "Olympic</w>": 4754,
  "pre-": 4755,
  "Wild": 4756,
  "names</w>": 4757,
  "Bedeutung</w>": 4758,
  "Italian</w>": 4759,
  "mag</w>": 4760,
  "UN": 4761,
  "sport": 4762,
  "Medien": 4763,
  "ire</w>": 4764,
  "Tur": 4765,
  "losen</w>": 4766,
  "back": 4767,
  "ER": 4768,
  "conflict</w>": 4769,
  "AFP</w>": 4770,
  "beteiligt</w>": 4771,
  "Gef\u00fchl</w>": 4772,
  "f\u00e4hrt</w>": 4773,
  "erkennen</w>": 4774,
  "erfahren</w>": 4775,
  "aktuell</w>": 4776,
  "eil</w>": 4777,
  "stories</w>": 4778,
  "Bay</w>": 4779,
  "Liste</w>": 4780,
  "ls</w>": 4781,
  "protests</w>": 4782,
  "fr\u00fchen</w>": 4783,
  "Stre": 4784,
  "Labor</w>": 4785,
  "bern</w>": 4786,
  "M.</w>": 4787,
  "leisten</w>": 4788,
  "ip": 4789,
  "Stadion</w>": 4790,
  "Hinter": 4791,
  "S.</w>": 4792,
  "sites</w>": 4793,
  "stellung</w>": 4794,
  "keeping</w>": 4795,
  "traffic</w>": 4796,
  "Macht</w>": 4797,
  "Rock</w>": 4798,
  "speed</w>": 4799,
  "tests</w>": 4800,
  "ordered</w>": 4801,
  "t\u00e4glich</w>": 4802,
  "Jack</w>": 4803,
  "Del": 4804,
  "entstehen</w>": 4805,
  "necessary</w>": 4806,
  "21.</w>": 4807,
  "ht</w>": 4808,
  "Gau": 4809,
  "m\u00fcsste</w>": 4810,
  "Zeichen</w>": 4811,
  "entdeckt</w>": 4812,
  "tungs": 4813,
  "Leipzig</w>": 4814,
  "grow</w>": 4815,
  "U-": 4816,
  "various</w>": 4817,
  "language</w>": 4818,
  "male</w>": 4819,
  "vorne</w>": 4820,
  "wirkt</w>": 4821,
  "met": 4822,
  "Philipp</w>": 4823,
  "verschiedene</w>": 4824,
  "boys</w>": 4825,
  "Person</w>": 4826,
  "consumer</w>": 4827,
  "Sarah</w>": 4828,
  "organisation</w>": 4829,
  "24": 4830,
  "franz\u00f6sischen</w>": 4831,
  "taxes</w>": 4832,
  "ro</w>": 4833,
  "Fast</w>": 4834,
  "gleichzeitig</w>": 4835,
  "Indian</w>": 4836,
  "stra": 4837,
  "ministers</w>": 4838,
  "Regierungs": 4839,
  "Pfarr": 4840,
  "Zentrum</w>": 4841,
  "Stars</w>": 4842,
  "speaking</w>": 4843,
  "jahr</w>": 4844,
  "erhielt</w>": 4845,
  "elte</w>": 4846,
  "ze": 4847,
  "leg": 4848,
  "owned</w>": 4849,
  "seite</w>": 4850,
  "GmbH</w>": 4851,
  "pain</w>": 4852,
  "fresh</w>": 4853,
  "Arsenal</w>": 4854,
  "Technik</w>": 4855,
  "66</w>": 4856,
  "ee</w>": 4857,
  "surgery</w>": 4858,
  "restaurant</w>": 4859,
  "kostet</w>": 4860,
  "College</w>": 4861,
  "cr": 4862,
  "anti": 4863,
  "A.</w>": 4864,
  "va</w>": 4865,
  "Stamm": 4866,
  "hot</w>": 4867,
  "beh\u00f6rde</w>": 4868,
  "aide</w>": 4869,
  "poll</w>": 4870,
  "rei": 4871,
  "bauen</w>": 4872,
  "Hau": 4873,
  "dollar</w>": 4874,
  "sources</w>": 4875,
  "fashion</w>": 4876,
  "Sy": 4877,
  "schlag</w>": 4878,
  "Leitung</w>": 4879,
  "pol": 4880,
  "island</w>": 4881,
  "separate</w>": 4882,
  "unit</w>": 4883,
  "n\u00f6tig</w>": 4884,
  "negative</w>": 4885,
  "direct</w>": 4886,
  "50": 4887,
  "Zwei": 4888,
  "ch-": 4889,
  "decisions</w>": 4890,
  "isch-": 4891,
  "Preis": 4892,
  "Vom</w>": 4893,
  "Flughafen</w>": 4894,
  "\u00fcn": 4895,
  "Wettbewerb</w>": 4896,
  "h\u00e4ufig</w>": 4897,
  "immigration</w>": 4898,
  "failure</w>": 4899,
  "bt</w>": 4900,
  "gaben</w>": 4901,
  "Stephen</w>": 4902,
  "m\u00fcn": 4903,
  "schaften</w>": 4904,
  "4,": 4905,
  "deaths</w>": 4906,
  "Telefon</w>": 4907,
  "Je": 4908,
  "VW</w>": 4909,
  "ash</w>": 4910,
  "Bundestag</w>": 4911,
  "sn": 4912,
  "Veranstaltungen</w>": 4913,
  "Ju": 4914,
  "Jung": 4915,
  "Victoria</w>": 4916,
  "sho": 4917,
  "Hospital</w>": 4918,
  "volle</w>": 4919,
  "Drittel</w>": 4920,
  "sound</w>": 4921,
  "Spitzen": 4922,
  "giant</w>": 4923,
  "Rhein": 4924,
  "core</w>": 4925,
  "option</w>": 4926,
  "hair</w>": 4927,
  "fa": 4928,
  "vice</w>": 4929,
  "Selbst</w>": 4930,
  "options</w>": 4931,
  "Gast</w>": 4932,
  "Home</w>": 4933,
  "5-": 4934,
  "Frauen": 4935,
  "vermutlich</w>": 4936,
  "accounts</w>": 4937,
  "hinzu</w>": 4938,
  "exchange</w>": 4939,
  "advantage</w>": 4940,
  "Marco</w>": 4941,
  "finish</w>": 4942,
  "backed</w>": 4943,
  "hofft</w>": 4944,
  "stands</w>": 4945,
  "broken</w>": 4946,
  "8.": 4947,
  "aware</w>": 4948,
  "heimer</w>": 4949,
  "Terror": 4950,
  "draw</w>": 4951,
  "regime</w>": 4952,
  "northern</w>": 4953,
  "2020</w>": 4954,
  "Halbzeit</w>": 4955,
  "pr\u00e4sentiert</w>": 4956,
  "Supreme</w>": 4957,
  "captain</w>": 4958,
  "Beijing</w>": 4959,
  "Sam": 4960,
  "sing</w>": 4961,
  "B\u00f6": 4962,
  "Microsoft</w>": 4963,
  "los": 4964,
  "gay</w>": 4965,
  "finding</w>": 4966,
  "Herz": 4967,
  "72</w>": 4968,
  "Star": 4969,
  "bacher</w>": 4970,
  "gutes</w>": 4971,
  "Mittel</w>": 4972,
  "Media</w>": 4973,
  "Mag": 4974,
  "kreis</w>": 4975,
  "complex</w>": 4976,
  "estate</w>": 4977,
  "Hamilton</w>": 4978,
  "tournament</w>": 4979,
  "Japanese</w>": 4980,
  "Francisco</w>": 4981,
  "gefeiert</w>": 4982,
  "reporting</w>": 4983,
  "analysts</w>": 4984,
  "R\u00f6": 4985,
  "Energie": 4986,
  "coalition</w>": 4987,
  "ical</w>": 4988,
  "scientists</w>": 4989,
  "-Chef</w>": 4990,
  "tiert</w>": 4991,
  "kaufen</w>": 4992,
  "Fernseh": 4993,
  "lies</w>": 4994,
  "resources</w>": 4995,
  "Eigen": 4996,
  "Ganz</w>": 4997,
  "wor": 4998,
  "mm": 4999,
  "E-": 5000,
  "beschlossen</w>": 5001,
  "VfB</w>": 5002,
  "tan": 5003,
  "trust</w>": 5004,
  "nearby</w>": 5005,
  "fahrer</w>": 5006,
  "leitung</w>": 5007,
  "penalty</w>": 5008,
  "bodies</w>": 5009,
  "increasing</w>": 5010,
  "Erst": 5011,
  "RE": 5012,
  "seek</w>": 5013,
  "ara</w>": 5014,
  "plan": 5015,
  "120</w>": 5016,
  "ziemlich</w>": 5017,
  "Dank</w>": 5018,
  "gefordert</w>": 5019,
  "advice</w>": 5020,
  "Financial</w>": 5021,
  "ised</w>": 5022,
  "herself</w>": 5023,
  "Management</w>": 5024,
  "Sti": 5025,
  "Rem": 5026,
  "bericht</w>": 5027,
  "boost</w>": 5028,
  "Karten</w>": 5029,
  "southern</w>": 5030,
  "two-": 5031,
  "Bus": 5032,
  "conservative</w>": 5033,
  "r\u00fc": 5034,
  "Foreign</w>": 5035,
  "Gl": 5036,
  "explained</w>": 5037,
  "directly</w>": 5038,
  "startet</w>": 5039,
  "Young</w>": 5040,
  "Aufgaben</w>": 5041,
  "Wohnungen</w>": 5042,
  "iPhone</w>": 5043,
  "science</w>": 5044,
  "F\u00e4llen</w>": 5045,
  "uses</w>": 5046,
  "ris": 5047,
  "lung</w>": 5048,
  "onto</w>": 5049,
  "Georg</w>": 5050,
  "Standort</w>": 5051,
  "weiterer</w>": 5052,
  "Ban": 5053,
  "unbedingt</w>": 5054,
  "sts</w>": 5055,
  "Gerade</w>": 5056,
  "Road</w>": 5057,
  "na</w>": 5058,
  "kritisiert</w>": 5059,
  "nature</w>": 5060,
  "university</w>": 5061,
  "Nachfolger</w>": 5062,
  "Tisch</w>": 5063,
  "Three</w>": 5064,
  "geln</w>": 5065,
  "guy</w>": 5066,
  "gemein": 5067,
  "Weltmeister</w>": 5068,
  "activities</w>": 5069,
  "dank</w>": 5070,
  "spread</w>": 5071,
  "allegedly</w>": 5072,
  "birth</w>": 5073,
  "ali": 5074,
  "Helmut</w>": 5075,
  "Forscher</w>": 5076,
  "Pr": 5077,
  "ously</w>": 5078,
  "Sachen</w>": 5079,
  "Qualit\u00e4t</w>": 5080,
  "pulled</w>": 5081,
  "getan</w>": 5082,
  "Konkurrenz</w>": 5083,
  "shots</w>": 5084,
  "Schutz</w>": 5085,
  "armed</w>": 5086,
  "passengers</w>": 5087,
  "steps</w>": 5088,
  "ett": 5089,
  "ending</w>": 5090,
  "Associated</w>": 5091,
  "Fu": 5092,
  "Northern</w>": 5093,
  "64</w>": 5094,
  "Verkauf</w>": 5095,
  "physical</w>": 5096,
  "asch": 5097,
  "Lord</w>": 5098,
  "tut</w>": 5099,
  "71</w>": 5100,
  "Super</w>": 5101,
  "eingesetzt</w>": 5102,
  "verurteilt</w>": 5103,
  "suggests</w>": 5104,
  "votes</w>": 5105,
  "Kin": 5106,
  "sozialen</w>": 5107,
  "festival</w>": 5108,
  "Fed</w>": 5109,
  "fehlen</w>": 5110,
  "AL": 5111,
  "de-": 5112,
  "Matt</w>": 5113,
  "Mur": 5114,
  "defeat</w>": 5115,
  "providing</w>": 5116,
  "bewusst</w>": 5117,
  "vertreten</w>": 5118,
  "gesprochen</w>": 5119,
  "ick": 5120,
  "Gri": 5121,
  "st\u00e4ndig</w>": 5122,
  "freien</w>": 5123,
  "Instead</w>": 5124,
  "Johannes</w>": 5125,
  "verlor</w>": 5126,
  "vorstellen</w>": 5127,
  "j\u00e4hrlich</w>": 5128,
  "rare</w>": 5129,
  "corporate</w>": 5130,
  "upon</w>": 5131,
  "Verletzungen</w>": 5132,
  "effective</w>": 5133,
  "effects</w>": 5134,
  "politicians</w>": 5135,
  "influence</w>": 5136,
  "fifth</w>": 5137,
  "teilt</w>": 5138,
  "stehe</w>": 5139,
  "1999</w>": 5140,
  "proposal</w>": 5141,
  "UN</w>": 5142,
  "Pl\u00e4tze</w>": 5143,
  "Anna</w>": 5144,
  "ically</w>": 5145,
  "Homepage</w>": 5146,
  "PM</w>": 5147,
  "T\u00fcr</w>": 5148,
  "Wind": 5149,
  "67</w>": 5150,
  "star": 5151,
  "sor": 5152,
  "insbesondere</w>": 5153,
  "all-": 5154,
  "mut": 5155,
  "Wunsch</w>": 5156,
  "versammlung</w>": 5157,
  "Kommunen</w>": 5158,
  "Bank": 5159,
  "Wol": 5160,
  "lin</w>": 5161,
  "Alten": 5162,
  "gleich": 5163,
  "standard</w>": 5164,
  "Rettungs": 5165,
  "anten</w>": 5166,
  "Radio</w>": 5167,
  "fle": 5168,
  "seconds</w>": 5169,
  "sters</w>": 5170,
  "Regen": 5171,
  "guys</w>": 5172,
  "festgenommen</w>": 5173,
  "Ihnen</w>": 5174,
  "features</w>": 5175,
  "McCain</w>": 5176,
  "kill</w>": 5177,
  "anlage</w>": 5178,
  "announcement</w>": 5179,
  "develop</w>": 5180,
  "Stimme</w>": 5181,
  "Alters": 5182,
  "10-": 5183,
  "Pa": 5184,
  "Bildungs": 5185,
  "Zeugen</w>": 5186,
  "cher": 5187,
  "Schneider</w>": 5188,
  "high-": 5189,
  "beg": 5190,
  "Auftakt</w>": 5191,
  "Westen</w>": 5192,
  "dri": 5193,
  "Duell</w>": 5194,
  "Kanzlerin</w>": 5195,
  "zahlreichen</w>": 5196,
  "May": 5197,
  "Char": 5198,
  "Saison": 5199,
  "protesters</w>": 5200,
  "parliament</w>": 5201,
  "63</w>": 5202,
  "writer</w>": 5203,
  "rit": 5204,
  "ther": 5205,
  "nennt</w>": 5206,
  "ano</w>": 5207,
  "produce</w>": 5208,
  "district</w>": 5209,
  "geraten</w>": 5210,
  "setting</w>": 5211,
  "Einsatz": 5212,
  "Auftrag</w>": 5213,
  "thalle</w>": 5214,
  "Helfer</w>": 5215,
  "62</w>": 5216,
  "TuS</w>": 5217,
  "organization</w>": 5218,
  "h\u00e4ngt</w>": 5219,
  "firms</w>": 5220,
  "unklar</w>": 5221,
  "lers</w>": 5222,
  "guard</w>": 5223,
  "russischen</w>": 5224,
  "aktuelle</w>": 5225,
  "ine": 5226,
  "rock</w>": 5227,
  "ki</w>": 5228,
  "ermittelt</w>": 5229,
  "itzer</w>": 5230,
  "\u00e4u": 5231,
  "Under</w>": 5232,
  "suggest</w>": 5233,
  "grew</w>": 5234,
  "discuss</w>": 5235,
  "drama</w>": 5236,
  "Ram": 5237,
  "dem": 5238,
  "squad</w>": 5239,
  "genannt</w>": 5240,
  "Over</w>": 5241,
  "District</w>": 5242,
  "boss</w>": 5243,
  "Brazil</w>": 5244,
  "digital</w>": 5245,
  "22.</w>": 5246,
  "informiert</w>": 5247,
  "citizens</w>": 5248,
  "vorher</w>": 5249,
  "Verkehr": 5250,
  "maybe</w>": 5251,
  "Fest</w>": 5252,
  "mid-": 5253,
  "secure</w>": 5254,
  "Satz</w>": 5255,
  "trat</w>": 5256,
  "Schauspieler</w>": 5257,
  "Florian</w>": 5258,
  "Musi": 5259,
  "rechten</w>": 5260,
  "20-": 5261,
  "hu": 5262,
  "approved</w>": 5263,
  "Sanierung</w>": 5264,
  "ends</w>": 5265,
  "Mannschaften</w>": 5266,
  "Top</w>": 5267,
  "Uwe</w>": 5268,
  "digen</w>": 5269,
  "Amazon</w>": 5270,
  "Wo": 5271,
  "Eric</w>": 5272,
  "Jan": 5273,
  "ying</w>": 5274,
  "arms</w>": 5275,
  "aner</w>": 5276,
  "61</w>": 5277,
  "Sky</w>": 5278,
  "pri": 5279,
  "Straf": 5280,
  "kel</w>": 5281,
  "Horst</w>": 5282,
  "1,000</w>": 5283,
  "ften</w>": 5284,
  "ence</w>": 5285,
  "Rosen": 5286,
  "Leistungen</w>": 5287,
  "ants</w>": 5288,
  "fertig</w>": 5289,
  "46": 5290,
  "Has": 5291,
  "Vil": 5292,
  "J.</w>": 5293,
  "loans</w>": 5294,
  "Innenstadt</w>": 5295,
  "Greece</w>": 5296,
  "Haft</w>": 5297,
  "inc": 5298,
  "and-": 5299,
  "iges</w>": 5300,
  "software</w>": 5301,
  "Mad": 5302,
  "dark</w>": 5303,
  "Derzeit</w>": 5304,
  "vollen</w>": 5305,
  "stone</w>": 5306,
  "ruled</w>": 5307,
  "funktioniert</w>": 5308,
  "New": 5309,
  "ide": 5310,
  "falling</w>": 5311,
  "aler</w>": 5312,
  "ws</w>": 5313,
  "ke": 5314,
  "Gerhard</w>": 5315,
  "Saudi</w>": 5316,
  "wh": 5317,
  "h\u00e4user</w>": 5318,
  "Osten</w>": 5319,
  "Sie": 5320,
  "Eintracht</w>": 5321,
  "gend</w>": 5322,
  "app": 5323,
  "Kurs</w>": 5324,
  "Geb": 5325,
  "amm": 5326,
  "zw": 5327,
  "content</w>": 5328,
  "fach": 5329,
  "Bewohner</w>": 5330,
  "Pfarrer</w>": 5331,
  "Ol": 5332,
  "Gro\u00dfbritannien</w>": 5333,
  "Aktien</w>": 5334,
  "specific</w>": 5335,
  "stores</w>": 5336,
  "active</w>": 5337,
  "unlikely</w>": 5338,
  "sitting</w>": 5339,
  "K-": 5340,
  "changing</w>": 5341,
  "patient</w>": 5342,
  "phones</w>": 5343,
  "wiederum</w>": 5344,
  "healthy</w>": 5345,
  "Wa": 5346,
  "gende</w>": 5347,
  "Pap": 5348,
  "eingeladen</w>": 5349,
  "cents</w>": 5350,
  "starts</w>": 5351,
  "buying</w>": 5352,
  "endorf</w>": 5353,
  "loan</w>": 5354,
  "Eindruck</w>": 5355,
  "carrying</w>": 5356,
  "rival</w>": 5357,
  "Moskau</w>": 5358,
  "acting</w>": 5359,
  "Not": 5360,
  "protection</w>": 5361,
  "FBI</w>": 5362,
  "request</w>": 5363,
  "manchmal</w>": 5364,
  "chter</w>": 5365,
  "gen-": 5366,
  "ca</w>": 5367,
  "bigger</w>": 5368,
  "eng</w>": 5369,
  "\u00e9e</w>": 5370,
  "secret</w>": 5371,
  "Ruhe</w>": 5372,
  "equipment</w>": 5373,
  "Nutzer</w>": 5374,
  "Egypt</w>": 5375,
  "provides</w>": 5376,
  "declared</w>": 5377,
  "Life</w>": 5378,
  "Still</w>": 5379,
  "suspect</w>": 5380,
  "gruppen</w>": 5381,
  "Fr\u00fchjahr</w>": 5382,
  "song</w>": 5383,
  "surprise</w>": 5384,
  "err": 5385,
  "Fro": 5386,
  "Nations</w>": 5387,
  "Schalke</w>": 5388,
  "gerin</w>": 5389,
  "genden</w>": 5390,
  "erh\u00e4lt</w>": 5391,
  "ched</w>": 5392,
  "Pi": 5393,
  "einzelnen</w>": 5394,
  "R-": 5395,
  "Games</w>": 5396,
  "TV-": 5397,
  "deten</w>": 5398,
  "Wolf</w>": 5399,
  "ni": 5400,
  "Schle": 5401,
  "Milit\u00e4r": 5402,
  "ppe</w>": 5403,
  "allowing</w>": 5404,
  "app</w>": 5405,
  "le-": 5406,
  "Middle</w>": 5407,
  "religious</w>": 5408,
  "Wo</w>": 5409,
  "Great</w>": 5410,
  "Zealand</w>": 5411,
  "Anthony</w>": 5412,
  "gestiegen</w>": 5413,
  "communities</w>": 5414,
  "ok": 5415,
  "deliver</w>": 5416,
  "Gr\u00fcnden</w>": 5417,
  "Vereins</w>": 5418,
  "gerechnet</w>": 5419,
  "gefahren</w>": 5420,
  "24.</w>": 5421,
  "Davis</w>": 5422,
  "MPs</w>": 5423,
  "if": 5424,
  "l-": 5425,
  "gten</w>": 5426,
  "Energy</w>": 5427,
  "existing</w>": 5428,
  "album</w>": 5429,
  "kal": 5430,
  "pictures</w>": 5431,
  "fan</w>": 5432,
  "Korean</w>": 5433,
  "serving</w>": 5434,
  "Louis</w>": 5435,
  "three-": 5436,
  "bet": 5437,
  "jail</w>": 5438,
  "ot": 5439,
  "Gewinn</w>": 5440,
  "offenen</w>": 5441,
  "Bon": 5442,
  "Geh": 5443,
  "hoffen</w>": 5444,
  "Andrea</w>": 5445,
  "Bern": 5446,
  "Web</w>": 5447,
  "gre": 5448,
  "wins</w>": 5449,
  "\u00dfe</w>": 5450,
  "schlug</w>": 5451,
  "Wald</w>": 5452,
  "agencies</w>": 5453,
  "Handel</w>": 5454,
  "lat": 5455,
  "d\u00fcrften</w>": 5456,
  "terin</w>": 5457,
  "Wor": 5458,
  "abgeschlossen</w>": 5459,
  "Ali</w>": 5460,
  "smaller</w>": 5461,
  "Geburtstag</w>": 5462,
  "Sam</w>": 5463,
  "Vier</w>": 5464,
  "esen</w>": 5465,
  "Gemeinden</w>": 5466,
  "erlebt</w>": 5467,
  "Journalisten</w>": 5468,
  "dung</w>": 5469,
  "CBS</w>": 5470,
  "De</w>": 5471,
  "Like</w>": 5472,
  "a.m.</w>": 5473,
  "68</w>": 5474,
  "positiv</w>": 5475,
  "appearance</w>": 5476,
  "Bru": 5477,
  "Rec": 5478,
  "Anh\u00e4nger</w>": 5479,
  "Fu\u00df</w>": 5480,
  "Anschluss</w>": 5481,
  "iker</w>": 5482,
  "gesucht</w>": 5483,
  "Vo": 5484,
  "presence</w>": 5485,
  "sister</w>": 5486,
  "multiple</w>": 5487,
  "Ohio</w>": 5488,
  "aufzu": 5489,
  "Fl\u00fcchtlings": 5490,
  "Reg": 5491,
  "Gem": 5492,
  "sogenannte</w>": 5493,
  "achten</w>": 5494,
  "ella</w>": 5495,
  "zugleich</w>": 5496,
  "remaining</w>": 5497,
  "winter</w>": 5498,
  "extremely</w>": 5499,
  "Europ\u00e4ischen</w>": 5500,
  "ar-": 5501,
  "rel": 5502,
  "Van</w>": 5503,
  "by": 5504,
  "J\u00f6rg</w>": 5505,
  "films</w>": 5506,
  "Pau": 5507,
  "reportedly</w>": 5508,
  "suicide</w>": 5509,
  "beendet</w>": 5510,
  "air": 5511,
  "ney</w>": 5512,
  "hasn</w>": 5513,
  "gelassen</w>": 5514,
  "elected</w>": 5515,
  "scheme</w>": 5516,
  "wahrscheinlich</w>": 5517,
  "Sen.</w>": 5518,
  "Fahrt</w>": 5519,
  "Regel</w>": 5520,
  "ot</w>": 5521,
  "inf": 5522,
  "sch\u00fctzen</w>": 5523,
  "Blut": 5524,
  "magazine</w>": 5525,
  "77</w>": 5526,
  "Lang": 5527,
  "Manuel</w>": 5528,
  "gain</w>": 5529,
  "accept</w>": 5530,
  "somit</w>": 5531,
  "internet</w>": 5532,
  "gearbeitet</w>": 5533,
  "criticism</w>": 5534,
  "wichtiger</w>": 5535,
  "alisiert</w>": 5536,
  "wir": 5537,
  "suit</w>": 5538,
  "loved</w>": 5539,
  "Zug</w>": 5540,
  "mann": 5541,
  "Tanz": 5542,
  "holte</w>": 5543,
  "Natur</w>": 5544,
  "passt</w>": 5545,
  "folgt</w>": 5546,
  "\u00fcbrigens</w>": 5547,
  "bringing</w>": 5548,
  "Julia</w>": 5549,
  "Projekte</w>": 5550,
  "offiziell</w>": 5551,
  "geblieben</w>": 5552,
  "Its</w>": 5553,
  "Details</w>": 5554,
  "Ideen</w>": 5555,
  "\u00fcl": 5556,
  "email</w>": 5557,
  "fish</w>": 5558,
  "Andy</w>": 5559,
  "iler</w>": 5560,
  "erstellt</w>": 5561,
  "eted</w>": 5562,
  "glaube</w>": 5563,
  "Dienst</w>": 5564,
  "Sprache</w>": 5565,
  "Dan": 5566,
  "alongside</w>": 5567,
  "g-": 5568,
  "9,": 5569,
  "st-": 5570,
  "tliche</w>": 5571,
  "Because</w>": 5572,
  "Rath": 5573,
  "introduced</w>": 5574,
  "teilen</w>": 5575,
  "\u00fcbernommen</w>": 5576,
  "spar": 5577,
  "photos</w>": 5578,
  "prove</w>": 5579,
  "individuals</w>": 5580,
  "Au\u00dfenminister</w>": 5581,
  "agree</w>": 5582,
  "sion</w>": 5583,
  "ud": 5584,
  "contributed</w>": 5585,
  "port</w>": 5586,
  "bri": 5587,
  "SA</w>": 5588,
  "sentence</w>": 5589,
  "coverage</w>": 5590,
  "Les": 5591,
  "guter</w>": 5592,
  "S-": 5593,
  "genauso</w>": 5594,
  "bert</w>": 5595,
  "SP": 5596,
  "Worten</w>": 5597,
  "geschafft</w>": 5598,
  "expensive</w>": 5599,
  "governments</w>": 5600,
  "laden</w>": 5601,
  "Bier": 5602,
  "terrorist</w>": 5603,
  "23.</w>": 5604,
  "Reserve</w>": 5605,
  "richtige</w>": 5606,
  "wichtigsten</w>": 5607,
  "F\u00e4lle</w>": 5608,
  "erei</w>": 5609,
  "Kurz": 5610,
  "ss": 5611,
  "urged</w>": 5612,
  "an-": 5613,
  "reading</w>": 5614,
  "weiteres</w>": 5615,
  "updated</w>": 5616,
  "jury</w>": 5617,
  "entwickeln</w>": 5618,
  "camera</w>": 5619,
  "challenges</w>": 5620,
  "gte</w>": 5621,
  "solution</w>": 5622,
  "crew</w>": 5623,
  "\u00f6ffentlich</w>": 5624,
  "decide</w>": 5625,
  "16.": 5626,
  "onen</w>": 5627,
  "Schwer": 5628,
  "st\u00fcck</w>": 5629,
  "developing</w>": 5630,
  "Pan": 5631,
  "rechte</w>": 5632,
  "Former</w>": 5633,
  "Energie</w>": 5634,
  "starten</w>": 5635,
  "sought</w>": 5636,
  "h\u00f6her</w>": 5637,
  "Por": 5638,
  "slightly</w>": 5639,
  "Kol": 5640,
  "Gut</w>": 5641,
  "Editing</w>": 5642,
  "\u00c4nderung</w>": 5643,
  "negotiations</w>": 5644,
  "sehe</w>": 5645,
  "Norden</w>": 5646,
  "finance</w>": 5647,
  "gedacht</w>": 5648,
  "blue</w>": 5649,
  "fl\u00e4che</w>": 5650,
  "geplante</w>": 5651,
  "8-": 5652,
  "erleben</w>": 5653,
  "-J\u00e4hriger</w>": 5654,
  "nannte</w>": 5655,
  "completed</w>": 5656,
  "leider</w>": 5657,
  "Who</w>": 5658,
  "gemeinsame</w>": 5659,
  "mass</w>": 5660,
  "ines</w>": 5661,
  "hurt</w>": 5662,
  "interests</w>": 5663,
  "Marke</w>": 5664,
  "AF": 5665,
  "ats": 5666,
  "deals</w>": 5667,
  "gesch\u00e4ft</w>": 5668,
  "Ul": 5669,
  "Al</w>": 5670,
  "turning</w>": 5671,
  "bottom</w>": 5672,
  "colleagues</w>": 5673,
  "unable</w>": 5674,
  "expressed</w>": 5675,
  "Bob</w>": 5676,
  "wies</w>": 5677,
  "tie</w>": 5678,
  "verlieren</w>": 5679,
  "komme</w>": 5680,
  "Business</w>": 5681,
  "Che": 5682,
  "Mi": 5683,
  "voted</w>": 5684,
  "gef": 5685,
  "opportunities</w>": 5686,
  "ma\u00dfnahmen</w>": 5687,
  "schl": 5688,
  "36": 5689,
  "east</w>": 5690,
  "determined</w>": 5691,
  "denk": 5692,
  "\u00e4hnlich</w>": 5693,
  "immerhin</w>": 5694,
  "fragt</w>": 5695,
  "ga</w>": 5696,
  "kirche</w>": 5697,
  "Jim</w>": 5698,
  "Kate</w>": 5699,
  "convicted</w>": 5700,
  "Kelly</w>": 5701,
  "schlie\u00dfen</w>": 5702,
  "linger</w>": 5703,
  "matches</w>": 5704,
  "article</w>": 5705,
  "doctor</w>": 5706,
  "happens</w>": 5707,
  "Eich": 5708,
  "collection</w>": 5709,
  "cor": 5710,
  "dig": 5711,
  "Miss</w>": 5712,
  "befindet</w>": 5713,
  "te-": 5714,
  "elten</w>": 5715,
  "besondere</w>": 5716,
  "Vorw\u00fcrfe</w>": 5717,
  "Ir": 5718,
  "struggling</w>": 5719,
  "well-": 5720,
  "relations</w>": 5721,
  "fiscal</w>": 5722,
  "sheim</w>": 5723,
  "warm</w>": 5724,
  "Rock": 5725,
  "AM": 5726,
  "Manfred</w>": 5727,
  "younger</w>": 5728,
  "endes</w>": 5729,
  "picked</w>": 5730,
  "confident</w>": 5731,
  "Worte</w>": 5732,
  "imp": 5733,
  "bessere</w>": 5734,
  "Mio.</w>": 5735,
  "tlich</w>": 5736,
  "Studenten</w>": 5737,
  "The": 5738,
  "Schlag": 5739,
  "hits</w>": 5740,
  "verfahren</w>": 5741,
  "Szene</w>": 5742,
  "Force</w>": 5743,
  "za</w>": 5744,
  "Renn": 5745,
  "Koch</w>": 5746,
  "Einer</w>": 5747,
  "sdorf</w>": 5748,
  "larger</w>": 5749,
  "spring</w>": 5750,
  "37": 5751,
  "gesetz</w>": 5752,
  "rechnet</w>": 5753,
  "ann</w>": 5754,
  "\u00fcberraschend</w>": 5755,
  "Hessen</w>": 5756,
  "nations</w>": 5757,
  "nieder": 5758,
  "analyst</w>": 5759,
  "theater</w>": 5760,
  "alternative</w>": 5761,
  "AN": 5762,
  "joint</w>": 5763,
  "GOP</w>": 5764,
  "1998</w>": 5765,
  "End": 5766,
  "panel</w>": 5767,
  "Fol": 5768,
  "Wahlkampf</w>": 5769,
  "28.</w>": 5770,
  "coast</w>": 5771,
  "Il": 5772,
  "-based</w>": 5773,
  "Sieger</w>": 5774,
  "bauer</w>": 5775,
  "Queensland</w>": 5776,
  "best": 5777,
  "Polen</w>": 5778,
  "Dra": 5779,
  "mine</w>": 5780,
  "decline</w>": 5781,
  "ny</w>": 5782,
  "Zweifel</w>": 5783,
  "mitglieder</w>": 5784,
  "removed</w>": 5785,
  "Kri": 5786,
  "blieben</w>": 5787,
  "Rein": 5788,
  "Hersteller</w>": 5789,
  "tief</w>": 5790,
  "zo": 5791,
  "verstehen</w>": 5792,
  "Betriebs": 5793,
  "stolz</w>": 5794,
  "Quartal</w>": 5795,
  "studies</w>": 5796,
  "feiert</w>": 5797,
  "Kapit\u00e4n</w>": 5798,
  "learned</w>": 5799,
  "mache</w>": 5800,
  "walking</w>": 5801,
  "M\u00fcnster</w>": 5802,
  "vision</w>": 5803,
  "sanctions</w>": 5804,
  "27.</w>": 5805,
  "payments</w>": 5806,
  "Do</w>": 5807,
  "uf": 5808,
  "emerged</w>": 5809,
  "Obwohl</w>": 5810,
  "\u00e8": 5811,
  "erer</w>": 5812,
  "houses</w>": 5813,
  "ators</w>": 5814,
  "route</w>": 5815,
  "lie": 5816,
  "offensive</w>": 5817,
  "Agency</w>": 5818,
  "Neben": 5819,
  "covered</w>": 5820,
  "Motor": 5821,
  "notwendig</w>": 5822,
  "inflation</w>": 5823,
  "Zwischen": 5824,
  "militants</w>": 5825,
  "tar": 5826,
  "wear</w>": 5827,
  "slow</w>": 5828,
  "tells</w>": 5829,
  "deutscher</w>": 5830,
  "Umwelt": 5831,
  "ym": 5832,
  "creating</w>": 5833,
  "Public</w>": 5834,
  "schl\u00e4gt</w>": 5835,
  "kre": 5836,
  "flu": 5837,
  "dec": 5838,
  "Year</w>": 5839,
  "Wolfsburg</w>": 5840,
  "fern</w>": 5841,
  "Bilanz</w>": 5842,
  "Miller</w>": 5843,
  "jo</w>": 5844,
  "initial</w>": 5845,
  "NHS</w>": 5846,
  "amerikanischen</w>": 5847,
  "t\u00e4tig</w>": 5848,
  "pping</w>": 5849,
  "Sinn</w>": 5850,
  "wichtigen</w>": 5851,
  "69</w>": 5852,
  "stimmen</w>": 5853,
  "Spanish</w>": 5854,
  "ST": 5855,
  "W\u00e4hler</w>": 5856,
  "Baden-W\u00fcrttemberg</w>": 5857,
  "bomb</w>": 5858,
  "wirken</w>": 5859,
  "Mail</w>": 5860,
  "Morgan</w>": 5861,
  "accident</w>": 5862,
  "ett</w>": 5863,
  "Miami</w>": 5864,
  "berichten</w>": 5865,
  "07</w>": 5866,
  "eat</w>": 5867,
  "tieren</w>": 5868,
  "Trotzdem</w>": 5869,
  "God</w>": 5870,
  "write</w>": 5871,
  "Barbara</w>": 5872,
  "Wes": 5873,
  "etz": 5874,
  "Erste</w>": 5875,
  "hervor</w>": 5876,
  "emotional</w>": 5877,
  "Generation</w>": 5878,
  "adi": 5879,
  "Parliament</w>": 5880,
  "26.</w>": 5881,
  "bis": 5882,
  "Test": 5883,
  "hoping</w>": 5884,
  "Erfahrungen</w>": 5885,
  "Ehr": 5886,
  "ont</w>": 5887,
  "marketing</w>": 5888,
  "require</w>": 5889,
  "Euro-": 5890,
  "Million</w>": 5891,
  "schwierig</w>": 5892,
  "ober": 5893,
  "Zuvor</w>": 5894,
  "Gold": 5895,
  "mehrfach</w>": 5896,
  "unserem</w>": 5897,
  "tungen</w>": 5898,
  "erkl\u00e4ren</w>": 5899,
  "animals</w>": 5900,
  "Fisch": 5901,
  "verzichten</w>": 5902,
  "\u00e4r</w>": 5903,
  "m\u00f6glicherweise</w>": 5904,
  "rally</w>": 5905,
  "Ni": 5906,
  "fil": 5907,
  "Verbindung</w>": 5908,
  "hilft</w>": 5909,
  "Getty</w>": 5910,
  "begeistert</w>": 5911,
  "glaubt</w>": 5912,
  "scale</w>": 5913,
  "BMW</w>": 5914,
  "Stadium</w>": 5915,
  "Feld": 5916,
  "Teile</w>": 5917,
  "glauben</w>": 5918,
  "allows</w>": 5919,
  "eck</w>": 5920,
  "toll</w>": 5921,
  "Spe": 5922,
  "Schutz": 5923,
  "sum": 5924,
  "Marc</w>": 5925,
  "session</w>": 5926,
  "internationale</w>": 5927,
  "gri": 5928,
  "Nachrichtenagentur</w>": 5929,
  "Bildung</w>": 5930,
  "closer</w>": 5931,
  "Canadian</w>": 5932,
  "gelungen</w>": 5933,
  "Friedrich</w>": 5934,
  "weist</w>": 5935,
  "vers</w>": 5936,
  "ver\u00f6ffentlicht</w>": 5937,
  "the": 5938,
  "Europas</w>": 5939,
  "60": 5940,
  "ba</w>": 5941,
  "Schulz</w>": 5942,
  "fri": 5943,
  "potentially</w>": 5944,
  "teils</w>": 5945,
  "Pen": 5946,
  "Gelegenheit</w>": 5947,
  "Dom": 5948,
  "Global</w>": 5949,
  "Jersey</w>": 5950,
  "Fernsehen</w>": 5951,
  "unten</w>": 5952,
  "Ermittler</w>": 5953,
  "suffering</w>": 5954,
  "ged</w>": 5955,
  "nice</w>": 5956,
  "Fern": 5957,
  "def": 5958,
  "geboren</w>": 5959,
  "Edinburgh</w>": 5960,
  "Felix</w>": 5961,
  "sur</w>": 5962,
  "expectations</w>": 5963,
  "K\u00f6rper</w>": 5964,
  "ron</w>": 5965,
  "capacity</w>": 5966,
  "Gedanken</w>": 5967,
  "driven</w>": 5968,
  "reisen</w>": 5969,
  "established</w>": 5970,
  "analysis</w>": 5971,
  "stuff</w>": 5972,
  "ising</w>": 5973,
  "cold</w>": 5974,
  "entstanden</w>": 5975,
  "Wege</w>": 5976,
  "ase</w>": 5977,
  "beautiful</w>": 5978,
  "vis": 5979,
  "handed</w>": 5980,
  "willing</w>": 5981,
  "ap</w>": 5982,
  "ischem</w>": 5983,
  "Werk": 5984,
  "easily</w>": 5985,
  "kel": 5986,
  "items</w>": 5987,
  "touch</w>": 5988,
  "Ann": 5989,
  "ord": 5990,
  "apparently</w>": 5991,
  "Erdogan</w>": 5992,
  "Back": 5993,
  "ces</w>": 5994,
  "werfen</w>": 5995,
  "Gesundheits": 5996,
  "5,": 5997,
  "kap": 5998,
  "clean</w>": 5999,
  "ality</w>": 6000,
  "britischen</w>": 6001,
  "Tobias</w>": 6002,
  "stein": 6003,
  "Umgang</w>": 6004,
  "heads</w>": 6005,
  "supported</w>": 6006,
  "Anfrage</w>": 6007,
  "trouble</w>": 6008,
  "hardt</w>": 6009,
  "ministerin</w>": 6010,
  "M\u00fcn": 6011,
  "plenty</w>": 6012,
  "Stra": 6013,
  "Fel": 6014,
  "erzielte</w>": 6015,
  "seats</w>": 6016,
  "vergessen</w>": 6017,
  "Rot": 6018,
  "W.</w>": 6019,
  "musik</w>": 6020,
  "St\u00fcrmer</w>": 6021,
  "rescue</w>": 6022,
  "Assad</w>": 6023,
  "sit</w>": 6024,
  "Iraqi</w>": 6025,
  "Dorf": 6026,
  "Damals</w>": 6027,
  "Best</w>": 6028,
  "stood</w>": 6029,
  "recorded</w>": 6030,
  "Sonne</w>": 6031,
  "tend</w>": 6032,
  "Umsatz</w>": 6033,
  "off": 6034,
  "felder</w>": 6035,
  "drivers</w>": 6036,
  "AD": 6037,
  "raising</w>": 6038,
  "earned</w>": 6039,
  "Hof</w>": 6040,
  "Wilson</w>": 6041,
  "violent</w>": 6042,
  "Reporting</w>": 6043,
  "gung</w>": 6044,
  "referendum</w>": 6045,
  "Du</w>": 6046,
  "Afghan</w>": 6047,
  "Name</w>": 6048,
  "Grenz": 6049,
  "dete</w>": 6050,
  "anz</w>": 6051,
  "strength</w>": 6052,
  "dige</w>": 6053,
  "og": 6054,
  "schneller</w>": 6055,
  "ville</w>": 6056,
  "els": 6057,
  "73</w>": 6058,
  "Rekord": 6059,
  "argued</w>": 6060,
  "pour</w>": 6061,
  "fears</w>": 6062,
  "Dach": 6063,
  "durfte</w>": 6064,
  "Earth</w>": 6065,
  "Premiere</w>": 6066,
  "lawyers</w>": 6067,
  "respond</w>": 6068,
  "headed</w>": 6069,
  "Institut</w>": 6070,
  "zus\u00e4tzlich</w>": 6071,
  "manche</w>": 6072,
  "bilden</w>": 6073,
  "Karte</w>": 6074,
  "rie": 6075,
  "Sur": 6076,
  "Anzei": 6077,
  "Garten": 6078,
  "Sim": 6079,
  "Ralf</w>": 6080,
  "debut</w>": 6081,
  "App</w>": 6082,
  "einiges</w>": 6083,
  "Services</w>": 6084,
  "U.N.</w>": 6085,
  "visitors</w>": 6086,
  "74</w>": 6087,
  "limit</w>": 6088,
  "ac</w>": 6089,
  "feels</w>": 6090,
  "gelte</w>": 6091,
  "freie</w>": 6092,
  "pool</w>": 6093,
  "trans": 6094,
  "bra": 6095,
  "opinion</w>": 6096,
  "tlichen</w>": 6097,
  "feature</w>": 6098,
  "ers": 6099,
  "rain</w>": 6100,
  "artist</w>": 6101,
  "che": 6102,
  "laufenden</w>": 6103,
  "maker</w>": 6104,
  "rau": 6105,
  "seriously</w>": 6106,
  "frage</w>": 6107,
  "Women</w>": 6108,
  "ans": 6109,
  "galt</w>": 6110,
  "pace</w>": 6111,
  "Capital</w>": 6112,
  "buildings</w>": 6113,
  "Dr": 6114,
  "Rest</w>": 6115,
  "Des": 6116,
  "findings</w>": 6117,
  "Foundation</w>": 6118,
  "interested</w>": 6119,
  "yard</w>": 6120,
  "Pop": 6121,
  "Sorgen</w>": 6122,
  "us-": 6123,
  "iner</w>": 6124,
  "continuing</w>": 6125,
  "leiterin</w>": 6126,
  "Before</w>": 6127,
  "ering</w>": 6128,
  "sha": 6129,
  "Kampf": 6130,
  "R\u00fcckkehr</w>": 6131,
  "27": 6132,
  "zogen</w>": 6133,
  "Ausgleich</w>": 6134,
  "Ausbau</w>": 6135,
  "Amts": 6136,
  "Sch\u00fctzen": 6137,
  "Sonnen": 6138,
  "weisen</w>": 6139,
  "Main</w>": 6140,
  "Autor</w>": 6141,
  "deputy</w>": 6142,
  "Tabellen": 6143,
  "cl": 6144,
  "Bisher</w>": 6145,
  "Mein</w>": 6146,
  "Dec": 6147,
  "cool</w>": 6148,
  "bers</w>": 6149,
  "Moscow</w>": 6150,
  "authority</w>": 6151,
  "AC</w>": 6152,
  "Jordan</w>": 6153,
  "Einrichtung</w>": 6154,
  "\u00fcberall</w>": 6155,
  "Start": 6156,
  "Arab</w>": 6157,
  "28": 6158,
  "Rom": 6159,
  "mark": 6160,
  "fees</w>": 6161,
  "wirft</w>": 6162,
  "Let</w>": 6163,
  "essen": 6164,
  "ppen</w>": 6165,
  "ktion</w>": 6166,
  "leg</w>": 6167,
  "meaning</w>": 6168,
  "path</w>": 6169,
  "Brian</w>": 6170,
  "gegen": 6171,
  "Cha": 6172,
  "verwaltung</w>": 6173,
  "leit": 6174,
  "26": 6175,
  "grand</w>": 6176,
  "enjoy</w>": 6177,
  "tm": 6178,
  "quick</w>": 6179,
  "reduced</w>": 6180,
  "iel": 6181,
  "Hong</w>": 6182,
  "Wieder": 6183,
  "ology</w>": 6184,
  "Allein</w>": 6185,
  "auff": 6186,
  "wobei</w>": 6187,
  "pushed</w>": 6188,
  "asi": 6189,
  "gesorgt</w>": 6190,
  "ish": 6191,
  "Kat": 6192,
  "ams</w>": 6193,
  "agent</w>": 6194,
  "assen</w>": 6195,
  "Nie": 6196,
  "village</w>": 6197,
  "promised</w>": 6198,
  "entstand</w>": 6199,
  "dahin</w>": 6200,
  "Eigentlich</w>": 6201,
  "spe": 6202,
  "Bedingungen</w>": 6203,
  "corruption</w>": 6204,
  "Station</w>": 6205,
  "ong": 6206,
  "au\u00dfer</w>": 6207,
  "Irish</w>": 6208,
  "devices</w>": 6209,
  "iel</w>": 6210,
  "ai": 6211,
  "vorgestellt</w>": 6212,
  "gemeinde</w>": 6213,
  "Augsburg</w>": 6214,
  "absolutely</w>": 6215,
  "commitment</w>": 6216,
  "\u00e4re</w>": 6217,
  "N\u00fcrnberg</w>": 6218,
  "Baum": 6219,
  "jene</w>": 6220,
  "Once</w>": 6221,
  "Valley</w>": 6222,
  "inquiry</w>": 6223,
  "Roll": 6224,
  "Only</w>": 6225,
  "wild</w>": 6226,
  "runde</w>": 6227,
  "chs": 6228,
  "dress</w>": 6229,
  "-up</w>": 6230,
  "Time</w>": 6231,
  "richtigen</w>": 6232,
  "freedom</w>": 6233,
  "possibility</w>": 6234,
  "Risiko</w>": 6235,
  "ander": 6236,
  "hau": 6237,
  "charity</w>": 6238,
  "vorerst</w>": 6239,
  "relatively</w>": 6240,
  "wehr</w>": 6241,
  "nis": 6242,
  "Cre": 6243,
  "kul": 6244,
  "Mau": 6245,
  "commission</w>": 6246,
  "ton": 6247,
  "skin</w>": 6248,
  "Sea</w>": 6249,
  "6,": 6250,
  "Produkte</w>": 6251,
  "langsam</w>": 6252,
  "Vertrauen</w>": 6253,
  "ins": 6254,
  "g\u00e4nge</w>": 6255,
  "lawmakers</w>": 6256,
  "zust\u00e4ndig</w>": 6257,
  "crimes</w>": 6258,
  "Marcel</w>": 6259,
  "Anspruch</w>": 6260,
  "ante</w>": 6261,
  "sets</w>": 6262,
  "trag": 6263,
  "21.": 6264,
  "Herz</w>": 6265,
  "AR": 6266,
  "Umfrage</w>": 6267,
  "kes</w>": 6268,
  "Laden</w>": 6269,
  "Joseph</w>": 6270,
  "Angebote</w>": 6271,
  "Gal": 6272,
  "vorbereitet</w>": 6273,
  "display</w>": 6274,
  "Val": 6275,
  "delivered</w>": 6276,
  "29.</w>": 6277,
  "\u00e4h": 6278,
  "testing</w>": 6279,
  "widely</w>": 6280,
  "Keller</w>": 6281,
  "ely</w>": 6282,
  "powers</w>": 6283,
  "Urlaub</w>": 6284,
  "Fl\u00fcchtlingen</w>": 6285,
  "walked</w>": 6286,
  "Brisbane</w>": 6287,
  "IT": 6288,
  "Jens</w>": 6289,
  "ory</w>": 6290,
  "listen</w>": 6291,
  "lim": 6292,
  "Linke</w>": 6293,
  "Str": 6294,
  "Drei": 6295,
  "CH": 6296,
  "retail</w>": 6297,
  "PS</w>": 6298,
  "gemeldet</w>": 6299,
  "Regeln</w>": 6300,
  "Sar": 6301,
  "profits</w>": 6302,
  "stri": 6303,
  "Fri": 6304,
  "pr\u00e4sentieren</w>": 6305,
  "Bundesliga-": 6306,
  "Schau": 6307,
  "B\u00fc": 6308,
  "kir": 6309,
  "Eb": 6310,
  "shut</w>": 6311,
  "Rat</w>": 6312,
  "bezeichnet</w>": 6313,
  "lich": 6314,
  "worried</w>": 6315,
  "Glas": 6316,
  "document</w>": 6317,
  "Senator</w>": 6318,
  "H\u00f6r": 6319,
  "At": 6320,
  "ery</w>": 6321,
  "ain</w>": 6322,
  "Finanzminister</w>": 6323,
  "Feld</w>": 6324,
  "Zuschauern</w>": 6325,
  "El</w>": 6326,
  "Aussage</w>": 6327,
  "Among</w>": 6328,
  "Hein": 6329,
  "meinem</w>": 6330,
  "Ulrich</w>": 6331,
  "></w>": 6332,
  "f\u00fcrs</w>": 6333,
  "Brasilien</w>": 6334,
  "currency</w>": 6335,
  "H\u00e4user</w>": 6336,
  "threatened</w>": 6337,
  "entsprechend</w>": 6338,
  "r\u00fcck": 6339,
  "zweimal</w>": 6340,
  "Hof": 6341,
  "buch</w>": 6342,
  "Vorschlag</w>": 6343,
  "Mainz</w>": 6344,
  "Mercedes</w>": 6345,
  "Arizona</w>": 6346,
  "Zusammen": 6347,
  "scoring</w>": 6348,
  "Sollte</w>": 6349,
  "Lauf": 6350,
  "Sept</w>": 6351,
  "onn": 6352,
  "Bas": 6353,
  "rejected</w>": 6354,
  "Kauf": 6355,
  "Bruder</w>": 6356,
  "Lisa</w>": 6357,
  "factors</w>": 6358,
  "miss</w>": 6359,
  "Vorsprung</w>": 6360,
  "britische</w>": 6361,
  "severe</w>": 6362,
  "Christopher</w>": 6363,
  "link</w>": 6364,
  "gewinnt</w>": 6365,
  "starb</w>": 6366,
  "proud</w>": 6367,
  "bahn": 6368,
  "Junge</w>": 6369,
  "Rainer</w>": 6370,
  "fro": 6371,
  "ball": 6372,
  "Gordon</w>": 6373,
  "Teilnahme</w>": 6374,
  "Mary</w>": 6375,
  "Dach</w>": 6376,
  "\u00e4ch": 6377,
  "Modell</w>": 6378,
  "Post": 6379,
  "ics</w>": 6380,
  "cell</w>": 6381,
  "teacher</w>": 6382,
  "greifen</w>": 6383,
  "Sub": 6384,
  "location</w>": 6385,
  "fort</w>": 6386,
  "selbst": 6387,
  "immediate</w>": 6388,
  "R\u00fcckstand</w>": 6389,
  "heat</w>": 6390,
  "controversial</w>": 6391,
  "Kleine</w>": 6392,
  "Salzburg</w>": 6393,
  "hel": 6394,
  "endet</w>": 6395,
  "expert</w>": 6396,
  "Rau": 6397,
  "suspended</w>": 6398,
  "ika</w>": 6399,
  "bin": 6400,
  "Journal</w>": 6401,
  "enforcement</w>": 6402,
  "f\u00fchlen</w>": 6403,
  "Stiftung</w>": 6404,
  "1997</w>": 6405,
  "Game</w>": 6406,
  "Investoren</w>": 6407,
  "zahl</w>": 6408,
  "gr\u00f6\u00dfere</w>": 6409,
  "Presse</w>": 6410,
  "glich</w>": 6411,
  "01</w>": 6412,
  "Bir": 6413,
  "Treasury</w>": 6414,
  "thanks</w>": 6415,
  "Fer": 6416,
  "Red": 6417,
  "pers\u00f6nlich</w>": 6418,
  "oren</w>": 6419,
  "lautet</w>": 6420,
  "76</w>": 6421,
  "Damen</w>": 6422,
  "sol": 6423,
  "Tau": 6424,
  "Leistungs": 6425,
  "voting</w>": 6426,
  "suspected</w>": 6427,
  "kt": 6428,
  "entgegen": 6429,
  "dro": 6430,
  "soziale</w>": 6431,
  "ongoing</w>": 6432,
  "fly</w>": 6433,
  "sprecher</w>": 6434,
  "considering</w>": 6435,
  "kleiner</w>": 6436,
  "5,000</w>": 6437,
  "Wachstum</w>": 6438,
  "cra": 6439,
  "fol": 6440,
  "Mul": 6441,
  "mach": 6442,
  "Bus</w>": 6443,
  "Or</w>": 6444,
  "klare</w>": 6445,
  "K\u00f6nig</w>": 6446,
  "relativ</w>": 6447,
  "Produktion</w>": 6448,
  "Vorsitzenden</w>": 6449,
  "Elektro": 6450,
  "super</w>": 6451,
  "ge\u00f6ffnet</w>": 6452,
  "Copyright</w>": 6453,
  "elling</w>": 6454,
  "leaves</w>": 6455,
  "70": 6456,
  "Ta": 6457,
  "Fraktion</w>": 6458,
  "Freiheit</w>": 6459,
  "Sei": 6460,
  "Hen": 6461,
  "Sprecherin</w>": 6462,
  "Vorstellung</w>": 6463,
  "Main": 6464,
  "mern</w>": 6465,
  "partners</w>": 6466,
  "banking</w>": 6467,
  "conducted</w>": 6468,
  "ash": 6469,
  "text</w>": 6470,
  "Investitionen</w>": 6471,
  "Verwaltungs": 6472,
  "Reporter</w>": 6473,
  "wechsel</w>": 6474,
  "31.</w>": 6475,
  "par</w>": 6476,
  "Benjamin</w>": 6477,
  "nt</w>": 6478,
  "hl</w>": 6479,
  "reich</w>": 6480,
  "hung</w>": 6481,
  "sees</w>": 6482,
  "48": 6483,
  "politisch</w>": 6484,
  "insisted</w>": 6485,
  "\u00e9s</w>": 6486,
  "Niveau</w>": 6487,
  "Jonathan</w>": 6488,
  "welcome</w>": 6489,
  "warnt</w>": 6490,
  "schau</w>": 6491,
  "bal": 6492,
  "brief</w>": 6493,
  "tert</w>": 6494,
  "Dirk</w>": 6495,
  "amen</w>": 6496,
  "rief</w>": 6497,
  "iten</w>": 6498,
  "verbunden</w>": 6499,
  "possibly</w>": 6500,
  "Gr\u00fcnde</w>": 6501,
  "Drogen": 6502,
  "Dar\u00fcber</w>": 6503,
  "l\u00e4": 6504,
  "edge</w>": 6505,
  "schloss</w>": 6506,
  "breaking</w>": 6507,
  "Anti": 6508,
  "sch\u00f6ne</w>": 6509,
  "Fu\u00df": 6510,
  "ning</w>": 6511,
  "\u00dc": 6512,
  "Insel</w>": 6513,
  "Allen</w>": 6514,
  "watched</w>": 6515,
  "kraft</w>": 6516,
  "\u00f6ffentliche</w>": 6517,
  "Images</w>": 6518,
  "r-": 6519,
  "europ\u00e4ische</w>": 6520,
  "Kennedy</w>": 6521,
  "boat</w>": 6522,
  "utz": 6523,
  "Ziel": 6524,
  "alcohol</w>": 6525,
  "associated</w>": 6526,
  "Demonstranten</w>": 6527,
  "pr\u00e4": 6528,
  "meier</w>": 6529,
  "Glasgow</w>": 6530,
  "besucht</w>": 6531,
  "Wagner</w>": 6532,
  "isiert</w>": 6533,
  "owski</w>": 6534,
  "responded</w>": 6535,
  "Hermann</w>": 6536,
  "Zun\u00e4chst</w>": 6537,
  "skills</w>": 6538,
  "Islam</w>": 6539,
  "Bayer</w>": 6540,
  "dert</w>": 6541,
  "Eck": 6542,
  "liste</w>": 6543,
  "w\u00fcr": 6544,
  "vers": 6545,
  "dorfer</w>": 6546,
  "Kas": 6547,
  "brechen</w>": 6548,
  "unemployment</w>": 6549,
  "Erde</w>": 6550,
  "ater</w>": 6551,
  "licht</w>": 6552,
  "device</w>": 6553,
  "Beach</w>": 6554,
  "industrial</w>": 6555,
  "Lan": 6556,
  "geld</w>": 6557,
  "mortgage</w>": 6558,
  "tigt</w>": 6559,
  "Er\u00f6ffnung</w>": 6560,
  "western</w>": 6561,
  "Freundin</w>": 6562,
  "haus": 6563,
  "infrastructure</w>": 6564,
  "sis</w>": 6565,
  "wen": 6566,
  "Quadratmeter</w>": 6567,
  "award</w>": 6568,
  "bul": 6569,
  "Henry</w>": 6570,
  "ager</w>": 6571,
  "Gemein": 6572,
  "nor</w>": 6573,
  "22.": 6574,
  "Erkl\u00e4rung</w>": 6575,
  "unique</w>": 6576,
  "Vorbereitung</w>": 6577,
  "organisiert</w>": 6578,
  "gr\u00f6\u00dfer</w>": 6579,
  "initially</w>": 6580,
  "ideas</w>": 6581,
  "Tom": 6582,
  "Bad": 6583,
  "attacked</w>": 6584,
  "proved</w>": 6585,
  "sieg</w>": 6586,
  "approval</w>": 6587,
  "kin</w>": 6588,
  "euro</w>": 6589,
  "ises</w>": 6590,
  "ille</w>": 6591,
  "wirtschaft</w>": 6592,
  "cells</w>": 6593,
  "General": 6594,
  "ving</w>": 6595,
  "ities</w>": 6596,
  "SE": 6597,
  "plants</w>": 6598,
  "listed</w>": 6599,
  "direction</w>": 6600,
  "truth</w>": 6601,
  "actress</w>": 6602,
  "Fi": 6603,
  "erh\u00f6ht</w>": 6604,
  "Leverkusen</w>": 6605,
  "abend</w>": 6606,
  "chances</w>": 6607,
  "45": 6608,
  "Daher</w>": 6609,
  "schau": 6610,
  "Earlier</w>": 6611,
  "Austria</w>": 6612,
  "gener": 6613,
  "deficit</w>": 6614,
  "Viertel</w>": 6615,
  "min</w>": 6616,
  "ked</w>": 6617,
  "\u00e4ren</w>": 6618,
  "Ziele</w>": 6619,
  "positions</w>": 6620,
  "scandal</w>": 6621,
  "Houston</w>": 6622,
  "prosecutors</w>": 6623,
  "independence</w>": 6624,
  "heuer</w>": 6625,
  "ver\u00e4ndert</w>": 6626,
  "recession</w>": 6627,
  "tot</w>": 6628,
  "experienced</w>": 6629,
  "extrem</w>": 6630,
  "eastern</w>": 6631,
  "occurred</w>": 6632,
  "Turnier</w>": 6633,
  "Haushalt</w>": 6634,
  "Asian</w>": 6635,
  "Kong</w>": 6636,
  "900</w>": 6637,
  "Centre</w>": 6638,
  "choose</w>": 6639,
  "06</w>": 6640,
  "38": 6641,
  "degree</w>": 6642,
  "pitch</w>": 6643,
  "lied</w>": 6644,
  "polls</w>": 6645,
  "critics</w>": 6646,
  "Team": 6647,
  "forecast</w>": 6648,
  "Anlage</w>": 6649,
  "shift</w>": 6650,
  "bot</w>": 6651,
  "C.</w>": 6652,
  "phase</w>": 6653,
  "Beitrag</w>": 6654,
  "78</w>": 6655,
  "Feuer": 6656,
  "pictured</w>": 6657,
  "Schuss</w>": 6658,
  "\u00d6l": 6659,
  "Jason</w>": 6660,
  "Well</w>": 6661,
  "Wir": 6662,
  "80": 6663,
  "1990</w>": 6664,
  "Oscar</w>": 6665,
  "char": 6666,
  "serie</w>": 6667,
  "presented</w>": 6668,
  "terrorism</w>": 6669,
  "grown</w>": 6670,
  "clients</w>": 6671,
  "sleep</w>": 6672,
  "equity</w>": 6673,
  "Strom</w>": 6674,
  "studio</w>": 6675,
  "Wohnungs": 6676,
  "teachers</w>": 6677,
  "enti": 6678,
  "ahn": 6679,
  "14.": 6680,
  "unde</w>": 6681,
  "talent</w>": 6682,
  "Werke</w>": 6683,
  "Gol": 6684,
  "Ansicht</w>": 6685,
  "8,": 6686,
  "Unsere</w>": 6687,
  "ov</w>": 6688,
  "H\u00f6hepunkt</w>": 6689,
  "Wie": 6690,
  "definitely</w>": 6691,
  "Grundschule</w>": 6692,
  "Basis</w>": 6693,
  "weit": 6694,
  "gesp": 6695,
  "NFL</w>": 6696,
  "vorgesehen</w>": 6697,
  "Massen": 6698,
  "Mach": 6699,
  "involving</w>": 6700,
  "indem</w>": 6701,
  "pu": 6702,
  "stattfinden</w>": 6703,
  "letztlich</w>": 6704,
  "Justin</w>": 6705,
  "steckt</w>": 6706,
  "Halbfinale</w>": 6707,
  "corner</w>": 6708,
  "Charlie</w>": 6709,
  "tiges</w>": 6710,
  "Kam": 6711,
  "Georgia</w>": 6712,
  "Meine</w>": 6713,
  "Tel</w>": 6714,
  "sed</w>": 6715,
  "Nachbarn</w>": 6716,
  "Kun": 6717,
  "sam</w>": 6718,
  "Termin</w>": 6719,
  "Versuch</w>": 6720,
  "entered</w>": 6721,
  "Libya</w>": 6722,
  "Trau": 6723,
  "00": 6724,
  "tive</w>": 6725,
  "ri</w>": 6726,
  "saal</w>": 6727,
  "easier</w>": 6728,
  "pc</w>": 6729,
  "Your</w>": 6730,
  "lock</w>": 6731,
  "tage</w>": 6732,
  "pat": 6733,
  "hole</w>": 6734,
  "Sin": 6735,
  "IN": 6736,
  "targets</w>": 6737,
  "alleine</w>": 6738,
  "cul": 6739,
  "Mitteilung</w>": 6740,
  "gestorben</w>": 6741,
  "Demokratie</w>": 6742,
  "yourself</w>": 6743,
  "Haushalts": 6744,
  "improved</w>": 6745,
  "attend</w>": 6746,
  "Love</w>": 6747,
  "pro-": 6748,
  "Op": 6749,
  "generally</w>": 6750,
  "nahme</w>": 6751,
  "Fund</w>": 6752,
  "seh": 6753,
  "finde</w>": 6754,
  "Jobs</w>": 6755,
  "Dokument</w>": 6756,
  "Bahnhof</w>": 6757,
  "Four</w>": 6758,
  "conduct</w>": 6759,
  "shopping</w>": 6760,
  "URL</w>": 6761,
  "probe</w>": 6762,
  "zeichen</w>": 6763,
  "Julian</w>": 6764,
  "\u00fct": 6765,
  "Norbert</w>": 6766,
  "k\u00fcrzlich</w>": 6767,
  "knowledge</w>": 6768,
  "yes</w>": 6769,
  "behandelt</w>": 6770,
  "whatever</w>": 6771,
  "eating</w>": 6772,
  "sat</w>": 6773,
  "nennen</w>": 6774,
  "Yes</w>": 6775,
  "Standard</w>": 6776,
  "Etwa</w>": 6777,
  "Personal</w>": 6778,
  "daraus</w>": 6779,
  "Dresden</w>": 6780,
  "Moore</w>": 6781,
  "Weber</w>": 6782,
  "kers</w>": 6783,
  "ele</w>": 6784,
  "aimed</w>": 6785,
  "attended</w>": 6786,
  "Rose</w>": 6787,
  "bzw.</w>": 6788,
  "adults</w>": 6789,
  "zus\u00e4tzliche</w>": 6790,
  "Roh": 6791,
  "Zustand</w>": 6792,
  "Q</w>": 6793,
  "98</w>": 6794,
  "Judge</w>": 6795,
  "ole</w>": 6796,
  "environmental</w>": 6797,
  "apartment</w>": 6798,
  "dringend</w>": 6799,
  "au\u00dferhalb</w>": 6800,
  "transport</w>": 6801,
  "Zugang</w>": 6802,
  "f\u00e4lle</w>": 6803,
  "anlagen</w>": 6804,
  "geh": 6805,
  "Source</w>": 6806,
  "les": 6807,
  "uss</w>": 6808,
  "L\u00fc": 6809,
  "publicly</w>": 6810,
  "River</w>": 6811,
  "Spor": 6812,
  "Sig": 6813,
  "ita</w>": 6814,
  "S\u00e4nger</w>": 6815,
  "rebels</w>": 6816,
  "hab": 6817,
  "linken</w>": 6818,
  "Watch</w>": 6819,
  "post-": 6820,
  "Stadtrat</w>": 6821,
  "ministerium</w>": 6822,
  "division</w>": 6823,
  "bn</w>": 6824,
  "rats": 6825,
  "f\u00e4llen</w>": 6826,
  "tter</w>": 6827,
  "strecke</w>": 6828,
  "Hom": 6829,
  "messages</w>": 6830,
  "aller": 6831,
  "angeblich</w>": 6832,
  "sten": 6833,
  "Presse": 6834,
  "dar</w>": 6835,
  "schafts": 6836,
  "flights</w>": 6837,
  "province</w>": 6838,
  "ol</w>": 6839,
  "Wind</w>": 6840,
  "Verdacht</w>": 6841,
  "DE": 6842,
  "bit": 6843,
  "Heinz</w>": 6844,
  "Atom": 6845,
  "understanding</w>": 6846,
  "melden</w>": 6847,
  "My": 6848,
  "inspired</w>": 6849,
  "Human</w>": 6850,
  "bag</w>": 6851,
  "Snow": 6852,
  "wachsen</w>": 6853,
  "7,": 6854,
  "fun": 6855,
  "animal</w>": 6856,
  "40": 6857,
  "pointed</w>": 6858,
  "Botschaft</w>": 6859,
  "Sturm</w>": 6860,
  "ble": 6861,
  "49": 6862,
  "ologie</w>": 6863,
  "user</w>": 6864,
  "Portugal</w>": 6865,
  "activists</w>": 6866,
  "filled</w>": 6867,
  "Verband</w>": 6868,
  "35": 6869,
  "Derby</w>": 6870,
  "explain</w>": 6871,
  "Wies": 6872,
  "dra": 6873,
  "Veranstalter</w>": 6874,
  "30-": 6875,
  "Gru": 6876,
  "Kle": 6877,
  "Mus": 6878,
  "freute</w>": 6879,
  "Flucht</w>": 6880,
  "zentrale</w>": 6881,
  "w\u00e4hlen</w>": 6882,
  "lig</w>": 6883,
  "mayor</w>": 6884,
  "Armee</w>": 6885,
  "interesting</w>": 6886,
  "stat": 6887,
  "connection</w>": 6888,
  "indes</w>": 6889,
  "Church</w>": 6890,
  "fraud</w>": 6891,
  "roads</w>": 6892,
  "vel": 6893,
  "Fenster</w>": 6894,
  "customer</w>": 6895,
  "davor</w>": 6896,
  "folgte</w>": 6897,
  "flat</w>": 6898,
  "Can</w>": 6899,
  "franz\u00f6sische</w>": 6900,
  "gs": 6901,
  "Olympics</w>": 6902,
  "down": 6903,
  "Blue</w>": 6904,
  "Spezial": 6905,
  "Dorf</w>": 6906,
  "gef\u00e4hrlich</w>": 6907,
  "terror</w>": 6908,
  "roten</w>": 6909,
  "combined</w>": 6910,
  "Diego</w>": 6911,
  "falsch</w>": 6912,
  "turns</w>": 6913,
  "returns</w>": 6914,
  "facility</w>": 6915,
  "Trend</w>": 6916,
  "ori": 6917,
  "ake</w>": 6918,
  "ande</w>": 6919,
  "Gewinn": 6920,
  "competitive</w>": 6921,
  "flying</w>": 6922,
  "Tonnen</w>": 6923,
  "liga-": 6924,
  "15-": 6925,
  "head": 6926,
  "li</w>": 6927,
  "boo": 6928,
  "Firmen": 6929,
  "drink</w>": 6930,
  "Mak": 6931,
  "fewer</w>": 6932,
  "russische</w>": 6933,
  "fal": 6934,
  "targeted</w>": 6935,
  "Neues</w>": 6936,
  "Ernst</w>": 6937,
  "Entscheidungen</w>": 6938,
  "greatest</w>": 6939,
  "pop</w>": 6940,
  "Tages</w>": 6941,
  "moments</w>": 6942,
  "anger</w>": 6943,
  "Palestinian</w>": 6944,
  "liege</w>": 6945,
  "tied</w>": 6946,
  "hundert</w>": 6947,
  "determine</w>": 6948,
  "Schiedsrichter</w>": 6949,
  "Anlass</w>": 6950,
  "Board</w>": 6951,
  "Steven</w>": 6952,
  "gl\u00fccklich</w>": 6953,
  "Old</w>": 6954,
  "Verein": 6955,
  "disaster</w>": 6956,
  "notes</w>": 6957,
  "ame</w>": 6958,
  "B.</w>": 6959,
  "repeatedly</w>": 6960,
  "Ren": 6961,
  "anne</w>": 6962,
  "rein</w>": 6963,
  "visited</w>": 6964,
  "so-called</w>": 6965,
  "ckt</w>": 6966,
  "passieren</w>": 6967,
  "www.nachrichten.at</w>": 6968,
  "Umgebung</w>": 6969,
  "holt</w>": 6970,
  "\u00fcbernimmt</w>": 6971,
  "AC": 6972,
  "si</w>": 6973,
  "Beruf</w>": 6974,
  "eit": 6975,
  "tten</w>": 6976,
  "ech": 6977,
  "1995</w>": 6978,
  "Mitarbeitern</w>": 6979,
  "getragen</w>": 6980,
  "assistant</w>": 6981,
  "cutting</w>": 6982,
  "NATO</w>": 6983,
  "rum": 6984,
  "Lauf</w>": 6985,
  "Herausforderung</w>": 6986,
  "Spieltag</w>": 6987,
  "zes</w>": 6988,
  "G\u00e4sten</w>": 6989,
  "learning</w>": 6990,
  "dogs</w>": 6991,
  "daraufhin</w>": 6992,
  "controlled</w>": 6993,
  "circumstances</w>": 6994,
  "St\u00e4dten</w>": 6995,
  "garten</w>": 6996,
  "heit": 6997,
  "causing</w>": 6998,
  "conversation</w>": 6999,
  "Defense</w>": 7000,
  "zz": 7001,
  ".com.</w>": 7002,
  "intended</w>": 7003,
  "exercise</w>": 7004,
  "Internet": 7005,
  "Abstimmung</w>": 7006,
  "trau": 7007,
  "aufgestellt</w>": 7008,
  "ernst</w>": 7009,
  "Lady</w>": 7010,
  "platform</w>": 7011,
  "Berg</w>": 7012,
  "No.</w>": 7013,
  "Met": 7014,
  "historic</w>": 7015,
  "Detroit</w>": 7016,
  "familiar</w>": 7017,
  "Cap": 7018,
  "Telegraph</w>": 7019,
  "Garten</w>": 7020,
  "Tradition</w>": 7021,
  "z\u00e4hlen</w>": 7022,
  "ceremony</w>": 7023,
  "trend</w>": 7024,
  "GM</w>": 7025,
  "schaft": 7026,
  "ierungen</w>": 7027,
  "bedarf</w>": 7028,
  "retired</w>": 7029,
  "Bild": 7030,
  "nd</w>": 7031,
  "Auswahl</w>": 7032,
  "mil": 7033,
  "count</w>": 7034,
  "Medical</w>": 7035,
  "trainer</w>": 7036,
  "bil": 7037,
  "Reform</w>": 7038,
  "handle</w>": 7039,
  "EL": 7040,
  "pounds</w>": 7041,
  "dauern</w>": 7042,
  "projekt</w>": 7043,
  "02</w>": 7044,
  "denkt</w>": 7045,
  "st\u00e4tte</w>": 7046,
  "Gemeinder": 7047,
  "B\u00fcro</w>": 7048,
  "Mrd.</w>": 7049,
  "au\u00dfen</w>": 7050,
  "sign": 7051,
  "Power</w>": 7052,
  "stimmt</w>": 7053,
  "Pflege": 7054,
  "supporting</w>": 7055,
  "Vol": 7056,
  "reichte</w>": 7057,
  "returning</w>": 7058,
  "ger\u00e4t</w>": 7059,
  "Sports</w>": 7060,
  "lobte</w>": 7061,
  "ehe</w>": 7062,
  "Freiburg</w>": 7063,
  "Len": 7064,
  "fall": 7065,
  "relief</w>": 7066,
  "h\u00f6rt</w>": 7067,
  "Tal": 7068,
  "Alternative</w>": 7069,
  "Einfluss</w>": 7070,
  "vast</w>": 7071,
  "L-": 7072,
  "setzten</w>": 7073,
  "Seehofer</w>": 7074,
  "\u00e1": 7075,
  "Weit": 7076,
  "begleitet</w>": 7077,
  "h\u00e4ngen</w>": 7078,
  "Fr\u00fch": 7079,
  "Co.</w>": 7080,
  "privaten</w>": 7081,
  "m\u00f6glichkeiten</w>": 7082,
  "blo": 7083,
  "bridge</w>": 7084,
  "gericht</w>": 7085,
  "ths</w>": 7086,
  "denke</w>": 7087,
  "dinner</w>": 7088,
  "wider": 7089,
  "Vorfeld</w>": 7090,
  "frei": 7091,
  "Anwohner</w>": 7092,
  "F\u00f6rderung</w>": 7093,
  "hi": 7094,
  "basic</w>": 7095,
  "egal</w>": 7096,
  "tly</w>": 7097,
  "Inzwischen</w>": 7098,
  "1996</w>": 7099,
  "lichem</w>": 7100,
  "Landrat</w>": 7101,
  "gek": 7102,
  "Volk": 7103,
  "satz</w>": 7104,
  "Augen": 7105,
  "perfekt</w>": 7106,
  "gebeten</w>": 7107,
  "Alltag</w>": 7108,
  "Neubau</w>": 7109,
  "fort": 7110,
  "berichteten</w>": 7111,
  "elles</w>": 7112,
  "Anderson</w>": 7113,
  "Herren</w>": 7114,
  "diskutiert</w>": 7115,
  "becomes</w>": 7116,
  "pur": 7117,
  "bestimmt</w>": 7118,
  "banned</w>": 7119,
  "Auge</w>": 7120,
  "erlaubt</w>": 7121,
  "morgen</w>": 7122,
  "Arbeit": 7123,
  "Verh\u00e4ltnis</w>": 7124,
  "wish</w>": 7125,
  "zed</w>": 7126,
  "stress</w>": 7127,
  "ments</w>": 7128,
  "hinten</w>": 7129,
  "ming</w>": 7130,
  "crucial</w>": 7131,
  "atic</w>": 7132,
  "helps</w>": 7133,
  "Arzt</w>": 7134,
  "wider</w>": 7135,
  "cking</w>": 7136,
  "FA</w>": 7137,
  "hren</w>": 7138,
  "eit</w>": 7139,
  "behaviour</w>": 7140,
  "refugees</w>": 7141,
  "struggle</w>": 7142,
  "Pacific</w>": 7143,
  "Roger</w>": 7144,
  "79</w>": 7145,
  "heading</w>": 7146,
  "bing</w>": 7147,
  "kritisierte</w>": 7148,
  "werte</w>": 7149,
  "Gebiet</w>": 7150,
  "15.": 7151,
  "Vegas</w>": 7152,
  "Freitagabend</w>": 7153,
  "unless</w>": 7154,
  "NEW</w>": 7155,
  "klingt</w>": 7156,
  "closely</w>": 7157,
  "geschaffen</w>": 7158,
  "befinden</w>": 7159,
  "ih": 7160,
  "Zwischen</w>": 7161,
  "Dennis</w>": 7162,
  "Immerhin</w>": 7163,
  "Roland</w>": 7164,
  "sberg</w>": 7165,
  "dozen</w>": 7166,
  "wine</w>": 7167,
  "wusste</w>": 7168,
  "can": 7169,
  "models</w>": 7170,
  "Es": 7171,
  "entsprechende</w>": 7172,
  "duty</w>": 7173,
  "ered</w>": 7174,
  "fighters</w>": 7175,
  "warf</w>": 7176,
  "Schwen": 7177,
  "Stock": 7178,
  "stammt</w>": 7179,
  "Welche</w>": 7180,
  "geschickt</w>": 7181,
  "Himmel</w>": 7182,
  "entwicklung</w>": 7183,
  "9-": 7184,
  "Aufstieg</w>": 7185,
  "rivals</w>": 7186,
  "6-": 7187,
  "verkaufen</w>": 7188,
  "Branche</w>": 7189,
  "Kader</w>": 7190,
  "Social</w>": 7191,
  "halte</w>": 7192,
  "window</w>": 7193,
  "transfer</w>": 7194,
  "cken": 7195,
  "konzern</w>": 7196,
  "\u00fcs": 7197,
  "Mittelpunkt</w>": 7198,
  "Baum</w>": 7199,
  "historischen</w>": 7200,
  "Bri": 7201,
  "heiten</w>": 7202,
  "Vorhaben</w>": 7203,
  "Ed</w>": 7204,
  "Wahlen</w>": 7205,
  "tner</w>": 7206,
  "orders</w>": 7207,
  "Anders</w>": 7208,
  "froh</w>": 7209,
  "scht</w>": 7210,
  "WASHINGTON</w>": 7211,
  "leads</w>": 7212,
  "Dallas</w>": 7213,
  "uren</w>": 7214,
  "ticket</w>": 7215,
  "worldwide</w>": 7216,
  "ds": 7217,
  "initiative</w>": 7218,
  "leistung</w>": 7219,
  "EZB</w>": 7220,
  "Untersuchung</w>": 7221,
  "miteinander</w>": 7222,
  "chain</w>": 7223,
  "ink": 7224,
  "swe": 7225,
  "teile</w>": 7226,
  "stocks</w>": 7227,
  "Sun</w>": 7228,
  "39": 7229,
  "estimates</w>": 7230,
  "Bord</w>": 7231,
  "species</w>": 7232,
  "Jur": 7233,
  "Kosten": 7234,
  "five-": 7235,
  "investigators</w>": 7236,
  "Kauf</w>": 7237,
  "lawsuit</w>": 7238,
  "1994</w>": 7239,
  "Islam": 7240,
  "investigating</w>": 7241,
  "package</w>": 7242,
  "affect</w>": 7243,
  "Phase</w>": 7244,
  "split</w>": 7245,
  "GE": 7246,
  "Spiegel</w>": 7247,
  "Rangers</w>": 7248,
  "\u00f6s": 7249,
  "shortly</w>": 7250,
  "meetings</w>": 7251,
  "th-": 7252,
  "schie\u00dfen</w>": 7253,
  "Forderung</w>": 7254,
  "pan": 7255,
  "spor": 7256,
  "journalists</w>": 7257,
  "Erd": 7258,
  "rechts": 7259,
  "leb": 7260,
  "M\u00e4nnern</w>": 7261,
  "Neuer</w>": 7262,
  "wan": 7263,
  "Co</w>": 7264,
  "schlie\u00dft</w>": 7265,
  "friendly</w>": 7266,
  "far": 7267,
  "tags</w>": 7268,
  "cat": 7269,
  "beach</w>": 7270,
  "Anne</w>": 7271,
  "TC</w>": 7272,
  "Dun": 7273,
  "Rat": 7274,
  "cross</w>": 7275,
  "reich": 7276,
  "facilities</w>": 7277,
  "besonderen</w>": 7278,
  "Rights</w>": 7279,
  "rer</w>": 7280,
  "Every</w>": 7281,
  "schen": 7282,
  "understood</w>": 7283,
  "Der": 7284,
  "replace</w>": 7285,
  "offensichtlich</w>": 7286,
  "ved</w>": 7287,
  "Ag": 7288,
  "wave</w>": 7289,
  "Anschlag</w>": 7290,
  "Bundeskanzlerin</w>": 7291,
  "Waffen</w>": 7292,
  "sp\u00e4t</w>": 7293,
  "Ursache</w>": 7294,
  "ktionen</w>": 7295,
  "low-": 7296,
  "gan</w>": 7297,
  "Airlines</w>": 7298,
  "Jungs</w>": 7299,
  "trug</w>": 7300,
  "moves</w>": 7301,
  "rooms</w>": 7302,
  "four-": 7303,
  "maintain</w>": 7304,
  "S\u00fcden</w>": 7305,
  "Blau": 7306,
  "hilfe</w>": 7307,
  "ald</w>": 7308,
  "reiche</w>": 7309,
  "Einsch\u00e4tzung</w>": 7310,
  "col": 7311,
  "stake</w>": 7312,
  "Mitgliedern</w>": 7313,
  "savings</w>": 7314,
  "heavily</w>": 7315,
  "schlag": 7316,
  "footage</w>": 7317,
  "Ter": 7318,
  "kor": 7319,
  "f\u00fchlt</w>": 7320,
  "t\u00fcrkischen</w>": 7321,
  "Las</w>": 7322,
  "Verteidiger</w>": 7323,
  "worker</w>": 7324,
  "Nachwuchs</w>": 7325,
  "Kopf": 7326,
  "Tab": 7327,
  "Tief": 7328,
  "Weihnachten</w>": 7329,
  "Eastern</w>": 7330,
  "tag": 7331,
  "code</w>": 7332,
  "gegr\u00fcndet</w>": 7333,
  "Iowa</w>": 7334,
  "mitten</w>": 7335,
  "increases</w>": 7336,
  "extreme</w>": 7337,
  "Alan</w>": 7338,
  "istischen</w>": 7339,
  "happening</w>": 7340,
  "Burg": 7341,
  "Ed": 7342,
  "holds</w>": 7343,
  "identify</w>": 7344,
  "ge-": 7345,
  "Niedersachsen</w>": 7346,
  "eingestellt</w>": 7347,
  "bekannte</w>": 7348,
  "matters</w>": 7349,
  "Kra": 7350,
  "schwer": 7351,
  "Ian</w>": 7352,
  "pull</w>": 7353,
  "agents</w>": 7354,
  "\u2212</w>": 7355,
  "Gran": 7356,
  "tte</w>": 7357,
  "verbot</w>": 7358,
  "wake</w>": 7359,
  "iss": 7360,
  "settlement</w>": 7361,
  "eien</w>": 7362,
  "executives</w>": 7363,
  "festgestellt</w>": 7364,
  "Ministry</w>": 7365,
  "Unser</w>": 7366,
  "Nov.</w>": 7367,
  "YouTube</w>": 7368,
  "Kerry</w>": 7369,
  "passing</w>": 7370,
  "ride</w>": 7371,
  "danger</w>": 7372,
  "dream</w>": 7373,
  "selber</w>": 7374,
  "Southern</w>": 7375,
  "h\u00f6here</w>": 7376,
  "herrscht</w>": 7377,
  "Viel</w>": 7378,
  "Schloss</w>": 7379,
  "supposed</w>": 7380,
  "Text</w>": 7381,
  "Gesch\u00e4fte</w>": 7382,
  "Verantwortlichen</w>": 7383,
  "achieve</w>": 7384,
  "veteran</w>": 7385,
  "\u00fch": 7386,
  "ret": 7387,
  "23": 7388,
  "reforms</w>": 7389,
  "ie-": 7390,
  "geb\u00e4ude</w>": 7391,
  "l\u00f6sen</w>": 7392,
  "Reis": 7393,
  "overseas</w>": 7394,
  "Tempo</w>": 7395,
  "Gewerbe": 7396,
  "dance</w>": 7397,
  "G\u00f6": 7398,
  "Pkw</w>": 7399,
  "lam": 7400,
  "Brief</w>": 7401,
  "legten</w>": 7402,
  "claiming</w>": 7403,
  "Boden": 7404,
  "raus</w>": 7405,
  "obviously</w>": 7406,
  "Stephan</w>": 7407,
  "Anwalt</w>": 7408,
  "Meyer</w>": 7409,
  "Kern": 7410,
  "none</w>": 7411,
  "extended</w>": 7412,
  "perform</w>": 7413,
  "institutions</w>": 7414,
  "accepted</w>": 7415,
  "sitzung</w>": 7416,
  "03</w>": 7417,
  "worry</w>": 7418,
  "tr\u00e4": 7419,
  "ena</w>": 7420,
  "pension</w>": 7421,
  "Handels": 7422,
  "Gott</w>": 7423,
  "Song</w>": 7424,
  "Angeklagte</w>": 7425,
  "acts</w>": 7426,
  "fix</w>": 7427,
  "Mis": 7428,
  "Abbott</w>": 7429,
  "singen</w>": 7430,
  "F\u00fcnf</w>": 7431,
  "Elizabeth</w>": 7432,
  "Jahrzehnten</w>": 7433,
  "tackle</w>": 7434,
  "sending</w>": 7435,
  "surprised</w>": 7436,
  "pr\u00fcfen</w>": 7437,
  "alive</w>": 7438,
  "n\u00e4her</w>": 7439,
  "ks": 7440,
  "gerufen</w>": 7441,
  "cards</w>": 7442,
  "lige</w>": 7443,
  "ama</w>": 7444,
  "Zuge</w>": 7445,
  "Music</w>": 7446,
  "welt</w>": 7447,
  "Nationalspieler</w>": 7448,
  "enberg</w>": 7449,
  "Ca": 7450,
  "Becker</w>": 7451,
  "failing</w>": 7452,
  "sharing</w>": 7453,
  "bond</w>": 7454,
  "don": 7455,
  "rou": 7456,
  "brun": 7457,
  "esp": 7458,
  "Zustimmung</w>": 7459,
  "advertising</w>": 7460,
  "off-": 7461,
  "deeply</w>": 7462,
  "Pro</w>": 7463,
  "w\u00e4chst</w>": 7464,
  "Tim": 7465,
  "wedding</w>": 7466,
  "bezahlt</w>": 7467,
  "Klassen": 7468,
  "threats</w>": 7469,
  "Anleger</w>": 7470,
  "Je</w>": 7471,
  "Halb": 7472,
  "-P": 7473,
  "territory</w>": 7474,
  "ram": 7475,
  "ain": 7476,
  "Stei": 7477,
  "R\u00fccken</w>": 7478,
  "St\u00e4dte</w>": 7479,
  "heim": 7480,
  "sting</w>": 7481,
  "29": 7482,
  "Lukas</w>": 7483,
  "Papier</w>": 7484,
  "ther</w>": 7485,
  "impossible</w>": 7486,
  "copyright</w>": 7487,
  "verliert</w>": 7488,
  "wounded</w>": 7489,
  "Regen</w>": 7490,
  "Den": 7491,
  "reaction</w>": 7492,
  "Lok": 7493,
  "Elf</w>": 7494,
  "non": 7495,
  "Potsdam</w>": 7496,
  "dle</w>": 7497,
  "Philip</w>": 7498,
  "catch</w>": 7499,
  "Front</w>": 7500,
  "Michigan</w>": 7501,
  "Paar</w>": 7502,
  "rating</w>": 7503,
  "trafen</w>": 7504,
  "Kreuz": 7505,
  "Herzen</w>": 7506,
  "Cas": 7507,
  "Gas</w>": 7508,
  "18.": 7509,
  "l\u00e4dt</w>": 7510,
  "ished</w>": 7511,
  "pushing</w>": 7512,
  "verst\u00e4rkt</w>": 7513,
  "retirement</w>": 7514,
  "Kno": 7515,
  "captured</w>": 7516,
  "HSV</w>": 7517,
  "herum</w>": 7518,
  "Iranian</w>": 7519,
  "B\u00e4ume</w>": 7520,
  "Top-": 7521,
  "argument</w>": 7522,
  "Beteiligung</w>": 7523,
  "beziehungsweise</w>": 7524,
  "entirely</w>": 7525,
  "Michelle</w>": 7526,
  "Oct.</w>": 7527,
  "dozens</w>": 7528,
  "hei\u00dfen</w>": 7529,
  "f\u00fcnften</w>": 7530,
  "enburg</w>": 7531,
  "Nachricht</w>": 7532,
  "erinnern</w>": 7533,
  "Gro\u00dfe</w>": 7534,
  "apart</w>": 7535,
  "\u00f6sterreichischen</w>": 7536,
  "carbon</w>": 7537,
  "squ": 7538,
  "wann</w>": 7539,
  "mag": 7540,
  "1989</w>": 7541,
  "Beh\u00f6rde</w>": 7542,
  "gap</w>": 7543,
  "Bab": 7544,
  "aufmerksam</w>": 7545,
  "significantly</w>": 7546,
  "H\u00fc": 7547,
  "hom": 7548,
  "performed</w>": 7549,
  "founder</w>": 7550,
  "Democrat</w>": 7551,
  "Sabine</w>": 7552,
  "Christine</w>": 7553,
  "Klinik</w>": 7554,
  "strikes</w>": 7555,
  "schuss</w>": 7556,
  "Br\u00fccke</w>": 7557,
  "Vettel</w>": 7558,
  "utt": 7559,
  "innings</w>": 7560,
  "pieces</w>": 7561,
  "fan": 7562,
  "Credit</w>": 7563,
  "ga": 7564,
  "\u00fcberrascht</w>": 7565,
  "LE": 7566,
  "88</w>": 7567,
  "kra": 7568,
  "stei": 7569,
  "Na": 7570,
  "ade": 7571,
  "lands</w>": 7572,
  "Colorado</w>": 7573,
  "journey</w>": 7574,
  "Schnitt</w>": 7575,
  "Ecke</w>": 7576,
  "offiziellen</w>": 7577,
  "tten": 7578,
  "12-": 7579,
  "receiving</w>": 7580,
  "Bauer</w>": 7581,
  "shausen</w>": 7582,
  "Robin</w>": 7583,
  "reagiert</w>": 7584,
  "versorgung</w>": 7585,
  "wahl</w>": 7586,
  "Bonn</w>": 7587,
  "gas": 7588,
  "ment": 7589,
  "EM</w>": 7590,
  "outs</w>": 7591,
  "ious</w>": 7592,
  "gr\u00f6\u00dferen</w>": 7593,
  "bat</w>": 7594,
  "alle": 7595,
  "Gesundheit</w>": 7596,
  "feierte</w>": 7597,
  "aggressive</w>": 7598,
  "\u00fcch": 7599,
  "Heimspiel</w>": 7600,
  "Konflikt</w>": 7601,
  "attempts</w>": 7602,
  "bezahlen</w>": 7603,
  "glass</w>": 7604,
  "interessiert</w>": 7605,
  "bewegen</w>": 7606,
  "NBC</w>": 7607,
  "Herbert</w>": 7608,
  "Rom</w>": 7609,
  "Dan</w>": 7610,
  "Ros": 7611,
  "Anschlie\u00dfend</w>": 7612,
  "inen</w>": 7613,
  "zing</w>": 7614,
  "Planung</w>": 7615,
  "tors</w>": 7616,
  "Regisseur</w>": 7617,
  "Aussagen</w>": 7618,
  "gains</w>": 7619,
  "eten</w>": 7620,
  "1992</w>": 7621,
  "lis</w>": 7622,
  "Gaza</w>": 7623,
  "closing</w>": 7624,
  "Toten</w>": 7625,
  "erstes</w>": 7626,
  "EU-Kommission</w>": 7627,
  "Nachbar": 7628,
  "Computer</w>": 7629,
  "58": 7630,
  "percentage</w>": 7631,
  "Gab": 7632,
  "Good</w>": 7633,
  "konzert</w>": 7634,
  "tab": 7635,
  "weak</w>": 7636,
  "Walker</w>": 7637,
  "Brandenburg</w>": 7638,
  "AM</w>": 7639,
  "ultimately</w>": 7640,
  "Ga": 7641,
  "Einigung</w>": 7642,
  "Jennifer</w>": 7643,
  "Liter</w>": 7644,
  "kurzen</w>": 7645,
  "sentenced</w>": 7646,
  "songs</w>": 7647,
  "H\u00e4nde</w>": 7648,
  "flow</w>": 7649,
  "producer</w>": 7650,
  "fran": 7651,
  "R\u00fccktritt</w>": 7652,
  "betr\u00e4gt</w>": 7653,
  "or-": 7654,
  "92</w>": 7655,
  "likes</w>": 7656,
  "Kooperation</w>": 7657,
  "'I</w>": 7658,
  "wartet</w>": 7659,
  "verpflichtet</w>": 7660,
  "Baby</w>": 7661,
  "beraten</w>": 7662,
  "Scho": 7663,
  "section</w>": 7664,
  "Though</w>": 7665,
  "Gef\u00e4ngnis</w>": 7666,
  "Bernhard</w>": 7667,
  "Perry</w>": 7668,
  "surface</w>": 7669,
  "mung</w>": 7670,
  "2,000</w>": 7671,
  "aktion</w>": 7672,
  "remove</w>": 7673,
  "episode</w>": 7674,
  "Zie": 7675,
  "vertrag</w>": 7676,
  "ona</w>": 7677,
  "om</w>": 7678,
  "low": 7679,
  "drinking</w>": 7680,
  "Wetter": 7681,
  "Verhalten</w>": 7682,
  "Awards</w>": 7683,
  "Mand": 7684,
  "verbandes</w>": 7685,
  "vulnerable</w>": 7686,
  "allies</w>": 7687,
  "permanent</w>": 7688,
  "drawn</w>": 7689,
  "retten</w>": 7690,
  "tree</w>": 7691,
  "bills</w>": 7692,
  "aks</w>": 7693,
  "entin</w>": 7694,
  "Conservative</w>": 7695,
  "amazing</w>": 7696,
  "Stand": 7697,
  "Europ\u00e4ische</w>": 7698,
  "f\u00e4hig</w>": 7699,
  "ships</w>": 7700,
  "yp": 7701,
  "ith</w>": 7702,
  "digt</w>": 7703,
  "ausgezeichnet</w>": 7704,
  "shareholders</w>": 7705,
  "voraussichtlich</w>": 7706,
  "contest</w>": 7707,
  "Laura</w>": 7708,
  "delivery</w>": 7709,
  "werk": 7710,
  "lots</w>": 7711,
  "internal</w>": 7712,
  "bo</w>": 7713,
  "Airport</w>": 7714,
  "sam": 7715,
  "Cro": 7716,
  "otherwise</w>": 7717,
  "fli": 7718,
  "cultural</w>": 7719,
  "Umfeld</w>": 7720,
  "Arbeitgeber</w>": 7721,
  "identity</w>": 7722,
  "NR": 7723,
  "stor": 7724,
  "Fil": 7725,
  "Jeff</w>": 7726,
  "Oh</w>": 7727,
  "BA</w>": 7728,
  "Vis": 7729,
  "pilot</w>": 7730,
  "Ac": 7731,
  "Director</w>": 7732,
  "virus</w>": 7733,
  "10,000</w>": 7734,
  "summit</w>": 7735,
  "81</w>": 7736,
  "Verbands": 7737,
  "Summe</w>": 7738,
  "Abwehr</w>": 7739,
  "gangs</w>": 7740,
  "Athen</w>": 7741,
  "dliche</w>": 7742,
  "Sau": 7743,
  "93</w>": 7744,
  "Ordnung</w>": 7745,
  "uten</w>": 7746,
  "Philadelphia</w>": 7747,
  "Sinne</w>": 7748,
  "Gary</w>": 7749,
  "ium</w>": 7750,
  "Irak</w>": 7751,
  "ort": 7752,
  "Pr\u00e4": 7753,
  "NBA</w>": 7754,
  "Matthew</w>": 7755,
  "ping</w>": 7756,
  "shape</w>": 7757,
  "adds</w>": 7758,
  "Ay": 7759,
  "ten-": 7760,
  "Gro\u00dfen</w>": 7761,
  "tiny</w>": 7762,
  "ki": 7763,
  "values</w>": 7764,
  "advance</w>": 7765,
  "Industrie</w>": 7766,
  "arten</w>": 7767,
  "memory</w>": 7768,
  "minimum</w>": 7769,
  "pper</w>": 7770,
  "hauses</w>": 7771,
  "Children</w>": 7772,
  "Academy</w>": 7773,
  "Hertha</w>": 7774,
  "wasser</w>": 7775,
  "Auswirkungen</w>": 7776,
  "Cook</w>": 7777,
  "\u00f6h": 7778,
  "reputation</w>": 7779,
  "Gener": 7780,
  "Sorge</w>": 7781,
  "Will": 7782,
  "GMT</w>": 7783,
  "grunds\u00e4tzlich</w>": 7784,
  "\u00c4": 7785,
  "hy": 7786,
  "illi": 7787,
  "Stuttgarter</w>": 7788,
  "ce": 7789,
  "Spur</w>": 7790,
  "19.": 7791,
  "Eber": 7792,
  "Sul": 7793,
  "auen</w>": 7794,
  "sun</w>": 7795,
  "purchase</w>": 7796,
  "mix</w>": 7797,
  "Si": 7798,
  "fur": 7799,
  "it\u00e4ten</w>": 7800,
  "wirtschaftlichen</w>": 7801,
  "Demnach</w>": 7802,
  "Ale": 7803,
  "sli": 7804,
  "Temperaturen</w>": 7805,
  "weren</w>": 7806,
  "Jahrhundert</w>": 7807,
  "tickets</w>": 7808,
  "opposed</w>": 7809,
  "f\u00fchrten</w>": 7810,
  "Cam": 7811,
  "arbeitete</w>": 7812,
  "DR": 7813,
  "Hum": 7814,
  "Greek</w>": 7815,
  "Meisterschaft</w>": 7816,
  "isen</w>": 7817,
  "Society</w>": 7818,
  "Werder</w>": 7819,
  "23.": 7820,
  "hoped</w>": 7821,
  "Dienst": 7822,
  "faith</w>": 7823,
  "17.": 7824,
  "atory</w>": 7825,
  "snow</w>": 7826,
  "sy": 7827,
  "Foto": 7828,
  "task</w>": 7829,
  "attempted</w>": 7830,
  "L\u00f6w</w>": 7831,
  "Rub": 7832,
  "Fehl": 7833,
  "gens</w>": 7834,
  "B\u00f6rse</w>": 7835,
  "tenden</w>": 7836,
  "Einwohner</w>": 7837,
  "eigener</w>": 7838,
  "Geschichten</w>": 7839,
  "represents</w>": 7840,
  "is-": 7841,
  "ausschlie\u00dflich</w>": 7842,
  "Werte</w>": 7843,
  "Forderungen</w>": 7844,
  "civilians</w>": 7845,
  "Sprach": 7846,
  "appointed</w>": 7847,
  "yl": 7848,
  "Behandlung</w>": 7849,
  "18-": 7850,
  "draft</w>": 7851,
  "erl\u00e4utert</w>": 7852,
  "Einnahmen</w>": 7853,
  "videos</w>": 7854,
  "anniversary</w>": 7855,
  "Nag": 7856,
  "gestartet</w>": 7857,
  "formed</w>": 7858,
  "alised</w>": 7859,
  "Oberb\u00fcrgermeister</w>": 7860,
  "Hund</w>": 7861,
  "Kredit": 7862,
  "riss</w>": 7863,
  "verteilt</w>": 7864,
  "Bislang</w>": 7865,
  "amerikanische</w>": 7866,
  "130</w>": 7867,
  "characters</w>": 7868,
  "\u00d6VP</w>": 7869,
  "Lebens</w>": 7870,
  "knee</w>": 7871,
  "Albert</w>": 7872,
  "lebens": 7873,
  "fee</w>": 7874,
  "kurs</w>": 7875,
  "Tel": 7876,
  "Profis</w>": 7877,
  "Abend": 7878,
  "brachten</w>": 7879,
  "Gleichzeitig</w>": 7880,
  "Index</w>": 7881,
  "Laufe</w>": 7882,
  "Speaking</w>": 7883,
  "shock</w>": 7884,
  "Son": 7885,
  "Up</w>": 7886,
  "Berufung</w>": 7887,
  "blame</w>": 7888,
  "Aktionen</w>": 7889,
  "feuer": 7890,
  "hoffe</w>": 7891,
  "Wissen</w>": 7892,
  "investiert</w>": 7893,
  "Live</w>": 7894,
  "prior</w>": 7895,
  "tau": 7896,
  "cker": 7897,
  "90": 7898,
  "Einf\u00fchrung</w>": 7899,
  "novel</w>": 7900,
  "damaligen</w>": 7901,
  "Br\u00fc": 7902,
  "Verlust</w>": 7903,
  "200": 7904,
  "acc": 7905,
  "Channel</w>": 7906,
  "apply</w>": 7907,
  "acy</w>": 7908,
  "Cur": 7909,
  "top": 7910,
  "K\u00f6": 7911,
  "meister": 7912,
  "ump": 7913,
  "Autobahn</w>": 7914,
  "kick</w>": 7915,
  "Square</w>": 7916,
  "makers</w>": 7917,
  "Yo": 7918,
  "Album</w>": 7919,
  "lan</w>": 7920,
  "ativ</w>": 7921,
  "Widerstand</w>": 7922,
  "III</w>": 7923,
  "Are</w>": 7924,
  "favourite</w>": 7925,
  "Harris</w>": 7926,
  "Gov.</w>": 7927,
  "Trainings": 7928,
  "verlangt</w>": 7929,
  "5000</w>": 7930,
  "Villa</w>": 7931,
  "besuchen</w>": 7932,
  "stronger</w>": 7933,
  "unusual</w>": 7934,
  "Ton": 7935,
  "K\u00f6rper": 7936,
  "Abu</w>": 7937,
  "leitet</w>": 7938,
  "Tar": 7939,
  "square</w>": 7940,
  "Titel": 7941,
  "fra": 7942,
  "Atlanta</w>": 7943,
  "dien": 7944,
  "Fahrbahn</w>": 7945,
  "verbessern</w>": 7946,
  "gem\u00e4\u00df</w>": 7947,
  "types</w>": 7948,
  "1,5</w>": 7949,
  "reise</w>": 7950,
  "weitgehend</w>": 7951,
  "Sch\u00fclern</w>": 7952,
  "Angeklagten</w>": 7953,
  "Nutzung</w>": 7954,
  "Hilfs": 7955,
  "opponents</w>": 7956,
  "bestehen</w>": 7957,
  "rufen</w>": 7958,
  "Gymnasium</w>": 7959,
  "ej": 7960,
  "McC": 7961,
  "25-": 7962,
  "Pul": 7963,
  "goods</w>": 7964,
  "structure</w>": 7965,
  "Cl": 7966,
  "teen</w>": 7967,
  "Beg": 7968,
  "writes</w>": 7969,
  "factor</w>": 7970,
  "replaced</w>": 7971,
  "versuchte</w>": 7972,
  "gestanden</w>": 7973,
  "tomorrow</w>": 7974,
  "Toronto</w>": 7975,
  "gabe</w>": 7976,
  "Lager</w>": 7977,
  "irgendwann</w>": 7978,
  "Landgericht</w>": 7979,
  "Innenminister</w>": 7980,
  "expenses</w>": 7981,
  "einiger</w>": 7982,
  "samt</w>": 7983,
  "appropriate</w>": 7984,
  "movies</w>": 7985,
  "10,": 7986,
  "nahezu</w>": 7987,
  "Howard</w>": 7988,
  "istische</w>": 7989,
  "Lake</w>": 7990,
  "Out": 7991,
  "ierter</w>": 7992,
  "lift</w>": 7993,
  "lar": 7994,
  "Ausgabe</w>": 7995,
  "Fur": 7996,
  "utsch": 7997,
  "Wochen": 7998,
  "SP\u00d6</w>": 7999,
  "gained</w>": 8000,
  "manufacturing</w>": 8001,
  "zunehmend</w>": 8002,
  "drin</w>": 8003,
  "entlang</w>": 8004,
  "thinks</w>": 8005,
  "promise</w>": 8006,
  "Jeremy</w>": 8007,
  "hafte</w>": 8008,
  "fac": 8009,
  "Volker</w>": 8010,
  "gel\u00e4nde</w>": 8011,
  "konzept</w>": 8012,
  "contracts</w>": 8013,
  "schef</w>": 8014,
  "revenues</w>": 8015,
  "Medi": 8016,
  "aro": 8017,
  "Fort": 8018,
  "Traum</w>": 8019,
  "drei": 8020,
  "Landtag</w>": 8021,
  "ov": 8022,
  "mehr": 8023,
  "barkeit</w>": 8024,
  "stick</w>": 8025,
  "Marine</w>": 8026,
  "ada</w>": 8027,
  "Republic</w>": 8028,
  "Kommission</w>": 8029,
  "ace</w>": 8030,
  "expects</w>": 8031,
  "Hauses</w>": 8032,
  "Gleich": 8033,
  "Turkish</w>": 8034,
  "Graham</w>": 8035,
  "enh": 8036,
  "US-Pr\u00e4sident</w>": 8037,
  "treat</w>": 8038,
  "B\u00fccher</w>": 8039,
  "Steuern</w>": 8040,
  "youth</w>": 8041,
  "Beruf": 8042,
  "Lim": 8043,
  "Jan.</w>": 8044,
  "quote</w>": 8045,
  "Wirkung</w>": 8046,
  "founded</w>": 8047,
  "bling</w>": 8048,
  "L\u00f6": 8049,
  "bruch</w>": 8050,
  "weiler</w>": 8051,
  "Netz": 8052,
  "91</w>": 8053,
  "frag": 8054,
  "erh\u00f6hen</w>": 8055,
  "everybody</w>": 8056,
  "sch\u00f6nen</w>": 8057,
  "erf\u00fcllt</w>": 8058,
  "emissions</w>": 8059,
  "employment</w>": 8060,
  "tion": 8061,
  "Family</w>": 8062,
  "arch": 8063,
  "Papst</w>": 8064,
  "Kriegs": 8065,
  "Ph": 8066,
  "einig</w>": 8067,
  "artists</w>": 8068,
  "NRW</w>": 8069,
  "beginn</w>": 8070,
  "geholt</w>": 8071,
  "viewers</w>": 8072,
  "seasons</w>": 8073,
  "Fl\u00e4che</w>": 8074,
  "Integration</w>": 8075,
  "sichern</w>": 8076,
  "Unternehmens</w>": 8077,
  "Schr\u00f6der</w>": 8078,
  "86</w>": 8079,
  "elled</w>": 8080,
  "Cob": 8081,
  "bekannten</w>": 8082,
  "editor</w>": 8083,
  "Umsetzung</w>": 8084,
  "Sex</w>": 8085,
  "Kindergarten</w>": 8086,
  "besetzt</w>": 8087,
  "informieren</w>": 8088,
  "Tausende</w>": 8089,
  "Stock</w>": 8090,
  "angenommen</w>": 8091,
  "Bundeswehr</w>": 8092,
  "Pil": 8093,
  "mid": 8094,
  "labor</w>": 8095,
  "Gor": 8096,
  "Hamas</w>": 8097,
  "tics</w>": 8098,
  "gate</w>": 8099,
  "payment</w>": 8100,
  "Yahoo</w>": 8101,
  "Manhattan</w>": 8102,
  "sive</w>": 8103,
  "ou</w>": 8104,
  "Claudia</w>": 8105,
  "CA</w>": 8106,
  "Gewerkschaft</w>": 8107,
  "Hir": 8108,
  "Santa</w>": 8109,
  "\u00fd": 8110,
  "Ti": 8111,
  "hospitals</w>": 8112,
  "Theater": 8113,
  "effectively</w>": 8114,
  "vic": 8115,
  "lern</w>": 8116,
  "elsewhere</w>": 8117,
  "ausgeschlossen</w>": 8118,
  "democracy</w>": 8119,
  "encourage</w>": 8120,
  "Abgeordneten</w>": 8121,
  "tested</w>": 8122,
  "Gr\u00f6\u00dfe</w>": 8123,
  "Praxis</w>": 8124,
  "journalist</w>": 8125,
  "ffer</w>": 8126,
  "vic</w>": 8127,
  "truck</w>": 8128,
  "umgesetzt</w>": 8129,
  "Kap": 8130,
  "82</w>": 8131,
  "wa</w>": 8132,
  "Mohammed</w>": 8133,
  "14-": 8134,
  "ons": 8135,
  "erzielt</w>": 8136,
  "Pressekonferenz</w>": 8137,
  "Bay": 8138,
  "ehrenam": 8139,
  "Abstand</w>": 8140,
  "Tatort</w>": 8141,
  "Flu": 8142,
  "Schluss": 8143,
  "se-": 8144,
  "Stor": 8145,
  "wechseln</w>": 8146,
  "proposals</w>": 8147,
  "Reaktion</w>": 8148,
  "Lor": 8149,
  "W\u00fcr": 8150,
  "Schweden</w>": 8151,
  "Gew": 8152,
  "Otto</w>": 8153,
  "haften</w>": 8154,
  "hitting</w>": 8155,
  "d\u00fcrfe</w>": 8156,
  "antreten</w>": 8157,
  "Sch\u00e4den</w>": 8158,
  "Science</w>": 8159,
  "h\u00e4n": 8160,
  "dl</w>": 8161,
  "signing</w>": 8162,
  "harder</w>": 8163,
  "SV": 8164,
  "ruft</w>": 8165,
  "3000</w>": 8166,
  "Daten": 8167,
  "kr\u00e4ftig</w>": 8168,
  "entsprechenden</w>": 8169,
  "Sven</w>": 8170,
  "begins</w>": 8171,
  "aries</w>": 8172,
  "Istanbul</w>": 8173,
  "pal": 8174,
  "ians</w>": 8175,
  "Angesichts</w>": 8176,
  "ahn</w>": 8177,
  "arm": 8178,
  "Samsung</w>": 8179,
  "m\u00f6chten</w>": 8180,
  "Jahr": 8181,
  "actual</w>": 8182,
  "marks</w>": 8183,
  "gestalten</w>": 8184,
  "false</w>": 8185,
  "lichkeiten</w>": 8186,
  "brach</w>": 8187,
  "mas": 8188,
  "Spuren</w>": 8189,
  "cked</w>": 8190,
  "Erwartungen</w>": 8191,
  "Cu": 8192,
  "Bedarf</w>": 8193,
  "custody</w>": 8194,
  "Erinnerung</w>": 8195,
  "l.</w>": 8196,
  "geschehen</w>": 8197,
  "ari</w>": 8198,
  "Boo": 8199,
  "DNA</w>": 8200,
  "dramatic</w>": 8201,
  "chn": 8202,
  "kommende</w>": 8203,
  "Woods</w>": 8204,
  "Kamera</w>": 8205,
  "warnte</w>": 8206,
  "nu": 8207,
  "abgesch": 8208,
  "tonight</w>": 8209,
  "Hab": 8210,
  "Dur": 8211,
  "marked</w>": 8212,
  "bezeichnete</w>": 8213,
  "tern": 8214,
  "anc": 8215,
  "Sitz": 8216,
  "acknowledged</w>": 8217,
  "Ly": 8218,
  "Kul": 8219,
  "09.": 8220,
  "age": 8221,
  "judges</w>": 8222,
  "Ross</w>": 8223,
  "Budget</w>": 8224,
  "Jewish</w>": 8225,
  "dis</w>": 8226,
  "enjoyed</w>": 8227,
  "ex-": 8228,
  "comfortable</w>": 8229,
  "Feb.</w>": 8230,
  "Zentimeter</w>": 8231,
  "kurze</w>": 8232,
  "tigkeit</w>": 8233,
  "unver": 8234,
  "Besitzer</w>": 8235,
  "Meister": 8236,
  "Fire</w>": 8237,
  "advanced</w>": 8238,
  "iting</w>": 8239,
  "iser</w>": 8240,
  "Mehrere</w>": 8241,
  "sy</w>": 8242,
  "Wunder</w>": 8243,
  "ational</w>": 8244,
  "tex": 8245,
  "tering</w>": 8246,
  "truly</w>": 8247,
  "splatz</w>": 8248,
  "gem</w>": 8249,
  "Gemeinsam</w>": 8250,
  "tech</w>": 8251,
  "deb": 8252,
  "Sto": 8253,
  "neck</w>": 8254,
  "Golf</w>": 8255,
  "Football</w>": 8256,
  "schafft</w>": 8257,
  "R.</w>": 8258,
  "Stewart</w>": 8259,
  "Abgeordnete</w>": 8260,
  "F\u00fchrungs": 8261,
  "angry</w>": 8262,
  "tig": 8263,
  "usual</w>": 8264,
  "Vorwurf</w>": 8265,
  "ear": 8266,
  "Conference</w>": 8267,
  "zei": 8268,
  "Freunden</w>": 8269,
  "gerecht</w>": 8270,
  "thin</w>": 8271,
  "lein</w>": 8272,
  "84</w>": 8273,
  "sorgten</w>": 8274,
  "Begegnung</w>": 8275,
  "missile</w>": 8276,
  "Ferien": 8277,
  "Aff\u00e4re</w>": 8278,
  "st\u00e4": 8279,
  "schm": 8280,
  "Mah": 8281,
  "ha</w>": 8282,
  "Air": 8283,
  "Wiesbaden</w>": 8284,
  "wirtschaftliche</w>": 8285,
  "Dam": 8286,
  "dly</w>": 8287,
  "Aktie</w>": 8288,
  "ME": 8289,
  "Fried": 8290,
  "connected</w>": 8291,
  "ehr": 8292,
  "Sch\u00e4uble</w>": 8293,
  "Aufsteiger</w>": 8294,
  "linie</w>": 8295,
  "discussion</w>": 8296,
  "efs</w>": 8297,
  "\u00ea": 8298,
  "Abschied</w>": 8299,
  "Rund": 8300,
  "Golden</w>": 8301,
  "demands</w>": 8302,
  "94</w>": 8303,
  "ome</w>": 8304,
  "Administration</w>": 8305,
  "Deutsch</w>": 8306,
  "it\u00e4ts": 8307,
  "Stro": 8308,
  "opp": 8309,
  "dispute</w>": 8310,
  "collapse</w>": 8311,
  "x-": 8312,
  "ail": 8313,
  "istin</w>": 8314,
  "weite</w>": 8315,
  "Posten</w>": 8316,
  "ierenden</w>": 8317,
  "dienst": 8318,
  "Guardian</w>": 8319,
  "preis": 8320,
  "1991</w>": 8321,
  "rugby</w>": 8322,
  "Andere</w>": 8323,
  "Bul": 8324,
  "Mess": 8325,
  "viertel</w>": 8326,
  "airline</w>": 8327,
  "yo": 8328,
  "Z-": 8329,
  "83</w>": 8330,
  "Tote</w>": 8331,
  "Market</w>": 8332,
  "Sw": 8333,
  "Telefon": 8334,
  "ily</w>": 8335,
  "Os": 8336,
  "Wissenschaftler</w>": 8337,
  "furt</w>": 8338,
  "cap</w>": 8339,
  "Einrichtungen</w>": 8340,
  "isierung</w>": 8341,
  "outcome</w>": 8342,
  "50-": 8343,
  "ala</w>": 8344,
  "Vorteil</w>": 8345,
  "surrounding</w>": 8346,
  "Handy</w>": 8347,
  "Zweiten</w>": 8348,
  "dauert</w>": 8349,
  "ausgesprochen</w>": 8350,
  "Haup": 8351,
  "Schulden</w>": 8352,
  "Tran": 8353,
  "sixth</w>": 8354,
  "kirchen</w>": 8355,
  "betroffenen</w>": 8356,
  "busy</w>": 8357,
  "wunder": 8358,
  "Rab": 8359,
  "stecken</w>": 8360,
  "liefern</w>": 8361,
  "ber-": 8362,
  "Sanders</w>": 8363,
  "verwies</w>": 8364,
  "defensive</w>": 8365,
  "Ze": 8366,
  "afford</w>": 8367,
  "managing</w>": 8368,
  "dungs": 8369,
  "ffs</w>": 8370,
  "druck</w>": 8371,
  "nah": 8372,
  "Eis</w>": 8373,
  "chair</w>": 8374,
  "Craig</w>": 8375,
  "finale</w>": 8376,
  "Respekt</w>": 8377,
  "directed</w>": 8378,
  "linge</w>": 8379,
  "gru": 8380,
  "Jerusalem</w>": 8381,
  "Total</w>": 8382,
  "kin": 8383,
  "lock": 8384,
  "sle": 8385,
  "Zug": 8386,
  "asp": 8387,
  "ausreichend</w>": 8388,
  "r\u00fccken</w>": 8389,
  "Refer": 8390,
  "fl\u00e4chen</w>": 8391,
  "lungen</w>": 8392,
  "erl\u00e4uterte</w>": 8393,
  "freunde</w>": 8394,
  "aufgebaut</w>": 8395,
  "na": 8396,
  "Wat": 8397,
  "Sarkozy</w>": 8398,
  "vital</w>": 8399,
  "located</w>": 8400,
  "Tageb": 8401,
  "Ludwig</w>": 8402,
  "wur": 8403,
  "machine</w>": 8404,
  "Gegensatz</w>": 8405,
  "mm</w>": 8406,
  "visiting</w>": 8407,
  "sinn": 8408,
  "diert</w>": 8409,
  "escape</w>": 8410,
  "Beck</w>": 8411,
  "Bezirk</w>": 8412,
  "Saal</w>": 8413,
  "Sil": 8414,
  "distance</w>": 8415,
  "Vogel": 8416,
  "Zimmer</w>": 8417,
  "questioned</w>": 8418,
  "emerging</w>": 8419,
  "farm</w>": 8420,
  "On": 8421,
  "G\u00fcnter</w>": 8422,
  "obvious</w>": 8423,
  "Statt</w>": 8424,
  "Edward</w>": 8425,
  "van": 8426,
  "ys": 8427,
  "finger</w>": 8428,
  "absolute</w>": 8429,
  "89</w>": 8430,
  "ward</w>": 8431,
  "Gr\u00fcnen-": 8432,
  "Studien": 8433,
  "Toyota</w>": 8434,
  "Ah": 8435,
  "Hun": 8436,
  "schwarzen</w>": 8437,
  "endete</w>": 8438,
  "enko</w>": 8439,
  "unterschiedlichen</w>": 8440,
  "Schauspielerin</w>": 8441,
  "ades</w>": 8442,
  "aside</w>": 8443,
  "B\u00fcrgern</w>": 8444,
  "priority</w>": 8445,
  "Zentral": 8446,
  "struggled</w>": 8447,
  "350</w>": 8448,
  "Black": 8449,
  "Josh</w>": 8450,
  "courts</w>": 8451,
  "compensation</w>": 8452,
  "communications</w>": 8453,
  "sterben</w>": 8454,
  "comedy</w>": 8455,
  "Long</w>": 8456,
  "Volk</w>": 8457,
  "migrants</w>": 8458,
  "talked</w>": 8459,
  "mar</w>": 8460,
  "Herr": 8461,
  "spielten</w>": 8462,
  "Ger\u00e4te</w>": 8463,
  "ose</w>": 8464,
  "sp\u00e4ten</w>": 8465,
  "excited</w>": 8466,
  "ups</w>": 8467,
  "H\u00e4ndler</w>": 8468,
  "verhalten</w>": 8469,
  "properties</w>": 8470,
  "broadcast</w>": 8471,
  "dener</w>": 8472,
  "managers</w>": 8473,
  "destroyed</w>": 8474,
  "Atmosph\u00e4re</w>": 8475,
  "Hem": 8476,
  "puts</w>": 8477,
  "teuer</w>": 8478,
  "Gegenteil</w>": 8479,
  "Bade": 8480,
  "Trust</w>": 8481,
  "bewerber</w>": 8482,
  "sted</w>": 8483,
  "Verst\u00e4ndnis</w>": 8484,
  "l\u00e4nder</w>": 8485,
  "argue</w>": 8486,
  "kleines</w>": 8487,
  "regularly</w>": 8488,
  "03.": 8489,
  "acker</w>": 8490,
  "mers</w>": 8491,
  "Food</w>": 8492,
  "Lar": 8493,
  "ge\u00e4ndert</w>": 8494,
  "tennis</w>": 8495,
  "Navy</w>": 8496,
  "Wei\u00df</w>": 8497,
  "tierte</w>": 8498,
  "Spenden</w>": 8499,
  "Stein</w>": 8500,
  "golf</w>": 8501,
  "ligen</w>": 8502,
  "electricity</w>": 8503,
  "Rou": 8504,
  "feier</w>": 8505,
  "\u00fcck": 8506,
  "vergeben</w>": 8507,
  "lucky</w>": 8508,
  "Werbe": 8509,
  "refer": 8510,
  "Antonio</w>": 8511,
  "Heinrich</w>": 8512,
  "zel": 8513,
  "Wohl": 8514,
  "ank": 8515,
  "hielten</w>": 8516,
  "Motor</w>": 8517,
  "gleiche</w>": 8518,
  "Bier</w>": 8519,
  "Aktivit\u00e4ten</w>": 8520,
  "hum": 8521,
  "dad</w>": 8522,
  "tier": 8523,
  "letzter</w>": 8524,
  "amp</w>": 8525,
  "Where</w>": 8526,
  "R\u00e4ume</w>": 8527,
  "1993</w>": 8528,
  "cal": 8529,
  "K\u00fc": 8530,
  "Revolution</w>": 8531,
  "jet</w>": 8532,
  "beobachtet</w>": 8533,
  "Messe</w>": 8534,
  "fought</w>": 8535,
  "Senioren</w>": 8536,
  "Jose</w>": 8537,
  "t\u00e4": 8538,
  "Beschluss</w>": 8539,
  "Dau": 8540,
  "luxury</w>": 8541,
  "dismissed</w>": 8542,
  "Kaiser</w>": 8543,
  "Eltern": 8544,
  "Gang</w>": 8545,
  "agenda</w>": 8546,
  "roll</w>": 8547,
  "harm</w>": 8548,
  "Wehr": 8549,
  "garden</w>": 8550,
  "reporter</w>": 8551,
  "Lesen</w>": 8552,
  "tle</w>": 8553,
  "expand</w>": 8554,
  "Sun": 8555,
  "Res": 8556,
  "L\u00f6wen</w>": 8557,
  "background</w>": 8558,
  "verabschiedet</w>": 8559,
  "04.": 8560,
  "100,000</w>": 8561,
  "Franken</w>": 8562,
  "tim": 8563,
  "deswegen</w>": 8564,
  "Besch\u00e4ftigten</w>": 8565,
  "Fan": 8566,
  "Salz": 8567,
  "Konkurrenten</w>": 8568,
  "Regionen</w>": 8569,
  "brings</w>": 8570,
  "Teilen</w>": 8571,
  "Gest": 8572,
  "medi": 8573,
  "profitieren</w>": 8574,
  "roughly</w>": 8575,
  "senator</w>": 8576,
  "Stadtverwaltung</w>": 8577,
  "represent</w>": 8578,
  "lit": 8579,
  "Grundlage</w>": 8580,
  "Sonnabend</w>": 8581,
  "UN-": 8582,
  "07.": 8583,
  "manage</w>": 8584,
  "stedt</w>": 8585,
  "stated</w>": 8586,
  "EN": 8587,
  "causes</w>": 8588,
  "Hon": 8589,
  "Hoh": 8590,
  "preise</w>": 8591,
  "wealth</w>": 8592,
  "drove</w>": 8593,
  "Mittwochabend</w>": 8594,
  "verboten</w>": 8595,
  "notice</w>": 8596,
  "Audi</w>": 8597,
  "ica</w>": 8598,
  "horse</w>": 8599,
  "web</w>": 8600,
  "consequences</w>": 8601,
  "Lange</w>": 8602,
  "adviser</w>": 8603,
  "NASA</w>": 8604,
  "owns</w>": 8605,
  "ular</w>": 8606,
  "Holz</w>": 8607,
  "oos</w>": 8608,
  "baum</w>": 8609,
  "igkeit</w>": 8610,
  "offices</w>": 8611,
  "fat</w>": 8612,
  ".at</w>": 8613,
  "veranstaltung</w>": 8614,
  "\u00dft</w>": 8615,
  "Evans</w>": 8616,
  "euros</w>": 8617,
  "Costa</w>": 8618,
  "birthday</w>": 8619,
  "tier</w>": 8620,
  "cup</w>": 8621,
  "lauf": 8622,
  "Mari": 8623,
  "Tan": 8624,
  "behalten</w>": 8625,
  "wenden</w>": 8626,
  "lay</w>": 8627,
  "ey": 8628,
  "17-": 8629,
  "haltung</w>": 8630,
  "ll</w>": 8631,
  "assistance</w>": 8632,
  "complaints</w>": 8633,
  "Amerikaner</w>": 8634,
  "blow</w>": 8635,
  "endg\u00fcltig</w>": 8636,
  "techn": 8637,
  "throw</w>": 8638,
  "bound</w>": 8639,
  "remarks</w>": 8640,
  "Schreiben</w>": 8641,
  "gathered</w>": 8642,
  "Ty": 8643,
  "gelaufen</w>": 8644,
  "Experte</w>": 8645,
  "Tory</w>": 8646,
  "requires</w>": 8647,
  "units</w>": 8648,
  "Pr\u00fcfung</w>": 8649,
  "Little</w>": 8650,
  "dealing</w>": 8651,
  "lights</w>": 8652,
  "erreichte</w>": 8653,
  "hervor": 8654,
  "Cy": 8655,
  "Meer</w>": 8656,
  "stations</w>": 8657,
  "steuer</w>": 8658,
  "Thompson</w>": 8659,
  "Klein</w>": 8660,
  "coffee</w>": 8661,
  "Tats\u00e4chlich</w>": 8662,
  "parks</w>": 8663,
  "designer</w>": 8664,
  "Kel": 8665,
  "Ski": 8666,
  "Gruppen": 8667,
  "ture</w>": 8668,
  "ete</w>": 8669,
  "Regierungschef</w>": 8670,
  "bs": 8671,
  "sage</w>": 8672,
  "typically</w>": 8673,
  "bisherige</w>": 8674,
  "h\u00f6chsten</w>": 8675,
  "Vorgehen</w>": 8676,
  "clothes</w>": 8677,
  "gestaltet</w>": 8678,
  "witness</w>": 8679,
  "nachrichten</w>": 8680,
  "Aff": 8681,
  "funded</w>": 8682,
  "Kaffee</w>": 8683,
  "cho": 8684,
  "Arabia</w>": 8685,
  "chemical</w>": 8686,
  "buyers</w>": 8687,
  "Gipfel</w>": 8688,
  "Pin": 8689,
  "Mission</w>": 8690,
  "impressive</w>": 8691,
  "Al-": 8692,
  "regulations</w>": 8693,
  "reveal</w>": 8694,
  "ement</w>": 8695,
  "chi</w>": 8696,
  "16-": 8697,
  "halben</w>": 8698,
  "formal</w>": 8699,
  "zeichnet</w>": 8700,
  "counts</w>": 8701,
  "mile</w>": 8702,
  "originally</w>": 8703,
  "illa</w>": 8704,
  "Krisen": 8705,
  "belt</w>": 8706,
  "aum</w>": 8707,
  "diverse</w>": 8708,
  "welcher</w>": 8709,
  "combat</w>": 8710,
  "abroad</w>": 8711,
  "Schwein": 8712,
  "Beziehungen</w>": 8713,
  "Kassen": 8714,
  "hat": 8715,
  "pers\u00f6nlichen</w>": 8716,
  "05.": 8717,
  "Version</w>": 8718,
  "welt": 8719,
  "Tier</w>": 8720,
  "hinter": 8721,
  "Pennsylvania</w>": 8722,
  "bon": 8723,
  "Klage</w>": 8724,
  "abe</w>": 8725,
  "Finanzierung</w>": 8726,
  "Partien</w>": 8727,
  "Swiss</w>": 8728,
  "st\u00e4dter</w>": 8729,
  "Leben": 8730,
  "performing</w>": 8731,
  "tight</w>": 8732,
  "firma</w>": 8733,
  "f\u00f6rderung</w>": 8734,
  "G\u00fcnther</w>": 8735,
  "Muslims</w>": 8736,
  "voran</w>": 8737,
  "trained</w>": 8738,
  "Besuchern</w>": 8739,
  "Fokus</w>": 8740,
  "rape</w>": 8741,
  "dam": 8742,
  "Filme</w>": 8743,
  "Dienstagabend</w>": 8744,
  "Championship</w>": 8745,
  "Sc": 8746,
  "wo": 8747,
  "variety</w>": 8748,
  "dge</w>": 8749,
  "Cr": 8750,
  "sach": 8751,
  "ao</w>": 8752,
  "schwerer</w>": 8753,
  "steh": 8754,
  "threw</w>": 8755,
  "hoff</w>": 8756,
  "Maschine</w>": 8757,
  "besch\u00e4digt</w>": 8758,
  "expansion</w>": 8759,
  "ned</w>": 8760,
  "trees</w>": 8761,
  "Ferguson</w>": 8762,
  "IT</w>": 8763,
  "coal</w>": 8764,
  "restaurants</w>": 8765,
  "ed-": 8766,
  "Var": 8767,
  "tischen</w>": 8768,
  "imagine</w>": 8769,
  "ahr": 8770,
  "Mitchell</w>": 8771,
  "r\u00e4umen</w>": 8772,
  "08.": 8773,
  "resolution</w>": 8774,
  "mes": 8775,
  "importance</w>": 8776,
  "oll</w>": 8777,
  "97</w>": 8778,
  "damaged</w>": 8779,
  "joining</w>": 8780,
  "Parkplatz</w>": 8781,
  "offen": 8782,
  "blog</w>": 8783,
  "cu": 8784,
  "vermeiden</w>": 8785,
  "Ver\u00e4nderungen</w>": 8786,
  "gelernt</w>": 8787,
  "\u00e4u\u00dferte</w>": 8788,
  "Versorgung</w>": 8789,
  "Bio": 8790,
  "quar": 8791,
  "Sachschaden</w>": 8792,
  "employee</w>": 8793,
  "Kern</w>": 8794,
  "Syn": 8795,
  "italienischen</w>": 8796,
  "indicated</w>": 8797,
  "D.</w>": 8798,
  "keen</w>": 8799,
  "gro\u00df": 8800,
  "Samstagabend</w>": 8801,
  "urspr\u00fcnglich</w>": 8802,
  "strategic</w>": 8803,
  "unclear</w>": 8804,
  "w\u00e4r": 8805,
  "Pra": 8806,
  "aim</w>": 8807,
  "den-": 8808,
  "stunden</w>": 8809,
  "micro": 8810,
  "Cent</w>": 8811,
  "Beamte</w>": 8812,
  "contrast</w>": 8813,
  "Cruz</w>": 8814,
  "Grab": 8815,
  "Bowl</w>": 8816,
  "Ersatz": 8817,
  "vorn</w>": 8818,
  "\u00fcbernahm</w>": 8819,
  "Ausschuss</w>": 8820,
  "11": 8821,
  "ust": 8822,
  "ss</w>": 8823,
  "sa\u00df</w>": 8824,
  "Rep.</w>": 8825,
  "Erfolge</w>": 8826,
  "Wach": 8827,
  "alism</w>": 8828,
  "\u00dcberraschung</w>": 8829,
  "dating</w>": 8830,
  "Werbung</w>": 8831,
  "assi": 8832,
  "\u00f6ff": 8833,
  "Bun": 8834,
  "Direktor</w>": 8835,
  "Sender</w>": 8836,
  "Stu": 8837,
  "erinnerte</w>": 8838,
  "hr</w>": 8839,
  "rote</w>": 8840,
  "chor</w>": 8841,
  "terte</w>": 8842,
  "file</w>": 8843,
  "ordnung</w>": 8844,
  "Spre": 8845,
  "NE": 8846,
  "compete</w>": 8847,
  "arbeit": 8848,
  "Montagabend</w>": 8849,
  "organizations</w>": 8850,
  "vorstand</w>": 8851,
  "angen</w>": 8852,
  "ello</w>": 8853,
  "zahlt</w>": 8854,
  "county</w>": 8855,
  "enth": 8856,
  "App": 8857,
  "Warner</w>": 8858,
  "grounds</w>": 8859,
  "scenes</w>": 8860,
  "ized</w>": 8861,
  "mistake</w>": 8862,
  "sicherlich</w>": 8863,
  "k\u00e4mpft</w>": 8864,
  "Atlantic</w>": 8865,
  "100": 8866,
  "application</w>": 8867,
  "s\u00e4": 8868,
  "Tag": 8869,
  "solutions</w>": 8870,
  "dry</w>": 8871,
  "ling": 8872,
  "Hier": 8873,
  "ien": 8874,
  "baut</w>": 8875,
  "ult</w>": 8876,
  "Republik</w>": 8877,
  "cricket</w>": 8878,
  "Nordrhein-Westfalen</w>": 8879,
  "ently</w>": 8880,
  "Schwarz": 8881,
  "Dame</w>": 8882,
  "spoken</w>": 8883,
  "concluded</w>": 8884,
  "registered</w>": 8885,
  "wege</w>": 8886,
  "championship</w>": 8887,
  "bol": 8888,
  "Auff": 8889,
  "verfolgt</w>": 8890,
  "red": 8891,
  "stadium</w>": 8892,
  "strongly</w>": 8893,
  "nachrichten.at</w>": 8894,
  "\u00e4u\u00dferst</w>": 8895,
  "bonds</w>": 8896,
  "sprachen</w>": 8897,
  "Zinsen</w>": 8898,
  "auses</w>": 8899,
  "CSU-": 8900,
  "Catholic</w>": 8901,
  "Verbraucher</w>": 8902,
  "Lokal": 8903,
  "legung</w>": 8904,
  "sin": 8905,
  "pack</w>": 8906,
  "ilen</w>": 8907,
  "rol": 8908,
  "tries</w>": 8909,
  "Anklage</w>": 8910,
  "k\u00fcmmern</w>": 8911,
  "Todes": 8912,
  "Waffen": 8913,
  "Chor": 8914,
  "Z\u00e4hler</w>": 8915,
  "bereitet</w>": 8916,
  "Wur": 8917,
  "q</w>": 8918,
  "bestimmte</w>": 8919,
  "promote</w>": 8920,
  "bestimmten</w>": 8921,
  "ti</w>": 8922,
  "Schne": 8923,
  "zuerst</w>": 8924,
  "\u00dcbernahme</w>": 8925,
  "sons</w>": 8926,
  "pres": 8927,
  "technical</w>": 8928,
  "Nationen</w>": 8929,
  "Manche</w>": 8930,
  "Liberal</w>": 8931,
  "alt": 8932,
  "ahl</w>": 8933,
  "Fritz</w>": 8934,
  "igt</w>": 8935,
  "smart</w>": 8936,
  "grenze</w>": 8937,
  "instance</w>": 8938,
  "stepped</w>": 8939,
  "ergeben</w>": 8940,
  "schluss</w>": 8941,
  "please</w>": 8942,
  "leer</w>": 8943,
  "h\u00f6": 8944,
  "finanzielle</w>": 8945,
  "sp\u00fcren</w>": 8946,
  "Roten</w>": 8947,
  "Ehefrau</w>": 8948,
  "wasser": 8949,
  "Law</w>": 8950,
  "chi": 8951,
  "med</w>": 8952,
  "cro": 8953,
  "87</w>": 8954,
  "Linken</w>": 8955,
  "behavior</w>": 8956,
  "Watson</w>": 8957,
  "headquarters</w>": 8958,
  "Operation</w>": 8959,
  "Leiterin</w>": 8960,
  "rats</w>": 8961,
  "ander</w>": 8962,
  "YORK</w>": 8963,
  "Spielern</w>": 8964,
  "legs</w>": 8965,
  "hood</w>": 8966,
  "ER</w>": 8967,
  "13-": 8968,
  "cer": 8969,
  "E-Mail</w>": 8970,
  "illen</w>": 8971,
  "34": 8972,
  "einsatz</w>": 8973,
  "wel": 8974,
  "Stell": 8975,
  "Nu": 8976,
  "Steffen</w>": 8977,
  "Ausbildungs": 8978,
  "TV": 8979,
  "blamed</w>": 8980,
  "Profi</w>": 8981,
  "Beteiligten</w>": 8982,
  "Haltung</w>": 8983,
  "pregnant</w>": 8984,
  "schaut</w>": 8985,
  "Investor</w>": 8986,
  "Video": 8987,
  "Bayern-": 8988,
  "selection</w>": 8989,
  "Education</w>": 8990,
  "Nigeria</w>": 8991,
  "sions</w>": 8992,
  "eigenes</w>": 8993,
  "belegt</w>": 8994,
  "neighborhood</w>": 8995,
  "\u00e5": 8996,
  "follows</w>": 8997,
  "entry</w>": 8998,
  "Chor</w>": 8999,
  "Dauer": 9000,
  "Nation</w>": 9001,
  "wahr": 9002,
  "beauty</w>": 9003,
  "ron": 9004,
  "Torwart</w>": 9005,
  "K\u00fcche</w>": 9006,
  "investments</w>": 9007,
  "wit": 9008,
  "Opel</w>": 9009,
  "Lig": 9010,
  "Konsequenzen</w>": 9011,
  "cy</w>": 9012,
  "Whit": 9013,
  "guns</w>": 9014,
  "Guardiola</w>": 9015,
  "quiet</w>": 9016,
  "entschied</w>": 9017,
  "Jury</w>": 9018,
  "waste</w>": 9019,
  "einzelne</w>": 9020,
  "Schwester</w>": 9021,
  "Yemen</w>": 9022,
  "smart": 9023,
  "exposed</w>": 9024,
  "D\u00fcr": 9025,
  "K\u00f6l": 9026,
  "minor</w>": 9027,
  "Touristen</w>": 9028,
  "Harald</w>": 9029,
  "Massachusetts</w>": 9030,
  "Protest</w>": 9031,
  "affairs</w>": 9032,
  "Vorfall</w>": 9033,
  "Phil</w>": 9034,
  "defend</w>": 9035,
  "od": 9036,
  "sharp</w>": 9037,
  "Federer</w>": 9038,
  "Such</w>": 9039,
  "dreht</w>": 9040,
  "finals</w>": 9041,
  "stes</w>": 9042,
  "immigrants</w>": 9043,
  "Material</w>": 9044,
  "classic</w>": 9045,
  "angel": 9046,
  "Peking</w>": 9047,
  "pp</w>": 9048,
  "favorite</w>": 9049,
  "zeu": 9050,
  "stuck</w>": 9051,
  "chinesischen</w>": 9052,
  "prompted</w>": 9053,
  "gene</w>": 9054,
  "jeweiligen</w>": 9055,
  "Care</w>": 9056,
  "Exchange</w>": 9057,
  "Unterschied</w>": 9058,
  "dan": 9059,
  "180</w>": 9060,
  "3,000</w>": 9061,
  "neither</w>": 9062,
  "Gemeinschaft</w>": 9063,
  "erscheint</w>": 9064,
  "Arbeitspl\u00e4tze</w>": 9065,
  "sch\u00e4": 9066,
  "Internationalen</w>": 9067,
  "Picture</w>": 9068,
  "engine</w>": 9069,
  "l\u00f6": 9070,
  "verspricht</w>": 9071,
  "ausgerechnet</w>": 9072,
  "Kurt</w>": 9073,
  "profile</w>": 9074,
  "Beziehung</w>": 9075,
  "Frieden</w>": 9076,
  "bedroom</w>": 9077,
  "Lat": 9078,
  "br\u00fccke</w>": 9079,
  "mainly</w>": 9080,
  "FI": 9081,
  "granted</w>": 9082,
  "healthcare</w>": 9083,
  "sburg</w>": 9084,
  "tak": 9085,
  "OR": 9086,
  "Asked</w>": 9087,
  "vieler</w>": 9088,
  "CO": 9089,
  "Hans-": 9090,
  "schicken</w>": 9091,
  "wohl": 9092,
  "parent</w>": 9093,
  "second-": 9094,
  "Weg": 9095,
  "ierungs": 9096,
  "overnight</w>": 9097,
  "erz\u00e4hlen</w>": 9098,
  "ve-": 9099,
  "recalled</w>": 9100,
  "weis": 9101,
  "Mol": 9102,
  "dest": 9103,
  "adult</w>": 9104,
  "appen</w>": 9105,
  "untersucht</w>": 9106,
  "Nik": 9107,
  "Restaurant</w>": 9108,
  "Interessen</w>": 9109,
  "essential</w>": 9110,
  "networks</w>": 9111,
  "Steinmeier</w>": 9112,
  "ony</w>": 9113,
  "Disney</w>": 9114,
  "halbe</w>": 9115,
  "ahl": 9116,
  "ku": 9117,
  "Mir": 9118,
  "Verfassungs": 9119,
  "\u00dfen": 9120,
  "Unternehmer</w>": 9121,
  "Torh\u00fcter</w>": 9122,
  "Ehe</w>": 9123,
  "dens</w>": 9124,
  "Sta": 9125,
  "b\u00fcrger": 9126,
  "daten</w>": 9127,
  "Proteste</w>": 9128,
  "unge": 9129,
  "verletzte</w>": 9130,
  "desire</w>": 9131,
  "dran</w>": 9132,
  "lager</w>": 9133,
  "W-": 9134,
  "ition</w>": 9135,
  "featured</w>": 9136,
  "leichter</w>": 9137,
  "Ort": 9138,
  "Studium</w>": 9139,
  "stayed</w>": 9140,
  "Dadurch</w>": 9141,
  "Besch": 9142,
  "Thailand</w>": 9143,
  "prospect</w>": 9144,
  "Syri": 9145,
  "gesichert</w>": 9146,
  "gescheitert</w>": 9147,
  "Uni": 9148,
  "werten</w>": 9149,
  "Eintritt</w>": 9150,
  "elli</w>": 9151,
  "musical</w>": 9152,
  "personnel</w>": 9153,
  "Mayor</w>": 9154,
  "German": 9155,
  "einzigen</w>": 9156,
  "Johann</w>": 9157,
  "Francis</w>": 9158,
  "47": 9159,
  "Hotel": 9160,
  "applications</w>": 9161,
  "tigung</w>": 9162,
  "richten</w>": 9163,
  "Ran": 9164,
  "2019</w>": 9165,
  "Several</w>": 9166,
  "Ring</w>": 9167,
  "ger-": 9168,
  "discussed</w>": 9169,
  "Mut</w>": 9170,
  "M\u00fchl": 9171,
  "gehandelt</w>": 9172,
  "supplies</w>": 9173,
  "fingen</w>": 9174,
  "wage</w>": 9175,
  "schulen</w>": 9176,
  "stro": 9177,
  "combination</w>": 9178,
  "kreises</w>": 9179,
  "beating</w>": 9180,
  "Nationalmannschaft</w>": 9181,
  "tran": 9182,
  "Internet-": 9183,
  "blatt</w>": 9184,
  "gh</w>": 9185,
  "nen": 9186,
  "Sprung</w>": 9187,
  "K.</w>": 9188,
  "cited</w>": 9189,
  "solid</w>": 9190,
  "drew</w>": 9191,
  "Forschungs": 9192,
  "t\u00fcrkische</w>": 9193,
  "Fabian</w>": 9194,
  "bus": 9195,
  "Donnerstagabend</w>": 9196,
  "Wei\u00df": 9197,
  "Bruce</w>": 9198,
  "Gro\u00dfteil</w>": 9199,
  "Anbieter</w>": 9200,
  "Fris": 9201,
  "lowest</w>": 9202,
  "practices</w>": 9203,
  "Zeitraum</w>": 9204,
  "echte</w>": 9205,
  "finds</w>": 9206,
  "bie": 9207,
  "H\u00e4": 9208,
  "auto</w>": 9209,
  "Boeing</w>": 9210,
  "anischen</w>": 9211,
  "consecutive</w>": 9212,
  "Immobilien": 9213,
  "OK</w>": 9214,
  "langer</w>": 9215,
  "frau</w>": 9216,
  "fragte</w>": 9217,
  "bench</w>": 9218,
  "AT</w>": 9219,
  "Alb": 9220,
  "iller</w>": 9221,
  "fore": 9222,
  "derung</w>": 9223,
  "reagieren</w>": 9224,
  "Celtic</w>": 9225,
  "Fle": 9226,
  "st\u00e4nde</w>": 9227,
  "doors</w>": 9228,
  "Lions</w>": 9229,
  "Sor": 9230,
  "at-": 9231,
  "aux</w>": 9232,
  "inning</w>": 9233,
  "gast": 9234,
  "Anti-": 9235,
  "sammeln</w>": 9236,
  "THE</w>": 9237,
  "0.000</w>": 9238,
  "lt</w>": 9239,
  "TS": 9240,
  "bury</w>": 9241,
  "Lust</w>": 9242,
  "bewer": 9243,
  "verhindert</w>": 9244,
  "iers</w>": 9245,
  "poverty</w>": 9246,
  "welchen</w>": 9247,
  "suspects</w>": 9248,
  "guests</w>": 9249,
  "Neuen</w>": 9250,
  "ius</w>": 9251,
  "Neil</w>": 9252,
  "explosion</w>": 9253,
  "Hinweis</w>": 9254,
  "agen": 9255,
  "technischen</w>": 9256,
  "Mannes</w>": 9257,
  "Russell</w>": 9258,
  "werke</w>": 9259,
  "ben\u00f6tigt</w>": 9260,
  "M\u00f6": 9261,
  "Freu": 9262,
  "forms</w>": 9263,
  "Rechte</w>": 9264,
  "sichtlich</w>": 9265,
  "meldete</w>": 9266,
  "Bou": 9267,
  "ust</w>": 9268,
  "bestand</w>": 9269,
  "loo": 9270,
  "racing</w>": 9271,
  "geh\u00f6rte</w>": 9272,
  "wei\u00dfen</w>": 9273,
  "abgelehnt</w>": 9274,
  "68": 9275,
  "Leser</w>": 9276,
  "Newcastle</w>": 9277,
  "passenger</w>": 9278,
  "partnership</w>": 9279,
  "Hay": 9280,
  "griechischen</w>": 9281,
  "betreut</w>": 9282,
  "Klub</w>": 9283,
  "vorsitzender</w>": 9284,
  "Sweden</w>": 9285,
  "entsteht</w>": 9286,
  "alit\u00e4t</w>": 9287,
  "igung</w>": 9288,
  "nah</w>": 9289,
  "Strategie</w>": 9290,
  "shoulder</w>": 9291,
  "vieles</w>": 9292,
  "artikel</w>": 9293,
  "meat</w>": 9294,
  "Informations": 9295,
  "schien</w>": 9296,
  "w\u00fcnschen</w>": 9297,
  "Ash": 9298,
  "pers\u00f6nliche</w>": 9299,
  "Back</w>": 9300,
  "transition</w>": 9301,
  "urs": 9302,
  "wonder</w>": 9303,
  "Schar": 9304,
  "widespread</w>": 9305,
  "Ther": 9306,
  "06.": 9307,
  "Ali": 9308,
  "delay</w>": 9309,
  "hero</w>": 9310,
  "gekauft</w>": 9311,
  "Zoll": 9312,
  "Jun": 9313,
  "winds</w>": 9314,
  "nor": 9315,
  "Ungarn</w>": 9316,
  "stellvertretende</w>": 9317,
  "Origin": 9318,
  "Nicole</w>": 9319,
  "rural</w>": 9320,
  "Fas": 9321,
  "BA": 9322,
  "Men</w>": 9323,
  "Port</w>": 9324,
  "estimate</w>": 9325,
  "reaching</w>": 9326,
  "shoot</w>": 9327,
  "Ausgaben</w>": 9328,
  "Jamie</w>": 9329,
  "Bit": 9330,
  "Petra</w>": 9331,
  "tenberg</w>": 9332,
  "Tam": 9333,
  "gift</w>": 9334,
  "fliegen</w>": 9335,
  "bek": 9336,
  "Leon": 9337,
  "Reform": 9338,
  "therefore</w>": 9339,
  "ck-": 9340,
  "Blues</w>": 9341,
  "sau": 9342,
  "wehr": 9343,
  "Licht": 9344,
  "girlfriend</w>": 9345,
  "verwendet</w>": 9346,
  "behalf</w>": 9347,
  "ais</w>": 9348,
  "Spo": 9349,
  "bags</w>": 9350,
  "Indien</w>": 9351,
  "solar</w>": 9352,
  "materials</w>": 9353,
  "fill</w>": 9354,
  "Five</w>": 9355,
  "regarding</w>": 9356,
  "ras": 9357,
  "Mittlerweile</w>": 9358,
  "balls</w>": 9359,
  "deadly</w>": 9360,
  "flag</w>": 9361,
  "Perth</w>": 9362,
  "Uni</w>": 9363,
  "Strafe</w>": 9364,
  "DiePresse.com</w>": 9365,
  "celebrate</w>": 9366,
  "karte</w>": 9367,
  "Infrastruktur</w>": 9368,
  "Telekom</w>": 9369,
  "heimischen</w>": 9370,
  "net": 9371,
  "Seattle</w>": 9372,
  "Six</w>": 9373,
  "fielen</w>": 9374,
  "gin</w>": 9375,
  "-Sprecher</w>": 9376,
  "faster</w>": 9377,
  "Gulf</w>": 9378,
  "upset</w>": 9379,
  "ovic</w>": 9380,
  "tem": 9381,
  "Riesen": 9382,
  "sounds</w>": 9383,
  "sick</w>": 9384,
  "handeln</w>": 9385,
  "h\u00f6heren</w>": 9386,
  "78": 9387,
  "Report</w>": 9388,
  "S\u00fc": 9389,
  "Sony</w>": 9390,
  "angekommen</w>": 9391,
  "Brief": 9392,
  "kurzfristig</w>": 9393,
  "Heb": 9394,
  "nten</w>": 9395,
  "long-": 9396,
  "preparing</w>": 9397,
  "dd</w>": 9398,
  "Av": 9399,
  "HSG</w>": 9400,
  "improving</w>": 9401,
  "Kino</w>": 9402,
  "seized</w>": 9403,
  "direktor</w>": 9404,
  "Gespr\u00e4chen</w>": 9405,
  "solcher</w>": 9406,
  "tourists</w>": 9407,
  "Platz": 9408,
  "Kritiker</w>": 9409,
  "Carter</w>": 9410,
  "stoff</w>": 9411,
  "110</w>": 9412,
  "wom\u00f6glich</w>": 9413,
  "Aufgrund</w>": 9414,
  "ard": 9415,
  "minority</w>": 9416,
  "Bridge</w>": 9417,
  "Wahrheit</w>": 9418,
  "durchgef\u00fchrt</w>": 9419,
  "Boris</w>": 9420,
  "lic": 9421,
  "stehenden</w>": 9422,
  "bewegt</w>": 9423,
  "indeed</w>": 9424,
  "Next</w>": 9425,
  "except</w>": 9426,
  "asser</w>": 9427,
  "Duo</w>": 9428,
  "ye": 9429,
  "bright</w>": 9430,
  "Sch\u00f6": 9431,
  "kitchen</w>": 9432,
  "h\u00f6chste</w>": 9433,
  "genie\u00dfen</w>": 9434,
  "technik</w>": 9435,
  "wort</w>": 9436,
  "scores</w>": 9437,
  "minus</w>": 9438,
  "folgenden</w>": 9439,
  "shouldn</w>": 9440,
  "Stur": 9441,
  "challenging</w>": 9442,
  "digte</w>": 9443,
  "Verl\u00e4ngerung</w>": 9444,
  "mixed</w>": 9445,
  "drehen</w>": 9446,
  "Alkohol</w>": 9447,
  "reduction</w>": 9448,
  "zerst\u00f6rt</w>": 9449,
  "Sportler</w>": 9450,
  "lerin</w>": 9451,
  "Gil": 9452,
  "l\u00e4n": 9453,
  "Unternehmens": 9454,
  "SI": 9455,
  "master</w>": 9456,
  "Bundestrainer</w>": 9457,
  "Eigent\u00fcmer</w>": 9458,
  "Betreiber</w>": 9459,
  "sensitive</w>": 9460,
  "Ras": 9461,
  "besseren</w>": 9462,
  "backs</w>": 9463,
  "Betroffenen</w>": 9464,
  "saved</w>": 9465,
  "testen</w>": 9466,
  "sad</w>": 9467,
  "aps</w>": 9468,
  "ruhig</w>": 9469,
  "jump</w>": 9470,
  "landete</w>": 9471,
  "grade</w>": 9472,
  "ministry</w>": 9473,
  "140</w>": 9474,
  "punkten</w>": 9475,
  "Cop": 9476,
  "disappointed</w>": 9477,
  "vorgeworfen</w>": 9478,
  "K\u00f6nig": 9479,
  "Anstieg</w>": 9480,
  "moder": 9481,
  "half-": 9482,
  "M\u00fch": 9483,
  "igh": 9484,
  "Night</w>": 9485,
  "capable</w>": 9486,
  "exciting</w>": 9487,
  "Schrift": 9488,
  "..</w>": 9489,
  "Netzwerk</w>": 9490,
  "complaint</w>": 9491,
  "Menschen": 9492,
  "zelt</w>": 9493,
  "temporary</w>": 9494,
  "Ja": 9495,
  "11-": 9496,
  "pped</w>": 9497,
  "H\u00e4nden</w>": 9498,
  "jumped</w>": 9499,
  "Reise": 9500,
  "entertainment</w>": 9501,
  "as-": 9502,
  "Brau": 9503,
  "Cooper</w>": 9504,
  "ston</w>": 9505,
  "purpose</w>": 9506,
  "Pass": 9507,
  "Regensburg</w>": 9508,
  "Ruf</w>": 9509,
  "backing</w>": 9510,
  "diplomatic</w>": 9511,
  "gelingt</w>": 9512,
  "Carlos</w>": 9513,
  "Stadtteil</w>": 9514,
  "begun</w>": 9515,
  "ierende</w>": 9516,
  "tolle</w>": 9517,
  "awards</w>": 9518,
  "Wilhelm</w>": 9519,
  "Leuten</w>": 9520,
  "gent": 9521,
  "Lied</w>": 9522,
  "She": 9523,
  "Erfolgs": 9524,
  "Bis": 9525,
  "ARD</w>": 9526,
  "Network</w>": 9527,
  "represented</w>": 9528,
  "TH": 9529,
  "suche</w>": 9530,
  "explains</w>": 9531,
  "Tageszeitung</w>": 9532,
  "Abteilung</w>": 9533,
  "F-": 9534,
  "beteiligen</w>": 9535,
  "stammen</w>": 9536,
  "E.</w>": 9537,
  "eindeutig</w>": 9538,
  "engaged</w>": 9539,
  "chosen</w>": 9540,
  "sch\u00e4tzen</w>": 9541,
  "sugar</w>": 9542,
  "Indi": 9543,
  "Forum</w>": 9544,
  "BR": 9545,
  "Executive</w>": 9546,
  "pleased</w>": 9547,
  "bru": 9548,
  "clo": 9549,
  "bear</w>": 9550,
  "Viertelfinale</w>": 9551,
  "Minnesota</w>": 9552,
  "winners</w>": 9553,
  "Palace</w>": 9554,
  "inklusive</w>": 9555,
  "farmers</w>": 9556,
  "prominent</w>": 9557,
  "Angel": 9558,
  "Volkswagen</w>": 9559,
  "rech": 9560,
  "Dax</w>": 9561,
  "Neub": 9562,
  "r\u00e4ume</w>": 9563,
  "Zer": 9564,
  "operate</w>": 9565,
  "teilten</w>": 9566,
  "burn</w>": 9567,
  "numerous</w>": 9568,
  "Cleveland</w>": 9569,
  "log": 9570,
  "Perhaps</w>": 9571,
  "dia</w>": 9572,
  "comp": 9573,
  "Kr\u00e4fte</w>": 9574,
  "Stri": 9575,
  "eck": 9576,
  "Crown</w>": 9577,
  "gut": 9578,
  "outstanding</w>": 9579,
  "Krankheit</w>": 9580,
  "top-": 9581,
  "stream</w>": 9582,
  "Agentur</w>": 9583,
  "Sean</w>": 9584,
  "Having</w>": 9585,
  "Vietnam</w>": 9586,
  "extraordinary</w>": 9587,
  "electric</w>": 9588,
  "Marcus</w>": 9589,
  "D.C.</w>": 9590,
  "Prinz</w>": 9591,
  "Heu": 9592,
  "ion": 9593,
  "ye</w>": 9594,
  "entspricht</w>": 9595,
  "Alkohol": 9596,
  "erm\u00f6glichen</w>": 9597,
  "Jessica</w>": 9598,
  "Th\u00fcringen</w>": 9599,
  "Wett": 9600,
  "Abwehr": 9601,
  "\u00e4u\u00dfern</w>": 9602,
  "ulation</w>": 9603,
  "Schwarz</w>": 9604,
  "reflect</w>": 9605,
  "ero": 9606,
  "jailed</w>": 9607,
  "ners</w>": 9608,
  "schaffte</w>": 9609,
  "suddenly</w>": 9610,
  "kg</w>": 9611,
  "sco": 9612,
  "Arn": 9613,
  "Hochschule</w>": 9614,
  "pause</w>": 9615,
  "Gl\u00fcck": 9616,
  "Rel": 9617,
  "schedule</w>": 9618,
  "halb</w>": 9619,
  "Pres": 9620,
  "bayerischen</w>": 9621,
  "intensiv</w>": 9622,
  "spolitik</w>": 9623,
  "PC</w>": 9624,
  "prepare</w>": 9625,
  "chose</w>": 9626,
  "sodass</w>": 9627,
  "locked</w>": 9628,
  "Bundestagswahl</w>": 9629,
  "illness</w>": 9630,
  "locker</w>": 9631,
  "Bol": 9632,
  "inv": 9633,
  "\u00e4ltere</w>": 9634,
  "Officials</w>": 9635,
  "z\u00fcge</w>": 9636,
  "ids</w>": 9637,
  "-Sieg</w>": 9638,
  "Off": 9639,
  "F\u00fchr": 9640,
  "11,": 9641,
  "Porsche</w>": 9642,
  "essi": 9643,
  "Nico</w>": 9644,
  "suggesting</w>": 9645,
  "Dubai</w>": 9646,
  "Davon</w>": 9647,
  "shops</w>": 9648,
  "Charlotte</w>": 9649,
  "Bat": 9650,
  "Corporation</w>": 9651,
  "sie": 9652,
  "adi</w>": 9653,
  "44": 9654,
  "oli</w>": 9655,
  "vertreter</w>": 9656,
  "Bloomberg</w>": 9657,
  "teenager</w>": 9658,
  "incidents</w>": 9659,
  "Mexican</w>": 9660,
  "Kiel</w>": 9661,
  "limits</w>": 9662,
  "kammer</w>": 9663,
  "cameras</w>": 9664,
  "hate</w>": 9665,
  "Darmstadt</w>": 9666,
  "kl\u00e4ren</w>": 9667,
  "Justiz</w>": 9668,
  "w\u00fcnscht</w>": 9669,
  "crude</w>": 9670,
  "eingerichtet</w>": 9671,
  "tende</w>": 9672,
  "Kil": 9673,
  "Eisen": 9674,
  "prize</w>": 9675,
  "Maybe</w>": 9676,
  "approximately</w>": 9677,
  "eich": 9678,
  "pleaded</w>": 9679,
  "Rande</w>": 9680,
  "Local</w>": 9681,
  "cy": 9682,
  "Songs</w>": 9683,
  "beit": 9684,
  "Look</w>": 9685,
  "Landesregierung</w>": 9686,
  "Gewinner</w>": 9687,
  "angebot</w>": 9688,
  "letters</w>": 9689,
  "peak</w>": 9690,
  "Maryland</w>": 9691,
  "Blum": 9692,
  "confirm</w>": 9693,
  "formation</w>": 9694,
  "Michel</w>": 9695,
  "Jon</w>": 9696,
  "19.30</w>": 9697,
[...]
