i n 504308598
a r 418151909
a n 378703567
a t 361940260
e r 348369269
t h 345690271
r e 314152517
s t 299384966
e n 292652363
i n</w> 249924751
i t 228004233
o r 227200004
o n 218798606
d e</w> 212480262
a l 205420990
th e</w> 194906431
i c 182239548
i l 173230101
u n 167143004
a c 161610846
u r 156614862
a t</w> 154364334
e l 144387743
r o 142013786
e d</w> 140433844
o r</w> 132937321
u l</w> 132193570
e r</w> 128256937
t i 127034685
in g</w> 124528907
e c 122237719
u l 121735627
a s 117146307
o n</w> 114975802
t r 113802058
t o</w> 112338081
an d</w> 111902839
ar e</w> 110640347
s i</w> 104674861
o m 103007388
e s 95911881
o l 95380231
o f</w> 94845467
r i 91789657
e s</w> 90691426
e a</w> 88553737
a m 88504921
a l</w> 87808965
at i 82714819
e st 81614029
a n</w> 81251796
i s</w> 76222935
a s</w> 75949102
i s 74585982
l a</w> 71627582
o u 68886069
e t 68482547
i m 68358307
a r</w> 67239240
o s 65358380
e m 65082229
p l 64487935
a d 62921868
en t 61589276
p ro 61110563
m a 60714973
c on 60305190
at e</w> 59858735
u i</w> 59383142
i i</w> 59121473
i t</w> 58951051
c a</w> 58681227
s a</w> 58230433
h e</w> 58061471
u t 56764280
s a 56728104
in t 56671710
e n</w> 53777029
a v 52869479
a p 52853290
c h 52655610
u s 52644298
d i 51239413
en t</w> 50948107
e i</w> 50490348
p re 49668785
c u</w> 49183419
d e 48618201
u c 47968027
i g 47921945
s p 47138039
u m 46681888
a b 46484069
c o 45873025
a g 45607697
w h 44952201
o c 44526110
p en 44337230
n o 43592568
e x 43283093
il e</w> 43052668
i a</w> 43001014
e v 42556266
d in</w> 42320059
' s</w> 42191993
i r 42046644
i st 41626152
u t</w> 41044500
p e</w> 40983001
s e</w> 40906506
c are</w> 40740687
c om 40333337
el e</w> 40295573
ul ui</w> 40188799
i e</w> 39568965
p er 39290207
at a</w> 39193743
p o 38778994
c e</w> 38551989
u n</w> 38288660
a u</w> 38288010
th at</w> 38227107
p ar 37990858
est e</w> 37607757
tr u</w> 37096377
l e 37015156
l i 36847222
er e</w> 36630089
f or</w> 36206995
s i 35851984
l y</w> 35650523
o v 34667645
ma i</w> 34477472
e d 33774048
a z 33600886
t e</w> 33415686
pen tru</w> 33053169
a st 32614144
t o 32598341
f or 32594937
i z 32186211
n e 31034910
s u 30812772
i d</w> 30564067
n u</w> 30363547
er s</w> 29886727
p r 29147051
T he</w> 28626152
i v 28587981
a y</w> 28187364
e l</w> 28089470
it h</w> 28085891
os t</w> 27953391
l e</w> 27730260
in c 27675494
il or</w> 27566796
l o 27497332
w as</w> 27460787
a f 27457615
th e 27416370
an t 27316113
p ri 26770103
s e 26563546
2 0 26517732
w ith</w> 26066438
a m</w> 25864493
b e 24857154
in e</w> 24775779
h o 24681508
ar ea</w> 24310220
i d 24296837
sa id</w> 23749870
re c 23743792
al e</w> 23594199
ic e</w> 22890496
st r 22846219
a d</w> 22521574
p or 22274027
an d 21852366
ti m 21752827
d o 21301805
ic a</w> 20938516
b l 20921132
v a</w> 20895544
u p 20566262
o f 20426163
o t 20388280
b e</w> 20279038
av e</w> 20077484
i c</w> 20007444
ic i 19819734
ec t 19819531
g r 19810164
es t</w> 19789296
e p 19614808
b y</w> 19509871
h is</w> 19367538
d ec 19340001
f ost</w> 19246249
s c 19082841
ou t</w> 18845540
in g 18760877
o p 18688280
ur i</w> 18581332
ati on</w> 18433069
in tr 18242582
t er 18189717
f ac 18108708
m an 18063252
m ar 18056052
ro m</w> 18042640
u s</w> 17917555
t re 17694208
u g 17650940
h ave</w> 17503409
f rom</w> 17417490
h i 17383815
e t</w> 17326188
il l</w> 17315122
ar a</w> 17234504
it i 17195490
I n</w> 17088273
u d 17055171
ati on 17046325
c l 17008987
t er</w> 16993361
e ar 16866490
u m</w> 16605866
v e</w> 16507929
- a</w> 16476480
m in 16278741
h as</w> 16265660
at i</w> 16154747
v er 16029101
f o 15864119
I n 15838771
it e</w> 15763225
it y</w> 15736303
ul d</w> 15633067
m o 15571227
k e</w> 15468614
i r</w> 15411936
d es 15386689
al a</w> 15319940
ig h 15305916
on e</w> 15277295
az a</w> 15203322
v i 15063415
t ur 14985905
q u 14887654
20 1 14723159
i l</w> 14550718
f i</w> 14546536
d ay</w> 14502746
m e 14404085
un t</w> 14376698
t a</w> 14362243
t e 14351854
f er 14342555
un c 14240139
m ul 14233047
f i 14157996
t a 14128160
a y 14058088
re s 14028899
at or 13879049
e g 13855478
p an 13728818
en ti 13720852
int er 13708213
or e</w> 13578845
no t</w> 13568869
0 0</w> 13508039
b o 13479963
p ut 13429955
el or</w> 13424382
h e 13332440
p i 13296101
r a 13220948
d is 13079597
w or 13071454
in a</w> 13016727
c re 12977362
p ol 12938050
th er</w> 12924353
a j 12923310
al l</w> 12903434
for m 12881103
u p</w> 12844679
t h</w> 12715259
r e</w> 12711905
b u 12675179
g e</w> 12647570
con t 12560492
an t</w> 12473841
un d 12382177
f in 12348687
w e 12307702
as t</w> 12105062
t s</w> 12012064
ec ti 12011484
c ar 11918334
s er 11843449
C h 11813331
ou r</w> 11692461
A n 11657134
s o</w> 11645781
o b 11635738
w ill</w> 11577052
i b 11574734
sa u</w> 11555460
wh o</w> 11519397
p e 11513434
h er</w> 11435774
s t</w> 11431569
it a</w> 11360550
s unt</w> 11338042
d uc 11329546
e f 11294334
m ent</w> 11294048
par t 11132326
b ut</w> 11131438
an c 11130803
u ti 11056202
h ad</w> 10953049
m il 10949017
the y</w> 10929777
em b 10904583
g o 10888143
m a</w> 10882121
th is</w> 10828480
an i</w> 10827343
ac ti 10817727
l oc 10759347
o u</w> 10731843
in d</w> 10731445
on s</w> 10710593
or d 10648793
w o 10602645
S t 10564505
f ir 10531537
f r 10508093
in v 10497346
k ing</w> 10446144
the ir</w> 10442104
por t 10437233
i o 10415775
re g 10327413
i ar</w> 10295891
un e</w> 10288929
u re 10176323
ati i</w> 10153206
pl e</w> 10151793
it s</w> 10113850
C on 10105335
t i</w> 10104778
s ho 10075650
i f 10074456
om e</w> 9943586
T h 9904878
it at 9895694
w n</w> 9881436
en d 9852070
al ly</w> 9792900
ic h</w> 9785812
ic i</w> 9763418
e z 9763074
be en</w> 9761786
w ere</w> 9759293
as e</w> 9741741
up a</w> 9704275
m on 9618827
as a</w> 9599542
a u 9555398
us e</w> 9544634
in d 9534908
ast a</w> 9527303
l u 9488829
ar i</w> 9472171
es s</w> 9464787
c ur 9455293
ac e 9438241
k s</w> 9428977
p u 9426603
an g 9366193
ac a</w> 9327719
n e</w> 9300243
s o 9269673
er ea</w> 9263741
s ec 9242771
m ore</w> 9239120
U n 9219316
a i</w> 9182137
' t</w> 9155004
p os 9137283
ac est 9091893
c al 9058567
s h 9053996
ent s</w> 8995772
er n 8992464
intr e</w> 8952954
o g 8893363
ac t 8860589
an a</w> 8815261
pre s 8786980
i es</w> 8733068
wh ich</w> 8692857
an e</w> 8661034
us t</w> 8625182
s ur 8601350
a in 8596074
e m</w> 8586035
b r 8574091
1 9 8564248
ur a</w> 8534098
w e</w> 8528011
A c 8525256
20 0 8507949
si d 8507672
M ar 8502240
ab out</w> 8499067
am e</w> 8447462
ol d</w> 8442650
l ui</w> 8423423
y ou</w> 8404243
le g 8400651
ac c 8390085
g h 8313909
R om 8301135
ac k</w> 8276119
ag e</w> 8263970
un a</w> 8223196
un d</w> 8220071
n um 8164242
an s 8152897
l ar 8147773
oc i 8146736
er a</w> 8127001
igh t</w> 8096034
o d 8051159
wo uld</w> 8049370
i ei</w> 8028805
A l 8014916
it ate</w> 7990133
er i</w> 7952147
I t</w> 7929990
pre z 7926740
l a 7916742
re a</w> 7874082
at ed</w> 7835390
ol d 7834907
c at 7789598
en er 7786565
ist r 7765009
ent a</w> 7726407
e - 7640836
v or</w> 7619399
en ce</w> 7593034
pri m 7592145
. .</w> 7584241
af ter</w> 7565022
d ar</w> 7537224
ar t 7521587
m er 7494453
m i 7420522
ar ii</w> 7414902
v en 7364084
al iz 7316878
f e 7313590
ar d</w> 7298952
m an</w> 7275235
l ed</w> 7267600
e aza</w> 7251548
an s</w> 7244181
c h</w> 7243036
ser v 7207155
a ut 7178795
t ul</w> 7153484
r it 7147507
ant a</w> 7146375
d re 7135451
c er 7131499
y e 7120088
i on</w> 7040989
s -a</w> 7022199
m e</w> 7001376
re sp 6978206
of f 6971592
el y</w> 6925936
i u</w> 6919669
ec t</w> 6885522
ar y</w> 6881258
ir e</w> 6856695
c an</w> 6846628
t or 6842804
o ple</w> 6831467
tim e</w> 6830340
itat ea</w> 6828650
o d</w> 6819851
u st 6793197
j o 6792092
i an</w> 6771406
pol it 6767979
y ear 6748377
or g 6745116
l uc 6736936
o ther</w> 6732397
re n 6727369
c ol 6725104
pr in</w> 6691287
k ed</w> 6688970
d upa</w> 6683164
os e</w> 6680640
s he</w> 6652104
ou a</w> 6643178
ab le</w> 6623035
g ro 6621045
N e 6617474
on g</w> 6613083
s it 6544212
f l 6505290
n ation 6491186
th an</w> 6487898
t w 6487138
ur ile</w> 6477247
m at 6474924
al so</w> 6473710
s on</w> 6459480
wh en</w> 6441780
s ol 6440410
o are</w> 6430507
m is 6420691
ac est</w> 6418971
ye ar</w> 6366090
u e</w> 6339719
el l</w> 6339439
ar d 6301867
pe ople</w> 6296764
c ap 6263102
Rom an 6248092
on d 6243705
ac e</w> 6216935
an ce</w> 6203527
re l 6196804
b ec 6158388
0 00</w> 6093318
ri e</w> 6084355
i al</w> 6081452
f el</w> 6075270
H e</w> 6063342
C om 6057924
no w</w> 6051803
intr - 6048278
ti i</w> 6046695
ď ż</w> 6041841
ut e</w> 6035797
en i</w> 6035371
ati a</w> 6032480
s ch 6019188
ov er</w> 6014755
u b 6002520
v o 6000337
iv e</w> 5898665
al s</w> 5885745
r u</w> 5876011
c um</w> 5872716
ad a</w> 5869955
s oci 5863766
- au</w> 5850346
d r 5831336
ab il 5819747
int a</w> 5801357
c ul 5774031
at t 5747004
or i</w> 5744992
ou s</w> 5733845
ic al</w> 5729905
E ur 5707960
w s</w> 5704401
ati e</w> 5688405
A r 5683080
ur e</w> 5677673
it i</w> 5664634
e as 5663316
o k</w> 5662490
ace asta</w> 5640128
u z 5637984
B ut</w> 5606393
C o 5587926
is t</w> 5587329
pri v 5580399
w ay</w> 5577664
th ere</w> 5565954
sp ec 5563791
un i</w> 5562718
in to</w> 5562457
ent e</w> 5555594
com pan 5547015
W h 5542817
ation s</w> 5537163
t ing</w> 5517191
i m</w> 5500149
t in 5475514
s el 5452564
P ro 5448178
c am 5444101
s im 5435134
P ar 5427920
es e</w> 5427557
uc h</w> 5424355
t ed</w> 5392870
po ate</w> 5390595
ne w</w> 5390159
s en 5381440
f ol 5357869
r a</w> 5352909
es c</w> 5326316
g re 5309305
ing s</w> 5297835
f a 5293055
c e 5292730
g u 5272816
d em 5270790
tw o</w> 5263987
em ent</w> 5254785
am il 5253691
st at 5224140
fir st</w> 5215656
int e</w> 5214613
re d</w> 5209119
tre bu 5203278
c ri 5196736
fac e</w> 5191420
co un 5186386
et i</w> 5141316
m as 5129744
ti on</w> 5129487
d aca</w> 5102096
b il 5087991
n ing</w> 5080060
con tr 5074314
im b 5073277
me di 5060504
ar te</w> 5057569
ac h 5050438
pro f 5041721
i on 5024817
a in</w> 5022498
en d</w> 5007597
e ur 5002757
o l</w> 4991853
ev a</w> 4991079
pr e</w> 4984598
l ast</w> 4983042
cont in 4974705
in st 4963804
y s</w> 4960760
re z 4949191
pu bl 4940642
al l 4938840
p t 4920224
o s</w> 4901639
ev er 4895788
at or</w> 4892086
h el 4884154
we e 4880103
on om 4869296
am a</w> 4869083
ov ern 4866829
wh at</w> 4866228
re e</w> 4841488
ut a</w> 4840616
por t</w> 4837867
ol og 4832400
c a 4827922
i p 4827301
co uld</w> 4826038
f ic 4795616
v al 4772500
di rec 4767975
year s</w> 4763888
ev er</w> 4761317
j ust</w> 4758886
en tr 4751842
T r 4749236
e y</w> 4731471
d intre</w> 4731047
o per 4727182
i f</w> 4724568
mul t</w> 4710999
en c 4707647
b an 4692763
c el</w> 4689508
d oua</w> 4677961
g et</w> 4672251
li ke</w> 4666043
d ata</w> 4658728
m are</w> 4642756
er s 4632427
d et 4627558
c ele</w> 4622217
f amil 4622105
am ent 4621004
es s 4616234
i ul</w> 4614175
ay s</w> 4610732
c at</w> 4606295
z a</w> 4602125
el l 4597354
W e</w> 4595936
old ov 4594537
org an 4587229
m ov 4582872
f ie</w> 4578880
the m</w> 4578619
R e 4576153
p at 4575822
p et 4572011
com m 4571043
c and</w> 4556584
y ing</w> 4553194
n u 4550483
s ome</w> 4548031
th ing</w> 4526610
inc l 4517763
m y</w> 4515225
li on</w> 4513414
it or 4512032
m ost</w> 4508159
s um 4504621
inv est 4499602
n ed</w> 4479746
D e</w> 4475530
t ar 4455945
lo w 4448568
trebu ie</w> 4439672
1 0</w> 4437458
at ul</w> 4437159
ti e</w> 4429664
c ent</w> 4429651
n o</w> 4420830
t al 4415911
ec onom 4413481
gh t</w> 4409488
t or</w> 4395816
b i 4392385
h n 4389069
a pro 4385819
des pre</w> 4380595
su p 4378362
f il 4377645
i un 4366585
s ist 4358087
com pl 4348838
hi m</w> 4347131
N u</w> 4337058
do ar</w> 4327129
l in 4326185
v ic 4325758
an ul</w> 4310121
fo arte</w> 4305063
tr iv 4303209
s in 4291820
o w 4282050
s ig 4279815
a k 4275647
p as 4267692
est i</w> 4265769
ro ug 4262580
d o</w> 4249938
po z 4242123
co p 4239749
il l 4236862
con d 4228580
v ol 4221657
g h</w> 4217794
min istr 4215079
pro duc 4213074
u bl 4212989
Roman ia</w> 4209350
ist a</w> 4197463
ul t 4194235
or a</w> 4184195
un t 4182816
u r</w> 4180491
n a</w> 4178292
b et 4171265
i rea</w> 4168497
L a</w> 4166320
P re 4160449
ar ul</w> 4146155
g ener 4139261
un ui</w> 4132209
at es</w> 4119772
g overn 4117714
in s</w> 4098609
iti on</w> 4071712
m emb 4062940
b ack</w> 4055481
l and</w> 4053766
s al 4042308
pro v 4038316
s em 4036581
v e 4035408
o m</w> 4033031
for e</w> 4019186
dec lar 4018220
l d</w> 4012112
mul te</w> 4007675
ad d 4006731
tim p</w> 4003505
p a 4000629
d om 3983712
st e</w> 3983516
f ata</w> 3971930
r as 3963857
e u</w> 3958652
ac h</w> 3957515
mo d 3955543
c ei</w> 3951269
tr ans 3950753
ac t</w> 3948366
is h</w> 3946363
pl ay 3935429
pan a</w> 3925502
e an</w> 3924902
wh ere</w> 3899158
a - 3896808
m ed 3883686
ou gh</w> 3861449
a use</w> 3858508
P en 3845036
si on</w> 3843658
t el 3836477
pl ic 3835821
if ic 3819703
no i</w> 3810418
prez ent 3807179
on ly</w> 3803393
as i</w> 3798371
l um 3798257
ro man 3797309
M oldov 3792810
on al</w> 3785704
es cu</w> 3785061
2 0</w> 3780304
per io 3778893
w i 3777936
p h 3775153
p er</w> 3772080
et s</w> 3764287
de z 3763702
er ii</w> 3762479
un de</w> 3761364
er c 3761202
im port 3759106
l ine</w> 3756913
om e 3756252
per so 3751053
sp or 3748600
c or 3744150
su b 3736122
ez e</w> 3733917
bl em 3730947
ar b 3717283
to ate</w> 3714493
r an 3707948
sa - 3703233
v is 3701342
ev en</w> 3698518
po t</w> 3683618
P o 3680910
b el 3680055
d ur 3669966
nation al</w> 3666484
ac k 3664555
A d 3660433
un g 3657107
M on 3650080
c ad 3647490
un ei</w> 3639508
be fore</w> 3629833
A mer 3613182
hi p 3611500
or b 3611445
in form 3603179
er ul</w> 3596056
am b 3596002
it ed</w> 3594925
z i</w> 3593087
at ing</w> 3587647
ex p 3583922
c el 3579382
u str 3576596
iti es</w> 3572692
acti v 3563610
c ea</w> 3561760
of f</w> 3550491
bec ause</w> 3528428
p ul 3527781
pro c 3526765
sa ys</w> 3525502
ic an</w> 3524942
an y</w> 3522191
par te</w> 3520291
Eur op 3519592
J o 3513979
do wn</w> 3509862
v ar 3508330
a il 3503052
c u 3496379
or s</w> 3494889
ati ve</w> 3489059
us ed</w> 3487476
ap p 3486625
at ur 3482017
j ur 3481977
in sa</w> 3481291
n or 3461067
c an 3456994
m om 3456469
de v 3453554
f unc 3443385
be ing</w> 3438028
ver y</w> 3436530
L e 3434592
l or</w> 3431729
lo c</w> 3430719
man y</w> 3429791
P ol 3417645
. ..</w> 3410774
3 0</w> 3406301
pro blem 3400358
o am 3387999
n ici</w> 3384547
ect ed</w> 3381399
organ iz 3376847
v iz 3376565
s l 3376179
b ine</w> 3369713
f ara</w> 3369071
pro gr 3368266
N o 3366698
b er 3366286
D e 3365027
ho w</w> 3363495
P ri 3354384
str uc 3351786
M in 3340413
at er</w> 3338764
is e</w> 3337586
st i</w> 3325711
s ing 3324971
r am 3324698
al ul</w> 3323687
on d</w> 3315706
ro s 3315688
sc ri 3314732
emb rie</w> 3314039
or ul</w> 3312933
wor k</w> 3312359
t old</w> 3311219
ex per 3309624
T he 3309174
incl ud 3307806
govern ment</w> 3300156
n ec 3298954
l ei</w> 3294979
di d 3294804
wh ile</w> 3292788
t on</w> 3290001
ic ii</w> 3285180
tr y</w> 3283335
si de</w> 3280563
en ii</w> 3280249
ic h 3277951
v es</w> 3275911
E n 3274818
v re 3274285
ain st</w> 3269660
luc r 3253568
T o 3253293
ic ul 3251901
v ed 3251596
R ep 3250685
contin u 3249307
t y</w> 3246082
on a</w> 3245889
- -</w> 3245735
di f 3238918
co ur 3238311
sid ent</w> 3228260
av ea</w> 3227793
par ti 3226837
p este</w> 3224949
i si</w> 3222887
int re 3214715
li c</w> 3208353
ou s 3205947
ag ainst</w> 3202817
M r</w> 3201136
p un 3200520
b er</w> 3199223
on g 3194640
a ug 3193914
th roug 3185443
f ap 3180630
ma de</w> 3179755
vi e 3177698
st a</w> 3171211
is h 3170535
pro t 3164639
inc ep 3162153
C ar 3151755
b as 3151001
cat re</w> 3150118
, 000</w> 3149851
to t</w> 3146317
c az 3144904
ati ei</w> 3136919
R us 3134753
ep t 3131079
r ul</w> 3115076
t rec 3108512
c r 3103212
u al</w> 3101302
M i 3100604
it al</w> 3097994
in k</w> 3093050
c as 3083649
ou t 3079111
or y</w> 3069908
put ea</w> 3066202
sit u 3062690
st ud 3060302
Ne w</w> 3059635
at at</w> 3054186
per s 3053964
Moldov a</w> 3052358
et e</w> 3052291
E x 3043024
st it 3033170
pro i 3028368
ma j 3027793
e p</w> 3023441
n er</w> 3021367
ch ar 3018704
fi ind</w> 3014485
ri s 3007662
th ree</w> 3007221
cont ro 3005025
N ation 3004745
int ele</w> 3002159
re d 2999024
mar k 2996616
ma ke</w> 2987317
B r 2980991
1 0 2980858
ig n</w> 2978805
mil lion</w> 2977612
U . 2975032
ur ma</w> 2970668
fac ut</w> 2970242
d el 2968848
ex t</w> 2968463
ent ul</w> 2967658
w om 2964833
le ad 2957061
d oc 2953921
ac um</w> 2950804
li f 2945755
T his</w> 2944872
sp us</w> 2943296
ecti on</w> 2942105
ic ol 2939728
pres ed 2936323
av ut</w> 2932632
s -au</w> 2927817
P r 2927381
Pen tru</w> 2925872
c entr 2925283
po triv 2921618
al te</w> 2921457
5 0</w> 2918865
intr- o</w> 2916958
ul tim 2911654
b ot 2905450
c i 2903741
con sid 2899306
im p 2887008
tr a 2881570
int el 2881029
m un 2881014
ar t</w> 2880453
ch il 2878200
pl o 2877741
re as 2877144
s y 2874751
d ic 2863666
com e</w> 2862726
intr- un</w> 2859989
ch iar</w> 2859839
1 . 2857065
su st 2855375
In ter 2848833
s il 2846009
go ing</w> 2845840
ure s</w> 2840908
B uc 2839397
S h 2837812
ti a</w> 2835098
po st 2833177
i or</w> 2832247
F r 2826990
throug h</w> 2825524
o ar 2825370
Rep ubl 2822944
or d</w> 2820697
ator ii</w> 2820026
re t 2819837
re st 2818405
wee k</w> 2813886
ar m 2811822
b en 2810983
f ul</w> 2808936
it ati</w> 2803462
in ch 2801302
S .</w> 2799400
b le</w> 2795667
1 5</w> 2786394
am ent</w> 2785918
ic k</w> 2785051
l it 2783404
v ot 2777706
w ell</w> 2770195
v orb 2768473
s ome 2767525
in t</w> 2767135
th en</w> 2766641
l ing</w> 2765450
o pen 2763441
th ose</w> 2759596
unc i</w> 2759116
ic k 2753067
poz it 2748943
s ed</w> 2748472
j ud 2743831
S i</w> 2743256
m or 2743073
ou se</w> 2742815
An d</w> 2742597
for m</w> 2738074
ri st 2733573
er n</w> 2730263
es day</w> 2729545
pu b 2726189
iv ers 2725302
p ed</w> 2721353
r y</w> 2718640
er ed</w> 2716470
C ol 2714574
s co 2713691
ici p 2710607
d a</w> 2707191
b us 2707098
a w 2706155
i ile</w> 2703306
s uc 2703142
t en 2698256
1 2</w> 2692993
f ur 2687439
lo w</w> 2685928
ver n 2684003
The y</w> 2679417
s an 2677171
e di 2675371
ap e</w> 2674777
declar at</w> 2674705
G u 2672842
eas ca</w> 2661523
sa y</w> 2655854
ec hip 2655806
B o 2653416
pub lic</w> 2653026
en g 2647928
com un 2645795
ant s</w> 2643754
pen d 2643516
b ro 2643302
B rit 2641378
d on</w> 2639680
u - 2638434
ri v 2635544
ator i</w> 2633658
ec are</w> 2632124
g o</w> 2632039
wor ld</w> 2625864
O r 2623886
c it 2620155
aj un 2619763
i e 2614399
b ur 2602839
pro d 2600907
at h 2600253
an te</w> 2599876
l es</w> 2599596
pro b 2599185
h ome</w> 2598421
oc r 2595261
m uch</w> 2590450
wi th 2589114
D aca</w> 2588551
eur o</w> 2582895
ar o 2581936
ic s</w> 2581641
y our</w> 2576650
n ev 2576033
st ill</w> 2574772
s uch</w> 2571560
a ir 2565062
az i</w> 2563952
k e 2560126
st ate</w> 2552245
201 5</w> 2551294
is m</w> 2549656
sin ce</w> 2549008
b re 2548953
' re</w> 2546859
- am</w> 2544759
se t</w> 2537447
as em 2532326
in i</w> 2530873
ri ght</w> 2529410
pro pri 2529184
U. S.</w> 2524753
ta ke</w> 2524397
c et 2520011
c un 2516947
dec at</w> 2516761
sho uld</w> 2516386
O b 2513025
di d</w> 2510556
ur ilor</w> 2506818
hi p</w> 2501217
in de 2500440
t em 2497217
p t</w> 2493840
- o</w> 2491588
tre i</w> 2489740
F o 2485699
we en</w> 2483966
ma g 2483198
i ri 2475979
dis c 2475819
o k 2474335
to t 2473348
S er 2472140
mil it 2467906
r .</w> 2467079
l ov 2465241
re ad 2463349
ma y</w> 2459624
i o</w> 2456003
io ane</w> 2451121
U n</w> 2448596
ven it</w> 2446690
f t</w> 2444027
ec e</w> 2438359
ul t</w> 2434596
l im 2432568
und er</w> 2430459
D i 2430185
th ink</w> 2429415
it atii</w> 2419918
cad rul</w> 2409298
per cent</w> 2401881
po pul 2400718
publ ic 2399284
r ap 2396135
en ea</w> 2393338
dur ing</w> 2392892
se e</w> 2392701
o i</w> 2388450
as h 2388147
off ici 2384664
c ast 2380330
re aliz 2379062
E ste</w> 2377732
f em 2376971
h igh 2376770
il iz 2376687
un or</w> 2376673
fol os 2375995
pl ace</w> 2373943
in f 2371946
tr ad 2371850
re f 2371265
tr an 2368883
z e</w> 2365520
g e 2364174
it or</w> 2360040
j u 2359826
bet ween</w> 2359348
con c 2358392
at ele</w> 2358195
et ul</w> 2357946
201 4</w> 2356733
fin anc 2353946
perio ada</w> 2350012
ti on 2348023
1 1</w> 2347122
pre c 2344672
al i 2344449
en e</w> 2344324
in a 2343846
A f 2340044
ap ar 2339169
p ul</w> 2335142
aro und</w> 2333721
ast fel</w> 2333012
Th ere</w> 2332733
S p 2330542
19 9 2329709
und er 2328737
s k 2326795
s us 2326367
ast ra</w> 2325490
vi ata</w> 2324218
un g</w> 2323172
Buc ure 2322594
am es</w> 2321466
pol ice</w> 2318178
b at 2317518
ap a</w> 2317133
includ ing</w> 2315458
C am 2312492
p unc 2310047
ic es</w> 2308293
man ag 2304250
suc c 2303386
A m</w> 2299065
coun try</w> 2293714
ov er 2293219
at unci</w> 2293024
m ec 2291409
al t 2282423
bus in 2281646
e i 2281477
N or 2277937
and s</w> 2274495
ati v</w> 2274462
at her</w> 2267018
prof es 2266239
st ri 2264574
asem enea</w> 2260996
d est 2258726
al es</w> 2256295
m en</w> 2250724
go od</w> 2249060
at ura</w> 2248870
g res 2247840
compan y</w> 2246218
h al 2245478
j a</w> 2244589
u i 2242831
cl as 2234331
un ul</w> 2233380
spec i 2228239
cre d 2227174
om b 2226751
nev o 2226527
de f 2224185
ab il</w> 2221735
ar ile</w> 2221459
E l 2221066
al ist 2220677
C l 2219953
se as 2217537
f ri 2211117
A s 2211040
par t</w> 2205543
ev en 2205155
po int 2201647
et a</w> 2201555
co t 2198331
c elor</w> 2193982
n iv 2188250
mil ioane</w> 2186281
M an 2185294
z ile</w> 2185118
ac este</w> 2184810
ex ec 2184652
n ext</w> 2182266
fo und</w> 2180377
pri ma</w> 2179506
f ul 2179233
T im 2174397
l ess</w> 2170248
A ustr 2169717
pl ac 2169674
v in 2169563
d s</w> 2159271
con duc 2156166
G er 2152822
M o 2149746
t ara</w> 2148836
al ta</w> 2148771
a h 2146708
ce ea</w> 2139189
pre mi 2134966
in e 2134692
re port 2133331
im ent 2132975
er g 2131861
lo o 2131072
. 000</w> 2131037
c ut</w> 2124821
he ad</w> 2121482
put in</w> 2121299
ur s 2120839
an ti 2120799
D ec 2119464
a k</w> 2117854
c um 2117703
as ig 2117233
ard s</w> 2114980
fi ecare</w> 2109173
m et 2107668
m it 2106780
su b</w> 2105905
com pet 2103490
R o 2102829
i ev 2099074
ne y</w> 2098497
g l 2097092
k es</w> 2096206
c ir 2096008
bu il 2094616
o wn</w> 2093653
ar ie</w> 2093375
S he</w> 2093223
th ese</w> 2092459
te am</w> 2091190
emb er</w> 2087248
g as 2086717
l uni</w> 2085828
Th at</w> 2079144
201 1</w> 2077234
b uc 2070046
pl an 2069305
k now</w> 2067213
P l 2066686
resp on 2065265
M c 2063161
ord ing</w> 2061189
Bucure sti</w> 2060796
um ne 2058687
e b 2056920
di fer 2049043
a de</w> 2048532
w er</w> 2048175
g ame</w> 2048020
g ar 2047958
U S</w> 2046175
t ro 2045045
sel f</w> 2043906
sp une</w> 2043727
c rit 2042663
luc ru</w> 2042209
li p 2040886
a i 2038622
el ul</w> 2037895
Austr al 2035751
ed er 2034443
2 5</w> 2033896
p us</w> 2031840
sp re</w> 2030147
s m 2027121
lif e</w> 2025436
w ant</w> 2019961
1 8 2017215
u di 2016962
ben ef 2016165
th s</w> 2013607
is ion</w> 2012484
P e</w> 2011428
c au 2010248
u pr 2010208
Min ist 2008121
or t 2006699
an ge</w> 2005782
ex ista</w> 2001980
i ar 2000760
ist e</w> 1999708
ati ile</w> 1997421
s ing</w> 1996314
e br 1995179
Ob ama</w> 1993621
do i</w> 1989364
ou th</w> 1988609
p ur 1986835
pos ib 1983536
t le</w> 1982932
I f</w> 1981958
sem n 1981361
o re 1981134
form er</w> 1980601
er i 1980516
an u</w> 1980227
reg ul 1979603
u it</w> 1979449
acest a</w> 1976933
t it 1976742
Nation al</w> 1976524
p ic 1974228
G e 1970858
h ear 1968494
w ing</w> 1967191
is su 1967179
um p</w> 1966972
av o 1966711
x im 1966418
d y</w> 1965029
ar ly</w> 1964539
th ough</w> 1964349
al th</w> 1964131
enti al</w> 1963493
ut ul</w> 1962734
i de 1962216
o t</w> 1960652
at ului</w> 1958332
n im 1957950
b or 1956353
d er 1953866
c eva</w> 1953061
perso ane</w> 1951966
ad ministr 1951130
f as 1950995
A st 1950891
d at</w> 1948552
import ant</w> 1947354
sec ur 1945145
g iv 1944751
tur e</w> 1943110
T ur 1940792
k no 1939191
ag a</w> 1937650
d ing</w> 1937257
dre n</w> 1936476
' ve</w> 1935931
in ca</w> 1933791
ig h</w> 1931700
si ve</w> 1930670
c le 1930201
c i</w> 1930102
S y 1928554
se ar 1926373
ator ul</w> 1926180
an other</w> 1924837
1 8</w> 1923141
v ir 1916995
ac el 1916369
sch o 1913623
mar i</w> 1913560
ist or 1912063
year - 1911999
n s</w> 1911856
re fer 1911206
at oare</w> 1910567
st and 1910089
at ate</w> 1908412
1 4</w> 1903186
B ar 1902855
progr am 1900709
act u 1900640
pr inc 1898530
al eg 1898356
d er</w> 1897979
h av 1897221
inst it 1897195
ur s</w> 1894082
ec h 1893211
enc y</w> 1893094
or t</w> 1891209
sec ond</w> 1890814
di v 1888284
as s 1885271
t en</w> 1884524
an u 1882930
S un 1882866
Un ited</w> 1881897
famil y</w> 1880153
to o</w> 1878822
a im 1878726
201 2</w> 1875793
an y 1875362
1 6</w> 1872331
s f 1872122
201 3</w> 1871799
f und 1871706
l s</w> 1870258
is c 1869325
de b 1868876
2 . 1868296
p ing</w> 1865744
S te 1862401
f our</w> 1861277
A s</w> 1860586
to p</w> 1860021
e z</w> 1857420
A T 1856338
sp ect 1855759
il a</w> 1855044
in s 1853598
upr a</w> 1853347
im ag 1853337
id ent</w> 1851474
bel iev 1851132
b al</w> 1851118
m es 1850605
Y or 1850423
of er 1850331
m ent 1849350
sur e</w> 1848763
and a</w> 1848558
bot h</w> 1846724
fir m 1845838
med ic 1845349
bo ok</w> 1844693
as upra</w> 1836817
sp e 1836454
no u</w> 1835269
part icip 1834753
c ase</w> 1833839
l ong</w> 1832519
ne ed</w> 1832012
ur g 1831971
pers on 1831215
le ft</w> 1831167
k il 1829877
y o 1827589
M r.</w> 1827562
D ar</w> 1826850
seas on</w> 1825573
gro up</w> 1824364
su f 1823662
sch imb 1820762
st abil 1817482
exper i 1817085
nec es 1816650
n ight</w> 1816308
be g 1816233
ne t</w> 1815735
itat ile</w> 1815609
hel p</w> 1814398
cur s 1814220
ec tr 1811992
un ea</w> 1809630
st at</w> 1809456
mo ti 1808547
cal led</w> 1807141
al i</w> 1803810
ati c</w> 1803214
it ia</w> 1802211
w ar 1801628
C u</w> 1801444
1 3</w> 1800321
sho w</w> 1799617
w ays</w> 1797130
D upa</w> 1796791
i ons</w> 1795900
nu mai</w> 1792405
S u 1792382
at ea</w> 1791708
ut iliz 1790973
A b 1788510
or ii</w> 1786659
w ard</w> 1785867
i ous</w> 1785285
C or 1784317
201 0</w> 1782705
k er</w> 1782459
en s</w> 1781870
r ul 1781335
pl ay</w> 1780346
d ol 1779910
j uc 1777663
fin al</w> 1773143
D in</w> 1772589
af l 1771535
s ite</w> 1770470
chil dren</w> 1770466
m i</w> 1768578
re tur 1768313
p on 1767198
mom ent</w> 1764303
tr i 1762294
A t 1762133
ag o</w> 1760374
read y</w> 1758572
o ara</w> 1758091
reg istr 1757986
s ame</w> 1755541
year- old</w> 1754543
F ri 1754169
pre g 1752082
fr on 1751513
a c</w> 1750484
go t</w> 1749958
iun ea</w> 1746923
p ut</w> 1746917
st s</w> 1746544
a j</w> 1745048
D av 1743706
p ac 1743004
ent ly</w> 1742423
i u 1740660
ex pl 1739819
v est 1739100
i ului</w> 1736513
G re 1736053
gr af 1735150
ti c</w> 1734260
s es</w> 1733599
T u 1732816
G r 1732747
S ch 1729919
0 0 1729895
loc ul</w> 1725990
D em 1721817
re ma 1721241
tre b 1720836
el s</w> 1720481
' m</w> 1720134
caz ul</w> 1719965
m us 1718019
V ic 1717463
trec ut</w> 1716829
i de</w> 1716450
ou ght</w> 1716202
g er 1714712
E d 1714480
d ro 1714059
v enti 1713879
it ii</w> 1713350
des ch 1712919
d or 1712323
le y</w> 1711181
Ch ina</w> 1709701
h ere</w> 1709003
4 0</w> 1708145
qu est 1707793
invest ig 1706674
1 7</w> 1706538
mon th</w> 1705353
i une</w> 1705026
ish ed</w> 1701453
ar ata</w> 1700981
for c 1698774
ol o</w> 1696924
re duc 1696161
th re 1696068
n ici 1695968
ab or 1695769
re ally</w> 1691872
po t 1691401
B an 1690296
in iti 1689795
af la</w> 1689099
ur n 1687095
sa pt 1687042
cre st 1684756
k ers</w> 1683733
vol t 1678639
g est</w> 1678191
gener al</w> 1678126
b est</w> 1676603
no str 1675752
busin ess</w> 1675380
oam eni</w> 1675094
re prezent 1674725
l ament 1673402
Amer ican</w> 1672722
con sum 1672040
- year-old</w> 1671817
mark et</w> 1670116
2 4</w> 1669789
r ac 1668679
c ent 1668432
un ii</w> 1667475
Un ivers 1667180
r i</w> 1666622
d ays</w> 1666216
prim ul</w> 1664573
v er</w> 1663714
doc um 1660294
g est 1660039
ep t</w> 1659832
si -a</w> 1657117
ol v 1656775
at uri</w> 1653035
s ale</w> 1652588
tim pul</w> 1652179
pl u</w> 1649950
200 9</w> 1648868
pi er 1648115
ch ange</w> 1646290
or ice</w> 1644706
Yor k</w> 1643672
at r 1643074
z ona</w> 1642276
S cot 1642025
1 00</w> 1641265
sapt am 1641172
W or 1640596
A p 1640334
mon ths</w> 1639765
ad ev 1639668
it ie</w> 1638866
fa c</w> 1638322
at h</w> 1636951
id enti 1636580
ti ons</w> 1634982
is m 1634460
it at</w> 1634341
vie w</w> 1631532
Y ou</w> 1629572
ar ilor</w> 1628991
incep ut</w> 1628564
d en 1627839
dev el 1626199
er ile</w> 1625565
pre a</w> 1624724
vi ol 1623402
re s</w> 1622651
F l 1621823
ect ul</w> 1621738
S ec 1621307
u si</w> 1621302
S en 1621123
al t</w> 1619074
instit uti 1619007
k en</w> 1618968
maj or 1618896
er o 1617847
tur a</w> 1616775
tr im 1613735
dif fer 1612732
ar g 1612427
aut or 1611266
V al 1610609
m ents</w> 1610218
ros s</w> 1609525
sh ar 1609196
ez i</w> 1608221
lo t</w> 1607244
nevo ie</w> 1606478
an ului</w> 1601066
an n 1600976
wom en</w> 1600573
i -a</w> 1599895
I s 1598784
r un 1598512
T V</w> 1595175
a ici</w> 1594866
v an 1594418
tim es</w> 1593349
pre cum</w> 1593192
S e</w> 1592406
iv er 1591937
re us 1589837
en a</w> 1588681
s w 1588022
m ea</w> 1586989
g et 1586887
w in</w> 1586818
ur t</w> 1584495
loc al</w> 1584266
P er 1583696
ri j 1583024
ecti v</w> 1582340
st i 1581217
li k 1580911
T e 1580510
ib er 1580410
L ond 1579751
pri mar 1579323
a way</w> 1578938
ex c 1578923
b ani</w> 1578029
B e 1577309
con f 1576928
sy st 1576232
f ive</w> 1576009
a il</w> 1575870
t ine</w> 1575028
n ever</w> 1573747
im pl 1572427
soci et 1570624
at s</w> 1569914
is l 1569016
can did 1567687
200 8</w> 1566951
B ro 1566444
pre t 1564021
v az 1563267
cat eva</w> 1563200
st udi 1562813
ag re 1561476
st e 1560321
mul ti</w> 1560001
cur ren 1559626
au th 1559601
as ca</w> 1558274
p ag 1557428
re port</w> 1557089
is ed</w> 1556598
ang aj 1555122
1 , 1553005
c li 1550711
el d</w> 1549579
w on</w> 1548948
wh e 1548680
cau za</w> 1548181
o area</w> 1547425
rec ent</w> 1546629
end ing</w> 1546265
hn olog 1544839
C lu 1544502
w w 1543718
Tr ump</w> 1543275
W il 1541656
ex am 1540060
ef f 1538749
O l 1538459
el ectr 1538315
t est 1538143
Pre sident</w> 1537106
m ur 1536345
priv ind</w> 1535570
on at</w> 1534890
si ble</w> 1533721
h ap 1533623
P e 1533284
to ok</w> 1531325
ed uc 1531147
st art 1530250
part ea</w> 1530098
cam pa 1528742
im pre 1526818
cond iti 1526814
medi a</w> 1525970
pre sident</w> 1524346
cast ig 1523557
b all</w> 1522568
pl at 1521520
r ad 1521025
re le 1520186
num ber</w> 1518290
oc k</w> 1517851
aj ut 1517815
ig r 1517277
cl u 1517074
2 1</w> 1516785
fol low 1516001
iz at</w> 1515448
c in 1513308
ir i</w> 1512969
- ar</w> 1512963
F or</w> 1512576
sol uti 1511533
m ight</w> 1509510
H ar 1508661
in ed</w> 1508538
g ed</w> 1508105
form a</w> 1506320
li v 1505234
1 5 1504342
b al 1503237
ar ti 1503235
spec ial</w> 1503162
A N 1503081
D es 1502790
w in 1502612
acc ording</w> 1501627
l ong 1500521
an no 1500426
on line</w> 1499824
C e</w> 1497346
2 2</w> 1496703
er ilor</w> 1494717
sist em 1493952
l ev 1491836
in registr 1490663
fap tul</w> 1490502
Fri day</w> 1490225
apro ape</w> 1485404
o bl 1484789
ri d 1484744
c ity</w> 1484323
ind ic 1484293
min ist 1484080
sup port</w> 1483572
cl os 1481237
fe w</w> 1481136
ant ul</w> 1479650
am na</w> 1479258
z il 1478464
exec uti 1478338
ure d</w> 1478285
1 9</w> 1477718
end ed</w> 1477477
Jo h 1476893
ajun s</w> 1476027
y - 1472843
add ed</w> 1472825
b ar 1472441
on - 1472246
am s</w> 1471924
c ame</w> 1471241
pl an</w> 1471114
serv ici 1470929
rez ult 1470920
lo ok</w> 1470359
nor m 1470325
Roman iei</w> 1468988
l ater</w> 1468043
ect s</w> 1466071
di st 1463015
R ad 1462410
app ear 1462180
re qu 1461742
vi de 1460608
am p 1460161
P res 1459623
ti l</w> 1459365
av er 1458114
mon ey</w> 1457634
o st 1457288
bo dy</w> 1456388
comm un 1455797
h igh</w> 1453590
ever y 1452527
d im 1451963
ener g 1450762
p are</w> 1449486
con s 1447413
b aza</w> 1447340
e gr 1444014
r u 1442677
obl ig 1442355
a ir</w> 1441241
b una</w> 1441007
re v 1440431
l una</w> 1439571
ap oi</w> 1439216
st o 1439173
of ici 1438770
echip a</w> 1437223
direc tor</w> 1435001
ous ly</w> 1434436
an unt 1432691
ch e 1431916
ter m 1430209
ac ord 1430074
O c 1429819
al b 1429235
ne ed 1429233
s hip</w> 1428503
de al</w> 1428073
l os 1428004
Wh en</w> 1427785
on es</w> 1425614
- - 1424961
ex ist 1424901
t ly</w> 1420166
ed n 1420127
inter es 1420110
po int</w> 1420103
al itate</w> 1417266
consid er 1416482
h and 1416365
ing ton</w> 1416341
l as 1415982
end s</w> 1415933
ag ue</w> 1415466
l ang 1414451
f f 1413198
E l</w> 1412205
al ity</w> 1411476
for t 1411325
G o 1410601
C ur 1410511
b ol 1410190
i er</w> 1409739
ch ang 1409612
A S 1408967
ad v 1408634
g es</w> 1408547
Con st 1407924
B as 1406930
l at 1406825
lit tle</w> 1406201
H e 1405315
Mon day</w> 1402833
ear ly</w> 1401717
lu at</w> 1401618
ati va</w> 1401594
potriv a</w> 1401293
c iv 1400348
u ia</w> 1399944
ne g 1398693
B C</w> 1397940
id a</w> 1397852
th ir 1396210
Tu esday</w> 1395502
p une</w> 1394664
su pr 1394502
ent i</w> 1394106
2 - 1392958
gu vern 1392901
to ti</w> 1392895
C ap 1392712
de ja</w> 1392180
l ic 1392119
R eg 1392018
ever y</w> 1391387
bi g</w> 1390354
af ac 1390102
lik ely</w> 1390068
ec te</w> 1389923
pr act 1388246
ina inte</w> 1387740
at eg 1385776
n oua</w> 1385137
ro l 1384691
od ata</w> 1383454
p ast</w> 1382737
T w 1382264
offici als</w> 1381180
ur m 1381103
ta in</w> 1379695
fr um 1379422
et ing</w> 1376706
a ke</w> 1375521
with out</w> 1374053
b un</w> 1373834
ver s 1372331
at ely</w> 1371952
f el 1371472
C entr 1371302
n er 1370145
w at 1369107
al n 1368822
us ing</w> 1366448
th ers</w> 1366138
ol e</w> 1365370
rec e 1364611
fac a</w> 1364190
ri a</w> 1362368
princ ip 1361778
P h 1361402
A m 1361267
gr ad 1360034
av em</w> 1358507
qu ar 1358388
n ess</w> 1357903
bet ter</w> 1357619
o w</w> 1357298
os p 1357173
ta x 1356986
m ine</w> 1355613
por ts</w> 1355201
C al 1355037
tur ile</w> 1354648
cl aim 1354202
treb ui</w> 1351996
con struc 1351064
Dem ocr 1350387
e au</w> 1349938
p s</w> 1349544
3 . 1349329
em ent 1348380
presed intele</w> 1348302
Po triv 1347779
ecti ve</w> 1346936
le t</w> 1344093
Potriv it</w> 1343136
F or 1342572
dom en 1341428
ex tre 1341037
prez inta</w> 1340519
id ent 1340279
W edn 1339312
ist s</w> 1338532
co m</w> 1338466
Europ ean</w> 1338251
ch ed</w> 1337052
b un 1336839
h om 1336272
ord er</w> 1336165
2 3</w> 1335777
com par 1334979
asig ur 1333916
Th urs 1333143
b arb 1332984
s un 1332916
i v</w> 1332713
some thing</w> 1332549
Wedn esday</w> 1332523
em plo 1331639
bas ed</w> 1331471
ast r 1330670
sp ok 1329732
g en 1329693
hal f</w> 1328897
Ac est 1328288
ne w 1328042
An g 1327889
f ar</w> 1327105
cop ii</w> 1327033
dez volt 1326874
cour t</w> 1326607
exp ected</w> 1326584
P al 1325947
Thurs day</w> 1325207
R es 1323501
wom an</w> 1323368
cl ose</w> 1322222
6 0</w> 1321892
Joh n</w> 1321717
h um 1321044
Q u 1320190
b lo 1319178
part y</w> 1319138
su g 1319102
dec iz 1318885
se en</w> 1318758
st art</w> 1318206
acest ea</w> 1317051
did n</w> 1316167
vo m</w> 1314894
m er</w> 1314869
t ea</w> 1314702
C an 1314486
c ut 1314375
- ul</w> 1313077
r un</w> 1312896
t ec 1312066
ect u 1311897
me aza</w> 1307887
int ro 1307549
i et 1307220
al ready</w> 1305359
anno unc 1305224
col l 1304621
whe ther</w> 1302762
a ur 1302380
pos ition</w> 1301612
devel op 1301094
b ug 1300390
in fr 1300365
pi on 1299710
e ach</w> 1299393
scho ol</w> 1298963
ved ere</w> 1298460
j ust 1297976
P S 1297726
w ent</w> 1297449
un til</w> 1296432
Sun day</w> 1295030
mo d</w> 1294854
O n</w> 1294063
g lo 1293610
spor t</w> 1292033
prim it</w> 1292031
P a 1291760
H ouse</w> 1291119
af f 1291007
cu v 1290161
is er 1288654
ic t</w> 1287252
O ne</w> 1285862
polit ical</w> 1285591
con stit 1285524
contro l</w> 1284695
um in 1283207
1 7 1283053
r an</w> 1282383
i at</w> 1282296
e qu 1281785
an um 1281551
P et 1281173
º i</w> 1280961
Lond on</w> 1280840
D r 1279658
k ey</w> 1279218
bil lion</w> 1279108
F in 1277661
ie f</w> 1277172
le ast</w> 1276939
ma king</w> 1276920
R ob 1275837
su per 1275720
U K</w> 1275066
s ar 1273079
Ac e 1270434
ri an</w> 1269587
co pi 1269341
19 8 1267902
he ad 1267312
div id 1264958
i es 1264812
st re 1264646
g er</w> 1263657
l et 1262617
an im 1262448
re sear 1262029
M ed 1261736
he alth</w> 1261544
sig n 1259523
report ed</w> 1259172
and u- 1258984
w rit 1258482
al - 1257778
im potriva</w> 1256113
m enti 1255895
iti ei</w> 1254483
la w</w> 1252393
acest ui</w> 1251825
C um</w> 1251821
el a</w> 1251159
pl y</w> 1250434
si on 1248614
li ber 1247464
an ii</w> 1246860
di fic 1246788
m id 1246728
ag ain</w> 1246466
acti on</w> 1245906
ob i 1245172
Ch is 1245039
Con sil 1244293
ic at</w> 1243724
2 8</w> 1242911
or as 1242803
w ed</w> 1241812
econom ic</w> 1241196
em s</w> 1241024
res t</w> 1237639
ator ilor</w> 1237636
n atur 1236656
S outh</w> 1236448
h ouse</w> 1236323
th ings</w> 1236164
campa ign</w> 1236061
pl us</w> 1234943
kno wn</w> 1234288
l -a</w> 1233194
n et 1232354
in ea</w> 1231299
mun ca</w> 1231169
des fas 1230777
ast azi</w> 1227923
Dav id</w> 1227877
le ge</w> 1227171
progr am</w> 1226686
D umne 1225608
ever al</w> 1225488
si x</w> 1224692
tr av 1224378
c aut 1224088
sus p 1224053
d ou 1223896
e ana</w> 1223373
inter national</w> 1223092
am er 1223006
co ver 1221627
l ung 1221376
A t</w> 1220503
gre at</w> 1220328
I tal 1220314
if e</w> 1218409
ju dec 1218013
ac ross</w> 1217778
M ai</w> 1217345
it al 1216869
as p 1216812
S atur 1215687
to day</w> 1214368
d u 1214190
t omb 1213682
b ul 1213471
pri et 1213121
vic tor 1212668
ant i</w> 1212303
sp ir 1211470
po wer</w> 1211108
inc lu 1210579
pi ata</w> 1210086
un ta</w> 1209918
mov e</w> 1209146
ab ly</w> 1208487
l imb 1208454
fi ed</w> 1208159
m ii</w> 1207054
f oc 1206834
p ati 1206702
C hi 1206214
iri i</w> 1206019
con fer 1204764
syst em</w> 1204041
au a</w> 1202648
Austral ia</w> 1202519
sol ic 1201904
cre d</w> 1201897
ri i</w> 1201473
M at 1201454
al y 1201173
1 4 1200761
0 - 1199654
b ed</w> 1198873
Ast fel</w> 1198664
o ase</w> 1198332
no astra</w> 1197930
intre b 1196962
loc u 1196135
I N 1195843
en ilor</w> 1195742
In di 1195199
inc reas 1194844
f ig 1194666
s ex 1194043
wor king</w> 1193990
I o 1192430
ne ws</w> 1191360
e ia</w> 1190644
stat ement</w> 1189884
1 - 1189394
tel ev 1189248
ist i</w> 1189163
ov a</w> 1188616
M ich 1188079
il i 1187652
di str 1187432
cun os 1187388
num ele</w> 1187276
fil m</w> 1186115
n ers</w> 1185979
vorb a</w> 1185790
ex t 1185238
open e</w> 1185048
per m 1185023
ex em 1184995
ta ken</w> 1184573
ect or 1184128
d os 1183707
Europ a</w> 1183171
d ate</w> 1183166
Mi h 1182751
d riv 1182698
er t</w> 1182438
E v 1182227
do es</w> 1181521
c ar</w> 1181432
or ig 1181387
. com</w> 1181151
f lo 1180978
a plic 1180155
En g 1180041
200 7</w> 1178150
Brit ish</w> 1178045
f ut 1177868
sust in 1176826
1 6 1176485
er ing</w> 1176020
sa f 1175441
af ir 1173711
tomb rie</w> 1173422
li er</w> 1172031
on y</w> 1171542
i ilor</w> 1169664
Gu vern 1169561
sa- si</w> 1169280
inc er 1169148
min ute</w> 1169011
des cri 1167580
Ace asta</w> 1167539
re al</w> 1166864
ap art 1166816
ac ks</w> 1166582
int aln 1166264
point s</w> 1166153
l up 1165021
de p 1164985
ac olo</w> 1164867
pat ru</w> 1164297
secur ity</w> 1163918
it ing</w> 1163691
am pl 1163439
An dre 1163337
c anc 1163204
Wor ld</w> 1162911
ic ally</w> 1162846
fi eld</w> 1162655
2 7</w> 1160986
dre p 1160828
B l 1160789
soci al</w> 1160376
g an 1158401
ast re</w> 1158167
potriv it</w> 1157712
inc re 1156995
tot al</w> 1156916
d ra 1156674
Satur day</w> 1156482
id ence</w> 1156213
fin d</w> 1155824
h it</w> 1155632
eder al</w> 1155225
on ul</w> 1155188
j ect</w> 1154907
i er 1154750
A R 1154395
Ch rist 1154199
memb ers</w> 1153480
h t</w> 1152649
it oare</w> 1152027
am ong</w> 1151831
sa ying</w> 1151645
cet at 1151323
ain ed</w> 1151259
s et 1150026
bec ome</w> 1149996
Eur o 1149946
spok es 1149389
im i</w> 1148851
I asi</w> 1147883
P on 1147788
M a 1147596
ob tin 1145419
o asa</w> 1145345
si ons</w> 1145307
milit ary</w> 1144260
C ity</w> 1144160
yo ung</w> 1143647
la w 1143044
th er 1139371
hav ing</w> 1138885
al ways</w> 1138749
clu b</w> 1137761
ar ta</w> 1137220
I sl 1136862
st ar 1135951
j um 1135888
ut es</w> 1135283
B i 1135197
es ul</w> 1134051
3 - 1133284
Al ex 1133173
est im 1132083
r o</w> 1131889
s es 1131178
U S 1129198
h old 1129010
t u 1128955
t at</w> 1128867
off ic 1128608
se e 1128016
inform ation</w> 1127936
ant ed</w> 1126336
A g 1125918
I I 1124632
det er 1124460
W ash 1124386
J ul 1123660
h er 1123444
ta in 1123106
Dumne z 1122844
l ans 1122566
at ilor</w> 1121400
5 00</w> 1121339
et ului</w> 1120901
leg isl 1120690
to ata</w> 1120000
de ath</w> 1119471
st or 1119438
im e</w> 1118426
r az 1118412
fa il 1117575
ator s</w> 1116794
v rea</w> 1116314
Amer ica</w> 1116238
ar e 1115951
str ateg 1115641
m ot 1115475
c ro 1115423
id ed</w> 1114710
vide o</w> 1114441
i - 1114385
te m</w> 1113835
lum e</w> 1113317
thir d</w> 1113258
St ates</w> 1113068
g ive</w> 1113040
qu e</w> 1111681
Wh at</w> 1111607
S im 1110813
T ot 1110494
au di 1109991
s of 1109543
2 6</w> 1109151
av a</w> 1107094
p ay 1106871
st ul</w> 1106732
con str 1104859
ag es</w> 1104364
gr ap 1103868
d in 1103855
S o</w> 1103464
dre pt</w> 1103435
maj or</w> 1103020
P art 1101686
p ay</w> 1101592
c ou 1101185
an i 1100841
curs ul</w> 1100715
y m 1100277
l l</w> 1099697
func tion 1097741
ch ief</w> 1097007
ch est 1096932
F ace 1096570
iu a</w> 1096057
ol uti 1096049
sp un</w> 1095913
A v 1095154
nim ic</w> 1093435
al ii</w> 1091493
per f 1091330
f ond 1090717
nostr u</w> 1090124
ure n 1089801
differ ent</w> 1089575
tr at 1089132
ef ectu 1088388
mis sion</w> 1088230
ati ilor</w> 1087773
i ub 1087749
play ers</w> 1086729
leg al</w> 1086334
s everal</w> 1086284
as ked</w> 1084577
Nor th</w> 1083867
il y</w> 1083827
ri gh 1083216
ic ans</w> 1083055
Chis in 1081647
i ed</w> 1081479
p ho 1081429
ag r 1079943
tr ies</w> 1079512
cer cet 1078387
m igr 1078064
i embrie</w> 1077814
acel asi</w> 1076464
ro om</w> 1076428
aj ul</w> 1075992
c ust 1075908
b a</w> 1075463
H ow 1075437
com ing</w> 1074787
auth or 1074689
lum ea</w> 1074623
cat eg 1074553
giv en</w> 1074444
acest ei</w> 1074178
M us 1073173
dem on 1071452
sim il 1070172
pos ed</w> 1070046
fo ot 1069998
M il 1069074
loo king</w> 1068342
en ough</w> 1067212
Wash ington</w> 1067194
part ment</w> 1066570
de fin 1066193
c ate</w> 1065679
em ents</w> 1065512
er au</w> 1065233
ta x</w> 1065118
prez ent</w> 1063733
ta king</w> 1062906
polit ica</w> 1062717
d on 1062608
m uz 1062519
pier d 1062312
H ol 1062259
ti v 1062241
est iv 1061827
en n 1061012
I m 1060142
compan ies</w> 1060079
inf lu 1059804
sal ar 1059740
t ers</w> 1058404
E u</w> 1057682
kil led</w> 1057131
ad aug 1057005
al leg 1055996
S U 1055093
tr ag 1054723
pr in 1053806
Dumnez eu</w> 1053455
r ug 1052988
int egr 1052885
pol ic 1052521
financ ial</w> 1052473
comm it 1051723
Is ra 1051718
ament ul</w> 1050999
w al 1050776
le ad</w> 1050690
M edi 1050344
part icul 1050170
proi ect 1049964
J ud 1048836
m ust</w> 1048049
ist ii</w> 1047745
al ti</w> 1047718
N ov 1046989
inde pend 1046987
L oc 1046547
w ater</w> 1046447
St ate</w> 1045012
tr i</w> 1044964
ul ts</w> 1044909
Di rec 1044519
eas i</w> 1044362
S unt</w> 1044195
Univers ity</w> 1044047
ac y</w> 1043665
s ed 1043430
ke ep</w> 1042819
b ig 1042605
fo re 1041290
el ev 1040733
N A</w> 1040411
S e 1038593
sin t</w> 1038560
Af ter</w> 1038502
jo b</w> 1037970
L eg 1037815
F il 1037487
Chisin au</w> 1036930
ap ta</w> 1036689
anunt at</w> 1036391
r up 1036379
h am</w> 1035184
0 . 1033929
fut ure</w> 1033140
problem e</w> 1032967
rec ord</w> 1032706
art icol 1032658
o v</w> 1031312
c ant 1030668
s ia</w> 1030565
Eng land</w> 1030558
D om 1030192
abil ity</w> 1028631
f av 1028196
' ll</w> 1027832
t in</w> 1027095
vo i</w> 1026988
no astre</w> 1026019
M ay</w> 1025957
am ed</w> 1025905
am en 1025858
niv el</w> 1025165
pos sible</w> 1025073
dec ision</w> 1024958
l ate</w> 1023666
us h</w> 1022986
i ul 1022942
s is</w> 1022906
el ection</w> 1022838
cel ebr 1020446
t an 1020378
E R 1018537
d ator 1018248
ap r 1017785
impre una</w> 1017630
te hn 1017296
b in 1017258
h app 1016216
Face book</w> 1016118
bl oc 1015822
be h 1015809
3 1</w> 1015133
V a</w> 1015059
ecti v 1014385
pres ent 1014345
r ate</w> 1014275
201 6</w> 1013833
p ite</w> 1013648
Pon ta</w> 1013062
il ul</w> 1012764
abil a</w> 1012647
h ar 1012209
a el</w> 1012044
ast e</w> 1012039
pers onal</w> 1011921
s .</w> 1011234
inc i</w> 1010567
de l</w> 1010530
I S 1008981
6 - 1008926
ab a</w> 1008890
oam enii</w> 1008523
N icol 1008316
as ed</w> 1007810
problem a</w> 1007783
g ir 1007276
t - 1007090
serv ice</w> 1005417
2 9</w> 1004801
dem ocr 1004279
hel d</w> 1004032
is a</w> 1003857
direc t</w> 1002531
pl ec 1002103
al itatea</w> 1001886
prot est 1001801
sa- i</w> 1001031
wee ks</w> 1000824
intro duc 1000639
I ra 1000362
igh ts</w> 1000244
ri g 999712
des ig 999341
con cer 999323
PS D</w> 997731
co per 997216
G ener 996731
A fr 995275
inv olv 995201
m and 994466
L uc 994233
ul d 994153
for man 993782
l ost</w> 992862
num arul</w> 992802
s ect 992154
l er</w> 991427
wee k 991252
W e 989634
D o 989413
enti i</w> 989185
ad op 988040
an ch 987855
se pt 987019
ac uz 986454
er ului</w> 985951
i eri</w> 985485
ord in 985126
ro c 984882
f ot 984611
com es</w> 984604
n ia</w> 984449
nu - 984021
ras pun 983991
reus it</w> 983818
u sa</w> 983191
Euro pe</w> 983006
iti on 982940
h ard</w> 982620
sm all</w> 982560
compl et 982164
T re 981474
th ought</w> 981062
ri s</w> 981012
on ce</w> 980805
ven i</w> 980386
port un 980340
att ack</w> 979958
t ut 979545
iti onal</w> 978547
e y 978529
iv ed</w> 978509
A ut 977775
wh y</w> 977690
con v 977256
ch ing</w> 977158
n ul</w> 976122
ic ul</w> 976095
enc es</w> 975240
vaz ut</w> 974898
ab ile</w> 974528
even im 974388
it ul</w> 974011
se ara</w> 973947
U r 973376
B er 973265
w r 972833
uc e</w> 972761
P ut 970911
en se</w> 970670
cl ub 970438
beh ind</w> 969068
a h</w> 968770
19 7 968650
W ith</w> 968498
pro mis 968080
2 , 967725
c asa</w> 967684
ap pe 967101
Republ ica</w> 967099
inclu de</w> 966142
S ti 965926
cum par 965675
et ele</w> 965204
nation ale</w> 965142
H is</w> 964663
var sta</w> 963551
A ug 962675
D on 962395
Ne ws</w> 962277
re aza</w> 962178
S al 961926
t on 961648
pre sa</w> 961179
M os 960698
h or 960424
Pre mi 960360
im plic 959890
ef for 959624
ant ren 959568
do ing</w> 959297
J ap 958955
ho t 958924
em or 958915
enti a</w> 958790
ace ea</w> 958705
sf ar 958158
g az 957209
oc tombrie</w> 956856
a king</w> 956722
f ree</w> 956510
ro w</w> 955765
d one</w> 955591
hap pen 955409
ustr y</w> 954489
o ch 954134
pre vi 953687
Mar ch</w> 953508
U E</w> 953373
ab sol 952513
us h 952431
S a</w> 952382
S oci 952144
mat eri 951490
fil m 951173
tr ying</w> 950714
st and</w> 950697
st iu</w> 949937
put ern 949568
um ul</w> 949021
ist an</w> 948703
k a</w> 948641
ast ept 948513
xim ativ</w> 948480
ch all 948179
ti es</w> 948027
ag ed</w> 947164
ti s 946192
R E 945823
2 5 945615
of ten</w> 945235
sept embrie</w> 942876
ain ing</w> 942508
sc rie</w> 942469
4 . 942303
li ve</w> 942276
off ice</w> 941658
m ac 940776
tor ul</w> 940021
W est</w> 939431
y et</w> 939381
N o</w> 939207
anc es</w> 938945
memb er</w> 937930
perso an 937559
fir e</w> 937091
pl ans</w> 936701
Alex and 936629
l ad 936243
g ri 935552
per forman 935518
inc e 935410
lang a</w> 934531
th ern</w> 934159
or ge</w> 934107
contin ue</w> 933939
su s</w> 933812
sc ol 933434
re co 933414
ca z</w> 933297
fem e 932733
follow ing</w> 932159
ho urs</w> 931853
itor ul</w> 931518
b an</w> 931511
per son</w> 931140
fap t</w> 930958
play ed</w> 930217
al most</w> 929876
o ur 929666
k y</w> 929473
Inter national</w> 929036
g and 928807
T er 927713
gro w 927454
V as 927309
Ac c 926967
Ne w 926936
believ e</w> 926797
in se 926164
b une</w> 926132
no t 925955
ati t</w> 925100
O n 925044
re prezinta</w> 924941
S tre 923999
Pri mar 923963
em o 923485
dec embrie</w> 923299
ser ies</w> 923248
in divid 922679
tr e</w> 922211
con firm 922141
ind ust 922021
il ea</w> 921607
B el 921565
t ab 921261
fur ther</w> 921075
econom y</w> 920972
w ards</w> 920931
b it</w> 920869
at ure</w> 920190
t um 920030
C E 919993
po ti</w> 919819
t y 919727
un ile</w> 918175
ne ar</w> 917884
v ine</w> 917620
re pe 917056
y n 916811
P i 916804
r ing</w> 916707
S w 916697
F i 916532
no iembrie</w> 916292
com ent 916199
ri ed</w> 916163
re com 916012
priv ate</w> 915650
res c</w> 915260
a p</w> 915142
for d</w> 913859
Pol ice</w> 913766
cle ar</w> 913693
cri min 913463
h ol 913215
C it 913019
to ge 912906
. m 912788
di ed</w> 912665
al ele</w> 912083
h ist 911506
us iv</w> 911223
Ac est</w> 911100
G ro 910988
ter m</w> 910739
20 0</w> 909942
ez a</w> 909045
w ar</w> 908915
h osp 908485
coun tries</w> 908058
c ost</w> 908012
cur s</w> 907163
toge ther</w> 907107
si an</w> 907055
ve h 905957
c en 905739
get ting</w> 905643
adev ar 905361
ug g 904382
sho t</w> 904025
n ic</w> 904009
iun ii</w> 903686
' d</w> 902814
gr up 902524
sig ur 902451
al ist</w> 902311
ri dic 902046
ur y</w> 902022
c all</w> 901856
un ele</w> 901762
R os 901568
C i 901053
u ally</w> 900648
mom entul</w> 900635
up s</w> 900452
v it 900344
oar ece</w> 899941
Com is 899840
res s</w> 899668
J ust 899407
pro cur 899319
cap ital</w> 899265
ris k</w> 898677
announc ed</w> 898202
sur pri 897960
ear lier</w> 897745
cap it 897193
ur mat 896915
w a 896667
V i 896584
lead er</w> 895677
fe el</w> 895667
P op 893715
g ames</w> 893612
str ong</w> 893426
op en</w> 893340
proi ect</w> 893285
B al 892513
und s</w> 892430
stud y</w> 892406
quar ter</w> 891905
ad em 891703
str ada</w> 891202
in jur 890934
func tie</w> 890654
us or</w> 890483
P D 889958
st er</w> 889894
erc uri</w> 889031
b ac 888315
ed ly</w> 887296
S ept 887116
Wil li 886406
ch o 885726
C a</w> 885657
ind ustry</w> 884346
Rus ia</w> 884329
at elor</w> 883704
in ce</w> 883312
ti ve</w> 883208
ati v 882791
iun ie</w> 882761
il ie</w> 881809
parti d 881604
L a 881164
aj e</w> 881032
vic tim 880815
an tii</w> 880742
mag az 880681
ers hip</w> 880574
J une</w> 880569
s it</w> 880108
scri s</w> 879391
grow th</w> 878250
o thers</w> 878229
m ic 877925
uld n</w> 877821
d ue</w> 877302
gro und</w> 877116
sug gest 876962
nation ala</w> 876882
c es</w> 876498
al u 876492
f re 876400
M e 875397
d ar 875168
8 0</w> 874359
posib il 873949
presed inte</w> 873527
Ge orge</w> 873518
in ti 873476
s ã</w> 872934
r and 872871
m en 872814
d ov 871835
profes ion 871430
o il</w> 871133
out side</w> 871051
p il 870977
al ului</w> 870811
3 5</w> 870294
mo ther</w> 870141
c inci</w> 869517
conc ern 869501
orig in 869186
fo od</w> 869163
ec i 869095
ful l</w> 869083
n iz 868864
apro ximativ</w> 868547
serv ices</w> 868501
i bu 868216
U l 868132
as n</w> 867309
T ra 866461
0 s</w> 865884
Isl am 865459
t ari</w> 865354
offici al</w> 865271
7 0</w> 864100
di ver 863670
var i 863417
af f</w> 863051
it ive</w> 862822
Brit ain</w> 862783
contr act 862663
Ger man 862658
sec re 862462
e f</w> 862450
Fl or 861723
rec un 861559
afac eri</w> 861470
es n</w> 861276
inse amna</w> 860029
al ong</w> 859880
m ici</w> 859385
fron t</w> 859315
anu arie</w> 858857
b ack 858616
How ever</w> 858599
U R 858493
en si 858377
executi ve</w> 858112
C rist 857986
start ed</w> 857859
pro mov 857831
with in</w> 857674
Dr ag 857395
Mich ael</w> 857174
ap pro 855954
T ri 855558
retur n</w> 855362
O N 854824
par lament 854505
op in 853958
pozit ie</w> 853827
gres s</w> 853614
S f 853533
deter min 853255
sc i 853251
publ ice</w> 853163
proc ed 853043
al low 852933
de put 852722
polic y</w> 852647
cour se</w> 852646
min utes</w> 852443
an aly 851821
of era</w> 850870
do esn</w> 850685
w anted</w> 850626
M or 849906
pl as 849295
h im 848995
perso ana</w> 848523
ov e</w> 848499
ap er</w> 848482
ex ter 848394
issu e</w> 848354
L u 847704
continu a</w> 847208
er y</w> 847174
n ame</w> 847108
n iste</w> 846887
C N 846865
l ist 846491
ex plic 846164
bo ard</w> 845903
os eb 845747
Pres ed 845681
propri et 845642
af ara</w> 845202
prod use</w> 845162
ch es</w> 844758
f isc 844450
gre u</w> 844414
al aturi</w> 844268
pre par 844027
am ente</w> 843903
or ic 843273
I ar</w> 842467
C at 841990
dol ari</w> 841199
prec izat</w> 841121
glo bal</w> 840497
b ir 839797
sh are</w> 839794
b and</w> 838861
Wh ile</w> 838585
sa- l</w> 838466
le m</w> 837901
le ar 837743
at ac 836819
umin ica</w> 836386
L ab 835644
me as 835339
lev el</w> 835320
mi j 834012
Com pan 833899
f ederal</w> 833808
itat ilor</w> 833754
a e</w> 833416
v ara</w> 833292
l and 833275
des coper 833078
n uc 833041
ol a</w> 833038
cust om 832696
vo te</w> 832657
ban k</w> 832385
A u</w> 831344
t ului</w> 831069
apro pi 831005
intr a</w> 830504
t arii</w> 829496
Ch in 828911
ic ol</w> 828605
fo ur 828404
ultim a</w> 828164
B ul 828068
d umne 827785
4 - 827432
c ep 827261
niv elul</w> 827114
Ser v 826988
4 5</w> 826964
se par 826592
9 0</w> 826520
em erg 826220
com erc 825810
ro le</w> 825269
E m 825142
car e 824628
in es</w> 824045
sp rij 823661
e e</w> 822971
S a 822942
pr intre</w> 822777
ent ele</w> 822666
c ine</w> 822626
aut om 821601
Le ague</w> 821403
Pa ul</w> 821334
se x</w> 821075
Minist er</w> 820903
D E 820786
prez enta</w> 820699
put em</w> 820410
dest in 820347
g a</w> 820212
u es</w> 819588
contr act</w> 819275
prod us 818280
h a 818226
inter est</w> 817553
iv a</w> 817212
roman i</w> 816887
tor s</w> 816442
ad re 816357
sur v 816174
y le</w> 815598
po w 814502
ol s</w> 814352
beg an</w> 814063
ti p</w> 813935
Vic tor</w> 813142
situ atia</w> 812519
to wn</w> 812127
eur op 812071
A pri 811162
n r</w> 811004
c ã</w> 810922
ill ing</w> 810725
Apri l</w> 810297
de oarece</w> 809939
st ie</w> 809513
200 6</w> 809452
unc il</w> 809333
R ec 808446
al d</w> 808197
oar ele</w> 808121
th em 807865
0 ,000</w> 807848
wh ose</w> 807399
et y</w> 807326
Austral ian</w> 807218
me eting</w> 806730
st ar</w> 806663
t ou 806571
ul e</w> 806299
contr ibu 806004
In stit 805981
o - 805726
respon sa 805664
rele ased</w> 805238
st ory</w> 805194
it ter</w> 805061
1 3 804802
cal itate</w> 804700
Par is</w> 803627
O p 803314
el im 803201
sp ati 802931
de venit</w> 802267
ev ent 802075
con fl 801955
b a 801874
O R 801677
pl e 801519
Wh ite</w> 801147
T o</w> 801105
i ale</w> 801060
inform atii</w> 800865
sal es</w> 800388
en ul</w> 800315
me u</w> 800161
re ven 799355
d es</w> 798876
buil ding</w> 798853
Acest a</w> 798364
benef ici 798360
no v 798284
le ar</w> 798204
lar ge</w> 797815
sa w</w> 797416
dr ag 796875
n av 796662
hist ory</w> 796569
ol ul</w> 796505
inv at 796321
m oldov 796298
Ch ar 795889
it u 795859
ess es</w> 795795
demon str 795565
mil iar 795460
d am 795185
categ or 794938
P N 794505
ph one</w> 794367
val oare</w> 794236
lov e</w> 794079
punc t</w> 793942
ecti ons</w> 793774
contro l 793013
mo dific 792957
co rec 792851
an aliz 792155
pro per 792145
att em 792122
sit e- 792014
pr ice</w> 789065
curren t</w> 788784
w ro 788556
dif fic 788527
f ather</w> 788001
sto p</w> 787765
A P</w> 787736
aug h 787508
id s</w> 787393
wo od</w> 787025
disc uti 786999
s - 786488
sust ine</w> 785940
S ome</w> 785720
s ent</w> 785387
ti ei</w> 785357
tur ilor</w> 785305
j oc 785070
miliar de</w> 785064
ful ly</w> 784914
de oseb 784536
a ib 784533
spect ac 784302
re ve 783796
S tr 783682
ing ly</w> 783198
B ot 782518
ur or</w> 782516
em is 782416
minist er</w> 781377
iul ie</w> 781079
n ation</w> 780854
per form 779989
r ace</w> 779912
ro und</w> 779843
ecti e</w> 779357
b ile</w> 779200
for ward</w> 779174
rest aur 779165
med ical</w> 778737
te e</w> 778554
fac t</w> 778524
fer ed</w> 778144
i uni</w> 778089
ind u- 777774
domen iul</w> 777353
B y</w> 776758
co st 776305
M ad 776048
A F 775949
Mih ai</w> 775822
f iz 775764
S an 775641
man a</w> 775623
Rus sia</w> 775129
L ib 774750
B en 773847
chil d</w> 773688
him self</w> 773421
u g</w> 773223
Par lament 773024
ho tar 772891
I C 772736
c ra 772601
resp ond 772597
tel ef 772339
ul a</w> 771573
d - 771453
spokes man</w> 771426
M un 771330
at ri 770877
SU A</w> 770625
. ro</w> 770504
wro te</w> 769438
ac asa</w> 768860
ne arly</w> 768665
for ce</w> 768253
tut uror</w> 768126
h old</w> 767914
el i</w> 767705
M ir 767633
mor ning</w> 767511
el ector 767279
ch el 767040
ob s</w> 766631
ace easi</w> 766585
ent er</w> 766540
k m</w> 766163
int amp 765727
int on</w> 765621
im a</w> 765532
v in</w> 765059
rel ig 764835
tran spor 764547
play ing</w> 764360
m ul</w> 764333
iver sit 764240
str a 764025
M ag 763815
es p 763367
ut ers</w> 763153
polit ici 763052
ram as</w> 763052
s or 763012
sign ific 762917
fin ant 762763
pro m 762626
J ames</w> 762312
it ori</w> 761926
G al 761375
sup port 761026
si bil 761003
exem plu</w> 760628
vin eri</w> 759887
st aff</w> 759886
ef ici 759428
al iment 758814
prob lem</w> 758701
w ife</w> 758673
i red</w> 758648
f ici 758643
disc us 758226
S m 758141
a head</w> 757964
intel eg 757481
Jul y</w> 757077
proc ess</w> 756817
al th 756602
tur n</w> 755812
on ia</w> 755394
avo astra</w> 755118
pre fer 754989
H ot 754758
do w 754585
resear ch</w> 754578
l ight</w> 754003
m os 753874
er v 753548
n om 753406
incre ase</w> 753133
z iua</w> 752941
Al l</w> 752786
on ic</w> 752441
in j 752256
if est 751024
C ei</w> 750517
commun ity</w> 750145
cul tur 749904
pot ential</w> 749874
ex cl 749822
to tul</w> 749436
C up</w> 749309
f an</w> 749273
P ubl 749238
ab l 748719
c .</w> 748663
a z</w> 748545
sel ves</w> 748191
limb a</w> 747501
ter min 746956
C ali 746583
resp ectiv</w> 746140
ajun ge</w> 745545
amb ata</w> 745362
ac oper 744278
it are</w> 743681
av ail 743547
acc es 743469
i anuarie</w> 743409
No i</w> 743339
am n 743321
se z 742512
cap ac 742106
ter itor 741897
Aug ust</w> 741832
ecti a</w> 741411
k ind</w> 741384
a ia</w> 741140
t uri</w> 741074
su fer 740961
ig a</w> 739218
con form</w> 739175
r ather</w> 738598
pr ices</w> 737914
Fr ance</w> 737749
ww w 737629
re ports</w> 737561
ex erc 737482
Cali for 737242
M is 736952
ro man</w> 736867
C e 736790
L o 736719
ell ing</w> 736256
mul ti 736253
pres s</w> 736206
L iber 735830
pl om 735692
Pol it 735365
ac i</w> 735076
sp er 734899
p ost</w> 734815
b att 734805
tec hnolog 734593
saptam ana</w> 734418
aib a</w> 734312
us es</w> 734083
ho w 733809
D is 733730
amer ic 733575
enti on</w> 733463
manag er</w> 733132
afir m 732945
mar tie</w> 732458
righ ts</w> 732438
vi de</w> 732430
h and</w> 732265
mo del</w> 732196
Minist erul</w> 731976
cons ult 731636
De partment</w> 731385
aug ust</w> 731251
ban ii</w> 731234
lead ers</w> 730978
mas ina</w> 730969
f - 730954
si -au</w> 730896
ab ia</w> 730507
6 . 730225
pozit ia</w> 730177
di g 730167
ut at</w> 730083
5 - 729828
ras p 729357
de -a</w> 729106
F ren 729075
medi ul</w> 728988
O N</w> 728964
difer ite</w> 728909
V I 728703
d us</w> 728658
af t</w> 728432
sho ws</w> 728409
fri end</w> 728198
od s</w> 727677
so ur 727467
s arb 727457
financ i 727028
fav or 726693
co unt</w> 726171
n as 726164
apr ilie</w> 725861
aliz are</w> 725838
s even</w> 725755
t est</w> 725639
acest or</w> 725637
Scot land</w> 725486
an g</w> 725361
pre sid 725333
lead ing</w> 725266
de - 724671
v ech 724652
jo s</w> 724013
Cl inton</w> 723876
Re uters</w> 723008
di stri 722740
par ents</w> 722403
f er</w> 722020
ur mar 721743
in ul</w> 721654
ref ug 721506
um e</w> 720997
bec ame</w> 720706
incl usiv</w> 720631
b ri 720341
op portun 719737
ob serv 719379
ev idence</w> 718572
li d 718554
st er 718465
sit ul</w> 718233
Ban k</w> 718166
www . 718071
b anc 717914
mat ch</w> 717909
Bas escu</w> 717740
con sil 717464
ret ary</w> 717359
am ant</w> 717127
fir m</w> 717019
Ac um</w> 716836
ar ului</w> 716778
19 6 716713
form at</w> 716488
Tr ans 716238
lin es</w> 716019
B ec 715686
con st 715148
acest ora</w> 714915
ec h</w> 714900
mov ed</w> 714535
t ele</w> 714501
t ate</w> 714211
resp ect 713651
K o 713607
L ast</w> 713144
un ivers 712738
B BC</w> 712584
am o 712556
Ang el 712387
par ea</w> 712240
part ici 711882
ma kes</w> 711588
trans m 711443
Sept ember</w> 710745
lo g 710676
7 . 710237
Ste aua</w> 709979
we b 709516
M er 708977
m unc 708963
e ul</w> 708706
5 . 708194
b iser 708160
res ult</w> 707946
d ea</w> 707928
p ped</w> 707830
r ic 707416
aj uta</w> 707260
no ap 707201
b az 706618
W est 706350
ant ei</w> 705923
C and</w> 705797
J anu 705746
rec ently</w> 705262
eur opene</w> 705162
sch im 705102
Republ ican</w> 704970
y ed</w> 704514
inch ei 703924
av and</w> 703699
ar h 703487
u ita</w> 703171
sc re 702987
grap h 702326
d ul</w> 701568
Co urt</w> 701233
L i 700900
y s 700813
af ect 700628
ro ad</w> 700335
Janu ary</w> 700033
forc es</w> 699900
G he 699873
punc te</w> 699699
res ults</w> 699542
ex tr 699522
pen s 699439
s anc 699358
prov id 699241
No w</w> 698317
f igh 698240
G h 697768
c ind</w> 697547
drep tul</w> 697453
le -a</w> 697414
D NA</w> 697005
av ing</w> 696847
cover ed</w> 696748
d ri 695995
ach ed</w> 695412
h ard 695361
week end</w> 695316
prod us</w> 695059
ev alu 694625
sum a</w> 694565
oc az 694333
s ent 694105
ch am 693942
t u</w> 693800
bl ack</w> 693602
M are</w> 693513
A n</w> 693124
van z 693065
col eg 692887
sun tem</w> 692828
C el</w> 692639
cou ple</w> 692566
s ea</w> 692281
l y 692145
um b 692053
N E 691953
leg atura</w> 691906
ism ul</w> 691597
Califor nia</w> 691081
ec i</w> 690994
vir on 690981
wor kers</w> 690650
de pend 690229
T el 690163
san at 690040
ran ge</w> 689929
stud ents</w> 689254
de si</w> 689219
C ra 689178
big gest</w> 689097
le ave</w> 689058
ev ent</w> 688955
wi de</w> 688878
is oara</w> 688772
M it 688667
i um</w> 688462
b ud 688092
nim eni</w> 687817
r us 687581
F ebr 687367
norm al</w> 687321
ram ane</w> 687083
h on 687062
stat ului</w> 686726
cir cul 686570
le - 686557
imp act</w> 686542
mas ura</w> 686514
M al 686308
I S</w> 685835
st age</w> 685831
F ran 685821
As soci 685662
g ets</w> 685563
energ y</w> 685472
to graf 685289
9 . 685223
g ave</w> 684876
wor ks</w> 684755
al ed</w> 684599
R ich 684512
cred it</w> 684447
dim ine 684182
avail able</w> 684182
ati ves</w> 684174
run ning</w> 683983
mat er 683951
tr af 683792
uti on</w> 683726
moti v 683566
serv icii</w> 683511
s qu 683321
Febr u 683211
rec i 682882
ef ul</w> 682835
acest uia</w> 682782
play er</w> 682551
str ain 682504
D ani 682359
me ans</w> 682111
S pan 681950
cre sc 681897
oc up 681687
desfas ur 681624
bro ad 681617
Af gh 681546
pa id</w> 680896
M el 680878
perio d</w> 680819
tem per 680748
loc uri</w> 680646
spec if 680350
ne l</w> 680162
Stre et</w> 680085
n d</w> 680046
investig ation</w> 679925
re fl 679670
ug e</w> 679558
sistem ul</w> 679452
acc ept 679292
u d</w> 679268
sp ar 679036
n ic 679003
high er</w> 677975
itor ii</w> 677907
inc at</w> 677789
f ab 677695
aj ung 677433
mes sa 677146
in ile</w> 676690
prim ele</w> 676689
con cl 676106
sa v 676061
al ter 675917
issu es</w> 675523
r or 675486
inc al 675428
gro ups</w> 675274
gr ade</w> 675207
low er</w> 674973
sing ura</w> 674860
d augh 674798
io s</w> 674660
e ight</w> 674650
C S 674461
ell s</w> 674167
M ur 674100
fr anc 673974
ma xim 673781
ur meaza</w> 673774
stand ing</w> 673654
experi ence</w> 673587
tur ned</w> 673486
mul tum 672975
ca p</w> 672892
s -ar</w> 672762
ail s</w> 672620
er - 672590
dis put 672516
involv ed</w> 672222
gr at 672098
C ul 671969
afl at</w> 671853
3 , 671760
need ed</w> 671519
fir ma</w> 671305
A L 671252
v ac 670833
anti - 670716
car ac 670666
pho to 670547
in fl 670406
ic le</w> 670133
Jo hn 669896
Clu j</w> 669788
l ist</w> 669447
dumne avoastra</w> 669406
fri ends</w> 669337
f all</w> 669287
rece ived</w> 669274
ex plo 668842
A sa</w> 668760
I on</w> 668689
pro te 668335
pro vide</w> 668185
d le</w> 667826
F ir 667651
co - 667553
cri sis</w> 667536
posib il</w> 666816
de m</w> 666815
fac il 666778
los s</w> 666706
Fren ch</w> 666414
cal cul 666405
tit l 666343
Cam er 666145
a x 665926
m ir 665715
A G 665378
st on</w> 664815
ation al</w> 664694
Dec ember</w> 664208
simil ar</w> 664163
acti ve</w> 663961
loc ale</w> 663766
aver age</w> 663271
ion al</w> 662786
b ut 662681
aut o 662495
vi itor</w> 662340
l in</w> 661233
W ar 661107
m ic</w> 660823
any thing</w> 660765
di plom 660539
fore ign</w> 660449
oc c 659991
priv ire</w> 659931
priv este</w> 659912
de parte</w> 659571
author ities</w> 659457
bre ak</w> 659251
cam pan 659209
problem s</w> 659164
ic o</w> 658329
p al 658108
et er 657967
d uminica</w> 657571
g ol 657280
des pite</w> 657114
ac ord</w> 657004
all s</w> 656357
de pas 656163
lat est</w> 656122
no thing</w> 656051
ant ului</w> 655867
conditi ile</w> 655591
is ing</w> 655349
8 . 655090
activ itatea</w> 655036
unc h</w> 655006
gas it</w> 654546
cin eva</w> 654048
tr ib 653807
v ent 653704
PN L</w> 653670
go al</w> 653656
u c</w> 653626
f al 653430
b at</w> 653355
sho wed</w> 653230
canc er</w> 653113
A C 652732
ch ance</w> 652666
su bi 652494
crit ic 652469
7 - 652343
e k</w> 652091
sen ior</w> 651992
compan iei</w> 651865
need s</w> 651782
oc k 651528
n on- 651420
C r 651228
preg at 651160
hum an</w> 651039
200 5</w> 650993
com is 650820
ain s</w> 650748
tre at 650495
Sec ur 650494
Chin ese</w> 650480
d en</w> 650464
ev e</w> 650229
pl in 650044
ho pe</w> 649898
E U</w> 649564
jum atate</w> 649292
M y</w> 648667
im prov 648650
he av 648528
J er 648297
off er</w> 647782
inter est 647682
pierd ut</w> 647354
import anta</w> 647039
inst al 646826
und ed</w> 646770
cal ific 646738
i k 646720
pro pun 646440
in str 645737
care er</w> 645703
Republ icii</w> 645601
en s 645572
p ina</w> 645520
iz are</w> 645259
centr al</w> 645250
ar rest 645244
ati s 645230
o z 645048
sist em</w> 644946
comun ic 644516
G ab 644469
te aza</w> 644370
Nov ember</w> 644295
chang es</w> 644147
ap point 644048
incep utul</w> 643856
mec i</w> 643606
M ic 643468
lup ta</w> 643121
H al 643091
th ous 643069
R ev 643008
Mos co 642291
roug ht</w> 642118
g in 642100
r and</w> 641832
mi ercuri</w> 641819
r au</w> 641760
nici odata</w> 641565
hosp ital</w> 640806
how ever</w> 640776
no w 640604
ot a</w> 640581
D in 640526
quest ion</w> 640325
u el</w> 640145
end er</w> 639976
publ ica</w> 639796
int i</w> 639649
alt fel</w> 639382
int ei</w> 639279
Tw itter</w> 639262
Islam ic</w> 638977
indust ri 638860
Gener al</w> 638464
T A</w> 638391
in sur 638046
U cra 637791
ud a</w> 637695
ter en</w> 637624
di al</w> 637551
P ho 637482
y a</w> 636900
some one</w> 636556
br u 636548
dom in 636416
pet rec 635477
rec ord 635454
telev iz 635371
ra in</w> 634873
iz ed</w> 634675
Tim es</w> 634565
co sts</w> 634369
intr at</w> 633965
id ea</w> 633655
raz bo 633595
ec hi 633555
performan ce</w> 633365
me tri</w> 633253
F C</w> 632970
stat es</w> 632841
Ghe org 632502
un i 632411
cer ut</w> 632393
om s</w> 632299
put ut</w> 632149
y er</w> 632106
pat r 632098
sub st 632024
di e</w> 631949
D an</w> 631671
p ar</w> 631550
cl im 631497
sc and 631316
succ es</w> 631301
p es</w> 631233
ti fic 631108
vis it</w> 630906
t are</w> 630815
liv ing</w> 630781
M ac 630778
I ran</w> 630618
n i</w> 630599
Pr in</w> 630364
j obs</w> 630143
m it</w> 630087
re sid 629652
dec is</w> 629348
ince pe</w> 629291
ill s</w> 629047
inc red 628907
C as 628832
w asn</w> 628709
m emor 628573
an - 628572
famil ie</w> 628446
con om 628300
Presed intele</w> 627856
im edi 627785
im medi 627127
Fr anc 627058
sp ent</w> 627004
diffic ult</w> 626908
Guvern ul</w> 626856
f ans</w> 626753
sim plu</w> 626727
C op 626586
str ugg 626463
G ar 626450
as oci 626406
O ff 626381
Con n 626027
Rus sian</w> 625939
co ach</w> 625786
jur ul</w> 625563
ch em 625509
l an 625494
jo i</w> 625206
y ers</w> 625197
c uren 625038
as ist 624703
l em 624679
ar est 624118
li ves</w> 624048
man ifest 623603
i us</w> 623591
con n 623288
pres sure</w> 622945
u per 622790
intre aga</w> 622389
C ri 622376
German ia</w> 622370
sigur anta</w> 622241
Vic tor 622190
Qu e 622037
import ante</w> 622018
og le</w> 621738
v ei</w> 621656
.m .</w> 621517
to data</w> 621512
sing le</w> 621481
popul ar</w> 621040
I l 620721
succ ess 620513
ver n</w> 620390
f ight</w> 620322
lit er 620269
D or 619819
acti on 619774
fer ic 619209
w id 619041
o c</w> 618899
Isra el</w> 618725
s ul</w> 618603
M s</w> 618513
acest ia</w> 618245
st are</w> 618087
actu ally</w> 618055
sum mer</w> 617938
sp ending</w> 617933
po vest 617584
bo ur 617497
adevar at</w> 616884
ber g</w> 616775
i era</w> 616516
appear ed</w> 616435
b omb 616113
t au</w> 615948
Oc to 615817
wh ite</w> 615758
In tr 615737
supr af 615679
ter ror 615509
b ad</w> 615237
p ic</w> 615217
wor ked</w> 615119
Ad ministr 615085
ro n</w> 615000
ail y</w> 614944
rel ation 614904
docum ent 614583
ear s</w> 614543
dimine ata</w> 614458
Const anta</w> 614323
bo g 614313
est er 614240
m asa</w> 614206
ti z 613315
s hip 612913
prob ably</w> 612884
E conom 612012
M as 611989
3 0 611288
W o 611125
ator ului</w> 610894
experi enta</w> 610819
cop ul</w> 609855
Cit este</w> 609726
ot s</w> 609558
con serv 609445
ach iz 609079
ep h 609009
f ell</w> 608904
num ar</w> 608825
O T 608763
Jud et 608682
br ing</w> 608373
hear d</w> 608342
h t 608013
3 00</w> 607862
B ur 607148
mo bil 607116
in ii</w> 606961
V re 606826
o si</w> 606678
Octo ber</w> 606659
claim s</w> 606482
mus ic</w> 606393
F eder 606389
chel t 606310
G overn 606074
g ing</w> 606021
B u 605691
att acks</w> 605458
ne -a</w> 605301
polit ice</w> 604489
sing ur</w> 604489
au z 604470
them selves</w> 604468
prob abil</w> 603388
or ilor</w> 603315
ma in</w> 603280
Indi a</w> 603204
are as</w> 603110
per man 602709
e anu</w> 602565
part ener 602520
f ar 602357
wor th</w> 602349
cre ate</w> 602290
ici pi 602159
ch ec 602105
D el 602067
t at 601954
Go ogle</w> 601815
a im</w> 601811
C el 601781
exc ep 601631
al co 601311
ch ers</w> 601304
m y 601242
ut i</w> 601068
W at 600945
cun o 600800
le d 600795
S ur 600686
intamp la</w> 600579
lar gest</w> 600298
gar ia</w> 600288
sec ond 600230
v ina</w> 600071
200 4</w> 599805
a x</w> 599799
th in 599327
cond itii</w> 599212
h ous 598318
I I</w> 598073
M ex 597566
m et</w> 597488
dre pt 597353
sus pend 597327
ministr ul</w> 597287
Gheorg he</w> 597260
con sec 597039
gr am 597006
st op 596949
acti uni</w> 596943
p it 596812
B re 596231
responsa bil 596150
w el 596069
S ar 595613
Chi ar</w> 595479
g ers</w> 595331
e am</w> 595226
e x</w> 594916
sp ace</w> 594852
lucr uri</w> 594791
m ele</w> 594769
administr ation</w> 594665
T ar 594614
in o</w> 594523
continu are</w> 594495
victor y</w> 594335
af ter 594276
L os</w> 593996
Th om 593784
realiz at</w> 593574
perm ite</w> 593526
l ac 593336
ro l</w> 593306
sen s</w> 592969
develop ment</w> 592767
c y 592749
4 , 592665
char ges</w> 592343
S A</w> 592303
ar riv 592147
elim in 592078
publ ished</w> 592031
n ings</w> 591984
W al 591978
tr aining</w> 591771
T V 591561
di ul</w> 590989
for mul 590988
ne igh 590444
ultim ul</w> 590241
ad es</w> 590221
S an</w> 590119
crest ere</w> 589926
cir ca</w> 589570
h y 589446
rema ins</w> 589290
ecti va</w> 589275
C re 589012
dest ul</w> 588817
3 2</w> 588292
ve de</w> 586775
b il</w> 586548
ser ie</w> 586359
fac em</w> 586046
as k</w> 585856
s ase</w> 585821
Ira q</w> 585809
ast er</w> 585744
manag ement</w> 585475
buc ur 585299
Par ti 585150
mar ti</w> 585079
mark ets</w> 585079
ing e</w> 584963
nuc lear</w> 584809
sh ort</w> 584580
cl ad 584577
so on</w> 584517
tin ut</w> 584042
V er 583979
S and 583960
l ab 583752
sfar situl</w> 583752
iz area</w> 583721
col abor 583428
rele ase</w> 583400
V ol 583222
ter men</w> 583211
aliz at</w> 583075
s ou 583036
vre me</w> 583032
p ici 582904
mul ta</w> 582623
in sist 582145
enti e</w> 581826
d au</w> 581530
pac i 581329
und a</w> 581240
ri se</w> 581021
ord on 580945
cas es</w> 580935
C ele</w> 580811
di u</w> 580606
pon ib 580601
acc ep 579842
technolog y</w> 579693
prof it</w> 579676
in come</w> 579640
d ang 579435
do ilea</w> 579241
pr ind 578768
Europ eana</w> 578213
y al</w> 578199
b ill</w> 577922
b ab 577906
ig n 577555
fo tograf 577555
tr ial</w> 577427
inc ident</w> 577331
sc en 577274
Th ese</w> 577115
g un 576873
p m</w> 576663
m ist 576541
jo c</w> 576473
offic ers</w> 576460
Tim isoara</w> 576456
do re 575786
ment al</w> 575395
ch ip 575037
copi ii</w> 574941
tra de</w> 574885
every thing</w> 574849
prov oc 574828
r ates</w> 574713
el ing</w> 574665
an nu 574013
s ambata</w> 574010
reg ion</w> 573848
ser ious</w> 573737
inter n 573727
Afr ica</w> 573720
re li 573610
put eti</w> 573596
duc e</w> 573385
ag ency</w> 573369
pro ve</w> 573366
dow n 573146
constit u 573045
mur it</w> 572113
ti t</w> 572094
fel t</w> 571832
fi x 571494
cam era</w> 571236
invest ment</w> 571210
re - 571116
ut ed</w> 570962
pl ata</w> 570884
extre m</w> 570528
st ad 570495
y an</w> 570459
Nicol ae</w> 570202
impl ement 570177
Ph il 569989
w ants</w> 569622
Par k</w> 569474
at en 569407
T I 569368
D ur 569256
E g 569193
A le 569128
perf ect</w> 568790
or as</w> 568634
inter venti 568466
Consil iului</w> 568393
adre sa</w> 568238
P R 568186
ti onal</w> 567687
fac i</w> 567636
ministr u</w> 567604
g as</w> 567487
mat ter</w> 567441
ac te</w> 567353
H er 567340
e ase</w> 567131
rema in</w> 567036
Cra i 566862
fe bru 566693
la un 566446
ajut orul</w> 566234
inter view</w> 565854
sh ort 565386
av eti</w> 565370
daugh ter</w> 565361
nostr i</w> 565357
win ning</w> 565294
in side</w> 565077
u ca</w> 564837
foot ball</w> 564768
posibil itatea</w> 564722
ad uce</w> 564276
al e 564226
Amer icans</w> 563924
as c 563750
gro wing</w> 563583
b rought</w> 563569
andu- se</w> 563447
ke ep 563393
en viron 563108
re str 562721
C ro 562618
confer ence</w> 562428
f estiv 562115
in ing</w> 561869
it area</w> 561696
Con t 561522
l ing 561375
L iv 561363
C .</w> 561231
Febru ary</w> 561190
E ast</w> 561090
intel ui</w> 560719
ad s</w> 560630
J u 560610
Angel es</w> 560484
Const ant 560440
inst e 560280
fi int 560233
f f</w> 560191
hear t</w> 560189
ad us</w> 560129
acti c</w> 560017
im pres 559740
ent ilor</w> 559668
febru arie</w> 559665
forc ed</w> 559397
re mar 559129
act or</w> 558779
s n 558683
ved ea</w> 558402
on e- 558148
et ei</w> 557999
asig ura</w> 557751
al low</w> 557572
long er</w> 557568
ter ior</w> 557183
bu ie</w> 557011
T ex 556977
3 3</w> 556967
cro w 556873
ban ks</w> 556872
p ping</w> 556835
am int 556706
qu ick 556612
c am</w> 556611
s ac 556467
z on 556188
h am 555981
high - 555758
v ent</w> 555481
tal k</w> 555401
dis ponib 554987
s uta</w> 554756
ad ap 554718
De si</w> 554526
s on 554497
su fl 554151
ect ing</w> 553949
ta kes</w> 553896
ac hi 553826
Sy ria</w> 553644
sho ot 553540
o x 553514
ism ului</w> 553379
acc used</w> 553290
descri bed</w> 553180
z is</w> 553171
de dic 553152
v ec 553126
natur al</w> 552933
t wo 552220
re ta 552110
schim b</w> 551991
hel ped</w> 551927
no ul</w> 551565
P ak 551477
prezent at</w> 551325
n y</w> 551115
tri ed</w> 551101
Gro up</w> 550999
n em 550991
min d</w> 550865
pro ject</w> 550707
l ista</w> 550303
ed y</w> 550303
et c.</w> 550215
il eg 549962
lu a</w> 549922
Sen ate</w> 549919
thous ands</w> 549909
sen se</w> 549428
menti on 549427
qu ite</w> 549029
st ep 548851
every one</w> 548704
op tim 548615
happen ed</w> 548390
k o</w> 548387
c ul</w> 548371
int ampl 548306
articol e</w> 548253
a una</w> 548097
long - 547985
st ay</w> 547974
m ica</w> 547888
wh ole</w> 547870
raspun s</w> 547777
ast ic</w> 547710
S uc 547529
esp eci 547426
-- -- 547413
pri or 547292
de ad</w> 547049
se ama</w> 546670
desch is</w> 546623
previ ous</w> 546517
v ad</w> 546412
at ica</w> 546256
B iser 545877
M id 545739
ad ica</w> 545650
custom ers</w> 545577
r at 545541
loo ked</w> 545525
in ei</w> 545231
rez e</w> 544890
Or gan 544831
mac ar</w> 544802
it ud 544764
l - 544641
E ar 544469
E i</w> 544420
especi ally</w> 544380
V ir 544349
pati ents</w> 544196
ad vis 544078
A .</w> 544035
or ului</w> 543882
a ie</w> 543821
To t</w> 543550
ent ei</w> 543472
T or 543215
com put 542933
Sm ith</w> 542842
a pl 542805
um a</w> 542771
m ed</w> 542585
g i 542329
Io an</w> 542204
pro sec 542092
dr ug</w> 541877
h uge</w> 541778
M et 541668
cor por 541644
parti d</w> 541581
se ems</w> 541018
signific ant</w> 540911
inter net</w> 540861
In vest 540848
it ar</w> 540745
polit ic</w> 540704
claim ed</w> 540685
jud ici 540534
sa i</w> 540330
il le</w> 540125
st ii</w> 540060
re le</w> 539985
sect or</w> 539932
acc ess</w> 539403
Pro f 539289
an o</w> 539241
A ir 538956
B ac 538870
fer ing</w> 538826
viol ence</w> 538817
sco ala</w> 538799
at -o</w> 538795
me et</w> 538392
ex pres 538259
H or 538156
allow ed</w> 538111
t ell</w> 537558
sal v 537318
fail ed</w> 537286
air man</w> 537262
Put in</w> 537043
el ui</w> 536987
P or 536827
J e 536771
contr ib 536711
castig at</w> 536529
ur ii</w> 536521
suf ici 536411
A soci 536247
cas h</w> 536199
famil ies</w> 536094
offic er</w> 536054
ex pen 535933
v an</w> 535831
char ged</w> 535705
en sive</w> 535621
consid era</w> 535004
S il 534809
ne go 534484
c ab 534339
centr e</w> 534245
n es 533933
bor n</w> 533930
diver se</w> 533511
v oc 533428
cont act</w> 533116
Min istr 533081
Rad io</w> 532979
arrest ed</w> 532863
S or 532814
n amed</w> 532729
Mar k</w> 532663
M ul 532618
tin eri</w> 532415
S ing 532254
fin ala</w> 532234
C enter</w> 532109
0 .000</w> 531969
Lab our</w> 531832
sol id 531143
en jo 531075
al though</w> 531066
c ras 531026
trans fer 531012
nego ti 530958
S o 530869
m ama</w> 530843
G rec 530831
er ie</w> 530749
reduc e</w> 530669
Mar ia</w> 530629
i -au</w> 530526
pr ins</w> 530381
F er 530170
lans at</w> 529906
nom in 529762
p om 529534
Ol ym 529490
H ow</w> 529482
situ ation</w> 529350
l am 529343
M ore</w> 529296
C are</w> 529196
intel es</w> 529181
iti ons</w> 528605
4 8</w> 528532
deb t</w> 528509
n ului</w> 528494
n ast 528449
prec ed 528401
R el 528185
hot el</w> 528143
ion ul</w> 528085
recom and 528072
as cul 527949
Ad rian</w> 527835
s om 527753
li ons</w> 527538
t oc 527064
ma il</w> 526969
c ere</w> 526708
Don ald</w> 526560
ti m</w> 526493
ac coun 526309
emplo ye 525986
Ul tim 525875
ess or</w> 525862
oras ului</w> 525694
Rob ert</w> 525391
mil es</w> 525267
ag ing</w> 524823
Pe ople</w> 524761
ur mare</w> 524526
particip at</w> 524479
Ar t 524414
h us 524383
two - 524327
in i 524228
at o 524179
distri bu 523972
neces are</w> 523968
f ii</w> 523867
y n</w> 523391
- uri</w> 523221
arg um 523217
tran sport</w> 523160
tra i 522911
al itati</w> 522443
I ul 522276
prim e</w> 522118
en ge</w> 521720
To ate</w> 521527
ar ele</w> 521496
od a</w> 521346
z one</w> 521295
am o</w> 521284
M area</w> 521126
D ep 520904
ro r</w> 520892
sp un 520853
ann is</w> 520836
re present 520790
7 5</w> 520701
st ati 520620
evenim ent</w> 520603
a þ 520586
iv er</w> 520406
Ger many</w> 520008
giv ing</w> 519814
is n</w> 519756
imedi at</w> 519701
ca use</w> 519675
st ep</w> 519530
Bro wn</w> 519380
ei ther</w> 519297
z iu</w> 519234
Consil iul</w> 519145
produc tion</w> 519071
sc urt</w> 518995
t ured</w> 518976
any one</w> 518902
produc ts</w> 518746
jur n 518712
v eti</w> 518709
mer ge</w> 518695
ad mit 518272
G i 518142
re vol 517928
P ana</w> 517598
ar u</w> 517526
do resc</w> 517498
quest ions</w> 517491
tal ks</w> 517450
ver si 517374
P ac 517255
D ar 517115
i ala</w> 516943
3 6</w> 516888
ina int 516868
S ib 516499
proc es 516345
Dani el</w> 516236
bu y</w> 516174
cor up 515929
end a</w> 515851
man u 515791
chelt ui 515621
sh ire</w> 515530
saf ety</w> 515497
ing rij 515492
jo urn 515406
re ti 515237
proi ectul</w> 515116
f ra 514985
ma y 514854
b ers</w> 514801
Sy d 514744
te hnolog 514710
ri sc 514607
alb um</w> 514519
p a</w> 514376
clas s</w> 514051
rid ge</w> 514019
S am 513994
p ast 513905
su pl 513872
Con gress</w> 513630
s ell</w> 513024
ã r 512942
ap prov 512508
f arm 512500
an ca</w> 512296
compar ed</w> 512241
V lad 511808
er ia</w> 511730
sc ene</w> 511648
li es</w> 511636
reco g 511560
sibil ity</w> 511503
func tia</w> 511464
char ge</w> 511094
dem is 510910
val u 510904
Un ite</w> 510642
produc e</w> 510592
unt y</w> 510480
term s</w> 510435
3 4</w> 510388
20 00</w> 510319
neg oci 510158
g al 510093
bud get</w> 509746
h our</w> 509647
Ap ple</w> 509584
alist ii</w> 509535
chall eng 509451
D u 509440
rand ul</w> 509337
num e</w> 509288
he alth 508953
el iber 508909
respon se</w> 508761
pu sa</w> 508491
iti ile</w> 508400
5 5</w> 508133
s le 508001
fur niz 507984
v s.</w> 507699
N AT 507671
m el 507480
K ar 507366
as sist 506970
po ol</w> 506967
U P 506875
servici u</w> 506808
includ ed</w> 506767
val ue</w> 506763
Fr anta</w> 506754
ep is 506710
Jap an</w> 506473
web site</w> 506317
for meaza</w> 506281
em n 506248
put ere</w> 506101
0 , 506025
C O 505895
1 2 505770
continu ed</w> 505179
M ay 505098
vech i</w> 505065
exam ple</w> 504833
st im 504746
sp o 504681
T al 504627
b ag 504575
happ y</w> 504566
lip sa</w> 504488
v eg 504367
hap s</w> 504338
alter n 504122
particul arly</w> 504068
B arb 503976
acc ident</w> 503520
chest er</w> 503501
ultim ele</w> 503433
au to</w> 503031
re form 502821
Syd ney</w> 502684
tr as 502396
ref uz 502377
B or 502260
E duc 501650
itor s</w> 501607
be at</w> 501443
ch er</w> 501349
int reg 501183
op position</w> 501105
o di 501030
th - 500915
it ele</w> 500739
an unta</w> 500715
conditi ons</w> 500706
bo o 500443
Ge org 500428
n ine</w> 500377
pre dic 500274
prec iz 500259
ultim ii</w> 500205
C rac 500040
In sa</w> 499979
w it 499947
cl ar</w> 499648
pro pos 499610
semn at</w> 499507
p el 499402
er ous</w> 499169
p as</w> 499073
A sta</w> 498850
proi ecte</w> 498162
ar s</w> 498082
lucr urile</w> 497825
ex act</w> 497805
de auna</w> 497670
Nation ala</w> 497618
D um 497554
Willi ams</w> 497535
dec ided</w> 497467
obtin ut</w> 497427
tot usi</w> 497402
Vas ile</w> 497304
in - 497290
M A 497056
cresc ut</w> 496908
agre ement</w> 496903
Sch o 496902
aliz area</w> 496676
pag ina</w> 496546
mec iul</w> 496534
Inter net</w> 496433
jud etul</w> 496362
agre ed</w> 496334
san atate</w> 496160
in tii</w> 496114
ish ing</w> 495960
vic e 495664
ho od</w> 495645
scho ols</w> 495605
oras ul</w> 495400
Pri me</w> 495390
Ac adem 495366
pri son</w> 495092
h und 494863
princip al</w> 494725
i ana</w> 494645
tur ne 494545
mar k</w> 494407
in tim 494352
Alexand ru</w> 494309
est abl 494288
invest ors</w> 494283
princ i 494013
dou b 494010
si onal</w> 493933
ic l 493800
Ko rea</w> 493586
prim i</w> 493553
treat ment</w> 493339
th an 493111
com ment</w> 493107
plac ed</w> 493022
effor ts</w> 492990
centr ul</w> 492859
co ver</w> 492775
4 4</w> 492494
re m 492331
proiect ului</w> 492326
ant ly</w> 492322
ator y</w> 492308
sed inta</w> 492082
cal ls</w> 492015
s mo 491982
se f</w> 491855
presid ential</w> 491626
proper ty</w> 491361
Br az 491338
g one</w> 491274
in ning</w> 490928
S -a</w> 490710
ach ing</w> 490407
Pro i 490386
mod er 490190
can not</w> 490051
Ev en</w> 489821
autor itatile</w> 489496
foc us</w> 489355
quick ly</w> 489268
uc k</w> 489167
ofici al</w> 489167
rul es</w> 488986
th ro 488901
afirm at</w> 488860
p si 488818
is nu 488441
clos ed</w> 488344
or i 487947
shar es</w> 487871
in scri 487780
l i</w> 487648
Mar tin</w> 487614
buil d</w> 487477
caz uri</w> 487407
succ ess</w> 487324
ac qu 487212
ver ific 487163
pres ent</w> 487043
D et 486973
D re 486799
ev ents</w> 486762
t ina</w> 486707
al ia</w> 486688
Co unty</w> 486668
enc ed</w> 486568
qu ality</w> 486507
ak er</w> 486412
ed s</w> 486409
D r</w> 486279
v r 486234
o ana</w> 486128
se qu 486083
i erul</w> 485870
co al 485668
vot ers</w> 485574
fo stul</w> 485549
mater ial</w> 485482
c ast</w> 485371
it alul</w> 485305
f all 485294
R ap 485270
h id 484919
p te</w> 484798
t ures</w> 484519
al ing</w> 484449
fa ir 484435
curren tly</w> 484340
I mag 484273
at ures</w> 484228
l ea</w> 484211
Con form</w> 484134
we ap 484119
mo bile</w> 483904
zil ei</w> 483846
s old</w> 483784
h annis</w> 483693
com pon 483575
al tii</w> 483526
c o</w> 483151
anum ite</w> 483144
i ere</w> 482749
pre t</w> 482727
hus band</w> 482683
S ou 482251
gr a 482104
Mir cea</w> 482087
es a</w> 481882
vie ws</w> 481869
bec om 481841
bo y</w> 481403
open ing</w> 481330
it ura</w> 481098
mod ern 480974
act ed</w> 480971
dem and</w> 480765
do or</w> 480669
sig n</w> 480046
Tw o</w> 479989
av ant 479779
n ea</w> 479731
fa ir</w> 479729
reas on</w> 479452
3 7</w> 479322
Eur opene</w> 479311
E r 479286
incep and</w> 479237
dec is 479219
mod ul</w> 479122
ac ts</w> 479006
cop il</w> 478848
memb ru</w> 478693
nec ess 478520
Med ic 478505
ab ove</w> 478459
alist i</w> 478254
ob isnu 478158
ven it 478142
ot ul</w> 478083
3 8</w> 478080
su it</w> 478066
plec at</w> 477895
j ects</w> 477708
U N 477671
d ed</w> 477356
lin ed</w> 477124
P ort 477066
me an</w> 476967
un ilor</w> 476942
increas ed</w> 476841
inc en 476809
f ast</w> 476789
n a 476749
particip a</w> 476723
Tre buie</w> 476711
F A</w> 476633
f a</w> 476381
an ele</w> 476375
wr ong</w> 476191
major itatea</w> 475710
tar ile</w> 475659
l ament</w> 475650
concern s</w> 475327
k new</w> 475282
D ay</w> 475076
Govern ment</w> 475021
op s</w> 474835
acti ons</w> 474705
S R 474643
mun icipi 474535
opportun ity</w> 474443
av es</w> 474353
s at</w> 474283
Moldov ei</w> 474281
recun os 474259
ug ht</w> 474041
S up 473928
er ful</w> 473883
ht t 473850
echip ei</w> 473826
lev els</w> 473783
R ez 473635
Pet er</w> 473627
Io hannis</w> 473584
C od 473489
ell ig 473414
sk i</w> 473349
J os 473261
di es</w> 473261
saptam ani</w> 473234
im ob 473116
cri za</w> 473105
organiz at</w> 473103
trim is</w> 472901
ast e 472819
se em 472163
ur ch</w> 472074
im migr 472058
comun icat</w> 471896
run s</w> 471790
chang ed</w> 471769
Gab ri 471752
r ay</w> 471658
sex ual</w> 471390
telev ision</w> 471312
Judet ean</w> 471278
4 00</w> 471182
cop il 471142
al ty</w> 471097
Tex as</w> 470989
medi u</w> 470791
it self</w> 470780
believ ed</w> 470647
L ou 470643
R a 470606
gr up</w> 470488
at ã</w> 470367
ul ar</w> 470361
A u 470082
sci enti 470080
activ itate</w> 469994
ph ys 469748
Can ada</w> 469581
ir ile</w> 469480
k n 469281
uti on 469019
se ful</w> 469008
as soci 469007
et h</w> 468925
Ch am 468836
g s</w> 468653
Part y</w> 468650
mo st 468621
ra ised</w> 468482
supr av 468450
A D 468318
pa ir</w> 468311
independ ent</w> 468166
I r 468059
ib le</w> 468000
Camer on</w> 467959
at tr 467758
hom es</w> 467752
O ur</w> 467269
four th</w> 467244
dr um 467004
le ague</w> 466975
wor ds</w> 466974
p un</w> 466911
P it 466723
Co uncil</w> 466717
H o 466702
pos e</w> 466612
I T 466572
ist ilor</w> 466551
V en 466522
F estiv 466367
fem ei</w> 466247
ch i 466065
to - 465851
cont est 465648
D ac 465582
G M 465520
li ament</w> 465451
effor t</w> 465438
vre o</w> 465423
Po ate</w> 465386
public at</w> 465311
u ite</w> 465278
se y</w> 465274
Ch el 465252
tis h</w> 465237
apar ut</w> 465135
deb ate</w> 464813
Un ion</w> 464770
mar g 464744
- up</w> 464634
S ol 464540
n ice</w> 464514
K e 464208
ma int 464201
rel ated</w> 464164
b ly</w> 464105
lar g 464103
r are</w> 463512
incer cat</w> 463451
initi al</w> 463395
amo unt</w> 463276
oper ation</w> 462951
John son</w> 462905
stud ent</w> 462503
H am 462315
Republ icans</w> 462230
m al 461934
v ig 461854
relation ship</w> 461732
trav el</w> 461349
par ts</w> 461306
t able</w> 461187
ant ele</w> 461163
ad ver 461058
Ch ris</w> 460892
pre si 460891
s ecti 460692
re view</w> 460680
situ atie</w> 460517
stabil it</w> 460500
CN N</w> 460377
lo ws</w> 460113
8 - 460025
d ings</w> 459833
menti onat</w> 459720
go es</w> 459576
In form 459494
P C 459428
mov ing</w> 459374
Tr an 459164
soci ale</w> 459013
ar atat</w> 459011
des ign</w> 458954
sch ed 458950
as sa 458805
ester day</w> 458418
com bin 458406
pat ri 458304
Man chester</w> 458226
ant ilor</w> 458216
su bl 458108
pas s</w> 458081
l asa</w> 457910
re ach</w> 457495
red s</w> 457327
moti v</w> 457314
e az 457151
cond amn 457118
tre ce</w> 457069
Guvern ului</w> 456920
m ers</w> 456912
ed a</w> 456740
st ock</w> 456700
ved erea</w> 456696
c ia</w> 456601
G l 456588
J ones</w> 456125
y ment</w> 456050
at er 455923
ter or 455903
rap id</w> 455490
ant er 455453
ob ic 455442
Ste fan</w> 455337
proc esul</w> 455233
f avo 455210
ma kers</w> 455069
site- ul</w> 454930
T in 454896
nici o</w> 454784
reve aled</w> 454671
annu al</w> 454646
c lo 454594
Tra ian</w> 454588
bi ro 454502
muz ica</w> 454366
w est</w> 454301
4 2</w> 454125
inste ad</w> 454026
ang a</w> 453957
I A</w> 453714
to p 453516
educ ation</w> 453497
loo ks</w> 453178
Ital ia</w> 453139
Sh ar 453083
supraf ata</w> 453063
- ului</w> 452874
inregistr at</w> 452571
s hi 452545
astr uc 452424
En gl 452250
re ad</w> 452223
E N 452108
3 9</w> 452065
t ata</w> 452051
b ai 451587
R M</w> 451542
Scot tish</w> 451468
ug s</w> 451273
consid er</w> 451203
thre e- 451203
leg ii</w> 451060
10 . 450889
comm on</w> 450857
mer eu</w> 450806
sel f- 450752
4 9</w> 450737
dezvolt area</w> 450662
mic ro 450612
l unii</w> 450500
it an 450499
Acc ording</w> 450375
w ers</w> 450069
supl iment 450049
instr um 449742
lang u 449673
200 3</w> 449584
at ice</w> 449212
Serv ici 449101
pi on</w> 449061
adaug at</w> 448964
as s</w> 448786
direc torul</w> 448533
un at 448409
fac ute</w> 448392
M a</w> 448371
A ust 448348
tur ii</w> 448343
O per 448320
al in</w> 448310
Democr ats</w> 448287
sy m 448137
ar gu 448104
di ag 448001
cer tain</w> 447872
in ess</w> 447851
u a</w> 447729
copi ilor</w> 447700
gir l</w> 447623
messa ge</w> 447494
s mar 447355
6 5</w> 447306
S . 447208
cl asa</w> 447185
N um 447162
ar i 446871
l -au</w> 446694
Ucra ina</w> 446690
Vlad im 446645
confirm ed</w> 446594
igh t 446588
V in 446512
ar iu</w> 446449
d an</w> 446325
sco red</w> 445976
I on 445967
sim ply</w> 445964
Univers itatea</w> 445494
en cour 445445
fig ures</w> 445285
sp ital</w> 445049
me an 445031
premi erul</w> 445028
folos it</w> 445003
sig ned</w> 444985
identi fic 444979
U k 444958
rol ul</w> 444916
v ul 444820
19 5 444257
ut il 444220
Con stit 444204
roman a</w> 444163
sc ad 444096
po arta</w> 444075
in sp 444067
persoan ele</w> 443985
4 1</w> 443846
B us 443694
o p</w> 443669
ac count</w> 443577
vi u</w> 443572
ail ed</w> 443480
tr ack</w> 443479
0 9</w> 443305
li b 443261
ist ic</w> 443123
int er</w> 443038
jud ge</w> 443003
l ap 442945
cri me</w> 442914
el se</w> 442644
exp ect</w> 442607
te ams</w> 442442
S i 442324
new sp 442108
y l 442055
acc ident 441955
presed intelui</w> 441866
il s</w> 441833
amer ican</w> 441758
J ack 441715
compl ete</w> 441709
ti ile</w> 441700
primar ul</w> 441611
pret ty</w> 441608
ev oluti 441410
oper ations</w> 441305
re un 441231
NAT O</w> 441012
ac ea</w> 440894
Democr atic</w> 440854
art ea</w> 440799
M any</w> 440733
con t</w> 440687
4 7</w> 440180
as h</w> 440094
Ger man</w> 439915
htt p</w> 439790
min im 439537
et apa</w> 439367
tit le</w> 439292
bu z 439250
feme ie</w> 439072
set t 438986
n it</w> 438967
cl aim</w> 438927
cunos cut</w> 438802
ill er</w> 438779
c os 438746
ro se</w> 438617
major ity</w> 438432
com una</w> 438336
Un iunea</w> 437988
chall enge</w> 437949
k et</w> 437909
sol di 437908
individ u 437877
No t</w> 437642
le aving</w> 437313
num bers</w> 437302
oc upa</w> 437250
buil t</w> 437226
en om 437079
B S</w> 436906
mor t 436892
deciz ia</w> 436780
N et 436764
I M 436733
preg ati 436722
u itat</w> 436708
dr am 436558
confl ict</w> 436405
B ush</w> 436213
g en</w> 436146
carac ter 435759
4 3</w> 435717
ca used</w> 435419
V o 435370
e es</w> 435018
C er 434886
mis sed</w> 434835
victim s</w> 434664
Afgh an 434578
M aj 434569
reg ist 434531
s ala</w> 434429
an ie</w> 434202
imb unat 434039
rad io</w> 433921
D un 433834
b order</w> 433784
f ant 433776
attem p 433720
C red</w> 433601
follow ed</w> 433598
H er</w> 433561
To todata</w> 433521
s os 433405
m es</w> 433278
open ed</w> 432812
aste apta</w> 432642
l ad</w> 432496
conduc erea</w> 432464
spe ech</w> 432444
0 8</w> 432426
B ras 432315
di an</w> 432215
He alth</w> 432212
det in 432152
ast ern</w> 431625
mec i 431519
i au</w> 431467
F ar 431435
p ului</w> 431326
Afghan istan</w> 431311
sp on 431255
a ks</w> 431177
under stand</w> 431168
o g</w> 431126
E ver 430961
Andre i</w> 430861
n ar 430647
iti v</w> 430485
val or 430474
do z 430445
pr ic 430425
Cam pion 430252
om ul</w> 430165
nici un</w> 430136
ser ve</w> 429981
mas uri</w> 429880
p ush 429659
al og 429626
cl in 429291
ament ului</w> 429281
dator ita</w> 429142
de fic 429109
m as</w> 429091
h istor 429089
a- i</w> 428947
olog ie</w> 428660
a- si</w> 428631
crest erea</w> 428432
a id</w> 428253
N ici</w> 428219
st ic 428024
mas ini</w> 427954
att ention</w> 427944
ick et</w> 427714
pre tul</w> 427706
resp ect</w> 427562
con fr 427493
vis ion</w> 427459
se diul</w> 427397
h ands</w> 427230
tri p</w> 426924
compl ic 426862
vic es</w> 426842
r ang 426388
mer g 426349
B og 426270
A S</w> 426139
acti une</w> 426100
app ed</w> 426060
for t</w> 426057
pl ina</w> 425923
T om 425915
pract ice</w> 425893
Ac este</w> 425781
por ter</w> 425565
fisc al</w> 425273
z ece</w> 425128
v ia</w> 425097
k ids</w> 424951
injur y</w> 424909
ear ca</w> 424652
mod ern</w> 424320
eff ect</w> 424247
re la 424223
financi are</w> 424099
R am 423909
mi -a</w> 423909
sustin ut</w> 423852
dr um</w> 423844
d ated</w> 423647
int ar 423395
ch airman</w> 423338
a ud 423230
tem a</w> 423122
S co 423066
int oar 422797
P an 422769
ag er</w> 422739
de plas 422665
w il 422647
I T</w> 422392
iar na</w> 422353
th or 422321
inch is 422308
Cap it 422222
v eter 422204
sc az 422027
cut s</w> 421983
val oarea</w> 421661
barb at</w> 421504
ri d</w> 421477
civ il</w> 421398
immedi ately</w> 421349
cu prin 421201
w ond 421165
di c</w> 421066
at mos 420781
5 , 420728
cre ated</w> 420662
leg ea</w> 420538
ear ing</w> 420490
gu il 420490
judec ata</w> 420439
tar ziu</w> 420425
F ac 420389
tra ordin 420273
m ing</w> 420169
c er</w> 419889
iz a</w> 419510
D en 419468
c it</w> 419376
individ ual</w> 419344
eas y</w> 419294
viz it 419129
4 6</w> 419102
intel e 419075
y ond</w> 418774
olog y</w> 418711
Vladim ir</w> 418696
char ac 418565
pl in</w> 418514
on to</w> 418500
thre at</w> 418397
sim ple</w> 418280
compan ia</w> 418261
a uti 418249
200 1</w> 418243
E a</w> 418236
explic at</w> 418030
net work</w> 418004
w ell 417968
Comis ia</w> 417869
1 1. 417865
f lu 417805
dri ve</w> 417799
d ul 417749
f und</w> 417667
wor k 417656
cuv ant</w> 417529
o de</w> 416868
tain ly</w> 416284
b n</w> 416110
ub lic</w> 416074
an ilor</w> 415887
z er 415795
D ef 415758
Scho ol</w> 415625
re al 415620
ator ie</w> 415413
tran z 415368
putern ic</w> 415262
dov ed 415095
O f</w> 414925
de fe 414916
sup pl 414916
tem por 414302
figh ting</w> 414240
war ned</w> 413994
Pri ma</w> 413960
add ing</w> 413918
int s</w> 413817
sear ch</w> 413809
vre au</w> 413781
bug etul</w> 413771
happ en</w> 413644
b ase</w> 413518
Pro gram 413475
A l</w> 413430
od y</w> 413181
leg ate</w> 413110
sig ur</w> 412968
wat ch</w> 412928
st ren 412678
in de</w> 412605
Nation ale</w> 412306
difer ent</w> 412169
f at 412164
en ing</w> 412104
se aza</w> 411976
par cursul</w> 411679
sc ur 411515
we ight</w> 411428
dis par 411221
det ails</w> 411212
C ine</w> 411195
includ es</w> 411079
sur ile</w> 411067
L E 411061
pot enti 410974
imag ine</w> 410877
mov ie</w> 410834
S T 410830
of fered</w> 410742
ay ed</w> 410688
s at 410678
vie tii</w> 410566
Flor ida</w> 410562
appro ach</w> 410437
L it 410420
6 , 410084
k ept</w> 410080
program ul</w> 409842
im pr 409577
ne -am</w> 409127
Rich ard</w> 409097
tr up 409011
con centr 408978
fron ti 408940
A re</w> 408840
e ori</w> 408838
refer end 408831
Parlament ului</w> 408813
ad y</w> 408796
mur der</w> 408789
europ ean</w> 408714
er ve</w> 408625
ship s</w> 408385
famil ia</w> 408301
D ev 407924
d ub 407894
F ol 407846
con sist 407683
be hav 407671
car te</w> 407538
y esterday</w> 407529
Pres s</w> 407405
c le</w> 407392
gr u 407390
origin al</w> 407195
S k 406991
nas cut</w> 406866
ar ch 406865
al oc 406841
in fiint 406718
bo x</w> 406651
int enti 406650
r ut 406148
im br 406084
i arul</w> 405812
Sib iu</w> 405798
c ros 405539
saf e</w> 405495
inter mediul</w> 405413
busin esses</w> 405402
ma ge</w> 405222
cre ste</w> 405104
del eg 405093
A M 404984
mis sing</w> 404947
commit tee</w> 404941
resid ents</w> 404904
f rec 404799
appe ar</w> 404740
previ ously</w> 404653
com mer 404648
car s</w> 404556
ad ed</w> 404548
Constant in</w> 404523
ut ului</w> 404181
prot est</w> 404178
f ine</w> 404136
is on</w> 404076
us ers</w> 403935
ur al</w> 403914
li ber</w> 403873
num ero 403852
F rom</w> 403697
s atis 403681
tr ue</w> 403607
bour ne</w> 403539
consid ered</w> 403414
dis ci 403360
ib li 403323
st yle</w> 403319
ac el</w> 403295
ap are</w> 403240
str ong 403227
cunos c 403140
ic les</w> 403005
Loc al</w> 402984
res cu</w> 402921
medic ale</w> 402646
reprezent antii</w> 402607
frum os</w> 402504
exec ut 402425
con sti 402396
oam enilor</w> 402362
st - 402331
em e</w> 402177
aj ele</w> 402161
am i</w> 402138
econom ice</w> 402028
D ez 401851
tor ney</w> 401506
candid ate</w> 401335
ay ing</w> 401250
stren g 401213
ex traordin 401125
Din amo</w> 401072
ib il</w> 401040
fot bal</w> 401031
e th 400986
pac ate</w> 400977
par ola</w> 400967
po or</w> 400915
f et 400859
aleg erile</w> 400847
Pi ata</w> 400773
10 - 400672
ab s 400567
ib il 400386
econom ica</w> 400350
sistem ului</w> 400254
Th en</w> 400150
t ale</w> 400126
inc ur 400115
Crist ian</w> 400062
ac he</w> 399863
infr astruc 399836
viz ita</w> 399710
Ar ad</w> 399472
start ing</w> 399415
pre ad</w> 399253
B ill</w> 399035
av oc 398996
p tion</w> 398992
9 9</w> 398979
Op en</w> 398905
ho tel 398898
vr ut</w> 398842
zil nic</w> 398608
con ce 398151
per sp 398117
Dec i</w> 398045
l un 397969
c ale</w> 397820
F lo 397758
compet ition</w> 397720
car d</w> 397623
ellig ence</w> 397612
magaz ine</w> 397479
Organ iz 397144
0 1</w> 397111
Centr ul</w> 397019
0 7</w> 396892
Engl ish</w> 396879
ach es</w> 396801
fac tor 396718
dec ide</w> 396706
t ol 396669
con vic 396638
pas sed</w> 396621
fo rec 396579
Ex ista</w> 396485
c y</w> 396479
per s</w> 396237
L e</w> 396176
200 2</w> 396154
an j 395851
dre apta</w> 395792
shoot ing</w> 395764
ne ar 395591
inj ured</w> 395330
b ar</w> 395284
un iversit 395193
ce il 395188
Col ectiv</w> 395088
fund ing</w> 395021
ent ed</w> 394998
io ara</w> 394865
re ached</w> 394782
ect ele</w> 394675
ies it</w> 394647
sa d</w> 394438
si x 394436
R az 394389
ed ge</w> 394368
fig ure</w> 394285
n on 394187
GM T</w> 393781
tro ops</w> 393709
d at 393544
ug h 393429
Dum it 393341
H il 393302
hi on</w> 393247
ri age</w> 393239
Pr inc 393233
par as 393102
f un 393075
inchei at</w> 392721
retur ned</w> 392647
ro t 392468
to ur 392431
Par lament</w> 392249
inter nationale</w> 392247
hear ing</w> 392243
R .</w> 392224
ab and 392146
7 , 391829
ult um 391669
post ed</w> 391652
cit iz 391497
no on</w> 391424
At l 391215
neces ar</w> 391181
T om</w> 391098
L og 391095
sto od</w> 391062
lum ii</w> 391048
pas sen 390635
dec ades</w> 390533
domen iu</w> 390531
re acti 390483
ac ked</w> 390444
num it</w> 390409
mon dial</w> 390229
Fil at</w> 390214
fl ight</w> 390180
K ing</w> 390102
sa pte</w> 389970
or ing</w> 389958
L iga</w> 389916
restr ic 389900
im ent</w> 389862
stat ul</w> 389780
M od 389678
B lu 389636
Compan y</w> 389609
Fir st</w> 389573
trad itional</w> 389456
let ter</w> 389287
P at 389199
sen tim 388951
fo to</w> 388942
st ation</w> 388848
S cri 388845
tar get</w> 388797
dom est 388711
ap reci 388633
am ing</w> 388505
repe de</w> 388157
en sure</w> 388052
S iri 388037
urg enta</w> 387997
at entia</w> 387908
B ud 387752
a er 387748
Eg y 387683
Bar ack</w> 387675
sour ce</w> 387598
if ica</w> 387577
acest eia</w> 387547
compl et</w> 387545
co uldn</w> 387404
g ard 387284
dezvolt are</w> 387273
dore ste</w> 387124
G lo 387065
al one</w> 387055
hol id 386942
p use</w> 386936
m -am</w> 386887
N ap 386813
bab y</w> 386760
pur ch 386734
Sec retary</w> 386731
benef its</w> 386636
energ ie</w> 386585
s s</w> 386566
resear chers</w> 386405
at ra</w> 386369
problem ele</w> 386325
S E 386150
pl es</w> 386061
sust in</w> 385891
An ton 385846
ex tul</w> 385703
9 - 385643
C u 385533
zil ele</w> 385504
el i 385468
Com ent 385403
in spir 385341
C asa</w> 385067
T an 385041
v ezi</w> 384959
alist s</w> 384922
At unci</w> 384783
speci ale</w> 384742
anc y</w> 384680
add ress</w> 384633
hi b 384562
categor ia</w> 384544
manu fac 384516
t area</w> 384334
trans form 384326
dec i</w> 384296
lar s</w> 384265
I ata</w> 384256
materi ale</w> 384199
anum e</w> 384188
parti es</w> 384075
o ca</w> 383961
compl ex</w> 383872
Pak istan</w> 383820
iz e</w> 383772
s we 383745
inc ar 383723
re tr 383711
1 2. 383563
laun ched</w> 383439
S pe 383430
driv ing</w> 383392
roman esc</w> 383383
dr ugs</w> 383233
t we 383050
M s.</w> 382999
em ail</w> 382956
p ace</w> 382943
a er</w> 382929
am inti 382871
UP I</w> 382860
d a 382824
deciz ie</w> 382780
tal king</w> 382737
cun ost 382720
Dep ut 382714
mi x 382660
luc reaza</w> 382599
stra ight</w> 382497
f res 382460
po i</w> 382460
rec uper 382338
op t</w> 382245
Scot t</w> 382241
iun ile</w> 382181
p .m.</w> 382180
pos itive</w> 382136
juc at</w> 381949
ap par 381901
ajut or</w> 381855
ra in 381837
as ul</w> 381766
even iment 381564
aliz ate</w> 381319
to wards</w> 381259
Minist erului</w> 381201
tec hn 381167
fer a</w> 381073
gri ja</w> 381039
yo ung 381016
schimb a</w> 380965
Off ice</w> 380841
dos ar</w> 380800
ati z 380788
e h 380628
ob tine</w> 380579
D an 380486
blo od</w> 380312
inde plin 380181
el alte</w> 380015
ver sion</w> 380003
apro b 379864
i re 379791
ra ise</w> 379772
m am 379718
pro por 379681
Co st 379639
b uni</w> 379597
re ly</w> 379596
br itan 379526
inc earca</w> 379479
ridic at</w> 379454
c e- 379311
ant elor</w> 379217
toc mai</w> 379182
G old 379177
ect a</w> 379092
c af 379041
ec a</w> 378967
success ful</w> 378785
A I 378603
i un</w> 378445
comm ents</w> 378346
h ab 378331
alt ele</w> 378274
re sc 378215
cer tainly</w> 378209
Ro yal</w> 378069
h out</w> 378020
l ie</w> 377730
l ack</w> 377641
compan ii</w> 377597
popul ation</w> 377421
do g</w> 377393
k illing</w> 377314
employe es</w> 377239
Primar ia</w> 377185
fac uta</w> 377156
stim ul 377087
Grec ia</w> 377021
Associ ation</w> 377018
P atr 376820
stre et</w> 376792
ti p 376522
wor d</w> 376442
M ost</w> 376186
prim ar</w> 376092
vo t</w> 376086
v and 375943
itor ilor</w> 375900
po v 375740
m ar</w> 375727
cond us</w> 375715
trec uta</w> 375710
Rad u</w> 375686
pl ane</w> 375618
in qu 375605
J an 375248
0 5</w> 375165
un te</w> 375035
hund reds</w> 374965
pro pus</w> 374816
e tr 374783
cent ury</w> 374757
l ar</w> 374729
mon itor 374670
pre sup 374663
ent ului</w> 374518
AF P</w> 374471
Res ear 374461
in formeaza</w> 374458
on i</w> 374232
nu- i</w> 374115
ecti on 374011
moti ve</w> 373974
be yond</w> 373937
dis ease</w> 373691
d u</w> 373530
memb rii</w> 373499
fund s</w> 373032
Com un 372969
st al 372964
prot ect</w> 372896
pr a 372887
D oc 372855
M u 372842
incred ere</w> 372822
icol e</w> 372701
S ci 372689
to tal 372495
k i</w> 372148
ac king</w> 372112
port ul</w> 372050
rezult ate</w> 372006
in ele</w> 371797
I mage</w> 371688
ter ed</w> 371686
f elul</w> 371631
emplo yment</w> 371621
memb ri</w> 371583
se em</w> 371477
En erg 371460
ev ol 371196
particul ar</w> 371153
Sp italul</w> 371043
no te</w> 370926
las at</w> 370844
cre at</w> 370733
stand ard</w> 370522
persoan elor</w> 370515
O am 370498
re l</w> 370455
Mex ico</w> 370451
roman esti</w> 370266
cer em 370244
meas ures</w> 370218
n i 370185
1 50</w> 370132
restaur ant</w> 370009
t ough</w> 369965
vre mea</w> 369915
gr an 369863
insur ance</w> 369777
VI DE 369776
prov ided</w> 369709
M P 369702
u irea</w> 369664
istor ia</w> 369601
extre m 369511
echi pe</w> 369349
d ura</w> 369333
dez bat 369270
Ast azi</w> 369210
Z e 369062
Mc C 369030
cond ition</w> 368790
go als</w> 368671
in do 368668
Crai ova</w> 368661
la ws</w> 368403
C E</w> 368353
re comm 368293
def ense</w> 368237
fir me</w> 368152
Ch ic 368082
Rom an</w> 368078
bug et 367963
ses sion</w> 367954
fe et</w> 367953
ent er 367910
s copul</w> 367793
ocaz ia</w> 367743
und ing</w> 367731
det alii</w> 367525
f it 367033
Un iversit 367005
seem ed</w> 366961
unt eti</w> 366932
old er</w> 366850
R en 366804
societ atii</w> 366783
2 8 366776
S t</w> 366709
arti st 366662
Mel bourne</w> 366556
ic ia</w> 366390
I s</w> 366351
per haps</w> 366321
N e</w> 366231
pur t 366201
issu ed</w> 366187
S ho 366147
serv ed</w> 365971
exam in 365827
p la</w> 365771
rez olv 365742
premi er</w> 365739
A ici</w> 365563
Cur tea</w> 365552
P ic 365366
g asi</w> 365341
au r</w> 365319
sc ena</w> 365131
6 00</w> 365072
h it 364998
is ation</w> 364582
reg l 364385
polit ics</w> 364229
ur ul</w> 364143
B ol 364115
incre di 363808
famil iei</w> 363771
Un iunii</w> 363584
batt le</w> 363521
br and</w> 363412
secre t</w> 363330
A no 363278
cr aft</w> 363192
we ather</w> 363178
cent er</w> 363144
P L 363110
. com 363106
Christ mas</w> 363102
V lad</w> 362969
con cre 362918
plac es</w> 362813
b on 362738
l ung</w> 362686
Ale x</w> 362533
s ine</w> 362519
dam age</w> 362244
en or 362243
st ore</w> 362181
b os 362147
crimin al</w> 362019
prote j 361978
Car ol 361804
Al though</w> 361802
u it 361606
St eph 361416
j ected</w> 361365
A poi</w> 361363
201 7</w> 361331
desig ned</w> 361289
fe e</w> 361248
ar ia</w> 361234
ent - 361215
part ner</w> 361193
Thom as</w> 361127
West ern</w> 361054
acc es</w> 360891
arm ed</w> 360586
ac u 360425
support ers</w> 360120
em a</w> 360109
Su per 360060
F amil 359845
int ot 359698
avo id</w> 359696
Secur ity</w> 359564
noap te</w> 359504
Crac iun</w> 359390
un z 359312
Medi af 359279
dec it</w> 359275
ant icip 359262
io are</w> 359183
rezult atele</w> 359152
cr uc 359051
al elor</w> 358991
pract ica</w> 358989
sur se</w> 358979
W ar</w> 358968
lucr ari</w> 358717
AS A</w> 358678
urmat oarele</w> 358518
Ex ec 358457
c area</w> 358426
p astr 358373
Premi er</w> 358322
anc ed</w> 358191
re pet 358173
ul at</w> 358113
and - 358054
jo aca</w> 357858
exper ts</w> 357799
attem pt</w> 357608
b id</w> 357534
R od 357526
writ ten</w> 357503
e c</w> 357477
M es 357427
dec ade</w> 357426
ofer it</w> 357395
re ce</w> 357360
tw are</w> 357271
sp end</w> 357182
lead ership</w> 357165
S to 357074
pre venti 357007
de gre 356949
cir cum 356875
ro b 356805
servici ile</w> 356727
Gabri el</w> 356719
ti v</w> 356686
wal k</w> 356588
ho st 356581
de veni</w> 356470
res sed</w> 356431
appear s</w> 356403
ap plic 356299
n it 356236
co resp 356101
ui esc</w> 356034
plan ned</w> 356026
H um 355995
trad ing</w> 355969
alleg ed</w> 355749
bel ow</w> 355720
si ze</w> 355478
sel ling</w> 355453
thre aten 355448
Ch il 355243
Bras ov</w> 355215
g ust 355195
r us</w> 355113
rela x 355007
St an 354926
M r 354922
clim ate</w> 354906
suggest ed</w> 354854
g ent 354673
pl ant</w> 354615
G en 354499
C F 354310
sa ve</w> 354282
D r.</w> 354277
u ire</w> 354274
doc tor</w> 354200
jo ined</w> 354090
Pal est 354008
intot deauna</w> 353982
Andre w</w> 353981
Mediaf ax</w> 353896
N u 353728
dro pped</w> 353517
p ach 353408
defin it 353347
cel ui</w> 353282
Chel sea</w> 353247
dos arul</w> 353081
newsp aper</w> 353031
cal ling</w> 352963
C lar 352937
Ano ther</w> 352780
9 , 352772
h ad 352750
f am 352747
M uz 352741
suf fered</w> 352714
el abor 352664
C ea</w> 352616
ri es</w> 352487
In spect 352416
act ul</w> 352408
p ap 352399
ud i</w> 352205
ch in 352176
h an</w> 352130
As ia</w> 352074
commun ic 352011
iv al 351997
cau z 351985
arriv ed</w> 351951
fund ament 351899
A P 351886
pe ace</w> 351831
Centr al</w> 351757
el led</w> 351709
intampl at</w> 351709
g un</w> 351677
ital ei</w> 351623
li m</w> 351570
and ed</w> 351558
C red 351372
St ud 351364
indu- se</w> 351266
fin ally</w> 351258
Con serv 351237
am bl 351147
dec l 351123
at oarea</w> 351003
W ales</w> 350939
confl ic 350935
sit es</w> 350899
t our</w> 350893
p age</w> 350877
ac ele</w> 350854
gr av 350732
Tot usi</w> 350666
ly wood</w> 350442
Victor ia</w> 350440
bre ak 350428
dur ata</w> 350344
our ces</w> 350292
an k 350167
lum ina</w> 349912
oc ol 349896
mil lions</w> 349856
i ef 349848
juc atori</w> 349818
produc t</w> 349661
B ern 349558
cuv inte</w> 349326
rel and</w> 349299
caut a</w> 349262
activ itati</w> 349255
dro p</w> 349204
report ers</w> 349054
oper ating</w> 349018
un it</w> 348783
cho ice</w> 348723
l es 348563
Just ice</w> 348492
pi ece</w> 348453
ac adem 348392
some times</w> 348371
ow ner</w> 348364
razbo i</w> 348307
dor it</w> 348301
abil itate</w> 348277
adv ant 347979
emerg ency</w> 347958
Clu b</w> 347868
sp ot</w> 347637
al itatii</w> 347529
con stat 347516
sl ab 347496
D ol 347382
im prove</w> 347347
uc at</w> 347297
ist ul</w> 347258
l ose</w> 347096
et ed</w> 347042
driv er</w> 347023
5 2</w> 346996
ad ing</w> 346973
reg im 346948
B ir 346848
B ei 346760
after noon</w> 346721
teritor iul</w> 346598
h ost</w> 346537
hold ing</w> 346488
s ute</w> 346446
VIDE O</w> 346397
h a</w> 346269
pro mo 346248
Com mission</w> 346224
spo ke</w> 346168
m ut 346024
proc es</w> 345957
Comis iei</w> 345912
or tul</w> 345900
N av 345844
b om 345843
compl ex 345794
ord ers</w> 345657
add itional</w> 345655
d intr-o</w> 345549
St eve</w> 345470
to ward</w> 345460
l igh 345399
weap ons</w> 345384
con vers 345383
for ta</w> 345249
ab use</w> 345247
S ince</w> 345174
Com mit 345034
A ir</w> 345001
ess ed</w> 344945
ad ea</w> 344892
extr a</w> 344870
biser ica</w> 344855
in ima</w> 344823
al tul</w> 344782
arb it 344768
ot ur 344753
kil ome 344752
san sa</w> 344713
D a</w> 344693
tot ala</w> 344652
p aper</w> 344537
K en 344225
H el 344220
p ed 344188
A ri 344157
pre ci 344103
S port</w> 344035
conf idence</w> 344025
Mi ke</w> 343878
ofer ta</w> 343826
prosec ut 343823
di a</w> 343696
corec t</w> 343637
refug i 343543
io ase</w> 343515
fac es</w> 343462
ul ed</w> 343272
nor th</w> 343228
V ezi</w> 343179
B il 343106
Su pre 343090
z eci</w> 343024
dol lars</w> 342909
id erea</w> 342831
Chic ago</w> 342778
solic it 342733
Ab out</w> 342700
fi ec 342682
see king</w> 342664
C os 342611
co uncil</w> 342583
is es</w> 342488
europ eana</w> 342384
jur id 342327
dev ine</w> 342322
telef on</w> 342320
guil ty</w> 342287
I reland</w> 342240
reven ue</w> 342232
ve dem</w> 342168
sim t</w> 342098
Fin anc 342086
S el 342068
L up 342056
believ es</w> 341875
of eri</w> 341851
o graf 341820
contr a</w> 341802
all - 341797
on ului</w> 341791
hous ing</w> 341742
recun o 341537
noap tea</w> 341528
ing ing</w> 341517
pre - 341477
9 5</w> 341324
Al ba</w> 341285
curen t</w> 341255
throug hout</w> 341231
urm at</w> 341068
Biser ica</w> 341027
och ii</w> 340994
wo uldn</w> 340876
al ism</w> 340874
sur sa</w> 340837
rul e</w> 340756
amen int 340753
Do ar</w> 340673
ad ly</w> 340534
si c</w> 340462
specif ic</w> 340454
Leg ea</w> 340417
enc ies</w> 340296
Av em</w> 340165
Ital y</w> 340080
imag in 340045
fe ar</w> 339998
impr um 339930
Mosco va</w> 339921
e um</w> 339745
ri c</w> 339726
pre st 339713
t om 339706
pre ved 339680
ad o</w> 339609
Suc e 339572
Z iua</w> 339528
L I 339314
P as 339312
cam p</w> 339167
fin ished</w> 339111
J ust</w> 338976
v ill 338823
5 1</w> 338818
z ii</w> 338732
r ata</w> 338724
j e 338629
p ad 338390
H en 338294
ex prim 338262
vorb it</w> 338146
win ner</w> 338039
f it</w> 338015
crow d</w> 338002
el ess</w> 337967
in spect 337956
cr u 337875
soluti i</w> 337851
st oc 337832
semn ific 337822
afir ma</w> 337731
M E 337510
m ei</w> 337481
ament ele</w> 337417
cel elalte</w> 337213
r ying</w> 337187
ou se 337113
con curs</w> 337105
rez ist 337026
j ur</w> 336995
on ica</w> 336976
min or 336907
all er</w> 336828
a uc 336785
instituti i</w> 336577
agr icul 336546
strain atate</w> 336305
wor st</w> 336207
M ot 336185
com b 336066
fi el 335984
E ven 335963
ca ught</w> 335958
f ic</w> 335932
van ia</w> 335841
O ther</w> 335731
mo un 335661
inchis oare</w> 335603
dis pozitie</w> 335568
la unch</w> 335544
r uti 335513
dim ensi 335500
requ ired</w> 335495
ard ed</w> 335444
t un 335430
N . 335403
domest ic</w> 335398
Rom ney</w> 335349
stud ii</w> 335194
ho pes</w> 335188
stri ke</w> 335172
b us</w> 335160
cer tific 335130
part en 335091
olog ice</w> 335085
eng th</w> 335075
F OT 335064
H rist 335062
eng le 335056
ici de</w> 335053
H a 335009
- lea</w> 335002
fin alul</w> 334930
Suce ava</w> 334859
of t</w> 334823
aw are</w> 334810
c ativa</w> 334670
punc tul</w> 334646
er ele</w> 334629
mar riage</w> 334623
conc ep 334522
gir ls</w> 334505
0 6</w> 334249
car ried</w> 334222
T arg 334163
high est</w> 334144
ad or</w> 333987
admit ted</w> 333931
V ar 333865
E chip 333849
w ish</w> 333717
M P</w> 333686
tr ain</w> 333537
Hol lywood</w> 333531
ar m</w> 333377
S P 333282
aj a</w> 333281
m ach 333229
A T</w> 333147
sa- ti</w> 333070
f le 332935
Willi am</w> 332878
gr and 332763
uti ve</w> 332745
rez erv 332734
part i</w> 332686
D aily</w> 332604
cul tura</w> 332578
F e 332554
org an</w> 332432
mer ita</w> 332234
at ile</w> 332102
wh om</w> 332070
pl ays</w> 332032
Ch ir 332003
bro ther</w> 331966
car e- 331941
Des pite</w> 331892
V ide 331776
Bei j 331674
Sy rian</w> 331646
An ul</w> 331613
actu ala</w> 331612
dom n 331465
St udi 331423
av eau</w> 331234
Commit tee</w> 331214
in diferent</w> 331124
el ections</w> 331120
soluti e</w> 331070
ap el 330997
identi f 330973
frum oasa</w> 330928
Serv ice</w> 330922
ow ners</w> 330854
thin king</w> 330745
ov ic</w> 330710
W i 330579
sec retary</w> 330562
scand al</w> 330528
5 4</w> 330499
identi fied</w> 330490
S C</w> 330479
inter pret 330478
Aut or 330470
strateg y</w> 330456
ak es</w> 330400
fem ale</w> 330370
s pl 330331
cal itatea</w> 330295
see ing</w> 330205
al tor</w> 330123
ass ets</w> 330025
exp ect 329827
ex act 329823
cre de</w> 329801
un ion</w> 329592
G ra 329564
2 6 329543
tre n 329530
so are</w> 329519
re bel 329507
descoper it</w> 329503
dom nul</w> 329451
s ev 329414
ro m 329413
capit ala</w> 329378
lid erul</w> 329243
Medi a</w> 329111
he ar</w> 329006
n -a</w> 328829
v or 328775
fiec ar 328598
ag ement</w> 328563
in et</w> 328306
pu r</w> 328248
t end 328246
cam pi 328212
te en 328141
mar cat</w> 328109
and ing</w> 328092
ob vi 328007
rest ul</w> 327920
K el 327702
pic ture</w> 327682
acord at</w> 327656
Tur cia</w> 327525
K er 327468
lu j 327457
se g 327379
C ath 327270
de ep</w> 327233
gre ater</w> 327209
mov ement</w> 327207
ad un 327145
Al l 327005
injur ies</w> 326912
fr uc 326760
ind re 326757
schimb at</w> 326732
u ale</w> 326709
obic ei</w> 326493
benef it</w> 326470
S I 326462
achi ev 326416
ab ord 326304
spe ak</w> 326178
ot i</w> 326126
princi pi 325829
p ack 325705
ect ura</w> 325584
at urile</w> 325557
bo ys</w> 325544
2 7 325538
g ata</w> 325503
aleg eri</w> 325395
la us</w> 325345
Bl ack</w> 325256
dr umul</w> 325192
In c</w> 325064
arm s</w> 325023
beg in</w> 325013
bur gh</w> 324980
ibli ot 324897
studi u</w> 324893
evenim ente</w> 324815
8 00</w> 324642
acest i</w> 324540
B A</w> 324513
pr on 324488
A sh 324413
adaug a</w> 324261
dra w</w> 324249
s uri</w> 324199
perman ent</w> 323996
To day</w> 323968
int elor</w> 323941
Gu vern</w> 323829
aut otur 323687
dec or 323680
concer n</w> 323671
P ow 323664
o ane</w> 323454
us ion</w> 323408
pi ons</w> 323346
sho wing</w> 323318
el eg 323281
struc tur 323045
cultur al</w> 322907
ol es 322870
en ed</w> 322719
respon sible</w> 322717
den um 322710
neg ative</w> 322695
fond uri</w> 322672
po ata</w> 322664
re pl 322527
boo ks</w> 322456
activ ity</w> 322453
Y e 322374
de partment</w> 322319
cras h</w> 322276
R O 322217
fo st 322202
cul ture</w> 322189
th y</w> 322149
iu c</w> 322116
p una</w> 322002
id es</w> 321757
. . 321610
car ora</w> 321441
ing er</w> 321377
on ed</w> 321375
re ality</w> 321340
Pho to</w> 321183
ap pl 321173
F ederal</w> 321092
mid dle</w> 321081
multi ple</w> 321063
concern ed</w> 321055
m s</w> 321018
Europ ei</w> 320987
plan ning</w> 320983
oper ati 320953
Le e</w> 320863
s ort</w> 320822
b ul</w> 320815
il ib 320675
St atele</w> 320597
com un</w> 320571
ad uc 320513
ide ea</w> 320360
int elligence</w> 320223
estim ated</w> 320221
us ually</w> 320211
dec lined</w> 320180
com pens 320150
v acc 320118
Sim ona</w> 319929
5 3</w> 319922
in n 319892
fo ot</w> 319886
medi e</w> 319873
b ing</w> 319868
act ing</w> 319747
d up 319682
psi h 319626
enti re</w> 319420
5 6</w> 319385
þ i</w> 319366
necess ary</w> 319337
rap ort</w> 319257
urm and</w> 319254
c ial</w> 319237
to are</w> 319222
. 00</w> 318887
angaj ati</w> 318729
b on</w> 318710
g old</w> 318686
Un garia</w> 318660
in ov 318410
- based</w> 318395
cont ine</w> 318298
8 5</w> 318292
iv es</w> 318230
d vs.</w> 318219
PD L</w> 318091
amen aj 318052
go l</w> 317979
R yan</w> 317853
0 2</w> 317781
den ied</w> 317767
0 4</w> 317751
d atelor</w> 317743
es sion</w> 317717
even ing</w> 317625
ic op 317591
s h</w> 317584
del oc</w> 317469
Y o 317260
F re 317250
t ic 317243
ati - 317223
Proi ectul</w> 317153
spor ts</w> 317127
soldi ers</w> 316948
Bot h</w> 316924
dou ble</w> 316823
Pro t 316760
s old 316732
ti g 316688
Democr at</w> 316607
concer t</w> 316591
T ay 316588
impl in 316412
ain t</w> 316384
Re al</w> 316339
ul ate</w> 316264
secur itate</w> 316257
veh icle</w> 316187
B I</w> 316179
sho wn</w> 316054
n - 316021
fi f 315932
add ition</w> 315919
spec ific 315847
jo in</w> 315660
inv it 315655
s low 315645
ar ed</w> 315637
R ed</w> 315583
lim ita</w> 315456
ord ul</w> 315388
us ual</w> 315337
D - 315271
istor ie</w> 315221
ur se</w> 315097
Sp ain</w> 315054
K im</w> 315006
M .</w> 314849
appe al</w> 314835
il e 314745
Jack son</w> 314669
8 , 314583
acuz at</w> 314534
ast ep 314509
lim ited</w> 314337
ans wer</w> 314289
C ast 314270
pow erful</w> 314226
ris ing</w> 314157
iz ate</w> 314091
sco p</w> 313959
ul terior</w> 313954
b y 313922
d ului</w> 313821
sof tware</w> 313753
st u 313741
1 1 313705
pro ce 313704
D A</w> 313700
continu es</w> 313700
cont em 313675
produs ele</w> 313635
los ing</w> 313626
El ena</w> 313618
ou gh 313615
ter en 313573
dist anta</w> 313564
we b</w> 313562
concl uz 313536
alleg ations</w> 313525
trebu ia</w> 313457
b it 313387
pro pune</w> 313262
im age</w> 313212
hold ers</w> 313198
A li 313174
fac ing</w> 313066
fe eling</w> 313024
inc erc 313007
ev acu 312986
ne gr 312941
P este</w> 312937
pol ici 312937
k el</w> 312720
rece ive</w> 312643
apar at</w> 312606
Dur ing</w> 312574
ren t</w> 312565
off ers</w> 312401
Hrist os</w> 312318
am an 312237
ut -o</w> 312152
x im</w> 312143
ar en</w> 312133
rezult at</w> 311938
put erea</w> 311921
sid es</w> 311915
ar ian</w> 311896
po por 311852
ch i</w> 311812
R et 311805
Instit ute</w> 311780
ro g</w> 311761
H aw 311706
e ing</w> 311694
N .</w> 311678
ad vers 311642
f um 311613
ol ului</w> 311510
ad m 311469
S ist 311434
B en</w> 311224
om ului</w> 311148
vi itoare</w> 311080
trad ition 310928
Beij ing</w> 310928
s an</w> 310907
me ant</w> 310891
r ich</w> 310836
r um 310835
at atea</w> 310776
vi itorul</w> 310601
ech ilib 310587
influ enta</w> 310565
Mad rid</w> 310563
docum ent</w> 310505
i p</w> 310397
c ďż</w> 310364
art icol</w> 310350
fr ag 310216
ajung a</w> 310174
CE O</w> 310119
to amna</w> 310070
co oper 310029
s y</w> 310028
G O 310022
Th ose</w> 309996
d us 309817
Mar ian</w> 309789
pre vent</w> 309777
ro g 309661
s am 309617
c ities</w> 309563
inc id 309560
ur i 309553
C at</w> 309548
well - 309515
il ed</w> 309453
amb ele</w> 309445
Oam enii</w> 309432
v es 309413
roman ii</w> 309273
Siri a</w> 309067
neces ara</w> 309024
heav y</w> 308982
ch im 308972
coun ter 308809
fac ed</w> 308799
Vin eri</w> 308726
gr ave</w> 308698
sub ject</w> 308678
sho w 308657
Jo e</w> 308616
ti uni</w> 308597
l -am</w> 308570
L at 308568
b ra 308567
car iera</w> 308496
on t</w> 308427
oc am 308317
cen tru</w> 308286
z ic 308226
ow ned</w> 308224
law yer</w> 308193
Wh y</w> 308122
u z</w> 308115
ban ca</w> 307948
N H 307934
societ atea</w> 307910
ath s</w> 307709
mec an 307615
over all</w> 307598
vul ner 307429
lem n</w> 307404
Fi ecare</w> 307335
und ation</w> 307303
pi el 307281
put ting</w> 307101
ing a</w> 307076
Pro cur 307075
invest itii</w> 306992
Ultim a</w> 306934
Ex per 306746
re t</w> 306681
C C 306629
n ed 306608
ent al</w> 306569
situ atii</w> 306543
spati u</w> 306530
Al te</w> 306402
n ist 306385
S ir</w> 306373
polici es</w> 306363
separ ate</w> 306291
star s</w> 306281
an ese</w> 306266
h ur 306179
sti inti 306060
Des pre</w> 306054
inter ior</w> 305923
p sy 305877
inaint ea</w> 305839
St ar</w> 305715
ecti i</w> 305680
rel at 305633
0 3</w> 305629
roc k</w> 305616
priv inta</w> 305615
S um 305607
T ro 305581
vig oare</w> 305568
it er 305501
pen alty</w> 305437
A ti</w> 305417
dr in 305275
inst anta</w> 305151
constitu ie</w> 305148
5 7</w> 305116
B lo 305107
act ual</w> 305054
pro posed</w> 304959
Me an 304915
w all</w> 304895
par k</w> 304861
candid ates</w> 304836
wor l 304778
to urn 304753
referend um</w> 304601
tre aba</w> 304558
spe ed</w> 304538
A par 304505
T ud 304499
susp ect</w> 304466
5 9</w> 304096
jud et 304010
I mi</w> 303980
equ ip 303973
ard ing</w> 303940
cur and</w> 303859
fac eti</w> 303850
dol lar</w> 303848
vari anta</w> 303822
ui este</w> 303746
S c 303712
dis appoint 303644
beg inning</w> 303643
guvern are</w> 303643
s la 303628
To p</w> 303621
W all</w> 303560
fir st- 303533
sc ap 303301
castig a</w> 303277
iz eaza</w> 303271
ectiv ely</w> 303238
R A 303205
lucr arile</w> 303196
edi a</w> 303146
is s</w> 303124
reg ional</w> 303044
s outh</w> 302994
F ond 302917
io asa</w> 302906
construc tion</w> 302878
servici ilor</w> 302868
TV A</w> 302866
rul ing</w> 302833
pre vaz 302737
just ice</w> 302704
Pri mul</w> 302658
pho to</w> 302457
st au</w> 302442
r ab 302440
ti - 302430
ju ca</w> 302422
inregistr are</w> 302407
P ost</w> 302393
a- te</w> 302315
tar get 302281
Bog dan</w> 302264
T ony</w> 302231
d r</w> 302230
ma ker</w> 302193
I P 302047
Bi g</w> 302043
pl eas 302031
al ei</w> 302013
ou d</w> 301972
5 8</w> 301938
ser i 301938
wa it</w> 301929
compan ie</w> 301878
I V</w> 301832
t ack 301822
sen d</w> 301782
Fo re 301744
traf ic</w> 301707
t ext</w> 301492
W om 301470
sp atele</w> 301453
str az 301434
aj ului</w> 301406
fr ustr 301252
com port 301229
par intii</w> 301220
crit ical</w> 301208
doc tors</w> 301194
pre lung 301109
Sor in</w> 301109
gre en</w> 301081
analiz a</w> 301067
Br u 301050
af is 300979
vre i</w> 300969
F ord</w> 300925
spati ul</w> 300890
mark eting</w> 300835
legisl ation</w> 300717
p ush</w> 300681
unt at</w> 300621
t .</w> 300473
de part 300342
v ille</w> 300327
event ually</w> 300287
m -a</w> 300247
comerc iale</w> 300165
ho t</w> 299870
Bar cel 299785
Flor in</w> 299631
re form</w> 299615
f ug 299604
cam ere</w> 299591
st area</w> 299558
del iver 299477
Y et</w> 299457
cont ext</w> 299393
becom ing</w> 299381
flo or</w> 299276
financ iar</w> 299263
ent at</w> 299241
dis covered</w> 299202
loc ala</w> 299146
p ick</w> 299080
ast ro 299056
Parlament ul</w> 298990
In d 298914
ic ile</w> 298888
d intr-un</w> 298812
f enom 298785
P lo 298758
C ab 298712
t ext 298697
D on</w> 298633
L iver 298614
S C 298603
mis sion 298599
deoseb it</w> 298574
Gre en</w> 298557
le ag 298467
rel ev 298422
es cap 298409
inc et 298264
m ing 298216
stat ements</w> 298194
stop ped</w> 298184
oc cas 298145
auth or</w> 298139
writ ing</w> 298135
mot or 298053
c ina</w> 298051
sen z 298000
syst ems</w> 297997
s ďż</w> 297934
bro ke</w> 297916
at itud 297903
arti st</w> 297899
mas sive</w> 297898
now led 297896
tran spar 297832
car ti</w> 297781
atri bu 297754
ad res 297669
F em 297545
ceil alti</w> 297542
bo x 297532
Pr intre</w> 297442
Conn ection</w> 297413
comerc i 297388
H ere</w> 297315
at en</w> 297224
quest ion 297191
at u</w> 297163
M an</w> 297000
Ar sen 296957
tor ii</w> 296943
sp ate</w> 296912
regl ement 296864
ind ca</w> 296802
s luj 296750
pro - 296644
lung ul</w> 296641
ed om</w> 296638
C ub 296631
A i</w> 296567
e- mail</w> 296554
audi ence</w> 296510
ind a</w> 296502
d am</w> 296478
cle arly</w> 296471
ag ent</w> 296453
ac um 296299
fem in 296281
P R</w> 296264
aff ected</w> 296205
coll ap 296191
recog n 296186
olog ical</w> 296144
aff ic</w> 296127
O f 296114
im ente</w> 296113
d ubl 296101
mes aj</w> 296101
op h 296000
fol low</w> 295976
sa- mi</w> 295914
Liv iu</w> 295827
.com .</w> 295733
aliz ata</w> 295711
com anda</w> 295579
Brit anie</w> 295553
dang erous</w> 295462
s atul</w> 295414
adev ar</w> 295413
D I 295397
Com mun 295366
t ei</w> 295349
comput er</w> 295342
of fering</w> 295329
i orul</w> 295299
Afr ican</w> 295272
consum ers</w> 295268
hav en</w> 295245
S ub 295065
tor i</w> 295040
hel ping</w> 294974
t one</w> 294967
primar y</w> 294926
T ec 294916
an nel</w> 294885
if ic</w> 294768
tw ice</w> 294647
susp ici 294618
fot b 294617
inter es</w> 294613
re par 294606
f us 294588
G ri 294576
ast s</w> 294434
Pr ince</w> 294429
ore le</w> 294314
charac ter</w> 294309
Mean while</w> 294273
Vir gin 294267
re n</w> 294107
R ed 294076
commit ted</w> 294061
fac ult 293947
el ed</w> 293907
w earing</w> 293772
FOT O</w> 293688
Ministr ul</w> 293637
B ay</w> 293628
realiz area</w> 293517
in struc 293485
cam pion 293460
transm is</w> 293438
et te</w> 293378
b ought</w> 293362
sho p</w> 293278
environ ment</w> 293262
se at</w> 293229
mon d</w> 293157
sprij inul</w> 293119
ig i</w> 293096
b rain</w> 292937
roman easca</w> 292829
ic il 292786
at e 292723
manag ed</w> 292656
intre prind 292629
ot ed</w> 292602
B la 292556
car uia</w> 292539
trans fer</w> 292479
kno ws</w> 292477
p h</w> 292451
n atura</w> 292375
ac her</w> 292359
f aza</w> 292228
gu vern</w> 292179
Isra eli</w> 292178
bac ked</w> 292114
g ura</w> 291981
SR L</w> 291981
t elling</w> 291928
r at</w> 291922
d rea</w> 291907
M I</w> 291897
a us 291862
K laus</w> 291775
difer enta</w> 291763
sfar sit</w> 291759
col lege</w> 291737
ap propri 291728
The ir</w> 291619
A r</w> 291614
program s</w> 291364
apl ica</w> 291327
ed itie</w> 291322
trat ament</w> 291312
as king</w> 291025
societ ate</w> 290995
St at</w> 290946
ar my</w> 290734
giv es</w> 290654
bl ed</w> 290586
ic u</w> 290526
B ow 290466
Hal ep</w> 290447
conduc ere</w> 290444
S of 290377
pro gress</w> 290200
ut h</w> 290175
h i</w> 290147
to m</w> 290131
Fo x</w> 290085
liv ed</w> 290047
D er 289926
di viz 289908
sig ns</w> 289842
ey es</w> 289742
ativ ely</w> 289721
car ry</w> 289694
ex ten 289668
fel low</w> 289665
er iu</w> 289660
E C 289541
Can ad 289453
S us 289339
b s</w> 289330
ur at</w> 289279
port ing</w> 289227
re member</w> 289063
quar ter 289040
ar unc 288984
D iv 288983
expl os 288973
numero ase</w> 288960
de- al</w> 288838
lip s 288815
- un</w> 288787
re y</w> 288784
struc k</w> 288763
s ov 288617
vic tim</w> 288597
appear ance</w> 288570
dez vol 288569
jud etului</w> 288549
un ce</w> 288546
d atele</w> 288461
ent y</w> 288444
to do 288335
w ise</w> 288301
sched uled</w> 288225
Liver pool</w> 288141
ack nowled 288133
fi red</w> 287987
i et</w> 287945
p am 287821
gre at 287810
pion ship</w> 287629
New s 287595
F I 287581
O fici 287563
cham pion</w> 287495
w ed 287427
Drag nea</w> 287357
ti va</w> 287356
meas ure</w> 287356
propri u</w> 287295
Span ia</w> 287170
rup tion</w> 287111
t am 287082
lear n</w> 287066
s unteti</w> 286952
mo artea</w> 286919
wa iting</w> 286916
cop ilul</w> 286911
rid ica</w> 286810
folos ite</w> 286744
6 6</w> 286674
St el 286650
societ y</w> 286648
mort g 286579
campa ig 286517
transm ite</w> 286510
II I</w> 286474
O r</w> 286394
complet ely</w> 286287
ad ar</w> 286212
t il 286149
post - 286147
mar ried</w> 286139
K ore 286097
shar ed</w> 286042
eff ective</w> 286039
co ordon 285986
elev i</w> 285981
realiz ate</w> 285976
commer cial</w> 285975
la h</w> 285971
differ ence</w> 285961
tre ated</w> 285785
ra ine</w> 285770
est ul</w> 285762
Universit atii</w> 285607
stati st 285604
increas ingly</w> 285591
O prea</w> 285588
ad d</w> 285572
ra ising</w> 285569
o pri 285565
le g</w> 285529
O sc 285444
kilome tri</w> 285407
In st 285359
g ath 285304
ed ing</w> 285244
sur ger 285109
sect orul</w> 285054
no ted</w> 285050
trebu it</w> 285042
el ului</w> 285035
subl in 285005
keep ing</w> 284949
A gr 284936
g ay</w> 284761
u at</w> 284652
f uel</w> 284647
s li 284520
develop ed</w> 284509
su d 284478
Ac t</w> 284454
E li 284316
ap ar</w> 284293
con solid 284274
sc ale</w> 284138
H igh</w> 284090
rema ined</w> 284082
barb ati</w> 284042
fi u</w> 284032
natur ale</w> 284029
dest ro 284024
tin erii</w> 284013
P av 283947
con venti 283901
ore s</w> 283853
scaz ut</w> 283753
am id</w> 283599
asp ect</w> 283549
co sta</w> 283513
tre z 283511
bur g</w> 283453
lu x 283313
Acest ea</w> 283238
scre en</w> 283226
us et 283193
vin ov 283150
ub le</w> 283139
D istr 283085
Con fer 283079
Rus iei</w> 283060
my self</w> 282914
C ot 282908
Mur ray</w> 282730
surv ey</w> 282693
sez on</w> 282633
obi ectiv 282519
ex cel 282425
pri ma 282401
str a</w> 282252
pro jects</w> 282250
sc ore</w> 282212
if y</w> 282209
M y 282181
stre ets</w> 282167
lin ist 282105
z i 282062
ey e</w> 282012
ect are</w> 282011
Pop escu</w> 281958
Pro duc 281950
high ly</w> 281900
cap ul</w> 281707
incal z 281695
w est 281648
ev in</w> 281545
H osp 281529
Sun tem</w> 281457
Bac au</w> 281426
m in</w> 281300
of - 281293
end ers</w> 281236
demis ia</w> 281164
Rob er 281100
qu al 280995
exist enta</w> 280903
aleg e</w> 280899
z ice</w> 280801
Program ul</w> 280792
k - 280770
B ra 280762
reas ons</w> 280740
ti par 280735
ev id 280717
ty pe</w> 280492
Mus lim</w> 280482
Resear ch</w> 280409
pay ing</w> 280356
fas hion</w> 280352
Bel g 280327
p es 280323
partid ului</w> 280284
as ez 280283
en ia</w> 280268
am i 280245
d aily</w> 280239
C ir 280191
ref used</w> 280064
club ul</w> 280044
cheltui el 279974
win do 279819
s he 279752
Virgin ia</w> 279723
H ome</w> 279622
vot uri</w> 279584
p i</w> 279573
cul oare</w> 279476
fi m</w> 279377
Clu j 279312
Chi ef</w> 279307
advant age</w> 279282
vol un 279095
st ro 279080
polit ie</w> 279055
d é 279031
sur ro 279002
mun icip 278980
n ership</w> 278974
fo c</w> 278912
larg ely</w> 278891
doub t</w> 278877
2 4 278808
ch urch</w> 278795
air port</w> 278680
fil ed</w> 278635
j unc 278614
langu age</w> 278577
O s 278509
r y 278406
acti unile</w> 278331
prepar ed</w> 278311
p at</w> 278280
inc as 278280
vac anta</w> 278223
ste ad</w> 278180
stor m</w> 278164
regul ar</w> 278157
A BC</w> 278153
h an 278117
ris ks</w> 278082
su por 277959
re pre 277922
st iri</w> 277845
R og 277733
at entie</w> 277636
profes sional</w> 277616
Supre me</w> 277595
Bus iness</w> 277508
ment in 277484
P M</w> 277475
long- term</w> 277465
H ill</w> 277457
preg n 277452
lar y</w> 277302
S he 277293
Bul garia</w> 277229
V it 277163
holid ay</w> 277151
vot at</w> 277091
am end 276979
y ards</w> 276950
In treb 276932
st one</w> 276924
er am</w> 276893
it es</w> 276865
auz it</w> 276821
iz ol 276765
est ate</w> 276664
v is</w> 276637
S au</w> 276628
exact ly</w> 276393
wat ching</w> 276349
Indi an</w> 276245
qu art 276239
di z 276199
circum st 276181
ol ve</w> 276130
loc ului</w> 276101
S om 276086
organiz area</w> 275879
c aci</w> 275869
T y 275849
foc used</w> 275750
G et 275619
ear nings</w> 275597
gener ation</w> 275561
inc olo</w> 275497
veh icles</w> 275415
iv e- 275406
produs elor</w> 275354
fiz ice</w> 275284
asist enta</w> 275259
Tur key</w> 275251
olog ic</w> 275218
articol ul</w> 275204
ed itia</w> 275134
reco very</w> 275132
o as 275095
Gr and</w> 275093
ir a</w> 275063
int oc 275013
v ada</w> 275004
ici an</w> 274957
D od 274948
it ului</w> 274800
moldov en 274711
iv ing</w> 274651
hold s</w> 274595
sup ply</w> 274512
6 4</w> 274508
il la</w> 274491
ure aza</w> 274453
at torney</w> 274386
Mr s</w> 274376
opin ia</w> 274269
prim - 274227
spokes woman</w> 274130
L O 274123
M erc 274083
lin ked</w> 274055
sufici ent</w> 274045
step s</w> 273986
ag ul</w> 273956
enti ei</w> 273948
R em 273919
war ning</w> 273870
l ands</w> 273866
St ad 273846
in aug 273784
H all</w> 273755
pr intr-o</w> 273711
subst anti 273595
d ans</w> 273585
ar ies</w> 273494
Mon di 273474
l ess 273399
folos este</w> 273288
o ste</w> 273270
respon sibility</w> 273177
stat us</w> 273155
proced ura</w> 273098
curs uri</w> 273090
pr actic</w> 273001
Mic ros 272949
Ital ian</w> 272935
ar ab 272892
k g</w> 272843
il legal</w> 272842
rol l</w> 272834
Rom ane</w> 272816
V or 272809
lim in 272809
in son</w> 272671
def ence</w> 272608
5 ,000</w> 272607
sci ence</w> 272536
con ver 272473
prot ectie</w> 272446
Mar ius</w> 272354
us ive</w> 272325
sufer it</w> 272311
N ig 272307
plac ut</w> 272220
conc uren 272219
in con 272174
Char les</w> 272062
Dez volt 272062
record s</w> 272008
desfas oara</w> 271927
sem i 271925
mij lo 271905
Q a 271870
produc ed</w> 271844
gr ab 271714
Bo ston</w> 271560
ocam data</w> 271504
n os 271478
fort un 271450
p o</w> 271359
In depend 271306
h ouse 271244
ag ree</w> 271181
J am 271089
tehn ica</w> 271051
am inte</w> 270979
dig ital</w> 270764
tra it</w> 270742
spec ul 270624
so tia</w> 270619
mar tur 270494
a- l</w> 270470
air craft</w> 270443
ic ilor</w> 270406
assa ult</w> 270363
mul tor</w> 270339
Co ast</w> 270221
san ge</w> 270202
7 00</w> 270199
lu ate</w> 270105
il ian</w> 270054
d i</w> 270011
fres h</w> 269989
un os 269948
Barcel ona</w> 269946
ord ered</w> 269944
on ice</w> 269919
ti unea</w> 269814
b ed 269773
ig an</w> 269722
conduc e</w> 269660
parti de</w> 269621
imag ini</w> 269605
wor se</w> 269604
pen sion 269568
w ind 269553
isc o</w> 269553
promis e</w> 269501
eng ine 269409
vo ice</w> 269380
gu ar 269370
frum oase</w> 269335
Que en</w> 269334
Compan ia</w> 269312
el em 269302
docum ents</w> 269266
govern or</w> 269228
festiv al</w> 269224
A pro 269137
Ph one</w> 269121
co v 269060
direc tly</w> 269050
k et 269030
u ala</w> 269028
dis crimin 269018
un eori</w> 269008
most ly</w> 268998
199 0</w> 268871
im entul</w> 268806
ter ri 268733
iet y</w> 268733
defic it</w> 268594
o red</w> 268586
ord ine</w> 268479
le -au</w> 268453
fam ous</w> 268425
a b</w> 268381
exper t</w> 268332
de pus</w> 268278
n ames</w> 268202
G las 268197
b ic 268173
rel or</w> 268024
J .</w> 267995
T em 267956
c uc 267948
ar ate</w> 267780
P C</w> 267752
Soci al</w> 267627
bl ock</w> 267483
b ia</w> 267433
ar rest</w> 267404
R on 267395
co c 267376
az e</w> 267352
tin er 267267
sum e</w> 267255
op pon 267157
elev ii</w> 267107
stor ies</w> 267091
d ad</w> 267090
e ala</w> 267074
st anga</w> 267059
J on 267029
Ar my</w> 267024
intreb ari</w> 266998
protest s</w> 266938
E ra</w> 266922
ul are</w> 266922
dor inta</w> 266908
au za</w> 266820
Olym pic</w> 266777
ai de</w> 266762
Carol ina</w> 266726
rec ep 266682
inc ap 266673
parlament are</w> 266593
7 2</w> 266567
acti v</w> 266562
as cun 266531
tr affic</w> 266471
sk y</w> 266446
expl ica</w> 266442
Bi ro 266423
de z</w> 266384
ap rec 266348
if t</w> 266334
In tre</w> 266333
cetat enilor</w> 266063
Inspect or 265980
R as 265924
por n 265918
an on 265907
consum er</w> 265885
i esti</w> 265873
el and</w> 265872
ex - 265806
pen si 265749
cer erea</w> 265668
m ol 265655
c ist 265655
prezent i</w> 265630
subi ect</w> 265554
it ei</w> 265550
e tic</w> 265513
imag es</w> 265496
at ac</w> 265459
car i</w> 265431
pol l</w> 265265
if f</w> 265263
spe aking</w> 265237
cetat enii</w> 265192
discuti i</w> 265129
low - 265100
ul ting</w> 265097
St .</w> 265082
fri end 265058
var ious</w> 265009
dist inc 264996
199 9</w> 264937
T E 264867
et elor</w> 264849
pro be</w> 264803
re tel 264798
bal ance</w> 264770
pri me 264744
gro w</w> 264698
Eur o</w> 264640
de but</w> 264638
em an</w> 264625
parti da</w> 264559
av i 264555
ath an</w> 264532
veg et 264532
bas is</w> 264483
fi er 264480
tax es</w> 264474
Direc tor</w> 264432
succ es 264354
s oc 264208
viol ent</w> 264188
corpor ate</w> 264186
Uk raine</w> 264184
tre ss</w> 264138
priet eni</w> 264132
consider at</w> 264129
re put 264095
f un</w> 264087
des emn 263975
buc at 263968
4 9 263940
vie wed</w> 263930
it ch 263914
v al</w> 263857
S itu 263807
fab r 263799
up on</w> 263779
As sad</w> 263755
rap ort 263725
G ol 263684
mon um 263675
apro bat</w> 263607
sp ot 263590
F und 263577
form e</w> 263552
d are</w> 263437
p ain</w> 263430
mid - 263384
U p 263312
Le w 263297
. ro 263250
p is 263236
pen sion</w> 263232
ho l</w> 263226
f are</w> 263215
D ate</w> 263168
procur orii</w> 263109
ear ga</w> 263007
cit at</w> 263006
n el 262976
ig ii</w> 262935
in at</w> 262932
sco s</w> 262832
cam er 262769
an ual</w> 262722
cont ent</w> 262684
R ol 262617
te at 262617
prof essor</w> 262445
5 0 262323
B N 262306
J urn 262244
sour ces</w> 262209
lu ata</w> 262199
is land</w> 262194
vit eza</w> 262165
A h 262135
ang er</w> 262055
Ever y 262048
ex change</w> 262008
car eia</w> 261999
decis ions</w> 261994
leag ues</w> 261927
bo w 261913
int ilor</w> 261878
immigr ation</w> 261791
fail ure</w> 261764
ev it 261748
el er 261726
set ting</w> 261649
Associ ated</w> 261648
P RE 261617
det ine</w> 261603
Tel egr 261505
ori ent 261475
2 9 261465
Micros oft</w> 261419
ar iile</w> 261318
itor ului</w> 261271
Ad am</w> 261220
ampl as 261177
health y</w> 261170
est er</w> 261136
loc k</w> 261129
C erc 261121
su m</w> 261109
en - 261079
de aths</w> 261040
h air</w> 261029
i ans</w> 261021
int il 260998
aver tiz 260942
mat es</w> 260926
writ er</w> 260900
exem pl 260883
re i</w> 260842
meci uri</w> 260776
ma xim</w> 260732
pro sp 260668
confer inta</w> 260637
fin ish</w> 260626
Val ent 260596
ofer ite</w> 260555
utiliz ator</w> 260470
intr area</w> 260467
it ali 260393
f ive- 260376
ap ei</w> 260315
surger y</w> 260315
Col eg 260106
ent elor</w> 260087
Vide o</w> 259991
efici enta</w> 259988
h o</w> 259973
em y</w> 259970
m int 259918
c ata</w> 259890
ev ident</w> 259857
Jap anese</w> 259853
popul atiei</w> 259840
ta ined</w> 259674
c ati</w> 259621
m ie</w> 259604
absol ut</w> 259562
Col lege</w> 259556
accoun ts</w> 259539
tr ust</w> 259483
arh it 259363
titl ul</w> 259356
tre ia</w> 259339
m em 259225
s fer 259205
kno w 259205
buc ura</w> 259066
manufac tur 259055
l ying</w> 258984
autor itatilor</w> 258937
int ai</w> 258874
polit istii</w> 258845
L id 258790
ed ed</w> 258778
cap tain</w> 258726
L ar 258620
im pozit 258547
ir ing</w> 258508
p us 258479
ud ed</w> 258479
e v</w> 258476
ap ara</w> 258452
p amant</w> 258429
nor thern</w> 258413
st ands</w> 258392
atur ii</w> 258386
so und</w> 258341
function eaza</w> 258301
Pro blem 258282
blo g 258275
S O 258263
bro ken</w> 258242
gi ant</w> 258210
fin ding</w> 258156
o ul</w> 258119
cli ent</w> 258096
ed at</w> 258091
ti une</w> 258020
ag en</w> 257977
soci ala</w> 257910
z ei</w> 257898
neigh bor 257871
program me</w> 257774
activ itatii</w> 257750
ital ului</w> 257732
coment arii</w> 257714
re tin 257704
gra v</w> 257703
Tri bun 257687
second - 257647
J ack</w> 257457
eur open 257431
Dom nului</w> 257414
tourn ament</w> 257391
st ret 257387
We b</w> 257370
ju de 257359
sublin iat</w> 257308
cetat eni</w> 257256
bug et</w> 257177
com fort 257172
P I 257161
acc ept</w> 257138
cit ing</w> 257108
est s</w> 257075
Ira q 257065
Christ ian</w> 257059
P atri 257046
report ing</w> 257042
analy sts</w> 256952
B M 256949
sch eme</w> 256834
Sh er 256826
v enta</w> 256808
do m</w> 256704
st im</w> 256633
stand ards</w> 256594
K enn 256590
bo ost</w> 256581
oc ked</w> 256564
finant are</w> 256517
gre ut 256471
Dom nul</w> 256450
disc utat</w> 256276
res ources</w> 256261
suprav eg 256261
ma ine</w> 256231
Tay lor</w> 256103
est a</w> 256090
C he 256060
dim in 256016
broad cast 255992
A C</w> 255977
bo dies</w> 255949
Ban ca</w> 255871
near by</w> 255834
se f 255829
sp al 255812
four - 255804
pl ati</w> 255781
adv ice</w> 255758
see k</w> 255754
min im</w> 255726
ib ile</w> 255710
N at 255561
00 ,000</w> 255561
mer g</w> 255534
increas ing</w> 255501
op tions</w> 255496
decl ara</w> 255451
ro oms</w> 255422
t el</w> 255377
s -o</w> 255365
igh tly</w> 255319
ar at</w> 255280
th r 255234
conserv ative</w> 255196
198 9</w> 255180
her self</w> 255173
per icol</w> 255141
Asoci atia</w> 255135
Hot el</w> 255133
lic it 255090
L ic 255026
our ce</w> 254935
i res</w> 254903
Fore ign</w> 254865
in ian</w> 254828
iti ilor</w> 254768
A N</w> 254761
ell es</w> 254752
we ar</w> 254637
pre vede</w> 254623
lucr at</w> 254570
scienti sts</w> 254552
L aw 254521
sc orul</w> 254481
uti e</w> 254395
D ou 254324
1 ,000</w> 254074
quart ers</w> 254030
S pr 253925
drep turile</w> 253891
id ei</w> 253737
car ti 253729
del iv 253560
electr ic</w> 253546
at atii</w> 253541
sou thern</w> 253470
K evin</w> 253354
resp ectiva</w> 253352
organiz ation</w> 253350
expl ained</w> 253317
Georg ia</w> 253297
emb ar 253270
be auti 253266
efectu ate</w> 253210
fal se</w> 253167
pre s</w> 253153
univers ity</w> 253147
Dumit ru</w> 253142
pl astic</w> 253118
Ar t</w> 253058
b ane</w> 253036
T reas 252993
st ag 252962
riv al</w> 252957
west ern</w> 252915
n . 252909
A fac 252905
iz ia</w> 252857
2 50</w> 252844
pl atit</w> 252823
preg atit</w> 252811
lo an</w> 252753
6 7</w> 252717
ist ica</w> 252699
ten si 252699
at ever</w> 252683
CF R</w> 252591
bir th</w> 252584
el ected</w> 252544
conduc t</w> 252533
alleg edly</w> 252528
W el 252469
leg it 252452
coal ition</w> 252448
inv ata</w> 252420
z iar 252405
it ara</w> 252396
activ ities</w> 252305
tit ud 252278
Liber al</w> 252261
dov ada</w> 252248
s pread</w> 252234
test s</w> 252073
rezult atul</w> 252049
Un ul</w> 252026
e ului</w> 252024
sing urul</w> 251985
pi ed 251979
acord a</w> 251952
ind em 251951
pul led</w> 251887
Z il 251850
firm s</w> 251809
sc or</w> 251682
P rez 251678
m ate</w> 251633
Mer kel</w> 251622
perform anta</w> 251503
ajun g</w> 251469
dev ina</w> 251444
passen gers</w> 251425
du c</w> 251390
phys ical</w> 251262
discuti e</w> 251247
constr uit</w> 251199
k in</w> 251113
suggest s</w> 251106
gu y</w> 250983
a ďż</w> 250839
e ast</w> 250662
do b 250632
altern ative</w> 250612
m m</w> 250600
st ap 250597
re venit</w> 250594
r ag 250517
alt ceva</w> 250510
fi indca</w> 250471
Ze al 250432
post ul</w> 250360
medi c</w> 250211
Un der</w> 250084
defe at</w> 250072
li der</w> 250022
tan ar</w> 249964
industri al</w> 249958
re alitate</w> 249928
ofici ala</w> 249886
un itati</w> 249882
colabor are</w> 249876
Steph en</w> 249861
P S</w> 249849
roman ilor</w> 249838
N ad 249816
provid ing</w> 249813
ul ly</w> 249792
lo b 249736
autom ob 249722
ur ban</w> 249678
f la 249643
anter ior</w> 249639
In stead</w> 249608
d il 249550
chec k</w> 249497
perm is</w> 249458
solic itat</w> 249341
prezent ate</w> 249306
de pres 249298
pret uri</w> 249284
pri son 249270
ap p</w> 249197
Gr up 249175
politici ans</w> 249125
fif th</w> 249118
eff ects</w> 249093
uti a</w> 249048
t ent 248968
propos al</w> 248964
C ant 248899
an k</w> 248846
influ ence</w> 248826
invat amant</w> 248793
mar ca</w> 248789
serv ing</w> 248785
op tion</w> 248756
reg ime</w> 248742
pozit ii</w> 248719
sho ts</w> 248697
Nor thern</w> 248638
B anc 248611
cl ar 248509
6 2</w> 248468
relat eaza</w> 248457
c m</w> 248405
im igr 248399
m ant 248393
los ses</w> 248313
photo graph 248313
mas s</w> 248306
av ion</w> 248218
par ca</w> 248200
Bec ali</w> 248196
distr ict</w> 248195
f ish</w> 248193
prof ile</w> 248185
second s</w> 248185
Fac ult 248164
astept at</w> 248081
T at 248064
c ents</w> 248002
Th ree</w> 248002
N as 247908
g os 247902
approv ed</w> 247644
vot es</w> 247610
dif uz 247595
S f</w> 247559
y es</w> 247548
Re prezent 247547
Ro ad</w> 247521
pro vo 247484
Rez ult 247471
Pro b 247453
I ran 247438
B at 247428
announc ement</w> 247415
devel op</w> 247404
gu ys</w> 247392
adver ti 247371
il li 247319
am est 247300
T ig 247258
Cont ent- 247220
feme ile</w> 247219
er up 247183
or ile</w> 247177
anti c</w> 247172
copil ului</w> 247135
e or 247133
Premi erul</w> 247129
n ature</w> 247103
M ures</w> 247096
Content- L 247055
Nu mai</w> 247052
l ets</w> 247020
I g 246981
adv oc 246972
t ation</w> 246880
protest ers</w> 246877
fe atures</w> 246851
shar e 246844
V om</w> 246838
inc ul 246817
k ill</w> 246705
Z iarul</w> 246692
P ublic</w> 246646
dev ast 246642
Ar gent 246614
ph ones</w> 246486
C iv 246462
ver de</w> 246433
ger man 246406
cred inta</w> 246394
S ig 246336
k ins</w> 246327
T im</w> 246266
P ers 246250
sim pl 246246
par liament</w> 246198
s int 246003
guvern ament 245991
N S 245942
dr ama</w> 245931
M organ</w> 245911
b io 245894
. C.</w> 245751
pa int 245726
f ice</w> 245697
pen al</w> 245622
Y ou 245599
Au thor 245545
afl ate</w> 245541
sec ure</w> 245520
ic ului</w> 245419
Sup er</w> 245400
im ea</w> 245349
Hosp ital</w> 245349
j i 245327
sug gest</w> 245278
gest ion 245276
pu si</w> 245160
Po st 245139
pre limin 245082
squ ad</w> 245038
c ain 245031
gre w</w> 244996
discus s</w> 244939
Sw ed 244906
L ord</w> 244880
br a</w> 244861
T i 244829
tain ment</w> 244755
allow ing</w> 244721
Fo stul</w> 244709
Har ry</w> 244657
s ã 244575
B ab 244474
E ug 244468
M S</w> 244422
inregistr ate</w> 244418
amb ul 244374
N ick</w> 244366
dom icil 244312
D am 244259
Mi ercuri</w> 244246
ther ap 244226
may be</w> 244146
loc al 244130
a ero 244104
n or</w> 244102
L A</w> 244053
cre di 244033
Braz il</w> 244016
ber t</w> 243961
and er</w> 243947
ag gres 243928
Distr ict</w> 243908
po p 243887
6 8</w> 243875
Capit ala</w> 243847
pl ine</w> 243843
pr int 243834
re ver 243790
pier de</w> 243763
Gu ar 243762
club ului</w> 243696
rug am</w> 243579
citiz ens</w> 243577
televiz iune</w> 243561
pun erea</w> 243525
6 3</w> 243503
per e</w> 243428
T H 243426
B uz 243365
expen sive</w> 243327
o gr 243274
Bl ack 243249
r ile</w> 243066
G ard 243059
o uri</w> 243052
T est</w> 242979
Gre ece</w> 242930
ar ma</w> 242914
v ice</w> 242891
tal ent</w> 242777
vorb este</w> 242727
F al 242690
person ale</w> 242677
we alth</w> 242642
ut ely</w> 242634
ong side</w> 242539
sp ring</w> 242513
B E 242406
Luc r 242363
lo ans</w> 242307
O ver</w> 242265
G rig 242228
fair s</w> 242184
as ing</w> 242175
docum ente</w> 242165
me th 241991
con form 241948
och i</w> 241927
e for 241905
r ilor</w> 241897
d ers</w> 241868
w illing</w> 241865
adev arata</w> 241863
bur y</w> 241849
t es 241767
posib ila</w> 241660
an ia</w> 241635
to x 241634
anim al</w> 241617
Parti dul</w> 241612
produc tie</w> 241601
l abor 241590
sur ve 241583
sit ting</w> 241508
grat uit</w> 241496
rul ed</w> 241495
Hil lary</w> 241477
E s 241439
inch iri 241430
n ica</w> 241389
N ord</w> 241386
ach ers</w> 241230
sp una</w> 241213
reta il</w> 241062
bo ala</w> 241061
Li ke</w> 241054
ter rit 240986
drag oste</w> 240952
bre aking</w> 240837
V is 240771
fall ing</w> 240750
f ast 240625
Dav is</w> 240590
Aust ria</w> 240529
de ven 240528
cas ator 240392
ou ts</w> 240375
st il</w> 240333
ol ic</w> 240321
sl et 240263
per icul 240248
promis ed</w> 240233
prov inc 240222
trans mis 240192
ag enda</w> 240154
bu ying</w> 240136
hosp it 240102
B U 240088
C ru 240085
un likely</w> 240052
recunos cut</w> 240052
ger man</w> 240051
f requ 239970
com mod 239960
autor iz 239905
s en</w> 239895
Trans il 239875
chang ing</w> 239783
fl at</w> 239714
7 7</w> 239660
fin ance</w> 239654
requ est</w> 239648
R AT 239558
ar ily</w> 239542
ag ra</w> 239495
juc ator</w> 239457
initi ativa</w> 239402
guvern ul</w> 239388
L ife</w> 239212
fac tor</w> 239205
d ori</w> 239125
prot ection</w> 239107
car rying</w> 239085
c lip 239081
ir y</w> 239048
situ at</w> 238987
big ger</w> 238919
l av 238856
do gs</w> 238842
dar k</w> 238818
nem ultum 238815
drept ate</w> 238811
resp ective</w> 238809
Or ic 238795
Cerc et 238754
S ud 238683
reta il 238678
surpri se</w> 238624
Mis s</w> 238569
provid es</w> 238561
Publ icat</w> 238559
u pe</w> 238550
on in</w> 238544
e at</w> 238491
milit are</w> 238445
sh ir 238429
declar ed</w> 238414
6 1</w> 238409
g ama</w> 238405
inde x</w> 238302
equip ment</w> 238294
low ing</w> 238293
D im 238278
im part 238245
Egy pt</w> 238221
acc eler 238198
i ther</w> 238179
at are</w> 238155
supliment are</w> 238084
M ob 238083
2 3 238079
.ro .</w> 238079
intel ig 238028
tre ilea</w> 237992
m ale</w> 237901
vorb im</w> 237852
N ations</w> 237817
itu de</w> 237778
Pl ay 237770
fl ex 237747
ta ins</w> 237707
san se</w> 237697
angaj at</w> 237669
maxim a</w> 237603
l ights</w> 237599
N ast 237565
m inte</w> 237561
pati ent</w> 237558
struc tura</w> 237524
in alta</w> 237511
intele g</w> 237480
y ard</w> 237473
El ectr 237465
grad u 237378
aliment are</w> 237377
ess ing</w> 237314
a f</w> 237261
Energ y</w> 237243
firm ei</w> 237228
ic ed</w> 237225
ist ice</w> 237180
eff ici 237136
commun ities</w> 237042
l ast 236979
refuz at</w> 236974
relig ious</w> 236946
car di 236928
viz ion 236855
favo ur 236844
del iver</w> 236836
coleg ii</w> 236750
anc ing</w> 236706
urmat oare</w> 236696
gar ant 236690
in al</w> 236621
Tud or</w> 236582
curs ului</w> 236569
exist ing</w> 236492
um s</w> 236486
a .m.</w> 236466
F el 236421
campan ie</w> 236405
inter nationala</w> 236366
f is 236348
h urt</w> 236260
B os 236250
B ut 236187
sim pla</w> 236184
sec ret 236170
Ap r</w> 236147
MP s</w> 236133
ocup at</w> 236123
in su 236121
pay ments</w> 236119
ag encies</w> 236101
amb as 236096
sp r 236025
s ond 236022
j ail</w> 236017
k ne 235946
le -am</w> 235927
A L</w> 235916
F ree</w> 235858
en i 235832
partici pan 235828
terror ism</w> 235827
sc um 235778
cont extul</w> 235773
ex tin 235743
Kore an</w> 235736
Echip a</w> 235696
antren or</w> 235682
per cep 235668
maxim um</w> 235611
desfasur at</w> 235473
tel e 235369
famil ii</w> 235346
j un 235337
elector al</w> 235320
st ores</w> 235288
S T</w> 235256
mij locul</w> 235221
sm aller</w> 235215
prof it 235182
ast ea</w> 235094
F BI</w> 235077
Cam p 235069
int ensi 235053
Zeal and</w> 235048
nation s</w> 235046
cal ea</w> 235027
N im 235013
in apoi</w> 234990
B et 234963
C BS</w> 234887
Port ug 234785
reduc erea</w> 234778
H ou 234733
ak ers</w> 234637
jo ur 234615
cercet are</w> 234587
Mid dle</w> 234500
vanz are</w> 234416
gr y</w> 234404
Tal ib 234399
C y 234361
sev ere</w> 234346
or at</w> 234326
m p</w> 234311
S em 234275
caz ut</w> 234238
d ac 234237
lov ed</w> 234218
sist er</w> 234160
ci uda</w> 234146
H igh 234101
Su d</w> 234047
pres ence</w> 233976
aliz a</w> 233976
i Phone</w> 233915
apar itia</w> 233892
num ara</w> 233885
com and 233841
po l</w> 233778
Wh it 233762
ul ted</w> 233750
roman e</w> 233638
sufl etul</w> 233632
rema ining</w> 233521
s ong</w> 233520
Ju dec 233440
A D</w> 233387
l ich 233379
in alt</w> 233302
in ilor</w> 233292
extrem ely</w> 233265
prom p 233241
control ul</w> 233236
B ag 233167
forc ement</w> 233159
av ans 233111
su icide</w> 232994
ing - 232971
V iz 232967
G T 232962
7 1</w> 232929
I stor 232912
h asn</w> 232883
ick ets</w> 232875
þ a</w> 232845
f e</w> 232833
199 8</w> 232802
cont act 232700
organiz ate</w> 232695
report edly</w> 232652
speci ala</w> 232644
G az 232623
N i 232616
Par ch 232606
t elor</w> 232600
Tot i</w> 232592
it ari</w> 232565
unc er 232552
g ain</w> 232536
victor ie</w> 232457
read ing</w> 232425
u k 232360
ch ir 232314
mon di 232306
critic ism</w> 232297
tar ul</w> 232292
Arsen al</w> 232247
U N</w> 232198
Gre at</w> 232137
Sen .</w> 232137
regul a</w> 232045
w ard 232013
w ins</w> 231990
putern ica</w> 231975
Am bas 231886
z z 231872
St ill</w> 231795
rad i 231700
occ up 231696
car bon</w> 231694
I .</w> 231676
S ov 231673
br inging</w> 231623
propri a</w> 231448
prof ilul</w> 231318
Ber lin</w> 231294
Glo bal</w> 231274
princip ala</w> 231258
glo b 231254
I ts</w> 231238
b ate</w> 231160
in al 231159
D ow 231092
m area</w> 231047
al ongside</w> 231001
k ic 230975
introduc ed</w> 230930
todo x 230928
lov it</w> 230857
rel atii</w> 230825
disc ut 230779
int ors</w> 230770
de al 230697
individu als</w> 230604
med icii</w> 230590
contrib uted</w> 230549
S af 230517
C upa</w> 230504
Bec ause</w> 230450
recom anda</w> 230449
AT E</w> 230401
r uc 230356
pil ot</w> 230345
r ural</w> 230320
ion ale</w> 230304
guar ant 230284
cover age</w> 230235
pre f 230211
Ex ter 230171
sent ence</w> 230164
alist ilor</w> 230139
bl ue</w> 230135
ash ed</w> 230101
T ir 230084
jur y</w> 229976
photo s</w> 229975
si - 229974
mis s</w> 229972
er al</w> 229962
Cap italei</w> 229929
Nap oca</w> 229926
inter im 229874
pres ents</w> 229868
Financ ial</w> 229821
cli entilor</w> 229775
s ong 229760
up dated</w> 229746
urg ed</w> 229724
govern ments</w> 229718
McC ain</w> 229674
su perio 229629
benef icia</w> 229584
inter iorul</w> 229571
appropri ate</w> 229535
sing er</w> 229436
asigur ari</w> 229358
Mon t 229338
est - 229324
sc ape</w> 229278
challeng es</w> 229275
terror ist</w> 229236
Yo ung</w> 229212
fo under</w> 229175
l o</w> 229135
In iti 229126
pro mot 229120
ros u</w> 229096
F L</w> 229064
v s</w> 229050
min un 229032
r . 229014
nast ere</w> 228987
K ur 228935
Tr av 228933
Lond ra</w> 228931
Ad el 228925
develop ing</w> 228920
negoti ations</w> 228918
P A</w> 228854
bu st 228820
inv ent 228804
s ought</w> 228800
p et</w> 228733
degre e</w> 228721
mom ente</w> 228695
fronti era</w> 228671
smar t 228638
San atatii</w> 228632
B O 228626
Franc isco</w> 228508
Ur g 228485
r on 228455
ad mir 228449
Bru x 228434
For mer</w> 228425
w ind</w> 228409
tehn ice</w> 228365
Ed iting</w> 228355
sl ightly</w> 228352
soluti on</w> 228297
istor ic</w> 228254
D .</w> 228247
F isc 228200
J ord 228166
s indic 228139
Mat t</w> 228042
t ul 228028
speci alist</w> 228020
pici oare</w> 228019
ful l- 227990
fap tului</w> 227985
cli entii</w> 227926
complet ed</w> 227920
Princ ip 227874
che ie</w> 227847
acel a</w> 227839
y right</w> 227735
Pac ific</w> 227689
ui asca</w> 227586
am in 227545
On line</w> 227539
S it 227534
cu it</w> 227493
pan el</w> 227485
instituti ile</w> 227410
fi re 227396
ris c</w> 227391
interest s</w> 227354
b aut 227325
tur ning</w> 227323
pic tures</w> 227322
bot tom</w> 227271
col leagues</w> 227262
cap tion</w> 227241
O hi 227235
6 9</w> 227188
Pol itia</w> 227187
mar ii</w> 227168
Soci et 227153
gaz d 227146
H y 227106
ez ii</w> 227072
gr as 227056
S ome 226960
tur n 226955
un able</w> 226945
imag inea</w> 226868
Que ens 226804
expres sed</w> 226803
opportun ities</w> 226783
C A</w> 226757
sper anta</w> 226749
des c 226646
petrec ut</w> 226641
u k</w> 226607
v est</w> 226584
W ill</w> 226522
sp iri 226504
convic ted</w> 226383
conf ident</w> 226359
tat al</w> 226333
T it 226328
conv ins</w> 226285
contin utul</w> 226245
A ma 226239
achiz ition 226129
z ic</w> 226117
coll ection</w> 226103
co s</w> 226094
rel ations</w> 226090
gu id 226031
sett l 226010
NE T</w> 225975
pi esa</w> 225966
lung a</w> 225931
inteleg e</w> 225835
m earga</w> 225829
si bly</w> 225824
jo int</w> 225811
oc cur 225806
sc rut 225778
as es</w> 225747
A M</w> 225696
ef ect</w> 225660
fem eia</w> 225649
Lab or</w> 225642
happen s</w> 225599
D oam 225557
strugg ling</w> 225530
interes ul</w> 225504
continu at</w> 225502
pic ked</w> 225500
young er</w> 225470
bri ef 225429
col on 225358
Is land</w> 225314
aliz ed</w> 225260
comunic are</w> 225198
J as 225147
F ort 225129
c up 225072
gu ard</w> 225064
Talib an</w> 224998
S ap 224967
mat ches</w> 224951
inform atiile</w> 224941
cre area</w> 224939
plat easca</w> 224896
D ob 224879
lim it 224825
pro gres 224739
gaz e</w> 224738
ing h 224705
Ed in 224682
it ch</w> 224636
lar ger</w> 224607
club s</w> 224588
grup ul</w> 224544
profes or</w> 224517
intaln it</w> 224488
te ze</w> 224305
ad oles 224242
Cap ital</w> 224191
star ts</w> 224183
ang ers</w> 224168
Con tro 224162
dec line</w> 224142
Tran spor 224081
hous es</w> 224068
Wh o</w> 224065
par ere</w> 224049
o portun 224039
rup t</w> 223996
carac ter</w> 223958
ond s</w> 223944
s low</w> 223943
n es</w> 223910
7 3</w> 223904
polit ici</w> 223869
co ast</w> 223830
Jo urn 223778
elem ente</w> 223745
en th 223719
condamn at</w> 223717
f eder 223691
Parti dului</w> 223676
efectu at</w> 223668
vot ed</w> 223640
O rig 223612
UR I</w> 223612
intreb are</w> 223610
bos s</w> 223564
di ab 223552
Un ii</w> 223526
Ohi o</w> 223510
in k 223508
scol i</w> 223479
contro versi 223462
cre w</w> 223438
par inti</w> 223433
ish ment</w> 223366
he at</w> 223355
ap el</w> 223319
U L</w> 223315
mo arte</w> 223254
or ies</w> 223211
tan ara</w> 223193
pi ese</w> 223138
determin ed</w> 223132
GO P</w> 223099
re moved</w> 223030
Lew is</w> 223020
re tinut</w> 222998
H ong</w> 222989
zon ele</w> 222916
lo ts</w> 222911
re min 222906
studi es</w> 222846
C az 222823
s ets</w> 222767
ab on 222681
lear ned</w> 222632
ef ully</w> 222611
d ans 222607
ed itor</w> 222585
inv atat</w> 222566
Vas lui</w> 222551
disc uta</w> 222454
intenti on 222442
st om 222438
sc a 222432
te am 222424
fol osi</w> 222423
Maj or 222413
poz itiv</w> 222398
sanc tions</w> 222392
An th 222368
wal king</w> 222285
ad ei</w> 222278
st ea</w> 222274
prom is</w> 222229
emerg ed</w> 222174
pur su 222158
grup ului</w> 222158
Ye ar</w> 222089
inter viu</w> 222062
L um 222046
r icul 222007
en ie</w> 221950
corup tie</w> 221933
pr intr-un</w> 221923
head s</w> 221921
h its</w> 221919
cor rec 221911
trec ute</w> 221902
w inter</w> 221898
S N 221872
incer ca</w> 221818
im per 221760
fi ul</w> 221716
new slet 221687
Queens land</w> 221654
O ri 221609
L az 221587
Pol itiei</w> 221557
doc tor 221549
bom b</w> 221547
zer o</w> 221504
pe dep 221482
rasp und 221470
Instit utul</w> 221452
ic ale</w> 221442
a g</w> 221405
specif ice</w> 221405
met oda</w> 221401
In ca</w> 221335
G ir 221284
de als</w> 221232
bl ing</w> 221214
prima vara</w> 221127
milit ants</w> 221126
A R</w> 221118
cre ating</w> 221113
astept am</w> 221041
solic ita</w> 221009
þ ii</w> 221000
z ab 220995
S am</w> 220957
contem por 220934
no ului</w> 220911
em ul</w> 220907
A ra 220901
hal f- 220898
Ac tiv 220884
i ate</w> 220882
- to- 220814
program ului</w> 220797
anch et 220786
tim pului</w> 220779
p up 220760
acc id 220710
i -am</w> 220695
ex pan 220694
it ale</w> 220664
ad er 220574
or ase</w> 220534
Span ish</w> 220519
spiri t</w> 220507
res ig 220494
NH S</w> 220458
ho p</w> 220438
cre z 220361
cli enti</w> 220361
b le 220357
Cod ul</w> 220277
J enn 220263
Sa udi</w> 220253
popul atia</w> 220227
minim um</w> 220166
wr ite</w> 220138
Educ atiei</w> 220087
c ore</w> 220053
termin at</w> 219928
loc alitatea</w> 219912
loc ation</w> 219770
Ci ol 219738
n esses</w> 219707
Cat alin</w> 219706
Pro c 219702
Ser g 219696
intaln ire</w> 219686
U drea</w> 219681
en ess</w> 219670
pen ala</w> 219619
p ui</w> 219558
d ai</w> 219544
behav i 219520
af ford</w> 219510
sti inta</w> 219436
ti ilor</w> 219418
intreb at</w> 219358
Ag ency</w> 219342
ri ve</w> 219311
ho ping</w> 219281
Par liament</w> 219230
requ ire</w> 219157
am az 219100
a w</w> 219065
tou ch</w> 219026
Plo iesti</w> 218952
for d 218881
em en</w> 218878
N ich 218851
Acest ia</w> 218844
A - 218826
Canad ian</w> 218817
L igii</w> 218783
ri de</w> 218780
film s</w> 218710
organiz ata</w> 218706
J oc 218661
G ov 218648
po p</w> 218646
stri kes</w> 218635
oluti on</w> 218626
ad er</w> 218620
it ems</w> 218560
op pos 218532
r ati 218486
b or</w> 218486
emo tional</w> 218447
es ia</w> 218394
ion ului</w> 218371
acti unea</w> 218362
form s</w> 218342
anim als</w> 218301
lin k</w> 218282
ord inea</w> 218251
P ra 218248
Ar m 218157
reas ca</w> 218149
ol i</w> 218143
ins ula</w> 218128
ect or</w> 218035
surv iv 218032
rel atie</w> 218027
v i</w> 218024
infl ation</w> 217953
vol unt 217928
W ol 217926
ul ei</w> 217918
B ay 217909
s inc 217853
G od</w> 217827
polit isti</w> 217761
fl ori</w> 217621
fin als</w> 217617
For ce</w> 217564
in nov 217513
presup une</w> 217407
clos er</w> 217393
declar atii</w> 217365
financi ara</w> 217362
p ir 217334
S E</w> 217256
incur aj 217245
a o</w> 217228
el op 217205
venit uri</w> 217164
Vor onin</w> 217138
potenti ally</w> 217121
t ur</w> 217086
electr onic</w> 217059
atmos fera</w> 216970
t ells</w> 216914
reg iunea</w> 216886
St atul</w> 216686
desfas ura</w> 216656
leg ale</w> 216642
In cep 216595
stu ff</w> 216584
pag ub 216576
IS IS</w> 216574
mag istr 216502
sez onul</w> 216479
expect ations</w> 216271
put ine</w> 216248
T AG 216200
red us</w> 216135
capac ity</w> 216126
br on 216124
driv en</w> 216092
legit im 216079
Sim on</w> 216024
analy sis</w> 216012
al lies</w> 216008
ear ned</w> 215999
Oc tombrie</w> 215967
analy st</w> 215965
B est</w> 215954
e o</w> 215917
cor ner</w> 215907
suf fering</w> 215817
D o</w> 215788
e igh 215786
establ ished</w> 215786
im par 215766
Edin burgh</w> 215733
sh el 215599
suf let</w> 215593
c old</w> 215589
ab us 215569
dis play</w> 215564
Val eriu</w> 215540
rel atia</w> 215521
ter ap 215505
spectac ol</w> 215502
hand ed</w> 215472
eas ily</w> 215468
7 4</w> 215460
H ay 215453
oper a</w> 215445
ector ului</w> 215441
strateg ic</w> 215439
h ed</w> 215414
B ris 215327
recog niz 215321
comfort able</w> 215253
E d</w> 215187
beauti ful</w> 215156
const ant</w> 215110
al ã</w> 215105
fe es</w> 215068
appar ently</w> 214981
jude t</w> 214975
ad es 214860
reg iune</w> 214858
construc tii</w> 214826
gener ala</w> 214796
se as</w> 214763
agr am</w> 214732
vot ul</w> 214718
ins ot 214676
1 2- 214674
acord ul</w> 214664
cuno ast 214654
Vol k 214641
memb re</w> 214618
ure a</w> 214609
fin ale</w> 214598
N oua</w> 214528
mod ele</w> 214487
exist at</w> 214475
list ed</w> 214458
tro uble</w> 214457
support ed</w> 214421
pl enty</w> 214415
se ats</w> 214336
re di 214320
ra id</w> 214145
D ub 214141
é e</w> 214135
J im</w> 214131
Iraq i</w> 214059
dez e</w> 214055
ul l</w> 214044
so - 214037
led ge</w> 214025
acti e</w> 213979
ore aza</w> 213917
se es</w> 213851
cal cul</w> 213848
199 7</w> 213840
rez er 213817
S lov 213801
F ed</w> 213783
D ist 213746
m u 213737
tax a</w> 213732
ris h</w> 213680
mes aje</w> 213624
i ata</w> 213610
S qu 213609
ris ca</w> 213608
record ed</w> 213585
gr ad</w> 213580
resc ue</w> 213517
desch ide</w> 213507
Bo c</w> 213372
Anth ony</w> 213370
driv ers</w> 213322
we ak 213315
electr ica</w> 213281
m ita</w> 213268
fab ric 213267
M ah 213254
gol uri</w> 213217
Re porting</w> 213188
municipi ului</w> 213113
de plo 213095
P u 213080
art icle</w> 213061
Z I 213027
s and 213008
Pr o</w> 212975
O k 212943
cuprin de</w> 212893
D M</w> 212883
Ser vices</w> 212868
moldov eni</w> 212850
streng th</w> 212843
tr ig 212817
K ong</w> 212807
fisc ale</w> 212771
Afgh an</w> 212751
introduc eti</w> 212706
Cor por 212701
diag no 212699
us ul</w> 212681
contro vers 212675
A sigur 212648
Cur ierul</w> 212641
8 7</w> 212583
Mosco w</w> 212532
law yers</w> 212530
cit eva</w> 212525
head ed</w> 212516
ofici ale</w> 212498
cuc er 212493
k id 212451
argu ed</w> 212439
de e 212434
or ia</w> 212425
Ag entia</w> 212422
yo ur 212401
resp ond</w> 212394
f ly</w> 212338
f ears</w> 212314
. A.</w> 212313
G ames</w> 212311
Con sum 212308
inch is</w> 212181
ap olog 212159
K ir 212084
veh icul 212040
it elor</w> 212014
in are</w> 211989
T R 211980
sem n</w> 211967
dis pus</w> 211949
electr ic 211825
utiliz area</w> 211817
ord on</w> 211783
qu es</w> 211780
cunos c</w> 211757
Ac tu 211645
U. N.</w> 211580
fe els</w> 211565
D ut 211520
um ane</w> 211479
cle an</w> 211476
priet enii</w> 211468
deter mine</w> 211444
din am 211443
aleg erea</w> 211439
CS M</w> 211378
bol nav 211327
Pol onia</w> 211321
C H 211307
rasp unde</w> 211293
vis itors</w> 211286
Rom ana</w> 211271
at - 211163
vorb esc</w> 211140
opin ion</w> 211074
S un</w> 211071
fe ature</w> 211058
ca - 211040
Ear th</w> 211019
compet itive</w> 211007
Vre i</w> 210895
ep ing</w> 210864
r ally</w> 210850
incen di 210804
al lows</w> 210782
at ata</w> 210733
argum ent</w> 210726
ect area</w> 210720
uz a</w> 210706
el ele</w> 210688
ic eanu</w> 210655
seri ously</w> 210609
buil dings</w> 210549
anch eta</w> 210539
trim it 210537
J ef 210536
sp unea</w> 210527
famil iar</w> 210523
8 9</w> 210507
fin dings</w> 210446
lo t 210444
8 8</w> 210427
al og</w> 210403
ac ul</w> 210382
tur al</w> 210296
lucr arilor</w> 210287
inc ad 210266
trim ite</w> 210154
refer itoare</w> 210146
sch i</w> 210106
20 - 210064
el ement 210055
interest ed</w> 210040
S eb 209993
est ru</w> 209986
continu ing</w> 209972
vre un</w> 209957
blo g</w> 209954
speci alitate</w> 209946
p ie</w> 209936
bo at</w> 209934
gr aba</w> 209921
Primar iei</w> 209803
fil led</w> 209801
prob a</w> 209796
po unds</w> 209786
lim it</w> 209784
sac ri 209778
s ons</w> 209757
progr ame</w> 209752
F R 209713
Mar k 209713
p ics</w> 209619
impre sion 209578
In a 209572
oric ar 209566
st ers</w> 209547
fiz ica</w> 209537
z ed</w> 209531
Kel ly</w> 209467
man ip 209466
ph y</w> 209419
p our</w> 209397
apropi erea</w> 209383
deput y</w> 209342
ap s</w> 209314
Be fore</w> 209309
cel ei</w> 209298
c ell</w> 209271
abil ities</w> 209243
ram ana</w> 209241
tre at</w> 209237
A mon 209225
munc ii</w> 209223
experi enced</w> 209209
00 .000</w> 209081
al led</w> 209077
minist ers</w> 209066
sim ti</w> 209044
ation ale</w> 209024
Man agement</w> 209023
le- ati</w> 208962
Con tr 208951
ban king</w> 208924
efici ent</w> 208850
No ul</w> 208767
d wide</w> 208746
s man</w> 208601
Wom en</w> 208583
ili p</w> 208541
dra wn</w> 208483
imbr ac 208463
americ ane</w> 208456
dep inde</w> 208429
S in 208379
reg im</w> 208343
sho pping</w> 208324
author ity</w> 208303
of it 208254
hel ps</w> 208252
7 8</w> 208210
Ce ea</w> 208187
cumpar a</w> 208176
en ului</w> 208083
olog ica</w> 208067
gr and</w> 208045
pat h</w> 208010
man ast 208003
gas esc</w> 207996
L uni</w> 207977
h un 207884
enjo y</w> 207820
qu ick</w> 207759
M emb 207752
I l</w> 207735
L ev 207682
NS W</w> 207652
car tea</w> 207635
n -au</w> 207544
reduc ed</w> 207527
premi era</w> 207507
z e 207491
push ed</w> 207465
p ond 207464
cor ruption</w> 207406
re quest 207357
d ress</w> 207313
approv al</w> 207300
ran iti</w> 207144
Tu be</w> 207115
joc uri</w> 207108
vill age</w> 207028
An dy</w> 206970
constat at</w> 206926
sen sul</w> 206920
I R 206860
de vices</w> 206837
a- ti</w> 206814
tar ilor</w> 206745
fi x</w> 206712
Sco ala</w> 206695
7 6</w> 206694
exper iment 206678
absol utely</w> 206678
commit ment</w> 206655
inqu iry</w> 206549
ti an</w> 206524
ant ic 206498
ar rang 206494
intr ucat</w> 206468
tol er 206386
Servici ul</w> 206365
. ...</w> 206354
fr ica</w> 206277
S av 206248
f ica</w> 206233
im pied 206170
Com m 206133
On ce</w> 206129
pos sibility</w> 206087
rel atively</w> 206077
id ere</w> 206070
acel easi</w> 206047
mag n 206028
il ului</w> 206009
ten a</w> 205998
fre edom</w> 205985
char ity</w> 205959
H u 205944
M ail</w> 205896
contract ului</w> 205845
di alog 205834
n unta</w> 205804
Ara b</w> 205727
cumpar at</w> 205704
law makers</w> 205604
pt on</w> 205603
1 20</w> 205566
sel s</w> 205526
Cham pions</w> 205448
martur is 205397
V eg 205387
sc oring</w> 205308
ven ue</w> 205238
F ab 205237
tel ec 205213
reli ef</w> 205186
liber t 205185
or ie</w> 205120
imbunat ati 205087
ap h</w> 205054
z ie</w> 205018
G il 204971
ne ur 204964
con sequ 204896
calific at</w> 204884
feric ire</w> 204725
ar iul</w> 204724
m ile</w> 204709
confirm at</w> 204674
pl ang 204657
cri mes</w> 204623
man n</w> 204619
sk in</w> 204594
deliv ered</w> 204591
com mission</w> 204581
wid ely</w> 204565
Direc tiei</w> 204549
On ly</w> 204533
construc tie</w> 204519
capac itatea</w> 204473
wal ked</w> 204402
Jer sey</w> 204401
schimb are</w> 204393
pow ers</w> 204300
Un a</w> 204241
afl ati</w> 204179
Ciol os</w> 204161
ov ici</w> 204144
ba g</w> 204143
S how</w> 204112
S ept</w> 204107
engle za</w> 204084
cover ing</w> 204064
app ing</w> 204025
lid erii</w> 204025
Fo undation</w> 204010
the - 204005
i dic</w> 203945
locu itori</w> 203942
prof its</w> 203940
sim bol 203891
Exter ne</w> 203878
exter ne</w> 203849
15 - 203831
T our</w> 203764
al li 203751
wor ried</w> 203747
T un 203745
il i</w> 203738
fil me</w> 203689
F MI</w> 203679
cre a</w> 203643
evid enta</w> 203606
arm ata</w> 203598
S ea</w> 203593
m - 203581
ro z 203568
vre m</w> 203543
4 0 203524
lum in 203494
ma in 203491
franc ez</w> 203407
func tii</w> 203396
educ atie</w> 203302
doved it</w> 203252
an z 203213
tin ere</w> 203208
Mi ami</w> 203175
Amon g</w> 203075
ing redi 203069
a . 203028
C J</w> 202975
than ks</w> 202965
rev ista</w> 202949
com bat 202892
mil ion</w> 202822
obtin ute</w> 202778
bac ter 202763
tip uri</w> 202700
con teaza</w> 202697
threaten ed</w> 202686
go w</w> 202682
mean ing</w> 202667
Fo to</w> 202658
Bris bane</w> 202646
1 3. 202618
disponib ile</w> 202535
ab les</w> 202518
Stad ium</w> 202314
Cam era</w> 202307
re jected</w> 202282
fac tors</w> 202207
pro ud</w> 202205
Content-L ength</w> 202171
T O 202065
te acher</w> 202023
immedi ate</w> 201998
S pre</w> 201965
mand at</w> 201927
vir tu 201921
suprav iet 201916
ide al</w> 201898
ect at</w> 201850
ar elor</w> 201834
controversi al</w> 201823
c ã 201804
Wil son</w> 201768
en forcement</w> 201753
folos esc</w> 201727
no p 201688
w arm 201676
sub si 201607
sar cina</w> 201574
iz ata</w> 201561
bo y 201527
suspend ed</w> 201494
int ended</w> 201483
Lou is</w> 201407
contr acte</w> 201384
an elor</w> 201367
gos po 201358
G ul 201343
er e 201341
ad uc</w> 201327
3 5 201315
Ne am 201315
Even imentul</w> 201210
nu- si</w> 201188
titl u</w> 201174
centr ala</w> 201162
de ad 201150
dram atic</w> 201102
it -o</w> 201097
Tim e</w> 201091
8 3</w> 201057
A A</w> 201035
gand it</w> 201021
premi erului</w> 201008
dic t 200991
tre nd</w> 200985
a eri 200944
cy cl 200944
I rish</w> 200807
in loc 200776
Treas ury</w> 200711
Te at 200651
dev ice</w> 200611
ar c 200565
TAG URI</w> 200378
S arb 200359
N ot 200348
L y 200311
id er</w> 200310
Sf antul</w> 200296
on ey</w> 200262
um ului</w> 200262
consider ing</w> 200259
ther e 200250
A F</w> 200244
in fer 200220
susp ected</w> 200218
sc ul 200196
on going</w> 200171
le aves</w> 200158
Br ad 200116
tr o</w> 200079
Brux elles</w> 200079
vo ie</w> 200046
mor ti</w> 199997
Pop a</w> 199976
Dec lar 199930
Ang ela</w> 199887
to w 199840
S S</w> 199814
T e</w> 199774
acc esul</w> 199744
desch isa</w> 199717
n r. 199678
min utul</w> 199667
Fran k 199661
c inst 199659
In de 199598
conduc ted</w> 199498
re pri 199452
dep ist 199415
ne -au</w> 199393
Centr e</w> 199390
v ast</w> 199389
Ed itia</w> 199385
199 6</w> 199358
curren cy</w> 199358
europen i</w> 199355
insist ed</w> 199340
Prof es 199327
Reg ul 199318
com it 199247
2 2 199239
sur prin 199221
Mat the 199204
grap h</w> 199167
u v 199137
cruc ial</w> 199132
Bo b</w> 199129
ar ing</w> 199120
uc k 199096
sk ills</w> 199093
P E 199052
en ko</w> 199030
strain i</w> 198996
Med ical</w> 198956
f an 198902
H un 198900
An gl 198871
bo und</w> 198722
reti re 198692
re b 198684
Tur k 198655
P O 198562
pos sibly</w> 198522
cer ere</w> 198522
O vi 198454
car ne</w> 198429
res ist 198416
ministr ului</w> 198412
cal dura</w> 198347
lans area</w> 198339
wat ched</w> 198297
extre me</w> 198290
barb atul</w> 198283
K ate</w> 198211
F ot 198197
bl es</w> 198164
le f 198129
aj ute</w> 198099
alco hol</w> 198080
ad uca</w> 198076
D E</w> 198058
il led</w> 198055
C S</w> 198021
Or ice</w> 198008
respond ed</w> 197989
ur ca</w> 197981
mis s 197980
do g 197961
ie v</w> 197941
associ ated</w> 197905
sur s 197893
diag nos 197875
instituti ei</w> 197833
gr ava</w> 197821
sh ut 197812
liber al</w> 197785
de aza</w> 197766
Palest inian</w> 197716
wel come</w> 197707
satis fac 197692
cuno aste</w> 197601
lo y 197587
un ica</w> 197555
er son</w> 197544
8 6</w> 197508
Inst agram</w> 197458
M iller</w> 197427
at re</w> 197357
af ecti 197347
antren orul</w> 197293
inv ins</w> 197282
pl ece</w> 197279
ot h</w> 197250
trai esc</w> 197233
mortg age</w> 197225
coun ts</w> 197206
psy ch 197177
M and 197158
un employment</w> 197145
G or 197111
pas ag 197070
P ur 197053
ro s</w> 197003
tr ic 196988
om a</w> 196975
Blu e</w> 196953
an x 196924
prez inte</w> 196858
z ap 196857
b es</w> 196820
aw ard</w> 196820
loc ated</w> 196810
Dec embrie</w> 196792
Glas gow</w> 196773
prevaz ute</w> 196771
joc ul</w> 196749
r ub 196719
B a 196663
contract ul</w> 196636
pres ei</w> 196573
8 2</w> 196546
In don 196525
dis pune</w> 196515
infrastruc ture</w> 196511
abil i</w> 196508
Har v 196442
w er 196440
pit ch</w> 196424
risc ul</w> 196417
uni que</w> 196403
ide as</w> 196374
tin erilor</w> 196341
F ara</w> 196336
n az 196309
persp ectiva</w> 196309
p c</w> 196302
po und</w> 196300
Bot os 196244
initi ally</w> 196224
civ iliz 196193
mi -am</w> 196181
folos irea</w> 196173
anim ale</w> 196136
cut ting</w> 196129
eg o</w> 196072
R io</w> 196053
Pe tru</w> 196046
equ ity</w> 196046
n ie</w> 195974
sustin erea</w> 195965
pat h 195942
part ners</w> 195890
II I 195881
viz u 195879
de asupra</w> 195867
Sp eci 195823
an ei</w> 195799
att acked</w> 195778
direc tion</w> 195767
test ing</w> 195757
ac tress</w> 195724
tre aca</w> 195615
ch ances</w> 195598
rel atiile</w> 195581
D M 195559
inter pre 195540
PRE S</w> 195536
in scris</w> 195532
Ear lier</w> 195524
ren a</w> 195492
econom ie</w> 195442
Mar y</w> 195393
al er 195357
in locu 195336
cho ose</w> 195319
cal end 195302
at edly</w> 195277
Vre au</w> 195266
independ ence</w> 195264
Jo i</w> 195258
co f 195252
coresp unz 195187
Iul ia</w> 195164
occur red</w> 195146
c ells</w> 195141
medic ala</w> 195136
ar at 195135
rec ession</w> 195105
apropi at</w> 195100
ecti ei</w> 195088
per mis 195086
scur ta</w> 195073
tr uth</w> 195067
abil itatea</w> 195057
prosecut ors</w> 195057
n -am</w> 194996
Telegr aph</w> 194979
Coment arii</w> 194975
E ric</w> 194959
20 20</w> 194923
Inter ne</w> 194920
L et</w> 194901
reprezent anti</w> 194894
uti onal</w> 194888
forec ast</w> 194843
met al</w> 194827
pol ls</w> 194823
ocaz ie</w> 194816
lu x</w> 194782
shi ft</w> 194734
al a 194728
Mon dial</w> 194716
B rian</w> 194673
e astern</w> 194662
A sian</w> 194634
W ell</w> 194628
Con gres 194621
op er</w> 194618
crit ics</w> 194610
se where</w> 194599
N ASA</w> 194598
leg i</w> 194594
busin ess 194578
inter ne</w> 194560
pr int</w> 194545
des per 194526
t al</w> 194500
pic tured</w> 194499
ir ilor</w> 194498
b loc</w> 194461
ru sa</w> 194427
aliz ari</w> 194398
Andre ea</w> 194375
e ating</w> 194337
A stra</w> 194296
ed r 194190
hum an 194161
p ical</w> 194144
fond ul</w> 194113
ma d</w> 194112
mag hi 194111
sle ep</w> 194109
ser ios</w> 194055
imp us</w> 194049
ol va</w> 194019
ter y</w> 193979
Y our</w> 193956
interim ar</w> 193945
re te 193937
St and 193896
te achers</w> 193884
S per</w> 193862
cli ents</w> 193846
ib ila</w> 193797
ic ã</w> 193789
ab uz 193780
present ed</w> 193760
Al b 193730
af er 193707
electr ice</w> 193692
2 1 193651
propri i</w> 193631
deciz ii</w> 193615
Fran k</w> 193591
R i 193562
a it</w> 193521
br ut 193497
ou red</w> 193472
S hi 193469
Dac ia</w> 193460
aleg erilor</w> 193452
prov ed</w> 193451
definit ely</w> 193444
roug h</w> 193413
ad ul 193379
Con struc 193377
Sp ec 193359
absol v 193342
Ama z 193261
involv ing</w> 193244
Osc ar</w> 193244
ret ro 193220
199 5</w> 193194
concre te</w> 193141
om en 193140
distr ug 193139
Val ley</w> 193132
ent ered</w> 193119
tr ain 193097
pen ale</w> 193096
Festiv al</w> 193082
Ser bia</w> 193050
Ari zona</w> 193015
di vers 193009
vot ing</w> 192959
Cred it</w> 192928
B on 192921
av eam</w> 192846
i fied</w> 192839
rug by</w> 192770
priv at</w> 192769
tou ch 192705
po f 192675
L .</w> 192664
Volk sw 192631
---- ---- 192615
em ar 192578
pr ile 192571
ed - 192564
su pre 192531
8 4</w> 192521
ther wise</w> 192520
roug h 192515
eas ier</w> 192459
t ile</w> 192456
accep ta</w> 192456
Log in</w> 192407
tro ubl 192393
accept at</w> 192351
wil d 192312
pos itions</w> 192257
et ica</w> 192140
spor tiv 192140
cont ul</w> 192119
A vi 192102
s ection</w> 192078
preciz eaza</w> 192050
econom ia</w> 192048
Lib ya</w> 192038
C et 192037
F ur 192029
tar gets</w> 191964
att end</w> 191956
y o</w> 191923
improv ed</w> 191909
know ledge</w> 191891
t ex 191883
T ag 191877
1- 0</w> 191842
gener ally</w> 191835
re r</w> 191832
all ing</w> 191817
jur idic</w> 191797
Em il</w> 191750
car ui</w> 191743
lib era</w> 191738
disput e</w> 191726
ar mon 191715
Be ach</w> 191707
m inc 191699
N Y 191671
cur sa</w> 191636
y i 191632
ment ine</w> 191601
C ad 191579
de pozit 191543
ect ro 191520
E t 191506
dif ici 191498
Cluj - 191497
liber tate</w> 191453
d ut 191430
In v 191428
N eg 191426
G ordon</w> 191419
opri t</w> 191417
your self</w> 191382
wh atever</w> 191371
respect a</w> 191284
bat r 191229
negr u</w> 191140
Pl an 191093
al ties</w> 191004
h ang 190970
pl imb 190921
municipi ul</w> 190894
O x 190862
p ain 190859
schimb area</w> 190836
pro st</w> 190819
caut are</w> 190793
att ended</w> 190759
apropi ere</w> 190759
t act 190754
doz en</w> 190735
speci alisti</w> 190730
Lup u</w> 190730
aim ed</w> 190721
00 - 190714
volun te 190713
P ot 190705
ad ults</w> 190695
simil are</w> 190679
pi et 190597
Con s 190589
PC RM</w> 190571
acti va</w> 190551
Jud ge</w> 190519
Agr icul 190462
sum mit</w> 190454
asem an 190431
pre scri 190408
com une</w> 190392
environ mental</w> 190361
s ang 190300
indust ria</w> 190288
ter enul</w> 190274
messa ges</w> 190262
adop tat</w> 190249
inc or 190220
ur ing</w> 190145
AG ER 190128
ram an</w> 190099
G A 190051
fel ic 190050
public ly</w> 190045
in ului</w> 190044
h ai</w> 190043
fall en</w> 189935
mov es</w> 189918
con gres 189915
Volksw agen</w> 189875
Get ty</w> 189832
al alta</w> 189815
un ic</w> 189811
Ind ust 189792
C up 189781
aut y</w> 189765
tab lo 189759
reg as 189723
apart ment</w> 189696
st em</w> 189625
i ent</w> 189601
perm it</w> 189595
el ig 189592
Phil ip 189551
custom er</w> 189548
V an</w> 189491
vir us</w> 189462
Direc tia</w> 189380
lear ning</w> 189350
leg at</w> 189348
fl ights</w> 189336
americ ani</w> 189309
conform itate</w> 189309
oper ator</w> 189294
G old</w> 189287
pre turile</w> 189260
l ers</w> 189195
ro polit 189177
activ ists</w> 189150
under standing</w> 189142
am ag 189071
e k 189064
sy n 189024
rebel s</w> 188997
7 9</w> 188993
mom ent 188990
insp ired</w> 188987
ar de</w> 188931
Com pl 188904
pl ants</w> 188878
Co un 188870
Wi th 188867
I li 188814
ri er</w> 188764
z ah 188720
Primar ul</w> 188702
et ings</w> 188682
mod elul</w> 188663
marg inea</w> 188657
pas sing</w> 188651
ic ate</w> 188604
c eas 188590
j ut 188585
nu tr 188541
ro ch 188505
E st</w> 188498
point ed</w> 188471
expl ain</w> 188465
ec es</w> 188459
Jord an</w> 188456
fisc ala</w> 188357
legisl ative</w> 188295
loc urile</w> 188282
indre pt 188269
Al so</w> 188262
S ource</w> 188247
interest ing</w> 188242
au d</w> 188222
id ul</w> 188209
pr abus 188191
promov area</w> 188185
vic time</w> 188167
ple aca</w> 188134
profesion ala</w> 188079
prim esc</w> 188073
us oara</w> 188050
un tul</w> 188033
or row</w> 188006
soluti on 187995
may or</w> 187947
to todata</w> 187943
conn ection</w> 187936
to tii</w> 187911
AGER PRES</w> 187908
l ay 187907
conc ept</w> 187900
res urs 187846
C ent 187827
ch air</w> 187823
at ically</w> 187813
Com it 187807
ro ads</w> 187784
Ap el</w> 187784
dezvol ta</w> 187708
.m d</w> 187689
el le</w> 187651
poz itiei</w> 187628
in escu</w> 187612
Or adea</w> 187592
fa ult</w> 187510
Y es</w> 187477
facil ity</w> 187383
PL DM</w> 187382
Kenn edy</w> 187357
tr age</w> 187352
de va</w> 187307
f ete</w> 187303
popul ar 187288
aprec iat</w> 187251
x it</w> 187241
is me</w> 187241
cin em 187241
retur ns</w> 187230
tur ns</w> 187215
od d</w> 187215
r af 187212
as sum 187211
pregati re</w> 187206
comb ined</w> 187192
f ond</w> 187189
preced ent</w> 187155
dor im</w> 187130
sanc tion 187125
Mon ica</w> 187078
public ului</w> 187058
o graph 187032
uc rain 187027
att le</w> 186996
prov ince</w> 186990
aut or</w> 186921
fl ying</w> 186875
en h 186873
S col 186836
b ibliot 186831
ta int 186800
do amna</w> 186782
fe wer</w> 186764
Ch urch</w> 186763
plat form</w> 186755
L ove</w> 186738
et t</w> 186731
pl ant 186712
not es</w> 186668
B R 186660
partid ele</w> 186594
b acks</w> 186583
You Tube</w> 186578
great est</w> 186549
t s 186544
di vision</w> 186522
Go od 186463
O K</w> 186438
caz are</w> 186375
Targ u</w> 186333
pi ele</w> 186308
Olym pics</w> 186304
bol i</w> 186263
assist ant</w> 186222
putern ice</w> 186220
invat am 186205
lov itura</w> 186189
g all 186175
g ot 186163
um n</w> 186154
os ul</w> 186149
obisnu it</w> 186139
ord s</w> 186137
dis aster</w> 186132
anc ell 186120
C . 186093
mas urile</w> 186080
ti ed</w> 186062
mom ents</w> 186062
repe atedly</w> 186042
AS H 185985
ti gh 185974
Fo ot 185913
stud enti</w> 185910
target ed</w> 185874
t ual</w> 185849
al ie</w> 185845
A . 185837
ul area</w> 185825
sec unde</w> 185816
IN GT 185806
realiz a</w> 185758
M ol 185746
fap te</w> 185738
so- called</w> 185727
Cur tii</w> 185700
Tot ul</w> 185698
et er</w> 185683
teat ru</w> 185666
be t</w> 185641
fort ele</w> 185584
re abil 185583
coment ariu</w> 185570
Intr -o</w> 185456
medic ul</w> 185439
lu area</w> 185431
G ame</w> 185405
if er</w> 185392
Prob abil</w> 185390
INGT ON</w> 185387
s ung</w> 185376
199 2</w> 185332
sa var 185321
mot or</w> 185288
stat ele</w> 185280
on ing</w> 185263
8 1</w> 185239
ing erea</w> 185215
of ere</w> 185177
R iver</w> 185162
is ul</w> 185159
juc atorii</w> 185143
Con tin 185112
Dec izia</w> 185054
Of fic 185053
circumst ances</w> 185008
convers ation</w> 185003
exerc ise</w> 184996
i as 184980
arti fici 184978
io si</w> 184976
ush ed</w> 184942
Adel aide</w> 184926
un itate</w> 184899
ator iu</w> 184858
d res 184854
1 000</w> 184842
super ior</w> 184836
a ints</w> 184810
Ar abia</w> 184709
u iti</w> 184706
studi o</w> 184701
ca using</w> 184696
tr ai</w> 184657
control led</w> 184644
cas ei</w> 184629
bo l</w> 184623
alist ul</w> 184622
jurid ice</w> 184604
H ur 184586
histor ic</w> 184566
Urg enta</w> 184551
sh ore</w> 184550
sh ut</w> 184546
dr ink</w> 184515
cerem ony</w> 184455
reti red</w> 184387
rug ac 184382
Aut o 184377
pro pag 184280
d ati</w> 184210
ev ita</w> 184094
coun ter</w> 184061
partici parea</w> 184030
form ati 184027
per cent 183993
ro ut 183967
uti i</w> 183929
ho pe 183877
ter ror</w> 183830
person ala</w> 183823
199 4</w> 183821
servici ul</w> 183814
vis ited</w> 183813
BM W</w> 183793
et ape</w> 183737
compon enta</w> 183706
R est 183691
asigur area</w> 183652
re plac 183611
retur ning</w> 183603
fra ud</w> 183589
F our</w> 183586
M ast 183574
N FL</w> 183574
confr unta</w> 183561
mar ile</w> 183546
Le on 183524
a is 183520
Mic hel 183510
Il ie</w> 183506
C lin 183504
t iliz 183479
ig nor 183465
propun erea</w> 183435
H ear 183415
gr am</w> 183398
id ing</w> 183387
H an 183370
pun em</w> 183367
ci fr 183335
Num arul</w> 183287
rec lam 183281
support ing</w> 183242
Invest ig 183239
t ac 183218
el ement</w> 183138
spectac ul 183115
sen ator</w> 183110
sprij in</w> 183105
fost ului</w> 183085
qu ake</w> 183084
v as 183080
h r 183048
ex hib 182908
cit it</w> 182907
pre ven 182895
resp ir 182844
199 1</w> 182840
introduc e</w> 182817
proces ului</w> 182801
mor al</w> 182797
p est 182796
An der 182796
Col umb 182759
viz eaza</w> 182675
Gal ati</w> 182652
An a</w> 182636
neces ita</w> 182621
hel icop 182597
pozit ive</w> 182566
O fer 182517
elector ala</w> 182490
i ese</w> 182470
Cluj- Napoca</w> 182407
Al i</w> 182354
num ita</w> 182343
Journ al</w> 182327
emo tion 182321
sh ad 182287
Pl at 182267
A ger 182128
priet en</w> 182113
ro ute</w> 182110
veter an</w> 182099
apart ine</w> 182053
pet rol</w> 182049
becom es</w> 182048
Intr -un</w> 182001
r ach 181998
ban ned</w> 181965
refugi ati</w> 181962
Rom a</w> 181915
T ow 181854
desch iderea</w> 181853
med ici</w> 181845
B C 181835
lead s</w> 181800
bor ro 181787
bas ic</w> 181763
no ta</w> 181759
er o</w> 181696
ti dian</w> 181685
dut y</w> 181682
em ph 181629
b in</w> 181573
it uri</w> 181530
clos ing</w> 181496
k ick</w> 181490
cist ig 181480
Hou ston</w> 181473
head ing</w> 181418
pre h 181391
min or</w> 181363
b ridge</w> 181356
din ner</w> 181335
obi ectiv</w> 181303
behavi our</w> 181290
H ag 181285
ajut at</w> 181274
val ori</w> 181257
U E 181238
g ender</w> 181209
re new 181205
asigur at</w> 181203
sp er</w> 181191
D ig 181135
strugg le</w> 181126
cunosc uta</w> 181119
o king</w> 181060
we igh 181044
Ab bot 180985
Oric um</w> 180983
No .</w> 180941
refug ees</w> 180936
americ ana</w> 180875
determin a</w> 180867
sem na</w> 180810
guvern ului</w> 180810
Jas on</w> 180806
multum esc</w> 180782
clos ely</w> 180773
dre w</w> 180757
un less</w> 180730
Pri v 180719
o iu</w> 180652
gro wn</w> 180650
ans as</w> 180648
obi ecte</w> 180592
W TA</w> 180588
In t 180555
w ine</w> 180553
Patr ick</w> 180521
inc ep</w> 180520
Cl audi 180510
intre g</w> 180483
friend ly</w> 180470
Pho to 180433
Wat ch</w> 180401
Transil vania</w> 180383
campan ia</w> 180336
la ugh 180287
fotograf ii</w> 180283
ste in</w> 180235
Def ense</w> 180211
f u 180196
ar asi</w> 180195
bir th 180169
ret ea</w> 180128
Te od 180125
fi ica</w> 180119
o o</w> 180094
ast ia</w> 180074
Gre en 180066
societ ati</w> 180041
adverti sing</w> 180016
1. 000</w> 180004
evalu are</w> 180003
buz un 180003
o urs</w> 179976
pre luat</w> 179965
ag on</w> 179964
nu- l</w> 179923
windo w</w> 179917
elector ale</w> 179868
ay ne</w> 179849
s or</w> 179809
dor iti</w> 179807
riv als</w> 179773
lun ar</w> 179749
bo ok 179744
n ord 179736
C anc 179725
tar if 179704
O ld</w> 179682
dom enii</w> 179601
identi ale</w> 179580
H om 179567
cap at</w> 179550
R af 179533
co ol</w> 179490
du ca</w> 179482
p auza</w> 179453
Bo ard</w> 179419
p in 179411
rete aua</w> 179411
spl it</w> 179398
ili ans</w> 179335
3 0- 179325
Per so 179312
w ave</w> 179310
se ze</w> 179308
9 2</w> 179283
Sti ri</w> 179268
R ug 179199
acti unii</w> 179190
Tre i</w> 179181
actu alizare</w> 179170
angaj atii</w> 179170
realiz ata</w> 179159
worl dwide</w> 179121
M ec 179092
figh ters</w> 179089
oric um</w> 179072
ob os 179070
act ors</w> 179035
tele fo 179015
estim ates</w> 178998
moder ne</w> 178986
spec ies</w> 178979
Mus ic</w> 178965
shar ing</w> 178943
am or 178942
str al 178880
struc ture</w> 178879
ific area</w> 178878
investig ators</w> 178866
tain ing</w> 178858
Botos ani</w> 178855
inc h</w> 178847
law suit</w> 178844
ne u 178812
sp era</w> 178803
sen sit 178780
O ut 178741
pack age</w> 178737
vit am 178636
h ole</w> 178596
enc ing</w> 178567
pri m</w> 178504
be ach</w> 178494
requ ire 178492
aff ect</w> 178458
banc i</w> 178413
investig ating</w> 178398
con ven 178370
rec ru 178370
consec utive</w> 178302
li qu 178270
uc ks</w> 178219
it ation</w> 178212
kil ogr 178184
im poz 178158
sco ate</w> 178119
ide e</w> 178070
Ul terior</w> 178070
short ly</w> 178030
impl ica</w> 178016
dis cre 177984
ans ambl 177973
R . 177942
partid ul</w> 177899
o is</w> 177879
D uminica</w> 177850
fo sta</w> 177818
chir urg 177770
agre si 177764
m al</w> 177749
Ager pres</w> 177741
pre mii</w> 177737
Pal atul</w> 177715
me etings</w> 177682
h ero 177679
journ alists</w> 177614
B ri 177593
min ent</w> 177589
milit ar</w> 177584
as um 177580
formul a</w> 177574
str ict</w> 177512
re place</w> 177494
gan di 177483
under stood</w> 177447
sim tit</w> 177441
dr aft</w> 177440
ch ain</w> 177437
facil ities</w> 177358
mission er</w> 177320
S ala</w> 177319
medi ului</w> 177308
cab inet</w> 177307
pl ed 177306
Exec uti 177295
candid at</w> 177249
st un 177247
n one</w> 177154
w an</w> 177140
c ross</w> 177107
po ver 177094
os ex 177053
ji had 176980
maint ain</w> 176978
H amil 176936
me ze</w> 176880
cop yright</w> 176864
car or</w> 176846
E very</w> 176817
foot age</w> 176800
r é 176782
tr a</w> 176766
sav ings</w> 176744
div or 176729
N ic 176694
heav ily</w> 176675
R u 176656
pi atra</w> 176647
econom iei</w> 176635
st ake</w> 176590
spok en</w> 176581
P ier 176570
ore i</w> 176545
rez olva</w> 176516
Hum an</w> 176503
al erg 176483
com unei</w> 176449
pay ment</w> 176429
ul y</w> 176415
rezer va</w> 176404
B ang 176396
ag ents</w> 176380
democr acy</w> 176372
term enul</w> 176322
Ina inte</w> 176204
six - 176192
I an</w> 176182
c ite</w> 176175
g az</w> 176154
S ab 176116
fruc te</w> 176113
increas es</w> 176111
happen ing</w> 176106
Str ateg 176094
ba ie</w> 176064
e ie</w> 176041
M I 176019
identif y</w> 176012
U C 175979
flo od 175959
be aten</w> 175926
claim ing</w> 175914
uc is</w> 175877
w ake</w> 175844
prime asca</w> 175835
pul l</w> 175829
mis care</w> 175821
executi ves</w> 175810
Sou th 175802
et c</w> 175795
par erea</w> 175758
co ok 175754
con sta</w> 175735
st ress</w> 175711
o pr 175704
sarb ator 175703
ancell or</w> 175702
P D</w> 175671
ur in 175606
L yn 175561
ament elor</w> 175561
Nov .</w> 175559
am e 175547
af i</w> 175513
14 . 175385
intil n 175358
fus ese</w> 175355
at ins</w> 175347
ell o</w> 175334
com en 175316
W ASH 175286
hotar at</w> 175285
cum va</w> 175248
M ass 175239
ator ia</w> 175190
un deva</w> 175177
sid er</w> 175174
Con duc 175172
or up 175148
b is 175093
Merc ed 175088
li p</w> 175076
tur ul</w> 175048
air s</w> 175033
ul escu</w> 175032
Ministr y</w> 175026
locu inta</w> 175022
h u 174995
dang er</w> 174942
at ar</w> 174940
over seas</w> 174936
off ensive</w> 174918
mat ters</w> 174894
sup posed</w> 174880
ur cat</w> 174867
public ul</w> 174861
old s</w> 174837
medic amente</w> 174833
achi eve</w> 174810
Ad un 174785
L as</w> 174776
r ar 174757
a ire</w> 174754
reform s</w> 174706
D al 174650
ce alalta</w> 174645
WASH INGTON</w> 174634
g on 174626
eaz a-te</w> 174617
c if 174608
Col or 174579
vre odata</w> 174571
obvi ously</w> 174550
dis h</w> 174524
P .</w> 174513
grad in 174489
ext ended</w> 174470
S por 174462
Off ici 174449
mod els</w> 174433
trans mit 174414
r ating</w> 174404
us er</w> 174400
accep ted</w> 174392
stoc ks</w> 174389
S l 174385
um an 174320
f at</w> 174291
de graba</w> 174230
profesion ale</w> 174225
instituti ons</w> 174135
P ap 174119
wor ry</w> 174062
ul - 174061
vand ut</w> 174054
ivers ary</w> 174041
NE W</w> 174022
w art</w> 173959
arest at</w> 173955
t ati</w> 173933
tehn ic</w> 173922
Bre xit</w> 173902
Ovi diu</w> 173878
tack le</w> 173875
ph ere</w> 173866
Hen ry</w> 173864
dre am</w> 173823
li on 173821
Mo ore</w> 173803
ad use</w> 173795
andu- i</w> 173793
put ini</w> 173784
surpri sed</w> 173760
R - 173749
Ab on 173743
s ending</w> 173731
J ose</w> 173710
e hn 173707
N ob 173706
wed ding</w> 173638
politici an</w> 173619
u ie</w> 173617
B aia</w> 173603
instituti ilor</w> 173590
ad el 173574
Mar ii</w> 173556
M unc 173482
L as 173437
W eb 173431
fr unt 173417
fac ea</w> 173373
par ii</w> 173368
purch ase</w> 173362
s otul</w> 173358
crez ut</w> 173339
modific ari</w> 173315
ar me</w> 173308
ad ult</w> 173289
j an</w> 173281
ar - 173273
ti unile</w> 173272
nav ig 173263
Mar ket</w> 173260
9 00</w> 173200
fail ing</w> 173161
lin ie</w> 173153
ti di 173138
in evit 173136
atr age</w> 173122
co respond 173112
Sou thern</w> 173085
Hamil ton</w> 173076
al ive</w> 173045
dee ply</w> 173037
De part 173022
I ow 173017
at el 172983
int ul</w> 172943
Sar ah</w> 172938
or al</w> 172917
dro g 172894
st iti</w> 172885
e aua</w> 172873
b ond</w> 172847
gro unds</w> 172846
u x</w> 172817
ect ate</w> 172798
per form</w> 172788
consil ier</w> 172785
St ati 172745
thre ats</w> 172738
E astern</w> 172724
g rec 172706
s un</w> 172626
observ at</w> 172596
car ds</w> 172592
D C</w> 172554
territ ory</w> 172525
pe di 172522
l an</w> 172493
rev ine</w> 172434
D ata</w> 172431
og a</w> 172426
cam p 172416
US A</w> 172396
4 5 172392
v ital</w> 172340
end or 172333
bor ne</w> 172330
did act 172315
ack er</w> 172296
implic at</w> 172260
Mo ham 172232
C an</w> 172230
Liber ty</w> 172174
olog ist</w> 172165
compl eta</w> 172149
retire ment</w> 172127
cat ch</w> 172114
desch ise</w> 172111
wor ker</w> 172073
ie w</w> 172046
ion at</w> 172008
re action</w> 171991
apart ament</w> 171962
povest ea</w> 171886
e tii</w> 171854
Centr ului</w> 171845
corec ta</w> 171817
Ch annel</w> 171811
odi hn 171805
r in 171791
sc he</w> 171735
prim ite</w> 171724
v ed</w> 171717
g ap</w> 171697
wo unded</w> 171686
mij loc 171642
co p</w> 171638
9 8</w> 171594
To k 171594
Oc t.</w> 171592
push ing</w> 171589
cap tured</w> 171583
prim este</w> 171554
al ilor</w> 171515
im possible</w> 171499
N ev 171455
sem i- 171420
th row</w> 171412
Det ro 171401
G all 171399
enti rely</w> 171371
ap area</w> 171363
circul atie</w> 171350
pol l 171333
crit ica</w> 171325
trans forma</w> 171286
disci plin 171285
gres it</w> 171250
Sen ator</w> 171232
T am 171205
P ag 171162
magaz in</w> 171124
doz ens</w> 171095
ac cur 171032
loc ali</w> 171020
sol ar</w> 170995
Prof essor</w> 170980
pl anul</w> 170974
aut onom 170962
j er 170925
R angers</w> 170896
E st 170825
construc tia</w> 170814
scad ere</w> 170794
al b</w> 170786
sol id</w> 170765
Abbot t</w> 170762
M O 170756
ofer im</w> 170705
Luc ian</w> 170704
ov eh 170648
perform ed</w> 170635
t av 170632
exc es 170621
mark et 170620
signific antly</w> 170616
en um 170594
C a 170561
d ance</w> 170524
Iran ian</w> 170524
Raz bo 170501
ap art</w> 170499
sistem e</w> 170491
sar ac 170468
Ucra inei</w> 170467
exist ente</w> 170448
jour ney</w> 170432
anon ym 170415
pi etei</w> 170403
op ol 170394
q ui</w> 170392
luc ra</w> 170339
act ului</w> 170244
ost ea</w> 170222
conv inc 170169
co ta</w> 170159
rece iving</w> 170157
ti re</w> 170127
Re fer 170120
i asa</w> 170056
S ambata</w> 170053
con sum</w> 170007
parti al</w> 169973
f ill</w> 169908
sc apa</w> 169903
cunosc ute</w> 169901
vol ume</w> 169820
ON U</w> 169818
mar ked</w> 169812
tax e</w> 169801
b ie</w> 169774
econom ici</w> 169747
9 6</w> 169740
E min 169737
st res 169683
Imag es</w> 169664
pro ven 169662
An aly 169643
initi ative</w> 169630
bil a</w> 169628
c itate</w> 169609
met od 169597
2 ,000</w> 169565
attemp ts</w> 169513
Bro ad 169477
su par 169423
i erii</w> 169400
U A</w> 169400
ep h</w> 169393
g ains</w> 169387
r av 169348
I i</w> 169348
Al - 169320
loc alitate</w> 169309
pi eces</w> 169283
just ific 169276
cheltuiel ile</w> 169260
Tot al</w> 169250
instituti e</w> 169236
Ander son</w> 169236
percent age</w> 169229
g y 169226
A th 169222
dific ult 169199
For mul 169188
gl ass</w> 169174
Mul ti</w> 169160
chil d 169110
ultim ately</w> 169104
on ii</w> 169101
Autor itatile</w> 169090
lu am</w> 169053
T - 169046
Sept embrie</w> 168998
cont est</w> 168976
produc er</w> 168945
M am 168926
entr y</w> 168908
Problem a</w> 168904
ag u 168876
' I</w> 168857
fl ag 168807
it z 168806
lo ad</w> 168787
id en</w> 168784
estim ate</w> 168784
La ura</w> 168759
sent enced</w> 168756
- off</w> 168742
ap sa</w> 168740
T ab 168726
ing in 168660
oblig atorii</w> 168653
Th ough</w> 168623
n is</w> 168591
favo area</w> 168589
li kes</w> 168561
off - 168557
sur face</w> 168543
w are</w> 168539
imp u</w> 168537
e- up</w> 168527
10 ,000</w> 168501
inter ese</w> 168482
ick y</w> 168479
epis ode</w> 168429
re move</w> 168420
om er 168413
Tec hnolog 168394
ati- va</w> 168367
tranz acti 168318
ard a</w> 168307
obtin erea</w> 168294
ici ans</w> 168267
com pati 168256
Argent ina</w> 168208
Sist emul</w> 168187
sy l 168146
sub ur 168129
C o</w> 168120
deliver y</w> 168086
bur n</w> 168029
declar atie</w> 167995
refer a</w> 167976
ash es</w> 167951
drin king</w> 167880
n est 167829
ren ce</w> 167815
bil ls</w> 167722
icol ul</w> 167720
rap ortul</w> 167712
Al an</w> 167703
mem ory</w> 167696
vulner able</w> 167677
con dem 167665
Iow a</w> 167650
C um 167640
St at 167636
mar i 167622
Conserv ative</w> 167596
share holders</w> 167583
te - 167564
P ent 167540
j ul</w> 167501
contr ast</w> 167493
cast le</w> 167471
d y 167468
Fil m</w> 167450
on er</w> 167434
amaz ing</w> 167428
N BC</w> 167426
en ele</w> 167380
n ou 167309
iz ing</w> 167278
ident ity</w> 167272
cor p</w> 167245
interes ati</w> 167222
S eful</w> 167211
aplic are</w> 167207
sup er</w> 167199
favor ite</w> 167188
sa ge</w> 167183
Qa eda</w> 167123
a ked</w> 167094
o therwise</w> 167086
compet itie</w> 167078
intern al</w> 167076
de ocamdata</w> 167058
sec olului</w> 167045
proiect ele</w> 167037
ack ers</w> 167030
f low</w> 167028
al cat 167025
orup tie</w> 167004
cultur ale</w> 166996
2- 0</w> 166974
II -a</w> 166951
tipar ita</w> 166915
fa ith</w> 166914
ta i</w> 166902
er r 166888
realiz eaza</w> 166859
popul atie</w> 166858
sh ape</w> 166810
bucur ie</w> 166754
TV R</w> 166739
mes ajul</w> 166709
trec erea</w> 166706
Mich igan</w> 166701
wh el 166676
polit ia</w> 166669
ard ul</w> 166666
benefici aza</w> 166629
vec he</w> 166622
su port</w> 166610
insur g 166583
Alexand er</w> 166564
I V 166558
San atate</w> 166549
p um 166542
surpri za</w> 166521
ar est</w> 166518
act ers</w> 166495
add s</w> 166484
ami aza</w> 166453
stra ine</w> 166434
cl imb 166391
universit ar</w> 166356
bat ut</w> 166348
grad ul</w> 166341
plec a</w> 166334
str azi</w> 166309
gr upa</w> 166306
val ues</w> 166302
m ad 166296
c ub 166256
adv ance</w> 166255
N ik 166241
R ights</w> 166239
Pow er</w> 166232
ch - 166227
W all 166214
tax pay 166200
Ar ti 166197
Crist ina</w> 166196
ad ec 166125
r h 166116
trad uc 166116
Polit istii</w> 166101
tem e</w> 166034
Detro it</w> 166011
tin y</w> 165986
pat ter 165984
sal arii</w> 165923
asigur are</w> 165909
Mus eum</w> 165853
Tor onto</w> 165853
riv er</w> 165840
t ask</w> 165819
soci al- 165813
reput ation</w> 165795
Z iar 165772
C en 165768
tec h</w> 165744
ang hel 165729
v ii</w> 165704
Just in</w> 165703
modific area</w> 165690
Gh impu</w> 165665
ra ionul</w> 165646
En ter 165627
acti unilor</w> 165607
un ca</w> 165576
deoseb ita</w> 165551
suc ce 165539
ear th 165498
lin ia</w> 165495
gener ale</w> 165466
Bro ok 165463
G aza</w> 165418
W he 165400
S ul 165378
ac on 165359
excl us 165350
lar g</w> 165322
op posed</w> 165320
O ce 165306
re nov 165263
Eli zab 165193
mi x</w> 165163
ie si</w> 165156
mas cul 165133
settl ement</w> 165094
dubl u</w> 165074
prim ii</w> 165067
c ute</w> 165002
t es</w> 164970
mo dif 164942
r usi</w> 164937
P ov 164933
es - 164916
cul ori</w> 164916
it iv 164912
ho ped</w> 164912
fot bal 164900
con sol 164886
o ks</w> 164864
re me</w> 164856
gol f</w> 164830
interventi e</w> 164795
intoar ce</w> 164768
i g</w> 164737
attemp ted</w> 164710
Stel ei</w> 164706
ne aparat</w> 164694
promov are</w> 164656
th es</w> 164624
res urse</w> 164624
Ar ch 164623
Gre ek</w> 164598
col or 164589
Amaz on</w> 164589
mar ks</w> 164582
schimb ari</w> 164567
int ense</w> 164562
wer en</w> 164439
Nast ase</w> 164438
caut area</w> 164427
success fully</w> 164408
re presents</w> 164384
tr as</w> 164375
appoint ed</w> 164356
ast ru</w> 164296
W rit 164270
Pra h 164234
Go od</w> 164231
rac ing</w> 164208
ap ele</w> 164193
ad junc 164155
public ata</w> 164150
s now</w> 164140
sof t</w> 164121
afac ere</w> 164102
eb all</w> 164098
C in 164053
ann iversary</w> 164037
I st 164016
num arului</w> 164011
L ive</w> 164005
G igi</w> 163980
char acters</w> 163969
Spe aking</w> 163956
i a 163915
cheltui eli</w> 163902
Chil dren</w> 163885
ob j 163878
aplic area</w> 163870
inv itati</w> 163862
au x</w> 163848
Ol anda</w> 163825
Char lie</w> 163798
coleg i</w> 163778
kne e</w> 163764
é s</w> 163752
k ind 163724
cel or 163721
ad ic 163690
sem ne</w> 163688
sprij in 163686
del iber 163618
re ala</w> 163545
Pen n 163524
Academ y</w> 163508
diplom atic</w> 163506
independ enta</w> 163475
m ente</w> 163454
stic la</w> 163426
categ orii</w> 163406
Sing ap 163395
2- 1</w> 163366
et ary</w> 163346
Raz van</w> 163341
al imente</w> 163337
in und 163286
por nit</w> 163282
bug etului</w> 163275
y land</w> 163274
temper atura</w> 163273
tr ust 163270
cut i</w> 163269
pic ally</w> 163247
i os 163216
demonstr at</w> 163192
Feder atia</w> 163177
pri or</w> 163144
Leg ii</w> 163120
ap ply</w> 163119
cri zei</w> 163096
bl ame</w> 163089
str ing</w> 163052
nov el</w> 163027
civ ilians</w> 163021
aut oveh 163011
ell er</w> 163005
produc tia</w> 162991
T ara</w> 162981
m uri</w> 162948
el la</w> 162912
loc alitati</w> 162908
ast ed</w> 162879
ofer te</w> 162869
folos ita</w> 162860
locu inte</w> 162857
L ad 162846
com p 162843
fas cin 162831
Turk ish</w> 162809
post at</w> 162776
st ick</w> 162766
inter nation 162754
Gov .</w> 162692
A wards</w> 162645
favour ite</w> 162635
exter ior</w> 162615
pl aja</w> 162591
Des ig 162560
ef ecte</w> 162557
I ord 162552
l anda</w> 162527
Veg as</w> 162518
lif t</w> 162509
it ã 162505
Jon athan</w> 162504
R ub 162399
Bucure st 162365
primar ului</w> 162326
un usual</w> 162301
D oi</w> 162299
film ul</w> 162235
[...]
