{
  "<s>": 0,
  "</s>": 1,
  "<pad>": 2,
  "<unk>": 3,
  "<special0>": 4,
  "<special1>": 5,
  "<special2>": 6,
  "<special3>": 7,
  "<special4>": 8,
  "<special5>": 9,
  "<special6>": 10,
  "<special7>": 11,
  "<special8>": 12,
  "<special9>": 13,
  ",</w>": 14,
  "the</w>": 15,
  ".</w>": 16,
  "to</w>": 17,
  "of</w>": 18,
  "a</w>": 19,
  "and</w>": 20,
  "in</w>": 21,
  "\"</w>": 22,
  "'s</w>": 23,
  "that</w>": 24,
  "for</w>": 25,
  "is</w>": 26,
  "on</w>": 27,
  "The</w>": 28,
  "was</w>": 29,
  "with</w>": 30,
  "said</w>": 31,
  "it</w>": 32,
  "as</w>": 33,
  "at</w>": 34,
  "he</w>": 35,
  "by</w>": 36,
  "be</w>": 37,
  "I</w>": 38,
  "have</w>": 39,
  "from</w>": 40,
  "are</w>": 41,
  "his</w>": 42,
  "has</w>": 43,
  ":</w>": 44,
  "an</w>": 45,
  "-</w>": 46,
  "not</w>": 47,
  ")</w>": 48,
  "(</w>": 49,
  "will</w>": 50,
  "who</w>": 51,
  "they</w>": 52,
  "de</w>": 53,
  "had</w>": 54,
  "but</w>": 55,
  "this</w>": 56,
  "their</w>": 57,
  "'</w>": 58,
  "been</w>": 59,
  "were</w>": 60,
  "or</w>": 61,
  "'t</w>": 62,
  "more</w>": 63,
  "which</w>": 64,
  "about</w>": 65,
  "you</w>": 66,
  "we</w>": 67,
  "her</w>": 68,
  "would</w>": 69,
  "It</w>": 70,
  "one</w>": 71,
  "its</w>": 72,
  "up</w>": 73,
  "after</w>": 74,
  "out</w>": 75,
  "can</w>": 76,
  "she</w>": 77,
  "also</w>": 78,
  "than</w>": 79,
  "when</w>": 80,
  "all</w>": 81,
  "people</w>": 82,
  "He</w>": 83,
  "$</w>": 84,
  "year</w>": 85,
  "In</w>": 86,
  "?</w>": 87,
  "over</w>": 88,
  "But</w>": 89,
  "there</w>": 90,
  "into</w>": 91,
  "time</w>": 92,
  "A</w>": 93,
  "two</w>": 94,
  "first</w>": 95,
  "last</w>": 96,
  "new</w>": 97,
  "could</w>": 98,
  "si</w>": 99,
  "so</w>": 100,
  "what</w>": 101,
  "years</w>": 102,
  "other</w>": 103,
  "just</w>": 104,
  "them</w>": 105,
  "We</w>": 106,
  "some</w>": 107,
  "like</w>": 108,
  "if</w>": 109,
  "no</w>": 110,
  "him</w>": 111,
  "la</w>": 112,
  "our</w>": 113,
  "do</w>": 114,
  "/</w>": 115,
  "only</w>": 116,
  "now</w>": 117,
  "before</w>": 118,
  "back</w>": 119,
  "my</w>": 120,
  ";</w>": 121,
  "because</w>": 122,
  "says</w>": 123,
  "most</w>": 124,
  "o</w>": 125,
  "get</w>": 126,
  "being</w>": 127,
  "where</w>": 128,
  "told</w>": 129,
  "government</w>": 130,
  "against</w>": 131,
  "Mr</w>": 132,
  "made</w>": 133,
  "off</w>": 134,
  "down</w>": 135,
  "how</w>": 136,
  "--</w>": 137,
  "any</w>": 138,
  "three</w>": 139,
  "way</w>": 140,
  "-": 141,
  "million</w>": 142,
  "make</w>": 143,
  "This</w>": 144,
  "many</w>": 145,
  "care</w>": 146,
  "while</w>": 147,
  "very</w>": 148,
  "New</w>": 149,
  "per</w>": 150,
  "through</w>": 151,
  "those</w>": 152,
  "week</w>": 153,
  "me</w>": 154,
  "And</w>": 155,
  "then</w>": 156,
  "even</w>": 157,
  "They</w>": 158,
  "man</w>": 159,
  "day</w>": 160,
  "world</w>": 161,
  "work</w>": 162,
  "well</w>": 163,
  "home</w>": 164,
  "much</w>": 165,
  "us</w>": 166,
  "still</w>": 167,
  "going</w>": 168,
  "such</w>": 169,
  "your</w>": 170,
  "say</w>": 171,
  "since</w>": 172,
  "'re</w>": 173,
  "U.S.</w>": 174,
  "sa</w>": 175,
  "should</w>": 176,
  "take</w>": 177,
  "did</w>": 178,
  "may</w>": 179,
  "think</w>": 180,
  "don</w>": 181,
  "percent</w>": 182,
  "during</w>": 183,
  "between</w>": 184,
  "police</w>": 185,
  "ing</w>": 186,
  "including</w>": 187,
  "There</w>": 188,
  "around</w>": 189,
  "un": 190,
  "country</w>": 191,
  "s</w>": 192,
  "go</w>": 193,
  "see</w>": 194,
  "good</w>": 195,
  "ca</w>": 196,
  "company</w>": 197,
  "cu</w>": 198,
  "din</w>": 199,
  "next</w>": 200,
  "\u00a3</w>": 201,
  "found</w>": 202,
  "under</w>": 203,
  "ed</w>": 204,
  "state</w>": 205,
  "these</w>": 206,
  "She</w>": 207,
  "That</w>": 208,
  "10</w>": 209,
  "know</w>": 210,
  "part</w>": 211,
  "es</w>": 212,
  "team</w>": 213,
  "want</w>": 214,
  "er</w>": 215,
  "game</w>": 216,
  "1</w>": 217,
  "S": 218,
  "pe</w>": 219,
  "end</w>": 220,
  "right</w>": 221,
  "If</w>": 222,
  "public</w>": 223,
  "former</w>": 224,
  "'ve</w>": 225,
  "another</w>": 226,
  "able</w>": 227,
  "%</w>": 228,
  "own</w>": 229,
  "y</w>": 230,
  "family</w>": 231,
  "second</w>": 232,
  "life</w>": 233,
  "US</w>": 234,
  "four</w>": 235,
  "both</w>": 236,
  "al</w>": 237,
  "too</w>": 238,
  "se</w>": 239,
  "left</w>": 240,
  "need</w>": 241,
  "set</w>": 242,
  "Mr.</w>": 243,
  "cent</w>": 244,
  "group</w>": 245,
  "Obama</w>": 246,
  "help</w>": 247,
  "United</w>": 248,
  "used</w>": 249,
  "am</w>": 250,
  "long</w>": 251,
  "re": 252,
  "same</w>": 253,
  "come</w>": 254,
  "un</w>": 255,
  "got</w>": 256,
  "'m</w>": 257,
  "show</w>": 258,
  "ers</w>": 259,
  "children</w>": 260,
  "'": 261,
  "As</w>": 262,
  "really</w>": 263,
  "use</w>": 264,
  "place</w>": 265,
  "best</w>": 266,
  "season</w>": 267,
  "days</w>": 268,
  "pentru</w>": 269,
  "months</w>": 270,
  "month</w>": 271,
  "called</w>": 272,
  "K": 273,
  "put</w>": 274,
  "women</w>": 275,
  "...</w>": 276,
  "mai</w>": 277,
  "American</w>": 278,
  "2</w>": 279,
  "night</w>": 280,
  "five</w>": 281,
  "You</w>": 282,
  "T": 283,
  "never</w>": 284,
  "less</w>": 285,
  "ation</w>": 286,
  "market</w>": 287,
  "won</w>": 288,
  "!</w>": 289,
  "business</w>": 290,
  "report</w>": 291,
  "President</w>": 292,
  "took</w>": 293,
  "B": 294,
  "L": 295,
  "nu</w>": 296,
  "number</w>": 297,
  "case</w>": 298,
  "G": 299,
  "Trump</w>": 300,
  "D": 301,
  "might</w>": 302,
  "W": 303,
  "here</w>": 304,
  "according</w>": 305,
  "For</w>": 306,
  "away</w>": 307,
  "president</w>": 308,
  "en</w>": 309,
  "top</w>": 310,
  "play</w>": 311,
  "au</w>": 312,
  "support</w>": 313,
  "city</w>": 314,
  "added</w>": 315,
  "came</w>": 316,
  "York</w>": 317,
  "H": 318,
  "few</w>": 319,
  "money</w>": 320,
  "Friday</w>": 321,
  "later</w>": 322,
  "high</w>": 323,
  "R": 324,
  "When</w>": 325,
  "win</w>": 326,
  "China</w>": 327,
  "led</w>": 328,
  "little</w>": 329,
  "Monday</w>": 330,
  "every</w>": 331,
  "Tuesday</w>": 332,
  "20</w>": 333,
  "big</w>": 334,
  "P": 335,
  "past</w>": 336,
  "officials</w>": 337,
  "without</w>": 338,
  "men</w>": 339,
  "y": 340,
  "better</w>": 341,
  "lot</w>": 342,
  "30</w>": 343,
  "ago</w>": 344,
  "k": 345,
  "something</w>": 346,
  "F": 347,
  "early</w>": 348,
  "Wednesday</w>": 349,
  "court</w>": 350,
  "look</w>": 351,
  "Thursday</w>": 352,
  "didn</w>": 353,
  "le</w>": 354,
  "M": 355,
  "C": 356,
  "already</w>": 357,
  "far</w>": 358,
  "whether</w>": 359,
  "seen</w>": 360,
  "each</w>": 361,
  "until</w>": 362,
  "point</w>": 363,
  "school</w>": 364,
  "A": 365,
  "este</w>": 366,
  "political</w>": 367,
  "deal</w>": 368,
  "Sunday</w>": 369,
  "party</w>": 370,
  "3</w>": 371,
  "billion</w>": 372,
  "son</w>": 373,
  "least</w>": 374,
  "side</w>": 375,
  "head</w>": 376,
  "N": 377,
  "London</w>": 378,
  "House</w>": 379,
  "health</w>": 380,
  "reported</w>": 381,
  "went</w>": 382,
  "On</w>": 383,
  "face</w>": 384,
  "making</w>": 385,
  "again</w>": 386,
  "One</w>": 387,
  "UK</w>": 388,
  "change</w>": 389,
  "run</w>": 390,
  "campaign</w>": 391,
  "things</w>": 392,
  "six</w>": 393,
  "South</w>": 394,
  "great</w>": 395,
  "At</w>": 396,
  "across</w>": 397,
  "12</w>": 398,
  "expected</w>": 399,
  "today</w>": 400,
  "area</w>": 401,
  "4</w>": 402,
  "start</w>": 403,
  "system</w>": 404,
  "age</w>": 405,
  "recent</w>": 406,
  "power</w>": 407,
  "statement</w>": 408,
  "E": 409,
  "does</w>": 410,
  "&</w>": 411,
  "John</w>": 412,
  "local</w>": 413,
  "5</w>": 414,
  "law</w>": 415,
  "in": 416,
  "British</w>": 417,
  "line</w>": 418,
  "taken</w>": 419,
  "among</w>": 420,
  "saying</w>": 421,
  "Saturday</w>": 422,
  "15</w>": 423,
  "likely</w>": 424,
  "become</w>": 425,
  "news</w>": 426,
  "find</w>": 427,
  "points</w>": 428,
  "military</w>": 429,
  "young</w>": 430,
  "always</w>": 431,
  "times</w>": 432,
  "hit</w>": 433,
  "security</w>": 434,
  "information</w>": 435,
  "having</w>": 436,
  "working</w>": 437,
  "h": 438,
  "death</w>": 439,
  "Australia</w>": 440,
  "members</w>": 441,
  "States</w>": 442,
  "half</w>": 443,
  "11</w>": 444,
  "What</w>": 445,
  "media</w>": 446,
  "chief</w>": 447,
  "So</w>": 448,
  "final</w>": 449,
  "give</w>": 450,
  "different</w>": 451,
  "several</w>": 452,
  "i</w>": 453,
  "players</w>": 454,
  "ar</w>": 455,
  "car</w>": 456,
  "third</w>": 457,
  "North</w>": 458,
  "World</w>": 459,
  "though</w>": 460,
  "National</w>": 461,
  "enough</w>": 462,
  "pay</w>": 463,
  "w": 464,
  "important</w>": 465,
  "companies</w>": 466,
  "asked</w>": 467,
  "killed</w>": 468,
  "given</w>": 469,
  "financial</w>": 470,
  "lead</w>": 471,
  "David</w>": 472,
  "known</w>": 473,
  "keep</w>": 474,
  "must</w>": 475,
  "move</w>": 476,
  "ch": 477,
  "house</w>": 478,
  "n": 479,
  "tax</w>": 480,
  "After</w>": 481,
  "en": 482,
  "future</w>": 483,
  "City</w>": 484,
  "woman</w>": 485,
  "'ll</w>": 486,
  "England</w>": 487,
  "decision</w>": 488,
  "taking</w>": 489,
  "State</w>": 490,
  "g": 491,
  "major</w>": 492,
  "European</w>": 493,
  "water</w>": 494,
  "University</w>": 495,
  "national</w>": 496,
  "May</w>": 497,
  "weeks</w>": 498,
  "ated</w>": 499,
  "director</w>": 500,
  "dis": 501,
  "lost</w>": 502,
  "e": 503,
  "plan</w>": 504,
  "close</w>": 505,
  "job</w>": 506,
  "t": 507,
  "ever</w>": 508,
  "ate</w>": 509,
  "small</w>": 510,
  "thought</w>": 511,
  "thing</w>": 512,
  "attack</w>": 513,
  "why</w>": 514,
  "old</w>": 515,
  "Washington</w>": 516,
  "e</w>": 517,
  "behind</w>": 518,
  "economic</w>": 519,
  "f": 520,
  "With</w>": 521,
  "d": 522,
  "data</w>": 523,
  "His</w>": 524,
  "b": 525,
  "fost</w>": 526,
  "hard</w>": 527,
  "el</w>": 528,
  "trying</w>": 529,
  "6</w>": 530,
  "[</w>": 531,
  "often</w>": 532,
  "]</w>": 533,
  "t</w>": 534,
  "e-": 535,
  "7</w>": 536,
  "March</w>": 537,
  "service</w>": 538,
  "yet</w>": 539,
  "held</w>": 540,
  "s": 541,
  "following</w>": 542,
  "looking</w>": 543,
  "hours</w>": 544,
  "2014</w>": 545,
  "ce</w>": 546,
  "almost</w>": 547,
  "done</w>": 548,
  "election</w>": 549,
  "believe</w>": 550,
  "America</w>": 551,
  "once</w>": 552,
  "series</w>": 553,
  "further</w>": 554,
  "economy</w>": 555,
  "international</w>": 556,
  "2012</w>": 557,
  "office</w>": 558,
  "clear</w>": 559,
  "real</w>": 560,
  "Police</w>": 561,
  "No</w>": 562,
  "countries</w>": 563,
  "near</w>": 564,
  "doing</w>": 565,
  "late</w>": 566,
  "getting</w>": 567,
  "2013</w>": 568,
  "2008</w>": 569,
  "'d</w>": 570,
  "free</w>": 571,
  "announced</w>": 572,
  "earlier</w>": 573,
  "West</w>": 574,
  "call</w>": 575,
  "feel</w>": 576,
  "died</w>": 577,
  "study</w>": 578,
  "using</w>": 579,
  "leader</w>": 580,
  "record</w>": 581,
  "games</w>": 582,
  "war</w>": 583,
  "industry</w>": 584,
  "others</w>": 585,
  "growth</w>": 586,
  "risk</w>": 587,
  "O": 588,
  "field</w>": 589,
  "outside</w>": 590,
  "50</w>": 591,
  "played</w>": 592,
  "plans</w>": 593,
  "services</w>": 594,
  "June</w>": 595,
  "l": 596,
  "club</w>": 597,
  "J": 598,
  "va</w>": 599,
  "Britain</w>": 600,
  "shot</w>": 601,
  "along</w>": 602,
  "However</w>": 603,
  "comes</w>": 604,
  "film</w>": 605,
  "started</w>": 606,
  "within</w>": 607,
  "full</w>": 608,
  "social</w>": 609,
  "return</w>": 610,
  "together</w>": 611,
  "due</w>": 612,
  "8</w>": 613,
  "minutes</w>": 614,
  "policy</w>": 615,
  "possible</w>": 616,
  "doesn</w>": 617,
  "open</w>": 618,
  "issue</w>": 619,
  "er": 620,
  "control</w>": 621,
  "executive</w>": 622,
  "News</w>": 623,
  "based</w>": 624,
  "official</w>": 625,
  "try</w>": 626,
  "While</w>": 627,
  "course</w>": 628,
  "coming</w>": 629,
  "cut</w>": 630,
  "person</w>": 631,
  "vote</w>": 632,
  "25</w>": 633,
  "oil</w>": 634,
  "body</w>": 635,
  "k</w>": 636,
  "l</w>": 637,
  "food</w>": 638,
  "share</w>": 639,
  "live</w>": 640,
  "Europe</w>": 641,
  "5": 642,
  "continue</w>": 643,
  "2011</w>": 644,
  "wanted</w>": 645,
  "2009</w>": 646,
  "role</w>": 647,
  "began</w>": 648,
  "rate</w>": 649,
  "quarter</w>": 650,
  "name</w>": 651,
  "ly</w>": 652,
  "18</w>": 653,
  "strong</w>": 654,
  "Minister</w>": 655,
  "whose</w>": 656,
  "federal</w>": 657,
  "al": 658,
  "i": 659,
  "meeting</w>": 660,
  "released</w>": 661,
  "action</w>": 662,
  "et</w>": 663,
  "O</w>": 664,
  "key</w>": 665,
  "level</w>": 666,
  "story</w>": 667,
  "mother</w>": 668,
  "April</w>": 669,
  "video</w>": 670,
  "sales</w>": 671,
  "large</w>": 672,
  "p": 673,
  "history</w>": 674,
  "9</w>": 675,
  "14</w>": 676,
  "d</w>": 677,
  "interest</w>": 678,
  "price</w>": 679,
  "13</w>": 680,
  "Australian</w>": 681,
  "cost</w>": 682,
  "current</w>": 683,
  "room</w>": 684,
  "To</w>": 685,
  "16</w>": 686,
  "Some</w>": 687,
  "V": 688,
  "ating</w>": 689,
  "fire</w>": 690,
  "ations</w>": 691,
  "6": 692,
  "TV</w>": 693,
  "Y": 694,
  "fact</w>": 695,
  "3": 696,
  "White</w>": 697,
  "himself</w>": 698,
  "child</w>": 699,
  "2010</w>": 700,
  "spokesman</w>": 701,
  "program</w>": 702,
  "wrote</w>": 703,
  "bank</w>": 704,
  "nearly</w>": 705,
  "morning</w>": 706,
  "100</w>": 707,
  "online</w>": 708,
  "Russia</w>": 709,
  "air</w>": 710,
  "love</w>": 711,
  "m": 712,
  "2015</w>": 713,
  "4": 714,
  "global</w>": 715,
  "bit</w>": 716,
  "fi</w>": 717,
  "By</w>": 718,
  "saw</w>": 719,
  "site</w>": 720,
  "order</w>": 721,
  "process</w>": 722,
  "increase</w>": 723,
  "building</w>": 724,
  "research</w>": 725,
  "n</w>": 726,
  "staff</w>": 727,
  "let</w>": 728,
  "community</w>": 729,
  "Michael</w>": 730,
  "July</w>": 731,
  "low</w>": 732,
  "forward</w>": 733,
  "problem</w>": 734,
  "capital</w>": 735,
  "playing</w>": 736,
  "rather</w>": 737,
  "kind</w>": 738,
  "prices</w>": 739,
  "ahead</w>": 740,
  "reports</w>": 741,
  "private</w>": 742,
  "book</w>": 743,
  "el": 744,
  "wife</w>": 745,
  "sure</w>": 746,
  "rights</w>": 747,
  "leaders</w>": 748,
  "board</w>": 749,
  "Department</w>": 750,
  "land</w>": 751,
  "o": 752,
  "shows</w>": 753,
  "general</w>": 754,
  "father</w>": 755,
  "front</w>": 756,
  "seven</w>": 757,
  "All</w>": 758,
  "include</w>": 759,
  "Scotland</w>": 760,
  "became</w>": 761,
  "ts</w>": 762,
  "minister</w>": 763,
  "evidence</w>": 764,
  "Cup</w>": 765,
  "th": 766,
  "makes</w>": 767,
  "17</w>": 768,
  "result</w>": 769,
  "recently</w>": 770,
  "Last</w>": 771,
  "stop</w>": 772,
  "forces</w>": 773,
  "results</w>": 774,
  "match</w>": 775,
  "Court</w>": 776,
  "September</w>": 777,
  "star</w>": 778,
  "Al": 779,
  "Now</w>": 780,
  "couple</w>": 781,
  "parents</w>": 782,
  "Clinton</w>": 783,
  "40</w>": 784,
  "students</w>": 785,
  "biggest</w>": 786,
  "January</w>": 787,
  "leave</w>": 788,
  "black</w>": 789,
  "town</w>": 790,
  "Z": 791,
  "event</w>": 792,
  "race</w>": 793,
  "gave</w>": 794,
  "I": 795,
  "energy</w>": 796,
  "st": 797,
  "France</w>": 798,
  "means</w>": 799,
  "leading</w>": 800,
  "Ch": 801,
  "Republican</w>": 802,
  "period</w>": 803,
  "investigation</w>": 804,
  "c": 805,
  "James</w>": 806,
  "higher</w>": 807,
  "an": 808,
  "workers</w>": 809,
  "moment</w>": 810,
  "8": 811,
  "issues</w>": 812,
  "groups</w>": 813,
  "eight</w>": 814,
  "7": 815,
  "sh": 816,
  "experience</w>": 817,
  "involved</w>": 818,
  "ball</w>": 819,
  "m</w>": 820,
  "received</w>": 821,
  "player</w>": 822,
  "ar": 823,
  "provide</w>": 824,
  "on": 825,
  "An</w>": 826,
  "crisis</w>": 827,
  "friends</w>": 828,
  "ant</w>": 829,
  "position</w>": 830,
  "loss</w>": 831,
  "Sh": 832,
  "French</w>": 833,
  "average</w>": 834,
  "available</w>": 835,
  "anything</w>": 836,
  "foreign</w>": 837,
  "authorities</w>": 838,
  "ity</w>": 839,
  "problems</w>": 840,
  "despite</w>": 841,
  "latest</w>": 842,
  "nothing</w>": 843,
  "showed</w>": 844,
  "p</w>": 845,
  "chance</w>": 846,
  "ie</w>": 847,
  "goal</w>": 848,
  "running</w>": 849,
  "les</w>": 850,
  "needs</w>": 851,
  "nation</w>": 852,
  "2007</w>": 853,
  "24</w>": 854,
  "December</w>": 855,
  "League</w>": 856,
  "human</w>": 857,
  "j": 858,
  "hope</w>": 859,
  "Chinese</w>": 860,
  "needed</w>": 861,
  "ent</w>": 862,
  "member</w>": 863,
  "offer</w>": 864,
  "potential</w>": 865,
  "legal</w>": 866,
  "red</w>": 867,
  "career</w>": 868,
  "g</w>": 869,
  "ic</w>": 870,
  "over": 871,
  "es": 872,
  "senior</w>": 873,
  "however</w>": 874,
  "hospital</w>": 875,
  "question</w>": 876,
  "sent</w>": 877,
  "manager</w>": 878,
  "turn</w>": 879,
  "someone</w>": 880,
  "Street</w>": 881,
  "costs</w>": 882,
  "California</w>": 883,
  "turned</w>": 884,
  "states</w>": 885,
  "force</w>": 886,
  "hand</w>": 887,
  "at": 888,
  "visit</w>": 889,
  "ting</w>": 890,
  "performance</w>": 891,
  "November</w>": 892,
  "wasn</w>": 893,
  "jobs</w>": 894,
  "paid</w>": 895,
  "ia</w>": 896,
  "spent</w>": 897,
  "difficult</w>": 898,
  "fans</w>": 899,
  "My</w>": 900,
  "BBC</w>": 901,
  "lives</w>": 902,
  "coach</w>": 903,
  "pressure</w>": 904,
  "Paul</w>": 905,
  "ne</w>": 906,
  "fight</w>": 907,
  "actually</w>": 908,
  "ley</w>": 909,
  "spending</w>": 910,
  "Ms</w>": 911,
  "summer</w>": 912,
  "worked</w>": 913,
  "EU</w>": 914,
  "round</w>": 915,
  "probably</w>": 916,
  "bad</w>": 917,
  "living</w>": 918,
  "idea</w>": 919,
  "form</w>": 920,
  "9": 921,
  "fall</w>": 922,
  "r": 923,
  "heard</w>": 924,
  "ally</w>": 925,
  "bring</w>": 926,
  "claims</w>": 927,
  "phone</w>": 928,
  "special</w>": 929,
  "Russian</w>": 930,
  "attacks</w>": 931,
  "themselves</w>": 932,
  "areas</w>": 933,
  "list</w>": 934,
  "music</w>": 935,
  "u</w>": 936,
  "International</w>": 937,
  "white</w>": 938,
  "z": 939,
  "total</w>": 940,
  "Bank</w>": 941,
  "ground</w>": 942,
  "fell</w>": 943,
  "administration</w>": 944,
  "victory</w>": 945,
  "AP</w>": 946,
  "ro": 947,
  "charges</w>": 948,
  "hold</w>": 949,
  "Reuters</w>": 950,
  "stage</w>": 951,
  "George</w>": 952,
  "remains</w>": 953,
  "Iran</w>": 954,
  "ates</w>": 955,
  "October</w>": 956,
  ".com</w>": 957,
  "published</w>": 958,
  "sau</w>": 959,
  "changes</w>": 960,
  "ended</w>": 961,
  "19</w>": 962,
  "Iraq</w>": 963,
  "soon</w>": 964,
  "short</w>": 965,
  "release</w>": 966,
  "21</w>": 967,
  "cases</w>": 968,
  "weekend</w>": 969,
  "technology</w>": 970,
  "22</w>": 971,
  "bill</w>": 972,
  "ies</w>": 973,
  "main</w>": 974,
  "similar</w>": 975,
  "These</w>": 976,
  "officers</w>": 977,
  "C</w>": 978,
  "everything</w>": 979,
  "rates</w>": 980,
  "als</w>": 981,
  "trial</w>": 982,
  "serious</w>": 983,
  "region</w>": 984,
  "agency</w>": 985,
  "ani</w>": 986,
  "trade</w>": 987,
  "a": 988,
  "development</w>": 989,
  "wants</w>": 990,
  "single</w>": 991,
  "investment</w>": 992,
  "Mar": 993,
  "firm</w>": 994,
  "u": 995,
  "remain</w>": 996,
  "matter</w>": 997,
  "space</w>": 998,
  "ad": 999,
  "interview</w>": 1000,
  "rise</w>": 1001,
  "inside</w>": 1002,
  "football</w>": 1003,
  "brought</w>": 1004,
  "sunt</w>": 1005,
  "conference</w>": 1006,
  "as": 1007,
  "em": 1008,
  "personal</w>": 1009,
  "Times</w>": 1010,
  "heart</w>": 1011,
  "training</w>": 1012,
  "longer</w>": 1013,
  "August</w>": 1014,
  "de": 1015,
  "felt</w>": 1016,
  "view</w>": 1017,
  "banks</w>": 1018,
  "worth</w>": 1019,
  "Facebook</w>": 1020,
  "it": 1021,
  "largest</w>": 1022,
  "accused</w>": 1023,
  "described</w>": 1024,
  "Syria</w>": 1025,
  "talk</w>": 1026,
  "helped</w>": 1027,
  "Re": 1028,
  "gas</w>": 1029,
  "ability</w>": 1030,
  "tried</w>": 1031,
  "rest</w>": 1032,
  "Senate</w>": 1033,
  "thousands</w>": 1034,
  "East</w>": 1035,
  "quite</w>": 1036,
  "everyone</w>": 1037,
  "happened</w>": 1038,
  "medical</w>": 1039,
  "whole</w>": 1040,
  "stay</w>": 1041,
  "growing</w>": 1042,
  "ary</w>": 1043,
  "Americans</w>": 1044,
  "markets</w>": 1045,
  "February</w>": 1046,
  "impact</w>": 1047,
  "previous</w>": 1048,
  "dead</w>": 1049,
  "light</w>": 1050,
  "project</w>": 1051,
  "\u00e9</w>": 1052,
  "customers</w>": 1053,
  "h</w>": 1054,
  "lower</w>": 1055,
  "daughter</w>": 1056,
  "especially</w>": 1057,
  "patients</w>": 1058,
  "income</w>": 1059,
  "Ar": 1060,
  "ine</w>": 1061,
  "huge</w>": 1062,
  "drug</w>": 1063,
  "ons</w>": 1064,
  "significant</w>": 1065,
  "seems</w>": 1066,
  "ab": 1067,
  "violence</w>": 1068,
  "met</w>": 1069,
  "meet</w>": 1070,
  "23</w>": 1071,
  "failed</w>": 1072,
  "tell</w>": 1073,
  "nuclear</w>": 1074,
  "ways</w>": 1075,
  "access</w>": 1076,
  "families</w>": 1077,
  "test</w>": 1078,
  "officer</w>": 1079,
  "Los</w>": 1080,
  "ans</w>": 1081,
  "est</w>": 1082,
  "arrested</w>": 1083,
  "Labour</w>": 1084,
  "although</w>": 1085,
  "break</w>": 1086,
  "ted</w>": 1087,
  "is": 1088,
  "le": 1089,
  "situation</w>": 1090,
  "S</w>": 1091,
  "2016</w>": 1092,
  "debt</w>": 1093,
  "Twitter</w>": 1094,
  "appeared</w>": 1095,
  "road</w>": 1096,
  "os</w>": 1097,
  "allowed</w>": 1098,
  "How</w>": 1099,
  "im": 1100,
  "isn</w>": 1101,
  "either</w>": 1102,
  "cause</w>": 1103,
  "anyone</w>": 1104,
  "production</w>": 1105,
  "products</w>": 1106,
  "Park</w>": 1107,
  "San</w>": 1108,
  "talks</w>": 1109,
  "questions</w>": 1110,
  "winning</w>": 1111,
  "ad</w>": 1112,
  "Germany</w>": 1113,
  "buy</w>": 1114,
  "safety</w>": 1115,
  "looked</w>": 1116,
  "In": 1117,
  "allow</w>": 1118,
  "cash</w>": 1119,
  "compared</w>": 1120,
  "sense</w>": 1121,
  "Smith</w>": 1122,
  "am": 1123,
  "People</w>": 1124,
  "Congress</w>": 1125,
  "cancer</w>": 1126,
  "Mc": 1127,
  "b</w>": 1128,
  "terms</w>": 1129,
  "budget</w>": 1130,
  "response</w>": 1131,
  "charged</w>": 1132,
  ".": 1133,
  "India</w>": 1134,
  "Angeles</w>": 1135,
  "ale</w>": 1136,
  "credit</w>": 1137,
  "takes</w>": 1138,
  "included</w>": 1139,
  "forced</w>": 1140,
  "value</w>": 1141,
  "More</w>": 1142,
  "U": 1143,
  "example</w>": 1144,
  "particularly</w>": 1145,
  "\u00e9": 1146,
  "Israel</w>": 1147,
  "Japan</w>": 1148,
  "term</w>": 1149,
  "opposition</w>": 1150,
  "qu": 1151,
  "conditions</w>": 1152,
  "nine</w>": 1153,
  "ings</w>": 1154,
  "De": 1155,
  "step</w>": 1156,
  "al-": 1157,
  "schools</w>": 1158,
  "prison</w>": 1159,
  "investors</w>": 1160,
  "miles</w>": 1161,
  "treatment</w>": 1162,
  "press</w>": 1163,
  "efforts</w>": 1164,
  "net</w>": 1165,
  "calls</w>": 1166,
  "incident</w>": 1167,
  "moved</w>": 1168,
  "presidential</w>": 1169,
  "charge</w>": 1170,
  "Korea</w>": 1171,
  "property</w>": 1172,
  "or": 1173,
  "cannot</w>": 1174,
  "Brown</w>": 1175,
  "create</w>": 1176,
  "Even</w>": 1177,
  "quickly</w>": 1178,
  "continued</w>": 1179,
  "rules</w>": 1180,
  "shares</w>": 1181,
  "popular</w>": 1182,
  "friend</w>": 1183,
  "ice</w>": 1184,
  "voters</w>": 1185,
  "events</w>": 1186,
  "focus</w>": 1187,
  "comment</w>": 1188,
  "claimed</w>": 1189,
  "central</w>": 1190,
  "currently</w>": 1191,
  "County</w>": 1192,
  "opening</w>": 1193,
  "Sydney</w>": 1194,
  "Prime</w>": 1195,
  "demand</w>": 1196,
  "reason</w>": 1197,
  "decided</w>": 1198,
  "sign</w>": 1199,
  "above</w>": 1200,
  "success</w>": 1201,
  "ul": 1202,
  "increased</w>": 1203,
  "28</w>": 1204,
  "wrong</w>": 1205,
  "concerns</w>": 1206,
  "knew</w>": 1207,
  "agreement</w>": 1208,
  "60</w>": 1209,
  "ist</w>": 1210,
  "opportunity</w>": 1211,
  "Two</w>": 1212,
  "levels</w>": 1213,
  "il": 1214,
  "te</w>": 1215,
  "Government</w>": 1216,
  "works</w>": 1217,
  "range</w>": 1218,
  "Mark</w>": 1219,
  "Center</w>": 1220,
  "31</w>": 1221,
  "king</w>": 1222,
  "26</w>": 1223,
  "il</w>": 1224,
  "television</w>": 1225,
  "agreed</w>": 1226,
  "y-": 1227,
  "mean</w>": 1228,
  "itself</w>": 1229,
  "believed</w>": 1230,
  "27</w>": 1231,
  "co": 1232,
  "1.": 1233,
  "era</w>": 1234,
  "out": 1235,
  "raised</w>": 1236,
  "gone</w>": 1237,
  "homes</w>": 1238,
  "fourth</w>": 1239,
  "sold</w>": 1240,
  "named</w>": 1241,
  "husband</w>": 1242,
  "id</w>": 1243,
  "ac": 1244,
  "effort</w>": 1245,
  "Our</w>": 1246,
  "D</w>": 1247,
  "debate</w>": 1248,
  "non-": 1249,
  "www.": 1250,
  "Republicans</w>": 1251,
  "relationship</w>": 1252,
  "management</w>": 1253,
  "ton</w>": 1254,
  "ling</w>": 1255,
  "Group</w>": 1256,
  "St": 1257,
  "goes</w>": 1258,
  "Council</w>": 1259,
  "Africa</w>": 1260,
  "website</w>": 1261,
  "Le": 1262,
  "ous</w>": 1263,
  "et": 1264,
  "reach</w>": 1265,
  "review</w>": 1266,
  "travel</w>": 1267,
  "revealed</w>": 1268,
  "ag": 1269,
  "instead</w>": 1270,
  "annual</w>": 1271,
  "born</w>": 1272,
  "act</w>": 1273,
  "looks</w>": 1274,
  "Car": 1275,
  "giving</w>": 1276,
  "education</w>": 1277,
  "Party</w>": 1278,
  "Bo": 1279,
  "um</w>": 1280,
  "happy</w>": 1281,
  "bl": 1282,
  "According</w>": 1283,
  "Scottish</w>": 1284,
  "=</w>": 1285,
  "be": 1286,
  "R</w>": 1287,
  "scene</w>": 1288,
  "read</w>": 1289,
  "\u00e0</w>": 1290,
  "ol": 1291,
  "v": 1292,
  "Democrats</w>": 1293,
  "Texas</w>": 1294,
  "Union</w>": 1295,
  "certain</w>": 1296,
  "confirmed</w>": 1297,
  "message</w>": 1298,
  "scored</w>": 1299,
  "simply</w>": 1300,
  "figures</w>": 1301,
  "sex</w>": 1302,
  "words</w>": 1303,
  "mis": 1304,
  "hour</w>": 1305,
  "ian</w>": 1306,
  "judge</w>": 1307,
  "expect</w>": 1308,
  "account</w>": 1309,
  "di": 1310,
  "teams</w>": 1311,
  "Day</w>": 1312,
  "else</w>": 1313,
  "ri": 1314,
  "amount</w>": 1315,
  "ical</w>": 1316,
  "pretty</w>": 1317,
  "operations</w>": 1318,
  "anti-": 1319,
  "Many</w>": 1320,
  "Johnson</w>": 1321,
  "art</w>": 1322,
  "claim</w>": 1323,
  "title</w>": 1324,
  "majority</w>": 1325,
  "Paris</w>": 1326,
  "contract</w>": 1327,
  "leaving</w>": 1328,
  "Democratic</w>": 1329,
  "beat</w>": 1330,
  "numbers</w>": 1331,
  "challenge</w>": 1332,
  "caused</w>": 1333,
  "build</w>": 1334,
  "victims</w>": 1335,
  "followed</w>": 1336,
  "Not</w>": 1337,
  "ner</w>": 1338,
  "ed": 1339,
  "stock</w>": 1340,
  "Her</w>": 1341,
  "pass</w>": 1342,
  "speech</w>": 1343,
  "2006</w>": 1344,
  "understand</w>": 1345,
  "que</w>": 1346,
  "girl</w>": 1347,
  "common</w>": 1348,
  "La</w>": 1349,
  "Chris</w>": 1350,
  "attention</w>": 1351,
  "sector</w>": 1352,
  "lo": 1353,
  "Afghanistan</w>": 1354,
  "Jones</w>": 1355,
  "hands</w>": 1356,
  "boy</w>": 1357,
  "lui</w>": 1358,
  "injury</w>": 1359,
  "th</w>": 1360,
  "E</w>": 1361,
  "kids</w>": 1362,
  "chairman</w>": 1363,
  "sale</w>": 1364,
  "effect</w>": 1365,
  "Health</w>": 1366,
  "cuts</w>": 1367,
  "stand</w>": 1368,
  "immediately</w>": 1369,
  "rose</w>": 1370,
  "ai</w>": 1371,
  "created</w>": 1372,
  "built</w>": 1373,
  "minute</w>": 1374,
  "date</w>": 1375,
  "post</w>": 1376,
  "fully</w>": 1377,
  "ready</w>": 1378,
  "German</w>": 1379,
  "Cameron</w>": 1380,
  "1": 1381,
  "runs</w>": 1382,
  "threat</w>": 1383,
  "track</w>": 1384,
  "self-": 1385,
  "CNN</w>": 1386,
  "ter</w>": 1387,
  "*</w>": 1388,
  "Un": 1389,
  "network</w>": 1390,
  "29</w>": 1391,
  "warned</w>": 1392,
  "fighting</w>": 1393,
  "ered</w>": 1394,
  "adding</w>": 1395,
  "happen</w>": 1396,
  "bo": 1397,
  "gets</w>": 1398,
  "2": 1399,
  "Peter</w>": 1400,
  "border</w>": 1401,
  "General</w>": 1402,
  "includes</w>": 1403,
  "details</w>": 1404,
  "offered</w>": 1405,
  "approach</w>": 1406,
  "kept</w>": 1407,
  "centre</w>": 1408,
  "movie</w>": 1409,
  "search</w>": 1410,
  "500</w>": 1411,
  "murder</w>": 1412,
  "z</w>": 1413,
  "B</w>": 1414,
  "watch</w>": 1415,
  "ic": 1416,
  "yesterday</w>": 1417,
  "drive</w>": 1418,
  "ei</w>": 1419,
  "des</w>": 1420,
  "base</w>": 1421,
  "businesses</w>": 1422,
  "residents</w>": 1423,
  "previously</w>": 1424,
  "model</w>": 1425,
  "cars</w>": 1426,
  "Bush</w>": 1427,
  "considered</w>": 1428,
  "sp": 1429,
  "parts</w>": 1430,
  "Williams</w>": 1431,
  "om": 1432,
  "easy</w>": 1433,
  "Islamic</w>": 1434,
  "opened</w>": 1435,
  "ke</w>": 1436,
  "poor</w>": 1437,
  "ance</w>": 1438,
  "ran</w>": 1439,
  "Then</w>": 1440,
  "0.": 1441,
  "ask</w>": 1442,
  "under": 1443,
  "starting</w>": 1444,
  "From</w>": 1445,
  "a-": 1446,
  "ho": 1447,
  "moving</w>": 1448,
  "Google</w>": 1449,
  "Of</w>": 1450,
  "competition</w>": 1451,
  "crime</w>": 1452,
  "Dr</w>": 1453,
  "signed</w>": 1454,
  "injured</w>": 1455,
  "An": 1456,
  "ics</w>": 1457,
  "sc": 1458,
  "Martin</w>": 1459,
  "reached</w>": 1460,
  "shooting</w>": 1461,
  "id": 1462,
  "dar</w>": 1463,
  "figure</w>": 1464,
  "ish</w>": 1465,
  "troops</w>": 1466,
  "changed</w>": 1467,
  "pre": 1468,
  "quality</w>": 1469,
  "returned</w>": 1470,
  "hearing</w>": 1471,
  "L</w>": 1472,
  "funding</w>": 1473,
  "School</w>": 1474,
  "closed</w>": 1475,
  "ti": 1476,
  "candidate</w>": 1477,
  "committee</w>": 1478,
  "decades</w>": 1479,
  "missing</w>": 1480,
  "flight</w>": 1481,
  "prime</w>": 1482,
  "English</w>": 1483,
  "class</w>": 1484,
  "letter</w>": 1485,
  "Florida</w>": 1486,
  "true</w>": 1487,
  "ensure</w>": 1488,
  "Apple</w>": 1489,
  "trip</w>": 1490,
  "couldn</w>": 1491,
  "posted</w>": 1492,
  "T</w>": 1493,
  "benefits</w>": 1494,
  "researchers</w>": 1495,
  "mo": 1496,
  "Secretary</w>": 1497,
  "vor</w>": 1498,
  "station</w>": 1499,
  "Robert</w>": 1500,
  "alone</w>": 1501,
  "ing": 1502,
  "18": 1503,
  "parties</w>": 1504,
  "launched</w>": 1505,
  "pl": 1506,
  "ks</w>": 1507,
  "drugs</w>": 1508,
  "Ms.</w>": 1509,
  "target</w>": 1510,
  "talking</w>": 1511,
  "UPI</w>": 1512,
  "35</w>": 1513,
  "baby</w>": 1514,
  "straight</w>": 1515,
  "sexual</w>": 1516,
  "student</w>": 1517,
  "First</w>": 1518,
  "source</w>": 1519,
  "towards</w>": 1520,
  "positive</w>": 1521,
  "fund</w>": 1522,
  "se": 1523,
  "blood</w>": 1524,
  "Manchester</w>": 1525,
  "p.m.</w>": 1526,
  "mind</w>": 1527,
  "raise</w>": 1528,
  "address</w>": 1529,
  "certainly</w>": 1530,
  "En": 1531,
  "sell</w>": 1532,
  "Bar": 1533,
  "safe</w>": 1534,
  "employees</w>": 1535,
  "league</w>": 1536,
  "population</w>": 1537,
  "killing</w>": 1538,
  "lack</w>": 1539,
  "Press</w>": 1540,
  "passed</w>": 1541,
  "ey</w>": 1542,
  "hundreds</w>": 1543,
  "natural</w>": 1544,
  "ones</w>": 1545,
  "beyond</w>": 1546,
  "os": 1547,
  "disease</w>": 1548,
  "Most</w>": 1549,
  "comments</w>": 1550,
  "funds</w>": 1551,
  "cl": 1552,
  "street</w>": 1553,
  "protect</w>": 1554,
  "seem</w>": 1555,
  "P</w>": 1556,
  "row</w>": 1557,
  "measures</w>": 1558,
  "tough</w>": 1559,
  "provided</w>": 1560,
  "insurance</w>": 1561,
  "condition</w>": 1562,
  "appear</w>": 1563,
  "related</w>": 1564,
  "users</w>": 1565,
  "goals</w>": 1566,
  "driving</w>": 1567,
  "feet</w>": 1568,
  "ir": 1569,
  "200</w>": 1570,
  "seemed</w>": 1571,
  "perhaps</w>": 1572,
  "issued</w>": 1573,
  "he": 1574,
  "x</w>": 1575,
  "Company</w>": 1576,
  "ban</w>": 1577,
  "Bill</w>": 1578,
  "hotel</w>": 1579,
  "Association</w>": 1580,
  "-year-old</w>": 1581,
  "King</w>": 1582,
  "politics</w>": 1583,
  "on-": 1584,
  "door</w>": 1585,
  "cover</w>": 1586,
  "ence</w>": 1587,
  "aid</w>": 1588,
  "battle</w>": 1589,
  "ically</w>": 1590,
  "Scott</w>": 1591,
  "f</w>": 1592,
  "damage</w>": 1593,
  "Although</w>": 1594,
  "designed</w>": 1595,
  "Co": 1596,
  "Canada</w>": 1597,
  "supporters</w>": 1598,
  "Pakistan</w>": 1599,
  "avoid</w>": 1600,
  "Mexico</w>": 1601,
  "store</w>": 1602,
  "par": 1603,
  "Image</w>": 1604,
  "Office</w>": 1605,
  "experts</w>": 1606,
  "attempt</w>": 1607,
  "independent</w>": 1608,
  "written</w>": 1609,
  "spend</w>": 1610,
  "Melbourne</w>": 1611,
  "bid</w>": 1612,
  "appears</w>": 1613,
  "ap": 1614,
  "partner</w>": 1615,
  "planned</w>": 1616,
  "pair</w>": 1617,
  "alleged</w>": 1618,
  "style</w>": 1619,
  "below</w>": 1620,
  "ay</w>": 1621,
  "suggested</w>": 1622,
  "Richard</w>": 1623,
  "Christmas</w>": 1624,
  "center</w>": 1625,
  "joined</w>": 1626,
  "climate</w>": 1627,
  "trading</w>": 1628,
  "dropped</w>": 1629,
  "car": 1630,
  "defense</w>": 1631,
  "newspaper</w>": 1632,
  "calling</w>": 1633,
  "suffered</w>": 1634,
  "size</w>": 1635,
  "save</w>": 1636,
  "decade</w>": 1637,
  "Dr.</w>": 1638,
  "Royal</w>": 1639,
  "arrived</w>": 1640,
  "sw": 1641,
  "iar</w>": 1642,
  "Another</w>": 1643,
  "finally</w>": 1644,
  "War</w>": 1645,
  "45</w>": 1646,
  "Donald</w>": 1647,
  "millions</w>": 1648,
  "reporters</w>": 1649,
  "Western</w>": 1650,
  "s-a</w>": 1651,
  "De</w>": 1652,
  "sometimes</w>": 1653,
  "reduce</w>": 1654,
  "choice</w>": 1655,
  "tour</w>": 1656,
  "Tom</w>": 1657,
  "owner</w>": 1658,
  "w</w>": 1659,
  "emergency</w>": 1660,
  "successful</w>": 1661,
  "improve</w>": 1662,
  "product</w>": 1663,
  "leadership</w>": 1664,
  "Con": 1665,
  "afternoon</w>": 1666,
  "spoke</w>": 1667,
  "po": 1668,
  "additional</w>": 1669,
  "toward</w>": 1670,
  "Justice</w>": 1671,
  "weapons</w>": 1672,
  "Pro": 1673,
  "Commission</w>": 1674,
  "Be": 1675,
  "driver</w>": 1676,
  "Since</w>": 1677,
  "lose</w>": 1678,
  "ator</w>": 1679,
  "c</w>": 1680,
  "ants</w>": 1681,
  "confidence</w>": 1682,
  "80</w>": 1683,
  "Wales</w>": 1684,
  "ering</w>": 1685,
  "70</w>": 1686,
  "places</w>": 1687,
  "complete</w>": 1688,
  "Security</w>": 1689,
  "north</w>": 1690,
  "ite</w>": 1691,
  "holding</w>": 1692,
  "dollars</w>": 1693,
  "abuse</w>": 1694,
  "sa": 1695,
  "seeking</w>": 1696,
  "council</w>": 1697,
  "paper</w>": 1698,
  "guilty</w>": 1699,
  "revenue</w>": 1700,
  "believes</w>": 1701,
  "plane</w>": 1702,
  "af": 1703,
  "housing</w>": 1704,
  "ors</w>": 1705,
  "laws</w>": 1706,
  "throughout</w>": 1707,
  "ex": 1708,
  "wouldn</w>": 1709,
  "Q": 1710,
  "Ireland</w>": 1711,
  "s-": 1712,
  "fear</w>": 1713,
  "About</w>": 1714,
  "co-": 1715,
  "Italy</w>": 1716,
  "practice</w>": 1717,
  "Is</w>": 1718,
  "bed</w>": 1719,
  "crowd</w>": 1720,
  "winner</w>": 1721,
  "Andrew</w>": 1722,
  "plus</w>": 1723,
  "per": 1724,
  "mobile</w>": 1725,
  "version</w>": 1726,
  "ely</w>": 1727,
  "consider</w>": 1728,
  "civil</w>": 1729,
  "er-": 1730,
  "ch</w>": 1731,
  "worst</w>": 1732,
  "caught</w>": 1733,
  "10": 1734,
  "launch</w>": 1735,
  "lines</w>": 1736,
  "extra</w>": 1737,
  "hopes</w>": 1738,
  "ler</w>": 1739,
  "rule</w>": 1740,
  "present</w>": 1741,
  "marriage</w>": 1742,
  "served</w>": 1743,
  "carried</w>": 1744,
  "highest</w>": 1745,
  "admitted</w>": 1746,
  "prin</w>": 1747,
  "Other</w>": 1748,
  "required</w>": 1749,
  "girls</w>": 1750,
  "con": 1751,
  "Just</w>": 1752,
  "ship</w>": 1753,
  "train</w>": 1754,
  "90</w>": 1755,
  "com": 1756,
  "domestic</w>": 1757,
  "whom</w>": 1758,
  "Despite</w>": 1759,
  "piece</w>": 1760,
  "Mo": 1761,
  "ier</w>": 1762,
  "dupa</w>": 1763,
  "word</w>": 1764,
  "brother</w>": 1765,
  "r</w>": 1766,
  "Romney</w>": 1767,
  "to": 1768,
  "elections</w>": 1769,
  "Syrian</w>": 1770,
  "criminal</w>": 1771,
  "secretary</w>": 1772,
  "contact</w>": 1773,
  "2.": 1774,
  "spot</w>": 1775,
  "female</w>": 1776,
  "thinking</w>": 1777,
  "Committee</w>": 1778,
  "strategy</w>": 1779,
  "assets</w>": 1780,
  "2005</w>": 1781,
  "li": 1782,
  "host</w>": 1783,
  "Th": 1784,
  "operating</w>": 1785,
  "hear</w>": 1786,
  "M</w>": 1787,
  "up": 1788,
  "ur": 1789,
  "greater</w>": 1790,
  "injuries</w>": 1791,
  "movement</w>": 1792,
  "picture</w>": 1793,
  "wide</w>": 1794,
  "benefit</w>": 1795,
  "table</w>": 1796,
  "deep</w>": 1797,
  "ma</w>": 1798,
  "speak</w>": 1799,
  "@</w>": 1800,
  "re-": 1801,
  "St</w>": 1802,
  "Sch": 1803,
  "begin</w>": 1804,
  "finished</w>": 1805,
  "tr": 1806,
  "union</w>": 1807,
  "original</w>": 1808,
  "older</w>": 1809,
  "ets</w>": 1810,
  "showing</w>": 1811,
  "inter": 1812,
  "x": 1813,
  "particular</w>": 1814,
  "peace</w>": 1815,
  "activity</w>": 1816,
  "department</w>": 1817,
  "card</w>": 1818,
  "crash</w>": 1819,
  "ists</w>": 1820,
  "fine</w>": 1821,
  "pro": 1822,
  "concern</w>": 1823,
  "culture</w>": 1824,
  "weather</w>": 1825,
  "concerned</w>": 1826,
  "Mike</w>": 1827,
  "weight</w>": 1828,
  "faces</w>": 1829,
  "books</w>": 1830,
  "declined</w>": 1831,
  "ph": 1832,
  "ne": 1833,
  "middle</w>": 1834,
  "planning</w>": 1835,
  "entire</w>": 1836,
  "box</w>": 1837,
  "acest</w>": 1838,
  "Chicago</w>": 1839,
  "ker</w>": 1840,
  "ise</w>": 1841,
  "denied</w>": 1842,
  "evening</w>": 1843,
  "intelligence</w>": 1844,
  "Photo</w>": 1845,
  "soldiers</w>": 1846,
  "gold</w>": 1847,
  "strike</w>": 1848,
  "sort</w>": 1849,
  "ev": 1850,
  "Both</w>": 1851,
  "vehicle</w>": 1852,
  "shown</w>": 1853,
  "addition</w>": 1854,
  "walk</w>": 1855,
  "join</w>": 1856,
  "selling</w>": 1857,
  "Thomas</w>": 1858,
  "reality</w>": 1859,
  "operation</w>": 1860,
  "http</w>": 1861,
  "powerful</w>": 1862,
  "individual</w>": 1863,
  "rising</w>": 1864,
  "us": 1865,
  "answer</w>": 1866,
  "Spain</w>": 1867,
  "continues</w>": 1868,
  "losing</w>": 1869,
  "allegations</w>": 1870,
  "Premier</w>": 1871,
  "appeal</w>": 1872,
  "Inc</w>": 1873,
  "euro</w>": 1874,
  "facing</w>": 1875,
  "During</w>": 1876,
  "receive</w>": 1877,
  "offers</w>": 1878,
  "sides</w>": 1879,
  "double</w>": 1880,
  "image</w>": 1881,
  "feeling</w>": 1882,
  "ou": 1883,
  "ma": 1884,
  "meant</w>": 1885,
  "Those</w>": 1886,
  "prevent</w>": 1887,
  "Today</w>": 1888,
  "ig": 1889,
  "traditional</w>": 1890,
  "cities</w>": 1891,
  "mission</w>": 1892,
  "subject</w>": 1893,
  "lawyer</w>": 1894,
  "Barack</w>": 1895,
  "via</w>": 1896,
  "gun</w>": 1897,
  "Steve</w>": 1898,
  "century</w>": 1899,
  "overall</w>": 1900,
  "actions</w>": 1901,
  "putting</w>": 1902,
  "si": 1903,
  "Why</w>": 1904,
  "policies</w>": 1905,
  "0": 1906,
  "op": 1907,
  "ending</w>": 1908,
  "pm</w>": 1909,
  "candidates</w>": 1910,
  "proposed</w>": 1911,
  "estimated</w>": 1912,
  "heavy</w>": 1913,
  "stars</w>": 1914,
  "drop</w>": 1915,
  "du</w>": 1916,
  "N</w>": 1917,
  "ten</w>": 1918,
  "Ryan</w>": 1919,
  "beginning</w>": 1920,
  "south</w>": 1921,
  "ruling</w>": 1922,
  "wood</w>": 1923,
  "ked</w>": 1924,
  "page</w>": 1925,
  "doctors</w>": 1926,
  "Federal</w>": 1927,
  "critical</w>": 1928,
  "El": 1929,
  "legislation</w>": 1930,
  "Ro": 1931,
  "eventually</w>": 1932,
  "\u02dd</w>": 1933,
  "push</w>": 1934,
  "becoming</w>": 1935,
  "ty</w>": 1936,
  "discovered</w>": 1937,
  "Yet</w>": 1938,
  "floor</w>": 1939,
  "photo</w>": 1940,
  "pick</w>": 1941,
  "reform</w>": 1942,
  "stopped</w>": 1943,
  "statements</w>": 1944,
  "Se": 1945,
  "green</w>": 1946,
  "sl": 1947,
  "3.": 1948,
  "broke</w>": 1949,
  "seeing</w>": 1950,
  "massive</w>": 1951,
  "ties</w>": 1952,
  "ment</w>": 1953,
  "Lee</w>": 1954,
  "ill</w>": 1955,
  "profit</w>": 1956,
  "systems</w>": 1957,
  "-based</w>": 1958,
  "perfect</w>": 1959,
  "audience</w>": 1960,
  "clearly</w>": 1961,
  "man": 1962,
  "design</w>": 1963,
  "writing</w>": 1964,
  "affected</w>": 1965,
  "responsible</w>": 1966,
  "0</w>": 1967,
  "foot</w>": 1968,
  "aged</w>": 1969,
  "brand</w>": 1970,
  "ingly</w>": 1971,
  "dangerous</w>": 1972,
  "park</w>": 1973,
  "offering</w>": 1974,
  "consumers</w>": 1975,
  "serve</w>": 1976,
  "yn</w>": 1977,
  "Here</w>": 1978,
  "primary</w>": 1979,
  "helping</w>": 1980,
  "haven</w>": 1981,
  "twice</w>": 1982,
  "sport</w>": 1983,
  "follow</w>": 1984,
  "v</w>": 1985,
  "Service</w>": 1986,
  "ak</w>": 1987,
  "Meanwhile</w>": 1988,
  "committed</w>": 1989,
  "character</w>": 1990,
  "wearing</w>": 1991,
  "identified</w>": 1992,
  "bought</w>": 1993,
  "Institute</w>": 1994,
  "environment</w>": 1995,
  "African</w>": 1996,
  "seat</w>": 1997,
  "direct</w>": 1998,
  "Open</w>": 1999,
  "managed</w>": 2000,
  "brain</w>": 2001,
  "knows</w>": 2002,
  "Internet</w>": 2003,
  "Israeli</w>": 2004,
  "college</w>": 2005,
  "programs</w>": 2006,
  "ses</w>": 2007,
  "sing</w>": 2008,
  "Their</w>": 2009,
  "gives</w>": 2010,
  "sports</w>": 2011,
  "mark</w>": 2012,
  "army</w>": 2013,
  "Sir</w>": 2014,
  "signs</w>": 2015,
  "die</w>": 2016,
  "progress</w>": 2017,
  "fellow</w>": 2018,
  "ard</w>": 2019,
  "asking</w>": 2020,
  "one-": 2021,
  "struck</w>": 2022,
  "scheduled</w>": 2023,
  "normal</w>": 2024,
  "fired</w>": 2025,
  "ent": 2026,
  "2017</w>": 2027,
  "band</w>": 2028,
  "fair</w>": 2029,
  "remember</w>": 2030,
  "ism</w>": 2031,
  "av": 2032,
  "ins</w>": 2033,
  "ry</w>": 2034,
  "eyes</w>": 2035,
  "champion</w>": 2036,
  "ec": 2037,
  "ell</w>": 2038,
  "modern</w>": 2039,
  "carry</w>": 2040,
  "measure</w>": 2041,
  "waiting</w>": 2042,
  "ea</w>": 2043,
  "victim</w>": 2044,
  "learn</w>": 2045,
  "Prince</w>": 2046,
  "G</w>": 2047,
  "completely</w>": 2048,
  "society</w>": 2049,
  "married</w>": 2050,
  "difference</w>": 2051,
  "limited</w>": 2052,
  "increasingly</w>": 2053,
  "shared</w>": 2054,
  "noted</w>": 2055,
  "commercial</w>": 2056,
  "missed</w>": 2057,
  "ring</w>": 2058,
  "aw": 2059,
  "developed</w>": 2060,
  "fuel</w>": 2061,
  "remained</w>": 2062,
  "dollar</w>": 2063,
  "actor</w>": 2064,
  "plays</w>": 2065,
  "simple</w>": 2066,
  "add</w>": 2067,
  "ra</w>": 2068,
  "dog</w>": 2069,
  "ore</w>": 2070,
  "myself</w>": 2071,
  "ina</w>": 2072,
  "survey</w>": 2073,
  "amid</w>": 2074,
  "bar</w>": 2075,
  "streets</w>": 2076,
  "highly</w>": 2077,
  "projects</w>": 2078,
  "placed</w>": 2079,
  "score</w>": 2080,
  "2004</w>": 2081,
  "Ben</w>": 2082,
  "Central</w>": 2083,
  "ford</w>": 2084,
  "reasons</w>": 2085,
  "Hollywood</w>": 2086,
  "paying</w>": 2087,
  "Muslim</w>": 2088,
  "aceasta</w>": 2089,
  "Red</w>": 2090,
  "refused</w>": 2091,
  "armed</w>": 2092,
  "daily</w>": 2093,
  "type</w>": 2094,
  "send</w>": 2095,
  "usually</w>": 2096,
  "ter": 2097,
  "ut": 2098,
  "ness</w>": 2099,
  "standing</w>": 2100,
  "in-": 2101,
  "largely</w>": 2102,
  "pe": 2103,
  "eye</w>": 2104,
  "doubt</w>": 2105,
  "owners</w>": 2106,
  "filed</w>": 2107,
  "airport</w>": 2108,
  "ge</w>": 2109,
  "prepared</w>": 2110,
  "risks</w>": 2111,
  "Tony</w>": 2112,
  "justice</w>": 2113,
  "ane</w>": 2114,
  "plant</w>": 2115,
  "Br": 2116,
  "language</w>": 2117,
  "long-term</w>": 2118,
  "storm</w>": 2119,
  "ii</w>": 2120,
  "church</w>": 2121,
  "respect</w>": 2122,
  "Par": 2123,
  "ana</w>": 2124,
  "holiday</w>": 2125,
  "Joe</w>": 2126,
  "yards</w>": 2127,
  "regular</w>": 2128,
  "exactly</w>": 2129,
  "ats</w>": 2130,
  "professional</w>": 2131,
  "Chief</w>": 2132,
  "Chelsea</w>": 2133,
  "views</w>": 2134,
  "ak": 2135,
  "William</w>": 2136,
  "focused</w>": 2137,
  "watching</w>": 2138,
  "earnings</w>": 2139,
  "faced</w>": 2140,
  "vehicles</w>": 2141,
  "recovery</w>": 2142,
  "generation</w>": 2143,
  "Act</w>": 2144,
  "telling</w>": 2145,
  "Turkey</w>": 2146,
  "owned</w>": 2147,
  "attorney</w>": 2148,
  "supply</w>": 2149,
  "spokeswoman</w>": 2150,
  "screen</w>": 2151,
  "warning</w>": 2152,
  "conflict</w>": 2153,
  "Mrs</w>": 2154,
  "sea</w>": 2155,
  "linked</w>": 2156,
  "responsibility</w>": 2157,
  "ata</w>": 2158,
  "_</w>": 2159,
  "rich</w>": 2160,
  "High</w>": 2161,
  "illegal</w>": 2162,
  "defence</w>": 2163,
  "protest</w>": 2164,
  "gr": 2165,
  "Wall</w>": 2166,
  "produced</w>": 2167,
  "32</w>": 2168,
  "records</w>": 2169,
  "lived</w>": 2170,
  "CEO</w>": 2171,
  "Jackson</w>": 2172,
  "Cor": 2173,
  "fast</w>": 2174,
  "construction</w>": 2175,
  "ement</w>": 2176,
  "cur": 2177,
  "Fox</w>": 2178,
  "backed</w>": 2179,
  "Big</w>": 2180,
  "poate</w>": 2181,
  "F</w>": 2182,
  "Air</w>": 2183,
  "aircraft</w>": 2184,
  "ordered</w>": 2185,
  "Mon": 2186,
  "wait</w>": 2187,
  "ping</w>": 2188,
  "assault</w>": 2189,
  "worse</w>": 2190,
  "Com": 2191,
  "uses</w>": 2192,
  "treated</w>": 2193,
  "governor</w>": 2194,
  "author</w>": 2195,
  "documents</w>": 2196,
  "Asia</w>": 2197,
  "mostly</w>": 2198,
  "sites</w>": 2199,
  "for": 2200,
  "Coast</w>": 2201,
  "t-": 2202,
  "famous</w>": 2203,
  "names</w>": 2204,
  "Ex": 2205,
  "voice</w>": 2206,
  "Col": 2207,
  "Italian</w>": 2208,
  "arrest</w>": 2209,
  "protests</w>": 2210,
  "cast</w>": 2211,
  "stories</w>": 2212,
  "Green</w>": 2213,
  "arms</w>": 2214,
  "Kim</w>": 2215,
  "ot": 2216,
  "keeping</w>": 2217,
  "traffic</w>": 2218,
  "necessary</w>": 2219,
  "re</w>": 2220,
  "ra": 2221,
  "block</w>": 2222,
  "Olympic</w>": 2223,
  "various</w>": 2224,
  "consumer</w>": 2225,
  "unit</w>": 2226,
  "images</w>": 2227,
  "St.</w>": 2228,
  "X": 2229,
  "taxes</w>": 2230,
  "grow</w>": 2231,
  "ir</w>": 2232,
  "basis</w>": 2233,
  "balance</w>": 2234,
  "mon": 2235,
  "ue</w>": 2236,
  "speed</w>": 2237,
  "speaking</w>": 2238,
  "Hill</w>": 2239,
  "Army</w>": 2240,
  "status</w>": 2241,
  "high-": 2242,
  "note</w>": 2243,
  "fashion</w>": 2244,
  "complex</w>": 2245,
  "pain</w>": 2246,
  "Don</w>": 2247,
  "mid-": 2248,
  "fresh</w>": 2249,
  "radio</w>": 2250,
  "me": 2251,
  "Ukraine</w>": 2252,
  "island</w>": 2253,
  "two-": 2254,
  "pot</w>": 2255,
  "decisions</w>": 2256,
  "sources</w>": 2257,
  "immigration</w>": 2258,
  "poll</w>": 2259,
  "failure</w>": 2260,
  "US": 2261,
  "professor</w>": 2262,
  "Research</w>": 2263,
  "deaths</w>": 2264,
  "Virginia</w>": 2265,
  "Post</w>": 2266,
  "fl": 2267,
  "boys</w>": 2268,
  "aren</w>": 2269,
  "surgery</w>": 2270,
  "hot</w>": 2271,
  "300</w>": 2272,
  "ah</w>": 2273,
  "ABC</w>": 2274,
  "Japanese</w>": 2275,
  "advantage</w>": 2276,
  "exchange</w>": 2277,
  "accounts</w>": 2278,
  "computer</w>": 2279,
  "fun</w>": 2280,
  "camp</w>": 2281,
  "aware</w>": 2282,
  "captain</w>": 2283,
  "northern</w>": 2284,
  "Per": 2285,
  "estate</w>": 2286,
  "separate</w>": 2287,
  "finding</w>": 2288,
  "giant</w>": 2289,
  "hair</w>": 2290,
  "Beijing</w>": 2291,
  "..</w>": 2292,
  "ised</w>": 2293,
  "finish</w>": 2294,
  "upon</w>": 2295,
  "no": 2296,
  "programme</w>": 2297,
  "tournament</w>": 2298,
  "Har": 2299,
  "bus</w>": 2300,
  "reporting</w>": 2301,
  "analysts</w>": 2302,
  "mental</w>": 2303,
  "draw</w>": 2304,
  "Man": 2305,
  "penalty</w>": 2306,
  "restaurant</w>": 2307,
  "standards</w>": 2308,
  "Black</w>": 2309,
  "tion</w>": 2310,
  "resources</w>": 2311,
  "nearby</w>": 2312,
  "bodies</w>": 2313,
  "seek</w>": 2314,
  "advice</w>": 2315,
  "increasing</w>": 2316,
  "ps</w>": 2317,
  "Indian</w>": 2318,
  "um": 2319,
  "Hall</w>": 2320,
  "gay</w>": 2321,
  "herself</w>": 2322,
  "75</w>": 2323,
  "wall</w>": 2324,
  "boost</w>": 2325,
  "conservative</w>": 2326,
  "scientists</w>": 2327,
  "trust</w>": 2328,
  "cat</w>": 2329,
  "Putin</w>": 2330,
  "options</w>": 2331,
  "directly</w>": 2332,
  "daca</w>": 2333,
  "Ad": 2334,
  "southern</w>": 2335,
  "ach": 2336,
  "Murray</w>": 2337,
  "rare</w>": 2338,
  "explained</w>": 2339,
  "sound</w>": 2340,
  "organization</w>": 2341,
  "Supreme</w>": 2342,
  "university</w>": 2343,
  "+</w>": 2344,
  "allegedly</w>": 2345,
  "1,000</w>": 2346,
  "birth</w>": 2347,
  "coalition</w>": 2348,
  "ens</w>": 2349,
  "activities</w>": 2350,
  "spread</w>": 2351,
  "pulled</w>": 2352,
  "ion</w>": 2353,
  "firms</w>": 2354,
  "Boston</w>": 2355,
  "fit</w>": 2356,
  "passengers</w>": 2357,
  "steps</w>": 2358,
  "suggests</w>": 2359,
  "onto</w>": 2360,
  "physical</w>": 2361,
  "ably</w>": 2362,
  "Associated</w>": 2363,
  "guy</w>": 2364,
  "loan</w>": 2365,
  "defeat</w>": 2366,
  "corporate</w>": 2367,
  "produce</w>": 2368,
  "Foreign</w>": 2369,
  "providing</w>": 2370,
  "Instead</w>": 2371,
  "effective</w>": 2372,
  "Am": 2373,
  "fifth</w>": 2374,
  "effects</w>": 2375,
  "politicians</w>": 2376,
  "proposal</w>": 2377,
  "material</w>": 2378,
  "influence</w>": 2379,
  "regime</w>": 2380,
  "losses</w>": 2381,
  "shots</w>": 2382,
  "option</w>": 2383,
  "cr": 2384,
  "Carolina</w>": 2385,
  "approved</w>": 2386,
  "votes</w>": 2387,
  "acting</w>": 2388,
  "zone</w>": 2389,
  "announcement</w>": 2390,
  "seconds</w>": 2391,
  "develop</w>": 2392,
  "Northern</w>": 2393,
  "guys</w>": 2394,
  "check</w>": 2395,
  "da</w>": 2396,
  "fie</w>": 2397,
  "protesters</w>": 2398,
  "shop</w>": 2399,
  "features</w>": 2400,
  "nature</w>": 2401,
  "Daily</w>": 2402,
  "1,": 2403,
  "parliament</w>": 2404,
  "camera</w>": 2405,
  "Romania</w>": 2406,
  "te": 2407,
  "kill</w>": 2408,
  "K</w>": 2409,
  "Three</w>": 2410,
  "pre-": 2411,
  "ee</w>": 2412,
  "suggest</w>": 2413,
  "internet</w>": 2414,
  "specific</w>": 2415,
  "ages</w>": 2416,
  "squad</w>": 2417,
  "Liverpool</w>": 2418,
  "discuss</w>": 2419,
  "ick</w>": 2420,
  "ay": 2421,
  "grew</w>": 2422,
  "allowing</w>": 2423,
  "00</w>": 2424,
  "ched</w>": 2425,
  "district</w>": 2426,
  "College</w>": 2427,
  "PM</w>": 2428,
  "maybe</w>": 2429,
  "secret</w>": 2430,
  "setting</w>": 2431,
  "broken</w>": 2432,
  "io</w>": 2433,
  "Ab": 2434,
  "secure</w>": 2435,
  "citizens</w>": 2436,
  "expensive</w>": 2437,
  "Bay</w>": 2438,
  "Brazil</w>": 2439,
  "MP</w>": 2440,
  "ka</w>": 2441,
  "loans</w>": 2442,
  "District</w>": 2443,
  "33</w>": 2444,
  "sed</w>": 2445,
  "end": 2446,
  "suspect</w>": 2447,
  "ruled</w>": 2448,
  "science</w>": 2449,
  "so": 2450,
  "cel</w>": 2451,
  "Hospital</w>": 2452,
  "falling</w>": 2453,
  "Man</w>": 2454,
  "sk": 2455,
  "three-": 2456,
  "2003</w>": 2457,
  "unlikely</w>": 2458,
  "res": 2459,
  "Greece</w>": 2460,
  "sitting</w>": 2461,
  "content</w>": 2462,
  "changing</w>": 2463,
  "healthy</w>": 2464,
  "buying</w>": 2465,
  "ys</w>": 2466,
  "active</w>": 2467,
  "Over</w>": 2468,
  "request</w>": 2469,
  "4.": 2470,
  "carrying</w>": 2471,
  "rival</w>": 2472,
  "finance</w>": 2473,
  "protection</w>": 2474,
  "bigger</w>": 2475,
  "provides</w>": 2476,
  "declared</w>": 2477,
  "Under</w>": 2478,
  "equipment</w>": 2479,
  "email</w>": 2480,
  "magazine</w>": 2481,
  "sub": 2482,
  "surprise</w>": 2483,
  "Daniel</w>": 2484,
  "patient</w>": 2485,
  "Egypt</w>": 2486,
  "decide</w>": 2487,
  "tests</w>": 2488,
  "Lord</w>": 2489,
  "multiple</w>": 2490,
  "religious</w>": 2491,
  "dark</w>": 2492,
  "deliver</w>": 2493,
  "communities</w>": 2494,
  "existing</w>": 2495,
  "regional</w>": 2496,
  "ns</w>": 2497,
  "hurt</w>": 2498,
  "MPs</w>": 2499,
  "ning</w>": 2500,
  "br": 2501,
  "jail</w>": 2502,
  "agencies</w>": 2503,
  "ut</w>": 2504,
  "34</w>": 2505,
  "ell": 2506,
  "Korean</w>": 2507,
  "Road</w>": 2508,
  "smaller</w>": 2509,
  "fiscal</w>": 2510,
  "stores</w>": 2511,
  "Kevin</w>": 2512,
  "appearance</w>": 2513,
  "dintre</w>": 2514,
  "a.m.</w>": 2515,
  "nations</w>": 2516,
  "Zealand</w>": 2517,
  "ant": 2518,
  "cents</w>": 2519,
  "Nations</w>": 2520,
  "sister</w>": 2521,
  "presence</w>": 2522,
  "loved</w>": 2523,
  "Ber": 2524,
  "scheme</w>": 2525,
  "standard</w>": 2526,
  "mult</w>": 2527,
  "eat</w>": 2528,
  "elected</w>": 2529,
  "remaining</w>": 2530,
  "ang": 2531,
  "accident</w>": 2532,
  "Taylor</w>": 2533,
  "accept</w>": 2534,
  "extremely</w>": 2535,
  "Alex</w>": 2536,
  "album</w>": 2537,
  "ele</w>": 2538,
  "Queen</w>": 2539,
  "hasn</w>": 2540,
  "suicide</w>": 2541,
  "Mac": 2542,
  "une</w>": 2543,
  "initial</w>": 2544,
  "reportedly</w>": 2545,
  "Middle</w>": 2546,
  "tions</w>": 2547,
  "song</w>": 2548,
  "ble</w>": 2549,
  "ari</w>": 2550,
  "Sen.</w>": 2551,
  "doua</w>": 2552,
  "Gu": 2553,
  "gain</w>": 2554,
  "criticism</w>": 2555,
  "doctor</w>": 2556,
  "ara</w>": 2557,
  "wins</w>": 2558,
  "55</w>": 2559,
  "rock</w>": 2560,
  "Tr": 2561,
  "ative</w>": 2562,
  "ati</w>": 2563,
  "H</w>": 2564,
  "Test</w>": 2565,
  "west</w>": 2566,
  "alongside</w>": 2567,
  "Its</w>": 2568,
  "introduced</w>": 2569,
  "36</w>": 2570,
  "Stephen</w>": 2571,
  "contributed</w>": 2572,
  "individuals</w>": 2573,
  "writer</w>": 2574,
  "index</w>": 2575,
  "Still</w>": 2576,
  "agree</w>": 2577,
  "coverage</w>": 2578,
  "sentence</w>": 2579,
  "ends</w>": 2580,
  "ology</w>": 2581,
  "Because</w>": 2582,
  "els</w>": 2583,
  "jury</w>": 2584,
  "suit</w>": 2585,
  "ire</w>": 2586,
  "urged</w>": 2587,
  "reading</w>": 2588,
  "governments</w>": 2589,
  "updated</w>": 2590,
  "cele</w>": 2591,
  "photos</w>": 2592,
  "Gr": 2593,
  "challenges</w>": 2594,
  "negotiations</w>": 2595,
  "terrorist</w>": 2596,
  "sought</w>": 2597,
  "developing</w>": 2598,
  "slightly</w>": 2599,
  "#</w>": 2600,
  "ren": 2601,
  "Editing</w>": 2602,
  "Former</w>": 2603,
  "He": 2604,
  "serving</w>": 2605,
  "completed</w>": 2606,
  "solution</w>": 2607,
  "do": 2608,
  "ong</w>": 2609,
  "fish</w>": 2610,
  "wh": 2611,
  "turning</w>": 2612,
  "interests</w>": 2613,
  "Christian</w>": 2614,
  "colleagues</w>": 2615,
  "singer</w>": 2616,
  "caption</w>": 2617,
  "pictures</w>": 2618,
  "CBS</w>": 2619,
  "unable</w>": 2620,
  "scale</w>": 2621,
  "mass</w>": 2622,
  "stone</w>": 2623,
  "expressed</w>": 2624,
  "bottom</w>": 2625,
  "20": 2626,
  "wind</w>": 2627,
  "opportunities</w>": 2628,
  "fo": 2629,
  "blue</w>": 2630,
  "convicted</w>": 2631,
  "Like</w>": 2632,
  "ile</w>": 2633,
  "all-": 2634,
  "ators</w>": 2635,
  "ain</w>": 2636,
  "Tim</w>": 2637,
  "collection</w>": 2638,
  "prove</w>": 2639,
  "Nick</w>": 2640,
  "struggling</w>": 2641,
  "happens</w>": 2642,
  "picked</w>": 2643,
  "confident</w>": 2644,
  "younger</w>": 2645,
  "well-": 2646,
  "Labor</w>": 2647,
  "wear</w>": 2648,
  "relations</w>": 2649,
  "matches</w>": 2650,
  "ora</w>": 2651,
  "Great</w>": 2652,
  "digital</w>": 2653,
  "clubs</w>": 2654,
  "larger</w>": 2655,
  "Taliban</w>": 2656,
  "starts</w>": 2657,
  "ities</w>": 2658,
  "houses</w>": 2659,
  "Charles</w>": 2660,
  "mar": 2661,
  "par</w>": 2662,
  "raising</w>": 2663,
  "joint</w>": 2664,
  "panel</w>": 2665,
  "voted</w>": 2666,
  "ul</w>": 2667,
  "coast</w>": 2668,
  "decline</w>": 2669,
  "crew</w>": 2670,
  "removed</w>": 2671,
  "determined</w>": 2672,
  "Jack</w>": 2673,
  "GOP</w>": 2674,
  "McCain</w>": 2675,
  "learned</w>": 2676,
  "studies</w>": 2677,
  "wing</w>": 2678,
  "slow</w>": 2679,
  "spring</w>": 2680,
  "cand</w>": 2681,
  "sanctions</w>": 2682,
  "emerged</w>": 2683,
  "est": 2684,
  "covered</w>": 2685,
  "boss</w>": 2686,
  "bar": 2687,
  "walking</w>": 2688,
  "payments</w>": 2689,
  "Hillary</w>": 2690,
  "heads</w>": 2691,
  "winter</w>": 2692,
  "Qu": 2693,
  "Sal": 2694,
  "militants</w>": 2695,
  "male</w>": 2696,
  "deals</w>": 2697,
  "creating</w>": 2698,
  "2001</w>": 2699,
  "trebuie</w>": 2700,
  "Home</w>": 2701,
  "hits</w>": 2702,
  "ery</w>": 2703,
  "edge</w>": 2704,
  "bomb</w>": 2705,
  "Saudi</w>": 2706,
  "NHS</w>": 2707,
  "arm</w>": 2708,
  "Spanish</w>": 2709,
  "2000</w>": 2710,
  "write</w>": 2711,
  "go": 2712,
  "Queensland</w>": 2713,
  "ying</w>": 2714,
  "nice</w>": 2715,
  "ov": 2716,
  "hoping</w>": 2717,
  "require</w>": 2718,
  "pace</w>": 2719,
  "Energy</w>": 2720,
  "Parliament</w>": 2721,
  "films</w>": 2722,
  "software</w>": 2723,
  "animals</w>": 2724,
  "inflation</w>": 2725,
  "Nu</w>": 2726,
  "X</w>": 2727,
  "bringing</w>": 2728,
  "despre</w>": 2729,
  "Ac": 2730,
  "closer</w>": 2731,
  "potentially</w>": 2732,
  "cum</w>": 2733,
  "Po": 2734,
  "17": 2735,
  "Di": 2736,
  "Matt</w>": 2737,
  "tells</w>": 2738,
  "Victoria</w>": 2739,
  "back": 2740,
  "Who</w>": 2741,
  "expectations</w>": 2742,
  "Media</w>": 2743,
  "ess</w>": 2744,
  "capacity</w>": 2745,
  "Canadian</w>": 2746,
  "earned</w>": 2747,
  "vice</w>": 2748,
  "driven</w>": 2749,
  "ann": 2750,
  "stuff</w>": 2751,
  "analyst</w>": 2752,
  "established</w>": 2753,
  "analysis</w>": 2754,
  "suffering</w>": 2755,
  "willing</w>": 2756,
  "fan</w>": 2757,
  "items</w>": 2758,
  "handed</w>": 2759,
  "easily</w>": 2760,
  "Ohio</w>": 2761,
  "air": 2762,
  "cold</w>": 2763,
  "violent</w>": 2764,
  "ized</w>": 2765,
  "mare</w>": 2766,
  "la": 2767,
  "apparently</w>": 2768,
  "und": 2769,
  "fees</w>": 2770,
  "na</w>": 2771,
  "Year</w>": 2772,
  "doar</w>": 2773,
  "38</w>": 2774,
  "ents</w>": 2775,
  "Island</w>": 2776,
  "plenty</w>": 2777,
  "trouble</w>": 2778,
  "seats</w>": 2779,
  "session</w>": 2780,
  "supported</w>": 2781,
  "debut</w>": 2782,
  "beautiful</w>": 2783,
  "negative</w>": 2784,
  "artist</w>": 2785,
  "Iraqi</w>": 2786,
  "Le</w>": 2787,
  "48</w>": 2788,
  "tie</w>": 2789,
  "stood</w>": 2790,
  "foarte</w>": 2791,
  "touch</w>": 2792,
  "God</w>": 2793,
  "ads</w>": 2794,
  "rescue</w>": 2795,
  "recorded</w>": 2796,
  "Harry</w>": 2797,
  "sit</w>": 2798,
  "drivers</w>": 2799,
  "ep": 2800,
  "Will</w>": 2801,
  "Agency</w>": 2802,
  "J</w>": 2803,
  "strength</w>": 2804,
  "65</w>": 2805,
  "Afghan</w>": 2806,
  "headed</w>": 2807,
  "lawyers</w>": 2808,
  "argued</w>": 2809,
  "44</w>": 2810,
  "Reporting</w>": 2811,
  "respond</w>": 2812,
  "Young</w>": 2813,
  "fears</w>": 2814,
  "Ford</w>": 2815,
  "ky</w>": 2816,
  "feels</w>": 2817,
  "U.N.</w>": 2818,
  "visitors</w>": 2819,
  "article</w>": 2820,
  "ging</w>": 2821,
  "rain</w>": 2822,
  "Bl": 2823,
  "yn": 2824,
  "II</w>": 2825,
  "allows</w>": 2826,
  "lies</w>": 2827,
  "seriously</w>": 2828,
  "opinion</w>": 2829,
  "ta</w>": 2830,
  "ill": 2831,
  "findings</w>": 2832,
  "feature</w>": 2833,
  "buildings</w>": 2834,
  "eg": 2835,
  "5,000</w>": 2836,
  "interested</w>": 2837,
  "continuing</w>": 2838,
  "referendum</w>": 2839,
  "clean</w>": 2840,
  "Davis</w>": 2841,
  "rally</w>": 2842,
  "guard</w>": 2843,
  "bn</w>": 2844,
  "agent</w>": 2845,
  "Club</w>": 2846,
  "deputy</w>": 2847,
  "ministers</w>": 2848,
  "37</w>": 2849,
  "Edinburgh</w>": 2850,
  "port</w>": 2851,
  "boat</w>": 2852,
  "FBI</w>": 2853,
  "authority</w>": 2854,
  "Y</w>": 2855,
  "east</w>": 2856,
  "ality</w>": 2857,
  "Before</w>": 2858,
  "Moscow</w>": 2859,
  "Financial</w>": 2860,
  "NSW</w>": 2861,
  "reduced</w>": 2862,
  "enjoy</w>": 2863,
  "pour</w>": 2864,
  "path</w>": 2865,
  "pushed</w>": 2866,
  "Francisco</w>": 2867,
  "quick</w>": 2868,
  "promised</w>": 2869,
  "approval</w>": 2870,
  "d\u00e9": 2871,
  "core</w>": 2872,
  "UN</w>": 2873,
  "15": 2874,
  "devices</w>": 2875,
  "res</w>": 2876,
  "absolutely</w>": 2877,
  "commitment</w>": 2878,
  "inquiry</w>": 2879,
  "village</w>": 2880,
  "sets</w>": 2881,
  "leg</w>": 2882,
  "possibility</w>": 2883,
  "ta": 2884,
  "relatively</w>": 2885,
  "limit</w>": 2886,
  "retail</w>": 2887,
  "charity</w>": 2888,
  "lawmakers</w>": 2889,
  "freedom</w>": 2890,
  "post-": 2891,
  "Or": 2892,
  "We": 2893,
  "Games</w>": 2894,
  "grand</w>": 2895,
  "ped</w>": 2896,
  "scoring</w>": 2897,
  "Mor": 2898,
  "all": 2899,
  "Once</w>": 2900,
  "mine</w>": 2901,
  "expert</w>": 2902,
  "widely</w>": 2903,
  "\u20ac</w>": 2904,
  "crimes</w>": 2905,
  "delivered</w>": 2906,
  "commission</w>": 2907,
  "walked</w>": 2908,
  "powers</w>": 2909,
  "unui</w>": 2910,
  "profits</w>": 2911,
  "worried</w>": 2912,
  "Sept</w>": 2913,
  "yard</w>": 2914,
  "can": 2915,
  "rec": 2916,
  "ines</w>": 2917,
  "enter</w>": 2918,
  "Me": 2919,
  "Among</w>": 2920,
  "Web</w>": 2921,
  "heat</w>": 2922,
  "42</w>": 2923,
  "Grand</w>": 2924,
  "skin</w>": 2925,
  "ney</w>": 2926,
  "threatened</w>": 2927,
  "display</w>": 2928,
  "meaning</w>": 2929,
  "Sam</w>": 2930,
  "400</w>": 2931,
  "Cal": 2932,
  "rejected</w>": 2933,
  "Arab</w>": 2934,
  "factors</w>": 2935,
  "ches</w>": 2936,
  "Women</w>": 2937,
  "proud</w>": 2938,
  "2002</w>": 2939,
  "scandal</w>": 2940,
  "teacher</w>": 2941,
  "immediate</w>": 2942,
  "super": 2943,
  "controversial</w>": 2944,
  "16": 2945,
  "Bur": 2946,
  "Only</w>": 2947,
  "enforcement</w>": 2948,
  "suspended</w>": 2949,
  "Earth</w>": 2950,
  "marketing</w>": 2951,
  "Do</w>": 2952,
  "thanks</w>": 2953,
  "severe</w>": 2954,
  "Star</w>": 2955,
  "ned</w>": 2956,
  "Treasury</w>": 2957,
  "considering</w>": 2958,
  "suspected</w>": 2959,
  "bi": 2960,
  "Hong</w>": 2961,
  "Anthony</w>": 2962,
  "ongoing</w>": 2963,
  "leaves</w>": 2964,
  "Ma": 2965,
  "Or</w>": 2966,
  "5.": 2967,
  "Lewis</w>": 2968,
  "anger</w>": 2969,
  "fe": 2970,
  "conducted</w>": 2971,
  "industrial</w>": 2972,
  "ud": 2973,
  "Jim</w>": 2974,
  "insisted</w>": 2975,
  "currency</w>": 2976,
  "banking</w>": 2977,
  "gl": 2978,
  "deficit</w>": 2979,
  "multe</w>": 2980,
  "possibly</w>": 2981,
  "Services</w>": 2982,
  "ob": 2983,
  "watched</w>": 2984,
  "6.": 2985,
  "ya</w>": 2986,
  "Adam</w>": 2987,
  "Life</w>": 2988,
  "responded</w>": 2989,
  "alcohol</w>": 2990,
  "associated</w>": 2991,
  "Stadium</w>": 2992,
  "timp</w>": 2993,
  "Sp": 2994,
  "we": 2995,
  "Dis": 2996,
  "ol</w>": 2997,
  "skills</w>": 2998,
  "Mal": 2999,
  "des": 3000,
  "Irish</w>": 3001,
  "Palestinian</w>": 3002,
  "mortgage</w>": 3003,
  "welcome</w>": 3004,
  "device</w>": 3005,
  "unemployment</w>": 3006,
  "Brisbane</w>": 3007,
  "nor</w>": 3008,
  "ano</w>": 3009,
  "Public</w>": 3010,
  "ged</w>": 3011,
  "Super</w>": 3012,
  "Fed</w>": 3013,
  "award</w>": 3014,
  "app</w>": 3015,
  "infrastructure</w>": 3016,
  "ful</w>": 3017,
  "initially</w>": 3018,
  "cei</w>": 3019,
  "pana</w>": 3020,
  "99</w>": 3021,
  "ideas</w>": 3022,
  "unique</w>": 3023,
  "ib": 3024,
  "az": 3025,
  "kin</w>": 3026,
  "attacked</w>": 3027,
  "listed</w>": 3028,
  "actress</w>": 3029,
  "stands</w>": 3030,
  "fata</w>": 3031,
  "chances</w>": 3032,
  "direction</w>": 3033,
  "Earlier</w>": 3034,
  "drama</w>": 3035,
  "partners</w>": 3036,
  "ently</w>": 3037,
  "testing</w>": 3038,
  "sur": 3039,
  "experienced</w>": 3040,
  "Jersey</w>": 3041,
  "Kelly</w>": 3042,
  "independence</w>": 3043,
  "recession</w>": 3044,
  "occurred</w>": 3045,
  "prosecutors</w>": 3046,
  "truth</w>": 3047,
  "pitch</w>": 3048,
  "cells</w>": 3049,
  "choose</w>": 3050,
  "ff</w>": 3051,
  "degree</w>": 3052,
  "western</w>": 3053,
  "polls</w>": 3054,
  "der</w>": 3055,
  "critics</w>": 3056,
  "hand": 3057,
  "eastern</w>": 3058,
  "pictured</w>": 3059,
  "forecast</w>": 3060,
  "maker</w>": 3061,
  "eating</w>": 3062,
  "shift</w>": 3063,
  "mer": 3064,
  "Ke": 3065,
  "equity</w>": 3066,
  "corner</w>": 3067,
  "Asian</w>": 3068,
  "teachers</w>": 3069,
  "Foundation</w>": 3070,
  "clients</w>": 3071,
  "Sea</w>": 3072,
  "presented</w>": 3073,
  "Force</w>": 3074,
  "sy</w>": 3075,
  "sleep</w>": 3076,
  "definitely</w>": 3077,
  "proved</w>": 3078,
  "involving</w>": 3079,
  "and": 3080,
  "entered</w>": 3081,
  "alternative</w>": 3082,
  "Ne": 3083,
  "39</w>": 3084,
  "oc": 3085,
  "sky</w>": 3086,
  "ini</w>": 3087,
  "voting</w>": 3088,
  "tw": 3089,
  "ast": 3090,
  "dec": 3091,
  "13": 3092,
  "easier</w>": 3093,
  "47</w>": 3094,
  "terrorism</w>": 3095,
  "positions</w>": 3096,
  "W</w>": 3097,
  "sn": 3098,
  "int": 3099,
  "targets</w>": 3100,
  "2,": 3101,
  "vision</w>": 3102,
  "improved</w>": 3103,
  "attend</w>": 3104,
  "generally</w>": 3105,
  "Libya</w>": 3106,
  "pool</w>": 3107,
  "conduct</w>": 3108,
  "knowledge</w>": 3109,
  "om</w>": 3110,
  "noi</w>": 3111,
  "ica</w>": 3112,
  "ge": 3113,
  "cell</w>": 3114,
  "Wilson</w>": 3115,
  "whatever</w>": 3116,
  "miss</w>": 3117,
  "attended</w>": 3118,
  "dozen</w>": 3119,
  "adults</w>": 3120,
  "aimed</w>": 3121,
  "Well</w>": 3122,
  "ber": 3123,
  "gu": 3124,
  "animal</w>": 3125,
  "ure</w>": 3126,
  "yourself</w>": 3127,
  "arm": 3128,
  "environmental</w>": 3129,
  "st</w>": 3130,
  "IS</w>": 3131,
  "Judge</w>": 3132,
  "Kong</w>": 3133,
  "dress</w>": 3134,
  "count</w>": 3135,
  "fi": 3136,
  "publicly</w>": 3137,
  "Go": 3138,
  "shopping</w>": 3139,
  "Miss</w>": 3140,
  "fallen</w>": 3141,
  "mer</w>": 3142,
  "moves</w>": 3143,
  "El</w>": 3144,
  "messages</w>": 3145,
  "km</w>": 3146,
  "ard": 3147,
  "Business</w>": 3148,
  "corruption</w>": 3149,
  "apartment</w>": 3150,
  "filled</w>": 3151,
  "flights</w>": 3152,
  "\u00e9e</w>": 3153,
  "inspired</w>": 3154,
  "understanding</w>": 3155,
  "rebels</w>": 3156,
  "head": 3157,
  "plants</w>": 3158,
  "Getty</w>": 3159,
  "Arsenal</w>": 3160,
  "explain</w>": 3161,
  "pointed</w>": 3162,
  "Cl": 3163,
  "activists</w>": 3164,
  "passing</w>": 3165,
  "acts</w>": 3166,
  "ist": 3167,
  "Also</w>": 3168,
  "interesting</w>": 3169,
  "ala</w>": 3170,
  "mayor</w>": 3171,
  "43</w>": 3172,
  "customer</w>": 3173,
  "7.": 3174,
  "ve</w>": 3175,
  "J.</w>": 3176,
  "flat</w>": 3177,
  "connection</w>": 3178,
  "Lo": 3179,
  "Best</w>": 3180,
  "returns</w>": 3181,
  "dy</w>": 3182,
  "roads</w>": 3183,
  "combined</w>": 3184,
  "turns</w>": 3185,
  "Simon</w>": 3186,
  "competitive</w>": 3187,
  "facility</w>": 3188,
  "province</w>": 3189,
  "Capital</w>": 3190,
  "festival</w>": 3191,
  "fewer</w>": 3192,
  "ver": 3193,
  "10-": 3194,
  "flying</w>": 3195,
  "1-": 3196,
  "14": 3197,
  "holds</w>": 3198,
  "greatest</w>": 3199,
  "ur</w>": 3200,
  "repeatedly</w>": 3201,
  "tied</w>": 3202,
  "ments</w>": 3203,
  "division</w>": 3204,
  "disaster</w>": 3205,
  "moments</w>": 3206,
  "targeted</w>": 3207,
  "so-called</w>": 3208,
  "41</w>": 3209,
  "notes</w>": 3210,
  "assistant</w>": 3211,
  "location</w>": 3212,
  "La": 3213,
  "iv": 3214,
  "pers</w>": 3215,
  "familiar</w>": 3216,
  "circumstances</w>": 3217,
  "conversation</w>": 3218,
  "learning</w>": 3219,
  "Fl": 3220,
  "ip": 3221,
  "49</w>": 3222,
  "ious</w>": 3223,
  "exercise</w>": 3224,
  "determine</w>": 3225,
  "causing</w>": 3226,
  "U</w>": 3227,
  "intended</w>": 3228,
  "Yes</w>": 3229,
  "od": 3230,
  "controlled</w>": 3231,
  "historic</w>": 3232,
  "ride</w>": 3233,
  "toate</w>": 3234,
  "platform</w>": 3235,
  "retired</w>": 3236,
  "ceremony</w>": 3237,
  "12": 3238,
  "ds</w>": 3239,
  "Olympics</w>": 3240,
  "shut</w>": 3241,
  "Arizona</w>": 3242,
  "Georgia</w>": 3243,
  "pounds</w>": 3244,
  "drink</w>": 3245,
  "vast</w>": 3246,
  "terror</w>": 3247,
  "visited</w>": 3248,
  "95</w>": 3249,
  "returning</w>": 3250,
  "ously</w>": 3251,
  "asa</w>": 3252,
  "Let</w>": 3253,
  "ales</w>": 3254,
  "Valley</w>": 3255,
  "supporting</w>": 3256,
  "Wil": 3257,
  "att": 3258,
  "relief</w>": 3259,
  "Adelaide</w>": 3260,
  "Al</w>": 3261,
  "tro": 3262,
  "For": 3263,
  "crucial</w>": 3264,
  "Church</w>": 3265,
  "fraud</w>": 3266,
  "ita</w>": 3267,
  "su": 3268,
  "NFL</w>": 3269,
  "7-": 3270,
  "Miller</w>": 3271,
  "becomes</w>": 3272,
  "banned</w>": 3273,
  "cutting</w>": 3274,
  "route</w>": 3275,
  "ino</w>": 3276,
  "ham</w>": 3277,
  "leads</w>": 3278,
  "helps</w>": 3279,
  "heading</w>": 3280,
  "closing</w>": 3281,
  "behaviour</w>": 3282,
  "sees</w>": 3283,
  "fly</w>": 3284,
  "dinner</w>": 3285,
  "Pe": 3286,
  "Glasgow</w>": 3287,
  "struggle</w>": 3288,
  "No.</w>": 3289,
  "Bel": 3290,
  "Centre</w>": 3291,
  "cre": 3292,
  "unless</w>": 3293,
  "Brian</w>": 3294,
  "refugees</w>": 3295,
  "hi": 3296,
  "closely</w>": 3297,
  "ot</w>": 3298,
  "grown</w>": 3299,
  "ade</w>": 3300,
  "basic</w>": 3301,
  "duty</w>": 3302,
  "sat</w>": 3303,
  "Gordon</w>": 3304,
  "lor</w>": 3305,
  "emotional</w>": 3306,
  "Morgan</w>": 3307,
  "Your</w>": 3308,
  "5,": 3309,
  "Ben": 3310,
  "link</w>": 3311,
  "Real</w>": 3312,
  "Global</w>": 3313,
  "Cr": 3314,
  "46</w>": 3315,
  "ack</w>": 3316,
  "Gar": 3317,
  "orders</w>": 3318,
  "rivals</w>": 3319,
  "str": 3320,
  "dogs</w>": 3321,
  "window</w>": 3322,
  "breaking</w>": 3323,
  "Miami</w>": 3324,
  "Andy</w>": 3325,
  "pop</w>": 3326,
  "fighters</w>": 3327,
  "Tour</w>": 3328,
  "estimates</w>": 3329,
  "Pl": 3330,
  "species</w>": 3331,
  "wine</w>": 3332,
  "worldwide</w>": 3333,
  "lawsuit</w>": 3334,
  "investigators</w>": 3335,
  "transfer</w>": 3336,
  "affect</w>": 3337,
  "ding</w>": 3338,
  "investigating</w>": 3339,
  "im</w>": 3340,
  "Jordan</w>": 3341,
  "package</w>": 3342,
  "Bob</w>": 3343,
  "hole</w>": 3344,
  "shortly</w>": 3345,
  "Time</w>": 3346,
  "Democrat</w>": 3347,
  "og": 3348,
  "split</w>": 3349,
  "journalists</w>": 3350,
  "bine</w>": 3351,
  "meetings</w>": 3352,
  "replace</w>": 3353,
  "understood</w>": 3354,
  "cap</w>": 3355,
  "four-": 3356,
  "transport</w>": 3357,
  "facilities</w>": 3358,
  "friendly</w>": 3359,
  "beach</w>": 3360,
  "bridge</w>": 3361,
  "Defense</w>": 3362,
  "Four</w>": 3363,
  "maintain</w>": 3364,
  "wish</w>": 3365,
  "2-": 3366,
  "GMT</w>": 3367,
  "pc</w>": 3368,
  "Mary</w>": 3369,
  "chain</w>": 3370,
  "heavily</w>": 3371,
  "savings</w>": 3372,
  "footage</w>": 3373,
  "ger</w>": 3374,
  "9.": 3375,
  "stake</w>": 3376,
  "wave</w>": 3377,
  "Pacific</w>": 3378,
  "agents</w>": 3379,
  "Pol": 3380,
  "ang</w>": 3381,
  "Radio</w>": 3382,
  "increases</w>": 3383,
  "none</w>": 3384,
  "unei</w>": 3385,
  "identify</w>": 3386,
  "claiming</w>": 3387,
  "Inter": 3388,
  "cor": 3389,
  "happening</w>": 3390,
  "executives</w>": 3391,
  "Every</w>": 3392,
  "Nov.</w>": 3393,
  "pull</w>": 3394,
  "zi</w>": 3395,
  "ach</w>": 3396,
  "wake</w>": 3397,
  "ern": 3398,
  "of": 3399,
  "8-": 3400,
  "talent</w>": 3401,
  "overseas</w>": 3402,
  "sharing</w>": 3403,
  "offensive</w>": 3404,
  "supposed</w>": 3405,
  "River</w>": 3406,
  "Kennedy</w>": 3407,
  "matters</w>": 3408,
  "danger</w>": 3409,
  "achieve</w>": 3410,
  "reforms</w>": 3411,
  "Bal": 3412,
  "Board</w>": 3413,
  "WASHINGTON</w>": 3414,
  "obviously</w>": 3415,
  "stocks</w>": 3416,
  "cultural</w>": 3417,
  "Ham": 3418,
  "Ministry</w>": 3419,
  "accepted</w>": 3420,
  "extended</w>": 3421,
  "models</w>": 3422,
  "institutions</w>": 3423,
  "ws</w>": 3424,
  "worry</w>": 3425,
  "carbon</w>": 3426,
  "tackle</w>": 3427,
  "yes</w>": 3428,
  "surprised</w>": 3429,
  "sending</w>": 3430,
  "ear": 3431,
  "advertising</w>": 3432,
  "purchase</w>": 3433,
  "draft</w>": 3434,
  "pen": 3435,
  "veteran</w>": 3436,
  "failing</w>": 3437,
  "Telegraph</w>": 3438,
  "deeply</w>": 3439,
  "Im": 3440,
  "sal": 3441,
  "\u010f\u017c</w>": 3442,
  "Medical</w>": 3443,
  "Brexit</w>": 3444,
  "wedding</w>": 3445,
  "threats</w>": 3446,
  "perform</w>": 3447,
  "ef": 3448,
  "territory</w>": 3449,
  "copyright</w>": 3450,
  "dream</w>": 3451,
  "ori</w>": 3452,
  "NEW</w>": 3453,
  "alive</w>": 3454,
  "retirement</w>": 3455,
  "eu</w>": 3456,
  "reaction</w>": 3457,
  "yer</w>": 3458,
  "cards</w>": 3459,
  "worker</w>": 3460,
  "catch</w>": 3461,
  "wounded</w>": 3462,
  "bond</w>": 3463,
  "Oct.</w>": 3464,
  "pushing</w>": 3465,
  "captured</w>": 3466,
  "cross</w>": 3467,
  "entirely</w>": 3468,
  "Beach</w>": 3469,
  "pro-": 3470,
  "impossible</w>": 3471,
  "inc": 3472,
  "dozens</w>": 3473,
  "Southern</w>": 3474,
  "Louis</w>": 3475,
  "gap</w>": 3476,
  "4-": 3477,
  "stress</w>": 3478,
  "52</w>": 3479,
  "Pr": 3480,
  "founder</w>": 3481,
  "em</w>": 3482,
  "significantly</w>": 3483,
  "performed</w>": 3484,
  "Eric</w>": 3485,
  "Instagram</w>": 3486,
  "Mil": 3487,
  ",000</w>": 3488,
  "ft</w>": 3489,
  "low-": 3490,
  "Professor</w>": 3491,
  "receiving</w>": 3492,
  "journey</w>": 3493,
  "Iranian</w>": 3494,
  "D-": 3495,
  "strikes</w>": 3496,
  "Frank</w>": 3497,
  "Bre": 3498,
  "makers</w>": 3499,
  "attempts</w>": 3500,
  "Dar": 3501,
  "Em": 3502,
  "gains</w>": 3503,
  "Pre": 3504,
  "apart</w>": 3505,
  "percentage</w>": 3506,
  "Old</w>": 3507,
  "Jason</w>": 3508,
  "ultimately</w>": 3509,
  "Dan</w>": 3510,
  "pieces</w>": 3511,
  "Kar": 3512,
  "'I</w>": 3513,
  "dans</w>": 3514,
  "tive</w>": 3515,
  "Human</w>": 3516,
  "sentenced</w>": 3517,
  "lei</w>": 3518,
  "Game</w>": 3519,
  "producer</w>": 3520,
  "Abbott</w>": 3521,
  "Eastern</w>": 3522,
  "Though</w>": 3523,
  "Senator</w>": 3524,
  "den</w>": 3525,
  "ow": 3526,
  "surface</w>": 3527,
  "likes</w>": 3528,
  "Images</w>": 3529,
  "lin</w>": 3530,
  "2,000</w>": 3531,
  "remove</w>": 3532,
  "Show</w>": 3533,
  "episode</w>": 3534,
  "trend</w>": 3535,
  "Houston</w>": 3536,
  "glass</w>": 3537,
  "ize</w>": 3538,
  "drinking</w>": 3539,
  "summit</w>": 3540,
  "bills</w>": 3541,
  "vulnerable</w>": 3542,
  "section</w>": 3543,
  "fara</w>": 3544,
  "Are</w>": 3545,
  "tor": 3546,
  "ing-": 3547,
  "shareholders</w>": 3548,
  "Conservative</w>": 3549,
  "qui</w>": 3550,
  "Ros": 3551,
  "if": 3552,
  "delivery</w>": 3553,
  "iting</w>": 3554,
  "amazing</w>": 3555,
  "van</w>": 3556,
  "argument</w>": 3557,
  "otherwise</w>": 3558,
  "text</w>": 3559,
  "internal</w>": 3560,
  "che": 3561,
  "identity</w>": 3562,
  "allies</w>": 3563,
  "outs</w>": 3564,
  "isi</w>": 3565,
  "bag</w>": 3566,
  "10,000</w>": 3567,
  "faith</w>": 3568,
  "Ed</w>": 3569,
  "3-": 3570,
  "non": 3571,
  "her": 3572,
  "adds</w>": 3573,
  "bur": 3574,
  "NATO</w>": 3575,
  "shape</w>": 3576,
  "advance</w>": 3577,
  "values</w>": 3578,
  "tiny</w>": 3579,
  "AN": 3580,
  "memory</w>": 3581,
  "reputation</w>": 3582,
  "10.": 3583,
  "ath": 3584,
  "uri</w>": 3585,
  "ars</w>": 3586,
  "iz": 3587,
  "drawn</w>": 3588,
  "opposed</w>": 3589,
  "ial</w>": 3590,
  "M.</w>": 3591,
  "factor</w>": 3592,
  "fer": 3593,
  "settlement</w>": 3594,
  "ind": 3595,
  "hoped</w>": 3596,
  "an-": 3597,
  "Rangers</w>": 3598,
  "Microsoft</w>": 3599,
  "ching</w>": 3600,
  "Gold</w>": 3601,
  "attempted</w>": 3602,
  "task</w>": 3603,
  "mat": 3604,
  "iPhone</w>": 3605,
  "weren</w>": 3606,
  "represents</w>": 3607,
  "Her": 3608,
  "51</w>": 3609,
  "appointed</w>": 3610,
  "Iowa</w>": 3611,
  "Madrid</w>": 3612,
  "contest</w>": 3613,
  "anniversary</w>": 3614,
  "d-": 3615,
  "minimum</w>": 3616,
  "Blue</w>": 3617,
  "ah": 3618,
  "Greek</w>": 3619,
  "characters</w>": 3620,
  "pension</w>": 3621,
  ".com.</w>": 3622,
  "actual</w>": 3623,
  "knee</w>": 3624,
  "flow</w>": 3625,
  "54</w>": 3626,
  "snow</w>": 3627,
  "Can</w>": 3628,
  "ids</w>": 3629,
  "der": 3630,
  "lots</w>": 3631,
  "Ho": 3632,
  "ex-": 3633,
  "avea</w>": 3634,
  "Speaking</w>": 3635,
  "nici</w>": 3636,
  "Director</w>": 3637,
  "Mer": 3638,
  "blame</w>": 3639,
  "apply</w>": 3640,
  "anul</w>": 3641,
  "novel</w>": 3642,
  "prior</w>": 3643,
  "civilians</w>": 3644,
  "ves</w>": 3645,
  "rel": 3646,
  "Gov.</w>": 3647,
  "Video</w>": 3648,
  "pilot</w>": 3649,
  "sion</w>": 3650,
  "150</w>": 3651,
  "favourite</w>": 3652,
  "unusual</w>": 3653,
  "Moore</w>": 3654,
  "editor</w>": 3655,
  "DNA</w>": 3656,
  "stronger</w>": 3657,
  "down": 3658,
  "opponents</w>": 3659,
  "square</w>": 3660,
  "ste": 3661,
  "5-": 3662,
  "ISIS</w>": 3663,
  "writes</w>": 3664,
  "structure</w>": 3665,
  "Rights</w>": 3666,
  "replaced</w>": 3667,
  "Kate</w>": 3668,
  "V</w>": 3669,
  "promise</w>": 3670,
  "shock</w>": 3671,
  "expenses</w>": 3672,
  "appropriate</w>": 3673,
  "goods</w>": 3674,
  "innings</w>": 3675,
  "Watch</w>": 3676,
  "tomorrow</w>": 3677,
  "cher</w>": 3678,
  "To": 3679,
  "movies</w>": 3680,
  "thinks</w>": 3681,
  "manufacturing</w>": 3682,
  "tot</w>": 3683,
  "false</w>": 3684,
  "Str": 3685,
  "ticket</w>": 3686,
  "contracts</w>": 3687,
  "weak</w>": 3688,
  "leg": 3689,
  "revenues</w>": 3690,
  "Museum</w>": 3691,
  "bin</w>": 3692,
  "expects</w>": 3693,
  "Jan.</w>": 3694,
  "loc</w>": 3695,
  "Sk": 3696,
  "treat</w>": 3697,
  "youth</w>": 3698,
  "emissions</w>": 3699,
  "Far": 3700,
  "phones</w>": 3701,
  "peste</w>": 3702,
  "employment</w>": 3703,
  "AR": 3704,
  "cool</w>": 3705,
  "Sarah</w>": 3706,
  "Hol": 3707,
  "seasons</w>": 3708,
  "Un</w>": 3709,
  "Rio</w>": 3710,
  "artists</w>": 3711,
  "sions</w>": 3712,
  "imagine</w>": 3713,
  "everybody</w>": 3714,
  "53</w>": 3715,
  "ington</w>": 3716,
  "Michigan</w>": 3717,
  "Champions</w>": 3718,
  "Children</w>": 3719,
  "Patrick</w>": 3720,
  "ished</w>": 3721,
  "viewers</w>": 3722,
  "8.": 3723,
  "85</w>": 3724,
  "effectively</w>": 3725,
  "gained</w>": 3726,
  "elsewhere</w>": 3727,
  "Ian</w>": 3728,
  "Top</w>": 3729,
  "encourage</w>": 3730,
  "pi": 3731,
  "NBC</w>": 3732,
  "rooms</w>": 3733,
  "Source</w>": 3734,
  "AFP</w>": 3735,
  "warm</w>": 3736,
  "democracy</w>": 3737,
  "ek</w>": 3738,
  "kers</w>": 3739,
  "Sw": 3740,
  "ti</w>": 3741,
  "As": 3742,
  "proposals</w>": 3743,
  "ette</w>": 3744,
  "teen</w>": 3745,
  "bas": 3746,
  "Moldova</w>": 3747,
  "hitting</w>": 3748,
  "code</w>": 3749,
  "r\u00e9": 3750,
  "Republic</w>": 3751,
  "payment</w>": 3752,
  "begins</w>": 3753,
  "dance</w>": 3754,
  "hospitals</w>": 3755,
  "roll</w>": 3756,
  "fa": 3757,
  "wild</w>": 3758,
  "harder</w>": 3759,
  "anti": 3760,
  "au": 3761,
  "user</w>": 3762,
  "kick</w>": 3763,
  "No": 3764,
  "ului</w>": 3765,
  "catre</w>": 3766,
  "ski</w>": 3767,
  "custody</w>": 3768,
  "Bro": 3769,
  "acknowledged</w>": 3770,
  "Journal</w>": 3771,
  "dispute</w>": 3772,
  "6,": 3773,
  "Channel</w>": 3774,
  "Feb.</w>": 3775,
  "rugby</w>": 3776,
  "enjoyed</w>": 3777,
  "judges</w>": 3778,
  "Detroit</w>": 3779,
  "Social</w>": 3780,
  "insa</w>": 3781,
  "dramatic</w>": 3782,
  "comfortable</w>": 3783,
  "to-": 3784,
  "airline</w>": 3785,
  "Ali</w>": 3786,
  "ster</w>": 3787,
  "truck</w>": 3788,
  "Jewish</w>": 3789,
  "Anderson</w>": 3790,
  "advanced</w>": 3791,
  "Turkish</w>": 3792,
  "truly</w>": 3793,
  "ub": 3794,
  "Good</w>": 3795,
  "aim</w>": 3796,
  "tonight</w>": 3797,
  "Alan</w>": 3798,
  "angry</w>": 3799,
  "Hor": 3800,
  "ass": 3801,
  "Mail</w>": 3802,
  "ive</w>": 3803,
  "tree</w>": 3804,
  "ising</w>": 3805,
  "3,": 3806,
  "discussion</w>": 3807,
  "connected</w>": 3808,
  "unde</w>": 3809,
  "ash</w>": 3810,
  "ten": 3811,
  "demands</w>": 3812,
  "horse</w>": 3813,
  "marked</w>": 3814,
  "collapse</w>": 3815,
  "6-": 3816,
  "-up</w>": 3817,
  "56</w>": 3818,
  "songs</w>": 3819,
  "war": 3820,
  "outcome</w>": 3821,
  "Sun</w>": 3822,
  "ont</w>": 3823,
  "sixth</w>": 3824,
  "surrounding</w>": 3825,
  "buyers</w>": 3826,
  "missile</w>": 3827,
  "sive</w>": 3828,
  "rape</w>": 3829,
  "busy</w>": 3830,
  "ess": 3831,
  "post": 3832,
  "afford</w>": 3833,
  "ils</w>": 3834,
  "chair</w>": 3835,
  "directed</w>": 3836,
  "AT": 3837,
  "kes</w>": 3838,
  "managing</w>": 3839,
  "usual</w>": 3840,
  "600</w>": 3841,
  "backs</w>": 3842,
  "putea</w>": 3843,
  "questioned</w>": 3844,
  "distance</w>": 3845,
  "agenda</w>": 3846,
  "escape</w>": 3847,
  "obvious</w>": 3848,
  "located</w>": 3849,
  "Henry</w>": 3850,
  "emerging</w>": 3851,
  "ition</w>": 3852,
  "57</w>": 3853,
  "AM</w>": 3854,
  "Love</w>": 3855,
  "struggled</w>": 3856,
  "Wh": 3857,
  "tend</w>": 3858,
  "machine</w>": 3859,
  "Colorado</w>": 3860,
  "priority</w>": 3861,
  "ko</w>": 3862,
  "Fo": 3863,
  "visiting</w>": 3864,
  "ock</w>": 3865,
  "Management</w>": 3866,
  "talked</w>": 3867,
  "ls</w>": 3868,
  "virus</w>": 3869,
  "mix</w>": 3870,
  "excited</w>": 3871,
  "broadcast</w>": 3872,
  "inf": 3873,
  "compensation</w>": 3874,
  "Jonathan</w>": 3875,
  "migrants</w>": 3876,
  "properties</w>": 3877,
  "tre": 3878,
  "atic</w>": 3879,
  "0,000</w>": 3880,
  "comedy</w>": 3881,
  "regularly</w>": 3882,
  "4,": 3883,
  "sun</w>": 3884,
  "IT</w>": 3885,
  "alized</w>": 3886,
  "fee</w>": 3887,
  "destroyed</w>": 3888,
  "ha": 3889,
  "electricity</w>": 3890,
  "vital</w>": 3891,
  "extreme</w>": 3892,
  "argue</w>": 3893,
  "sm": 3894,
  "ships</w>": 3895,
  "courts</w>": 3896,
  "puts</w>": 3897,
  "ati": 3898,
  "ters</w>": 3899,
  "fought</w>": 3900,
  "Care</w>": 3901,
  "dismissed</w>": 3902,
  "aggressive</w>": 3903,
  "luxury</w>": 3904,
  "marks</w>": 3905,
  "background</w>": 3906,
  "9-": 3907,
  "Society</w>": 3908,
  "expand</w>": 3909,
  "100,000</w>": 3910,
  "tickets</w>": 3911,
  "lift</w>": 3912,
  "Assad</w>": 3913,
  "Graham</w>": 3914,
  "Tory</w>": 3915,
  "aj": 3916,
  "tested</w>": 3917,
  "pan": 3918,
  "roughly</w>": 3919,
  "Ag": 3920,
  "tries</w>": 3921,
  "brings</w>": 3922,
  "formed</w>": 3923,
  "represent</w>": 3924,
  "ram": 3925,
  "Matthew</w>": 3926,
  "aries</w>": 3927,
  "causes</w>": 3928,
  "Ver": 3929,
  "ency</w>": 3930,
  "notice</w>": 3931,
  "Hotel</w>": 3932,
  "Q</w>": 3933,
  "drove</w>": 3934,
  "adviser</w>": 3935,
  "min": 3936,
  "q": 3937,
  "Festival</w>": 3938,
  "strategic</w>": 3939,
  "Academy</w>": 3940,
  "Square</w>": 3941,
  "offices</w>": 3942,
  "rating</w>": 3943,
  "consequences</w>": 3944,
  "stated</w>": 3945,
  "complaints</w>": 3946,
  "remarks</w>": 3947,
  "fill</w>": 3948,
  "ong": 3949,
  "ms</w>": 3950,
  "gathered</w>": 3951,
  "vi": 3952,
  "requires</w>": 3953,
  "AL": 3954,
  "dealing</w>": 3955,
  "birthday</w>": 3956,
  "units</w>": 3957,
  "Liberal</w>": 3958,
  "k-": 3959,
  "blow</w>": 3960,
  "aside</w>": 3961,
  "manage</w>": 3962,
  "actors</w>": 3963,
  "throw</w>": 3964,
  "th-": 3965,
  "har": 3966,
  "coffee</w>": 3967,
  "Min": 3968,
  "assistance</w>": 3969,
  "elling</w>": 3970,
  "impressive</w>": 3971,
  "hom": 3972,
  "witness</w>": 3973,
  "ises</w>": 3974,
  "58</w>": 3975,
  "clothes</w>": 3976,
  "fin": 3977,
  "Gary</w>": 3978,
  "reveal</w>": 3979,
  "Du": 3980,
  "Market</w>": 3981,
  "regulations</w>": 3982,
  "Perry</w>": 3983,
  "intre</w>": 3984,
  "Hamilton</w>": 3985,
  "combat</w>": 3986,
  "originally</w>": 3987,
  "counts</w>": 3988,
  "and-": 3989,
  "ich": 3990,
  "euros</w>": 3991,
  "Reserve</w>": 3992,
  "Where</w>": 3993,
  "mal": 3994,
  "typically</w>": 3995,
  "avut</w>": 3996,
  "abroad</w>": 3997,
  "performing</w>": 3998,
  "ac</w>": 3999,
  "Del": 4000,
  "Amazon</w>": 4001,
  "managers</w>": 4002,
  "Family</w>": 4003,
  "Harris</w>": 4004,
  "contrast</w>": 4005,
  "variety</w>": 4006,
  "threw</w>": 4007,
  "Si</w>": 4008,
  "ou</w>": 4009,
  "chemical</w>": 4010,
  "spus</w>": 4011,
  "urma</w>": 4012,
  "R-": 4013,
  "Fe": 4014,
  "fiind</w>": 4015,
  "Walker</w>": 4016,
  "bound</w>": 4017,
  "coal</w>": 4018,
  "journalist</w>": 4019,
  "organisation</w>": 4020,
  "founded</w>": 4021,
  "joining</w>": 4022,
  "wa": 4023,
  "falls</w>": 4024,
  "USA</w>": 4025,
  "fil": 4026,
  "trees</w>": 4027,
  "employee</w>": 4028,
  "importance</w>": 4029,
  "acum</w>": 4030,
  "damaged</w>": 4031,
  "indicated</w>": 4032,
  "Canberra</w>": 4033,
  "expansion</w>": 4034,
  "permanent</w>": 4035,
  "pr": 4036,
  "Gaza</w>": 4037,
  "unclear</w>": 4038,
  "Ra": 4039,
  "SE": 4040,
  "facut</w>": 4041,
  "document</w>": 4042,
  "Pentru</w>": 4043,
  "s-au</w>": 4044,
  "Muslims</w>": 4045,
  "locked</w>": 4046,
  "half-": 4047,
  "keen</w>": 4048,
  "ung</w>": 4049,
  "Rep.</w>": 4050,
  "trained</w>": 4051,
  "five-": 4052,
  "ug": 4053,
  "Philadelphia</w>": 4054,
  "mile</w>": 4055,
  "66</w>": 4056,
  "golf</w>": 4057,
  "fr": 4058,
  "compete</w>": 4059,
  "ward</w>": 4060,
  "Navy</w>": 4061,
  "county</w>": 4062,
  "tight</w>": 4063,
  "cricket</w>": 4064,
  "resolution</w>": 4065,
  "communications</w>": 4066,
  "videos</w>": 4067,
  "Howard</w>": 4068,
  "application</w>": 4069,
  "mistake</w>": 4070,
  "organizations</w>": 4071,
  "Red": 4072,
  "championship</w>": 4073,
  "concluded</w>": 4074,
  "acy</w>": 4075,
  "museum</w>": 4076,
  "Am</w>": 4077,
  "labor</w>": 4078,
  "pres": 4079,
  "brief</w>": 4080,
  "spoken</w>": 4081,
  "Trust</w>": 4082,
  "Van</w>": 4083,
  "strongly</w>": 4084,
  "ve": 4085,
  "Jeremy</w>": 4086,
  "solutions</w>": 4087,
  "mil": 4088,
  "registered</w>": 4089,
  "Val": 4090,
  "signing</w>": 4091,
  "Catholic</w>": 4092,
  "minor</w>": 4093,
  "promote</w>": 4094,
  "Bi": 4095,
  "Jo": 4096,
  "instance</w>": 4097,
  "Gre": 4098,
  "pa": 4099,
  "59</w>": 4100,
  "Vegas</w>": 4101,
  "harm</w>": 4102,
  "behavior</w>": 4103,
  "farm</w>": 4104,
  "headquarters</w>": 4105,
  "stations</w>": 4106,
  "technical</w>": 4107,
  "pregnant</w>": 4108,
  "Pi": 4109,
  "favorite</w>": 4110,
  "eb": 4111,
  "blamed</w>": 4112,
  "file</w>": 4113,
  "Credit</w>": 4114,
  "please</w>": 4115,
  "Sam": 4116,
  "neighborhood</w>": 4117,
  "bre": 4118,
  "Steven</w>": 4119,
  "Allen</w>": 4120,
  "Power</w>": 4121,
  "beauty</w>": 4122,
  "studio</w>": 4123,
  "sons</w>": 4124,
  "wealth</w>": 4125,
  "Administration</w>": 4126,
  "follows</w>": 4127,
  "lie</w>": 4128,
  "adult</w>": 4129,
  "funded</w>": 4130,
  "quiet</w>": 4131,
  "exposed</w>": 4132,
  "chiar</w>": 4133,
  "cal": 4134,
  "waste</w>": 4135,
  "fat</w>": 4136,
  "entry</w>": 4137,
  "stick</w>": 4138,
  "sharp</w>": 4139,
  "YouTube</w>": 4140,
  "Local</w>": 4141,
  "defend</w>": 4142,
  "immigrants</w>": 4143,
  "Elizabeth</w>": 4144,
  "prompted</w>": 4145,
  "affairs</w>": 4146,
  "ily</w>": 4147,
  "rural</w>": 4148,
  "bonds</w>": 4149,
  "ok": 4150,
  "lay</w>": 4151,
  "ap</w>": 4152,
  "cea</w>": 4153,
  "3,000</w>": 4154,
  "guns</w>": 4155,
  "defensive</w>": 4156,
  "neither</w>": 4157,
  "Mat": 4158,
  "Arabia</w>": 4159,
  "bedroom</w>": 4160,
  "engine</w>": 4161,
  "stuck</w>": 4162,
  "def": 4163,
  "granted</w>": 4164,
  "consecutive</w>": 4165,
  "healthcare</w>": 4166,
  "cap": 4167,
  "parent</w>": 4168,
  "Jeff</w>": 4169,
  "mainly</w>": 4170,
  "recalled</w>": 4171,
  "ath</w>": 4172,
  "Asked</w>": 4173,
  "Josh</w>": 4174,
  "ke": 4175,
  "the": 4176,
  "Such</w>": 4177,
  "restaurants</w>": 4178,
  "classic</w>": 4179,
  "11.": 4180,
  "overnight</w>": 4181,
  "garden</w>": 4182,
  "grounds</w>": 4183,
  "Co</w>": 4184,
  "essential</w>": 4185,
  "networks</w>": 4186,
  "Manhattan</w>": 4187,
  "investments</w>": 4188,
  "solid</w>": 4189,
  "prospect</w>": 4190,
  "\u00e9s</w>": 4191,
  "desire</w>": 4192,
  "stayed</w>": 4193,
  "featured</w>": 4194,
  "smart</w>": 4195,
  "grade</w>": 4196,
  "fre": 4197,
  "blog</w>": 4198,
  "races</w>": 4199,
  "stepped</w>": 4200,
  "personnel</w>": 4201,
  "Lake</w>": 4202,
  "selection</w>": 4203,
  "ain": 4204,
  "Barcelona</w>": 4205,
  "applications</w>": 4206,
  "NASA</w>": 4207,
  "Several</w>": 4208,
  "beating</w>": 4209,
  "discussed</w>": 4210,
  "ser": 4211,
  "Education</w>": 4212,
  "drew</w>": 4213,
  "cited</w>": 4214,
  "co</w>": 4215,
  "1999</w>": 4216,
  "practices</w>": 4217,
  "Awards</w>": 4218,
  "lowest</w>": 4219,
  "combination</w>": 4220,
  "tweeted</w>": 4221,
  "supplies</w>": 4222,
  "finds</w>": 4223,
  "ov</w>": 4224,
  "laid</w>": 4225,
  "bench</w>": 4226,
  "Sports</w>": 4227,
  "Mayor</w>": 4228,
  "types</w>": 4229,
  "bro": 4230,
  "uc": 4231,
  "Sa": 4232,
  "ranked</w>": 4233,
  "ures</w>": 4234,
  "Tri": 4235,
  "ki</w>": 4236,
  "suspects</w>": 4237,
  "Conference</w>": 4238,
  "Calif</w>": 4239,
  "land": 4240,
  "Fund</w>": 4241,
  "poverty</w>": 4242,
  "i-": 4243,
  "electric</w>": 4244,
  "Airport</w>": 4245,
  "Championship</w>": 4246,
  "river</w>": 4247,
  "Diego</w>": 4248,
  "racing</w>": 4249,
  "67</w>": 4250,
  "parte</w>": 4251,
  "72</w>": 4252,
  "IN": 4253,
  "profile</w>": 4254,
  "guests</w>": 4255,
  "Fire</w>": 4256,
  "iti</w>": 4257,
  "inning</w>": 4258,
  "wn</w>": 4259,
  "Long</w>": 4260,
  "passenger</w>": 4261,
  "shoulder</w>": 4262,
  "doors</w>": 4263,
  "partnership</w>": 4264,
  "reporter</w>": 4265,
  "At": 4266,
  "THE</w>": 4267,
  "transition</w>": 4268,
  "plastic</w>": 4269,
  "Evans</w>": 4270,
  "widespread</w>": 4271,
  "ese</w>": 4272,
  "tens</w>": 4273,
  "Justin</w>": 4274,
  "wonder</w>": 4275,
  "delay</w>": 4276,
  "ber</w>": 4277,
  "Picture</w>": 4278,
  "Te": 4279,
  "solar</w>": 4280,
  "Er": 4281,
  "Toronto</w>": 4282,
  "Craig</w>": 4283,
  "Do": 4284,
  "Alexander</w>": 4285,
  "Stewart</w>": 4286,
  "Rose</w>": 4287,
  "reaching</w>": 4288,
  "64</w>": 4289,
  "RE": 4290,
  "Atlantic</w>": 4291,
  "Sweden</w>": 4292,
  "dad</w>": 4293,
  "therefore</w>": 4294,
  "girlfriend</w>": 4295,
  "sol": 4296,
  "engaged</w>": 4297,
  "celebrate</w>": 4298,
  "upset</w>": 4299,
  "links</w>": 4300,
  "deadly</w>": 4301,
  "flag</w>": 4302,
  "regarding</w>": 4303,
  "YORK</w>": 4304,
  "Las</w>": 4305,
  "behalf</w>": 4306,
  "rie</w>": 4307,
  "preparing</w>": 4308,
  "pleased</w>": 4309,
  "Pal": 4310,
  "Berlin</w>": 4311,
  "improving</w>": 4312,
  "ere</w>": 4313,
  "faster</w>": 4314,
  "Cook</w>": 4315,
  "long-": 4316,
  "minority</w>": 4317,
  "seized</w>": 4318,
  "1990s</w>": 4319,
  "ville</w>": 4320,
  "lights</w>": 4321,
  "tourists</w>": 4322,
  "Total</w>": 4323,
  "owns</w>": 4324,
  "Atlanta</w>": 4325,
  "passes</w>": 4326,
  "top-": 4327,
  "except</w>": 4328,
  "ick": 4329,
  "indeed</w>": 4330,
  "shouldn</w>": 4331,
  "challenging</w>": 4332,
  "Food</w>": 4333,
  "Up</w>": 4334,
  "diplomatic</w>": 4335,
  "scores</w>": 4336,
  "Sky</w>": 4337,
  "reduction</w>": 4338,
  "62</w>": 4339,
  "ron</w>": 4340,
  "rest": 4341,
  "Oscar</w>": 4342,
  "kitchen</w>": 4343,
  "Santa</w>": 4344,
  "disappointed</w>": 4345,
  "800</w>": 4346,
  "wage</w>": 4347,
  "saved</w>": 4348,
  "NBA</w>": 4349,
  "operate</w>": 4350,
  "client</w>": 4351,
  "exciting</w>": 4352,
  "musical</w>": 4353,
  "capable</w>": 4354,
  "complaint</w>": 4355,
  "mixed</w>": 4356,
  "ministry</w>": 4357,
  "jump</w>": 4358,
  "jumped</w>": 4359,
  "68</w>": 4360,
  "ium</w>": 4361,
  "sensitive</w>": 4362,
  "Law</w>": 4363,
  "temporary</w>": 4364,
  "sounds</w>": 4365,
  "stadium</w>": 4366,
  "Charlie</w>": 4367,
  "entertainment</w>": 4368,
  "atory</w>": 4369,
  "begun</w>": 4370,
  "awards</w>": 4371,
  "Pennsylvania</w>": 4372,
  "backing</w>": 4373,
  "Gulf</w>": 4374,
  "broad</w>": 4375,
  "represented</w>": 4376,
  "explains</w>": 4377,
  "sugar</w>": 4378,
  "winds</w>": 4379,
  "W.</w>": 4380,
  "legs</w>": 4381,
  "purpose</w>": 4382,
  "equ": 4383,
  "enc": 4384,
  "ru": 4385,
  "Football</w>": 4386,
  "Swiss</w>": 4387,
  "winners</w>": 4388,
  "Thompson</w>": 4389,
  "ded</w>": 4390,
  "Perhaps</w>": 4391,
  "farmers</w>": 4392,
  "numerous</w>": 4393,
  "dating</w>": 4394,
  "bear</w>": 4395,
  "outstanding</w>": 4396,
  "Bowl</w>": 4397,
  "comm": 4398,
  "Having</w>": 4399,
  "ine": 4400,
  "dr": 4401,
  "extraordinary</w>": 4402,
  "declarat</w>": 4403,
  "reflect</w>": 4404,
  "IC": 4405,
  "lucky</w>": 4406,
  "Tur": 4407,
  "Exchange</w>": 4408,
  "Woods</w>": 4409,
  "prize</w>": 4410,
  "ers": 4411,
  "cas": 4412,
  "Ter": 4413,
  "prepare</w>": 4414,
  "jailed</w>": 4415,
  "suddenly</w>": 4416,
  "pat": 4417,
  "crude</w>": 4418,
  "creative</w>": 4419,
  "illness</w>": 4420,
  "Little</w>": 4421,
  "materials</w>": 4422,
  "gro": 4423,
  "handle</w>": 4424,
  "shoot</w>": 4425,
  "suggesting</w>": 4426,
  "Officials</w>": 4427,
  "concert</w>": 4428,
  "second-": 4429,
  "meat</w>": 4430,
  "confirm</w>": 4431,
  "teenager</w>": 4432,
  "incidents</w>": 4433,
  "cameras</w>": 4434,
  "pleaded</w>": 4435,
  "chosen</w>": 4436,
  "o-": 4437,
  "chose</w>": 4438,
  "earn</w>": 4439,
  "ute</w>": 4440,
  "neck</w>": 4441,
  "approximately</w>": 4442,
  "Mitchell</w>": 4443,
  "30": 4444,
  "rail</w>": 4445,
  "Dec.</w>": 4446,
  "AFL</w>": 4447,
  "intense</w>": 4448,
  "Art</w>": 4449,
  "reducing</w>": 4450,
  "Cre": 4451,
  "quoted</w>": 4452,
  "Mexican</w>": 4453,
  "peak</w>": 4454,
  "discussions</w>": 4455,
  "Perth</w>": 4456,
  "Sanders</w>": 4457,
  "ational</w>": 4458,
  "posed</w>": 4459,
  "gen": 4460,
  "scenes</w>": 4461,
  "Ross</w>": 4462,
  "margin</w>": 4463,
  "Maybe</w>": 4464,
  "ances</w>": 4465,
  "sick</w>": 4466,
  "jo": 4467,
  "Six</w>": 4468,
  "achieved</w>": 4469,
  "Each</w>": 4470,
  "So": 4471,
  "mouth</w>": 4472,
  "ha</w>": 4473,
  "predicted</w>": 4474,
  "nomination</w>": 4475,
  "improvement</w>": 4476,
  "equal</w>": 4477,
  "Crown</w>": 4478,
  "Sol": 4479,
  "ourselves</w>": 4480,
  "Mas": 4481,
  "athletes</w>": 4482,
  "Dallas</w>": 4483,
  "AC": 4484,
  "resort</w>": 4485,
  "Music</w>": 4486,
  "asta</w>": 4487,
  "wonderful</w>": 4488,
  "Joseph</w>": 4489,
  "Oh</w>": 4490,
  "del": 4491,
  "schedule</w>": 4492,
  "D.C.</w>": 4493,
  "limits</w>": 4494,
  "maximum</w>": 4495,
  "12.": 4496,
  "invited</w>": 4497,
  "formal</w>": 4498,
  "Ge": 4499,
  "designer</w>": 4500,
  "-to-": 4501,
  "stolen</w>": 4502,
  "lar": 4503,
  "Live</w>": 4504,
  "berg</w>": 4505,
  "ast</w>": 4506,
  "00": 4507,
  "ilor</w>": 4508,
  "ades</w>": 4509,
  "Fre": 4510,
  "ada</w>": 4511,
  "Kerry</w>": 4512,
  "dry</w>": 4513,
  "forms</w>": 4514,
  "properly</w>": 4515,
  "FA</w>": 4516,
  "eling</w>": 4517,
  "bright</w>": 4518,
  "dominated</w>": 4519,
  "Daca</w>": 4520,
  "Sel": 4521,
  "beaten</w>": 4522,
  "honest</w>": 4523,
  "wed</w>": 4524,
  "locations</w>": 4525,
  "involvement</w>": 4526,
  "sen": 4527,
  "Newcastle</w>": 4528,
  "stable</w>": 4529,
  "star": 4530,
  "waters</w>": 4531,
  "char": 4532,
  "bel": 4533,
  "senator</w>": 4534,
  "Executive</w>": 4535,
  "letters</w>": 4536,
  "63</w>": 4537,
  "wider</w>": 4538,
  "symptoms</w>": 4539,
  "den": 4540,
  "thrown</w>": 4541,
  "lock</w>": 4542,
  "lunch</w>": 4543,
  "ri</w>": 4544,
  "sur</w>": 4545,
  "witnesses</w>": 4546,
  "planet</w>": 4547,
  "investigate</w>": 4548,
  "elle</w>": 4549,
  "spirit</w>": 4550,
  "mention</w>": 4551,
  "A.</w>": 4552,
  "01</w>": 4553,
  "clash</w>": 4554,
  "aux</w>": 4555,
  "ny</w>": 4556,
  "Cas": 4557,
  "fix</w>": 4558,
  "Watson</w>": 4559,
  "Science</w>": 4560,
  "71</w>": 4561,
  "izing</w>": 4562,
  "gender</w>": 4563,
  "sad</w>": 4564,
  "ref": 4565,
  "ole</w>": 4566,
  "referring</w>": 4567,
  "Ste": 4568,
  "relationships</w>": 4569,
  "fled</w>": 4570,
  "New": 4571,
  "striker</w>": 4572,
  "Celtic</w>": 4573,
  "atmosphere</w>": 4574,
  "Brussels</w>": 4575,
  "ao</w>": 4576,
  "yl": 4577,
  "reg": 4578,
  "gh": 4579,
  "brands</w>": 4580,
  "Massachusetts</w>": 4581,
  "privacy</w>": 4582,
  "AM": 4583,
  "sel": 4584,
  "za</w>": 4585,
  "ening</w>": 4586,
  "AT</w>": 4587,
  "Attorney</w>": 4588,
  "telephone</w>": 4589,
  "recovered</w>": 4590,
  "spotted</w>": 4591,
  "Ser": 4592,
  "12-": 4593,
  "08</w>": 4594,
  "informed</w>": 4595,
  "Five</w>": 4596,
  "ease</w>": 4597,
  "survived</w>": 4598,
  "mining</w>": 4599,
  "Ferguson</w>": 4600,
  "length</w>": 4601,
  "apparent</w>": 4602,
  "7,": 4603,
  "SA</w>": 4604,
  "burn</w>": 4605,
  "detailed</w>": 4606,
  "staying</w>": 4607,
  "28": 4608,
  "tur": 4609,
  "smoke</w>": 4610,
  "anywhere</w>": 4611,
  "Jose</w>": 4612,
  "hate</w>": 4613,
  "brothers</w>": 4614,
  "Ap": 4615,
  "parliamentary</w>": 4616,
  "OK</w>": 4617,
  "metal</w>": 4618,
  "writers</w>": 4619,
  "welfare</w>": 4620,
  "rap": 4621,
  "urs</w>": 4622,
  "trans": 4623,
  "promises</w>": 4624,
  "invest</w>": 4625,
  "ack": 4626,
  "extent</w>": 4627,
  "shops</w>": 4628,
  "participants</w>": 4629,
  "Mel": 4630,
  "Rock</w>": 4631,
  "ed-": 4632,
  "red": 4633,
  "aff": 4634,
  "lu": 4635,
  "saving</w>": 4636,
  "excellent</w>": 4637,
  "05</w>": 4638,
  "guide</w>": 4639,
  "iled</w>": 4640,
  "Cro": 4641,
  "69</w>": 4642,
  "opposite</w>": 4643,
  "isation</w>": 4644,
  "Francis</w>": 4645,
  "le-": 4646,
  "temperatures</w>": 4647,
  "referred</w>": 4648,
  "una</w>": 4649,
  "extend</w>": 4650,
  "detail</w>": 4651,
  "but": 4652,
  "rent</w>": 4653,
  "Ed": 4654,
  "vo": 4655,
  "ene</w>": 4656,
  "ups</w>": 4657,
  "soft</w>": 4658,
  "jet</w>": 4659,
  "Mul": 4660,
  "six-": 4661,
  "Merkel</w>": 4662,
  "therapy</w>": 4663,
  "exit</w>": 4664,
  "Maria</w>": 4665,
  "bags</w>": 4666,
  "master</w>": 4667,
  "awarded</w>": 4668,
  "pound</w>": 4669,
  "bing</w>": 4670,
  "lying</w>": 4671,
  "regions</w>": 4672,
  "prisoners</w>": 4673,
  "anc": 4674,
  "Maryland</w>": 4675,
  "Russell</w>": 4676,
  "Corporation</w>": 4677,
  "Mur": 4678,
  "tennis</w>": 4679,
  "facts</w>": 4680,
  "lin": 4681,
  "fields</w>": 4682,
  "proper</w>": 4683,
  "Ko": 4684,
  "prosecutor</w>": 4685,
  "restrictions</w>": 4686,
  "inger</w>": 4687,
  "surveillance</w>": 4688,
  "Aug.</w>": 4689,
  "Dutch</w>": 4690,
  "IS": 4691,
  "1980s</w>": 4692,
  "Corp.</w>": 4693,
  "Back</w>": 4694,
  "prominent</w>": 4695,
  "barely</w>": 4696,
  "partly</w>": 4697,
  "Net</w>": 4698,
  "ming</w>": 4699,
  "61</w>": 4700,
  "tech</w>": 4701,
  "arrive</w>": 4702,
  "detained</w>": 4703,
  "estimate</w>": 4704,
  "ths</w>": 4705,
  "relatives</w>": 4706,
  "expense</w>": 4707,
  "principal</w>": 4708,
  "sight</w>": 4709,
  "totally</w>": 4710,
  "native</w>": 4711,
  "pas</w>": 4712,
  "itions</w>": 4713,
  "speculation</w>": 4714,
  "Cruz</w>": 4715,
  "27": 4716,
  "Disney</w>": 4717,
  "necessarily</w>": 4718,
  "Neil</w>": 4719,
  "War": 4720,
  "gate</w>": 4721,
  "Guardian</w>": 4722,
  "roles</w>": 4723,
  "beer</w>": 4724,
  "cabinet</w>": 4725,
  "citing</w>": 4726,
  "bombing</w>": 4727,
  "asset</w>": 4728,
  "badly</w>": 4729,
  "bu": 4730,
  "Ha": 4731,
  "dedicated</w>": 4732,
  "fail</w>": 4733,
  "emb": 4734,
  "Network</w>": 4735,
  "ich</w>": 4736,
  "0-": 4737,
  "favour</w>": 4738,
  "ards</w>": 4739,
  "09</w>": 4740,
  "trei</w>": 4741,
  "pal": 4742,
  "civilian</w>": 4743,
  "factory</w>": 4744,
  "amounts</w>": 4745,
  "ish": 4746,
  "toll</w>": 4747,
  "knowing</w>": 4748,
  "survive</w>": 4749,
  "hel": 4750,
  "absence</w>": 4751,
  "stretch</w>": 4752,
  "feed</w>": 4753,
  "terrorists</w>": 4754,
  "Rec": 4755,
  "met": 4756,
  "1998</w>": 4757,
  "establish</w>": 4758,
  "ase</w>": 4759,
  "8,": 4760,
  "25": 4761,
  "ison</w>": 4762,
  "Port</w>": 4763,
  "auction</w>": 4764,
  "tribute</w>": 4765,
  "abortion</w>": 4766,
  "equivalent</w>": 4767,
  "Bridge</w>": 4768,
  "welcomed</w>": 4769,
  "Cuba</w>": 4770,
  "interviews</w>": 4771,
  "Pakistani</w>": 4772,
  "Michelle</w>": 4773,
  "1.5</w>": 4774,
  "aging</w>": 4775,
  "dies</w>": 4776,
  "incredible</w>": 4777,
  "Palace</w>": 4778,
  "probe</w>": 4779,
  "explosion</w>": 4780,
  "proof</w>": 4781,
  "Golden</w>": 4782,
  "ame</w>": 4783,
  "hardly</w>": 4784,
  "plot</w>": 4785,
  "Warner</w>": 4786,
  "ze</w>": 4787,
  "Argentina</w>": 4788,
  "helicopter</w>": 4789,
  "finals</w>": 4790,
  "forget</w>": 4791,
  "humans</w>": 4792,
  "ail": 4793,
  "tone</w>": 4794,
  "unions</w>": 4795,
  "2018</w>": 4796,
  "multi-": 4797,
  "Can": 4798,
  "differences</w>": 4799,
  "700</w>": 4800,
  "Black": 4801,
  "Blair</w>": 4802,
  "wore</w>": 4803,
  "performances</w>": 4804,
  "Dr": 4805,
  "possession</w>": 4806,
  "announce</w>": 4807,
  "posts</w>": 4808,
  "hosts</w>": 4809,
  "Super": 4810,
  "initiative</w>": 4811,
  "Team</w>": 4812,
  "bars</w>": 4813,
  "Phil</w>": 4814,
  "Don": 4815,
  "hadn</w>": 4816,
  "Gro": 4817,
  "tea</w>": 4818,
  "producers</w>": 4819,
  "Sand": 4820,
  "Whit": 4821,
  "ett</w>": 4822,
  "controversy</w>": 4823,
  "Airlines</w>": 4824,
  "ai": 4825,
  "Fer": 4826,
  "urban</w>": 4827,
  "regulatory</w>": 4828,
  "cadrul</w>": 4829,
  "walls</w>": 4830,
  "Updated</w>": 4831,
  "settled</w>": 4832,
  "ty": 4833,
  "ologist</w>": 4834,
  "diagnosed</w>": 4835,
  "blocked</w>": 4836,
  "entering</w>": 4837,
  "Ger": 4838,
  "alised</w>": 4839,
  "imposed</w>": 4840,
  "ken</w>": 4841,
  "tar": 4842,
  "Este</w>": 4843,
  "Wal": 4844,
  "substantial</w>": 4845,
  "Authorities</w>": 4846,
  "dem": 4847,
  "tip</w>": 4848,
  "resident</w>": 4849,
  "Authority</w>": 4850,
  "Series</w>": 4851,
  "diet</w>": 4852,
  "sub</w>": 4853,
  "decat</w>": 4854,
  "somebody</w>": 4855,
  "shocked</w>": 4856,
  "gang</w>": 4857,
  "mid": 4858,
  "Seattle</w>": 4859,
  "threatening</w>": 4860,
  "planes</w>": 4861,
  "titles</w>": 4862,
  "Next</w>": 4863,
  "baseball</w>": 4864,
  "encouraged</w>": 4865,
  "Minnesota</w>": 4866,
  "specialist</w>": 4867,
  "Lady</w>": 4868,
  "Che": 4869,
  "royal</w>": 4870,
  "Development</w>": 4871,
  "Christopher</w>": 4872,
  "terrible</w>": 4873,
  "regulation</w>": 4874,
  "protected</w>": 4875,
  "mas": 4876,
  "Tokyo</w>": 4877,
  "col": 4878,
  "Carter</w>": 4879,
  "det": 4880,
  "defender</w>": 4881,
  "keeps</w>": 4882,
  "hy": 4883,
  "por": 4884,
  "representing</w>": 4885,
  "cro": 4886,
  "Pa": 4887,
  "cycle</w>": 4888,
  "contained</w>": 4889,
  "ena</w>": 4890,
  "cheap</w>": 4891,
  "empty</w>": 4892,
  "electronic</w>": 4893,
  "listen</w>": 4894,
  "250</w>": 4895,
  "Reg": 4896,
  "degrees</w>": 4897,
  "My": 4898,
  "Nor": 4899,
  "belief</w>": 4900,
  "Cooper</w>": 4901,
  "Robinson</w>": 4902,
  "soldier</w>": 4903,
  "surge</w>": 4904,
  "milk</w>": 4905,
  "alte</w>": 4906,
  "Any</w>": 4907,
  "dressed</w>": 4908,
  "Second</w>": 4909,
  "scientific</w>": 4910,
  "taste</w>": 4911,
  "arrival</w>": 4912,
  "Ph": 4913,
  "officially</w>": 4914,
  "Independent</w>": 4915,
  "Res": 4916,
  "hired</w>": 4917,
  "channel</w>": 4918,
  "unor</w>": 4919,
  "breast</w>": 4920,
  "Philip</w>": 4921,
  "pur": 4922,
  "Cleveland</w>": 4923,
  "normally</w>": 4924,
  "motion</w>": 4925,
  "ied</w>": 4926,
  "Jamie</w>": 4927,
  "calm</w>": 4928,
  "sweet</w>": 4929,
  "Yemen</w>": 4930,
  "1997</w>": 4931,
  "lands</w>": 4932,
  "exhibition</w>": 4933,
  "parking</w>": 4934,
  "replied</w>": 4935,
  "newly</w>": 4936,
  "Kansas</w>": 4937,
  "eless</w>": 4938,
  "off": 4939,
  "investigations</w>": 4940,
  "clinical</w>": 4941,
  "sem": 4942,
  "pose</w>": 4943,
  "weapon</w>": 4944,
  "tered</w>": 4945,
  "perioada</w>": 4946,
  "requirements</w>": 4947,
  "ci</w>": 4948,
  "-and-": 4949,
  "liberal</w>": 4950,
  "ni": 4951,
  "desperate</w>": 4952,
  "Cap": 4953,
  "balls</w>": 4954,
  "experiences</w>": 4955,
  "acted</w>": 4956,
  "ther": 4957,
  "regulators</w>": 4958,
  "cable</w>": 4959,
  "shadow</w>": 4960,
  "intr-un</w>": 4961,
  "creation</w>": 4962,
  "ory</w>": 4963,
  "Roberts</w>": 4964,
  "Greg</w>": 4965,
  "stream</w>": 4966,
  "bury</w>": 4967,
  "applied</w>": 4968,
  "assessment</w>": 4969,
  "demanding</w>": 4970,
  "delayed</w>": 4971,
  "ambassador</w>": 4972,
  "web</w>": 4973,
  "handling</w>": 4974,
  "ratings</w>": 4975,
  "stability</w>": 4976,
  "Clarke</w>": 4977,
  "Pen": 4978,
  "suffer</w>": 4979,
  "alist</w>": 4980,
  "repeated</w>": 4981,
  "waves</w>": 4982,
  "Islam</w>": 4983,
  "astfel</w>": 4984,
  "economist</w>": 4985,
  "sch": 4986,
  "Bruce</w>": 4987,
  "eng": 4988,
  "smoking</w>": 4989,
  "fantastic</w>": 4990,
  "mountain</w>": 4991,
  "rely</w>": 4992,
  "hero</w>": 4993,
  "unt": 4994,
  "viata</w>": 4995,
  "Free</w>": 4996,
  "adopted</w>": 4997,
  "GM</w>": 4998,
  "ST": 4999,
  "Sur": 5000,
  "noticed</w>": 5001,
  "Dave</w>": 5002,
  "momentum</w>": 5003,
  "enti": 5004,
  "Jon</w>": 5005,
  "AS": 5006,
  "ishing</w>": 5007,
  "ban": 5008,
  "slowly</w>": 5009,
  "50": 5010,
  "Indonesia</w>": 5011,
  "Corp</w>": 5012,
  "9,": 5013,
  "defending</w>": 5014,
  "basketball</w>": 5015,
  "pages</w>": 5016,
  "rebel</w>": 5017,
  "ured</w>": 5018,
  "producing</w>": 5019,
  "50,000</w>": 5020,
  "remote</w>": 5021,
  "Cur": 5022,
  "exposure</w>": 5023,
  "association</w>": 5024,
  "moral</w>": 5025,
  "departure</w>": 5026,
  "Others</w>": 5027,
  "ened</w>": 5028,
  "featuring</w>": 5029,
  "controls</w>": 5030,
  "tools</w>": 5031,
  "consistent</w>": 5032,
  "intr": 5033,
  "silver</w>": 5034,
  "shirt</w>": 5035,
  "Dun": 5036,
  "ys": 5037,
  "bs</w>": 5038,
  "presidency</w>": 5039,
  "packed</w>": 5040,
  "ose</w>": 5041,
  "historical</w>": 5042,
  "ven": 5043,
  "cope</w>": 5044,
  "opens</w>": 5045,
  "unknown</w>": 5046,
  "elite</w>": 5047,
  "Read</w>": 5048,
  "seventh</w>": 5049,
  "ola</w>": 5050,
  "ges</w>": 5051,
  "uncertainty</w>": 5052,
  "Ash": 5053,
  "documentary</w>": 5054,
  "successfully</w>": 5055,
  "spr": 5056,
  "atunci</w>": 5057,
  "venture</w>": 5058,
  "abandoned</w>": 5059,
  "gre": 5060,
  "sparked</w>": 5061,
  "resulted</w>": 5062,
  "prosecution</w>": 5063,
  "work": 5064,
  "en-": 5065,
  "low": 5066,
  "Soviet</w>": 5067,
  "tragedy</w>": 5068,
  "Roger</w>": 5069,
  "ud</w>": 5070,
  "eful</w>": 5071,
  "flo": 5072,
  "ements</w>": 5073,
  "radical</w>": 5074,
  "commander</w>": 5075,
  "distribution</w>": 5076,
  "thoughts</w>": 5077,
  "Sub": 5078,
  "theory</w>": 5079,
  "travelling</w>": 5080,
  "broader</w>": 5081,
  "West": 5082,
  "intr-o</w>": 5083,
  "mentioned</w>": 5084,
  "fixed</w>": 5085,
  "concept</w>": 5086,
  "striking</w>": 5087,
  "Osborne</w>": 5088,
  "Pri": 5089,
  "directors</w>": 5090,
  "tensions</w>": 5091,
  "intervention</w>": 5092,
  "Jennifer</w>": 5093,
  "funny</w>": 5094,
  "ail</w>": 5095,
  "earthquake</w>": 5096,
  "ez": 5097,
  "Egyptian</w>": 5098,
  "eighth</w>": 5099,
  "campus</w>": 5100,
  "Sean</w>": 5101,
  "20-": 5102,
  "Su": 5103,
  "couples</w>": 5104,
  "monitoring</w>": 5105,
  "contain</w>": 5106,
  "mood</w>": 5107,
  "nominee</w>": 5108,
  "breaks</w>": 5109,
  "Everyone</w>": 5110,
  "Pentagon</w>": 5111,
  "Vladimir</w>": 5112,
  "plate</w>": 5113,
  "exports</w>": 5114,
  "off-": 5115,
  "retailers</w>": 5116,
  "visits</w>": 5117,
  "recall</w>": 5118,
  "employers</w>": 5119,
  "efficient</w>": 5120,
  "forcing</w>": 5121,
  "ella</w>": 5122,
  "gift</w>": 5123,
  "ech": 5124,
  "frequently</w>": 5125,
  "Baghdad</w>": 5126,
  "selected</w>": 5127,
  "convinced</w>": 5128,
  "Tor": 5129,
  "bail</w>": 5130,
  "remarkable</w>": 5131,
  "capture</w>": 5132,
  "favor</w>": 5133,
  "map</w>": 5134,
  "ites</w>": 5135,
  "Gal": 5136,
  "Securities</w>": 5137,
  "babies</w>": 5138,
  "activist</w>": 5139,
  "ams</w>": 5140,
  "bles</w>": 5141,
  "kicked</w>": 5142,
  "celebrity</w>": 5143,
  "monthly</w>": 5144,
  "CO": 5145,
  "74</w>": 5146,
  "Hampshire</w>": 5147,
  "complained</w>": 5148,
  "Pope</w>": 5149,
  "campaigns</w>": 5150,
  "hundred</w>": 5151,
  "obtained</w>": 5152,
  "print</w>": 5153,
  "Indeed</w>": 5154,
  "Reporter</w>": 5155,
  "inv": 5156,
  "hall</w>": 5157,
  "77</w>": 5158,
  "sey</w>": 5159,
  "landed</w>": 5160,
  "\u00e8": 5161,
  "Oklahoma</w>": 5162,
  "Campbell</w>": 5163,
  "Terry</w>": 5164,
  "enormous</w>": 5165,
  "ecting</w>": 5166,
  "07</w>": 5167,
  "Brooklyn</w>": 5168,
  "rarely</w>": 5169,
  "portfolio</w>": 5170,
  "asemenea</w>": 5171,
  "affair</w>": 5172,
  "Leader</w>": 5173,
  "tic</w>": 5174,
  "cat": 5175,
  "salary</w>": 5176,
  "complicated</w>": 5177,
  "crashed</w>": 5178,
  "fac": 5179,
  "cleared</w>": 5180,
  "upcoming</w>": 5181,
  "ym": 5182,
  "congressional</w>": 5183,
  "Khan</w>": 5184,
  "mph</w>": 5185,
  "meanwhile</w>": 5186,
  "surprising</w>": 5187,
  "nobody</w>": 5188,
  "drawing</w>": 5189,
  "ries</w>": 5190,
  "eled</w>": 5191,
  "Sen": 5192,
  "micro": 5193,
  "encouraging</w>": 5194,
  "S.</w>": 5195,
  "sen</w>": 5196,
  "oned</w>": 5197,
  "fake</w>": 5198,
  "19": 5199,
  "specifically</w>": 5200,
  "2020</w>": 5201,
  "ink</w>": 5202,
  "hol": 5203,
  "volume</w>": 5204,
  "yellow</w>": 5205,
  "sustained</w>": 5206,
  "Out</w>": 5207,
  "Without</w>": 5208,
  "di</w>": 5209,
  "26": 5210,
  "ret": 5211,
  "Vice</w>": 5212,
  "representative</w>": 5213,
  "thank</w>": 5214,
  "ancient</w>": 5215,
  "acc": 5216,
  "attacking</w>": 5217,
  "ez</w>": 5218,
  "Chairman</w>": 5219,
  "Singapore</w>": 5220,
  "Given</w>": 5221,
  "papers</w>": 5222,
  "recommended</w>": 5223,
  "Christie</w>": 5224,
  "ethnic</w>": 5225,
  "LA</w>": 5226,
  "childhood</w>": 5227,
  "liked</w>": 5228,
  "1970s</w>": 5229,
  "Men": 5230,
  "criticized</w>": 5231,
  "expecting</w>": 5232,
  "by": 5233,
  "Gen": 5234,
  "killer</w>": 5235,
  "engineering</w>": 5236,
  "Chancellor</w>": 5237,
  "Sho": 5238,
  "celor</w>": 5239,
  "pack</w>": 5240,
  "Space</w>": 5241,
  "Dec": 5242,
  "first-": 5243,
  "investor</w>": 5244,
  "Welsh</w>": 5245,
  "Lions</w>": 5246,
  "theme</w>": 5247,
  "hip</w>": 5248,
  "mate</w>": 5249,
  "deadline</w>": 5250,
  "Luke</w>": 5251,
  "lending</w>": 5252,
  "ture</w>": 5253,
  "sil": 5254,
  "Wright</w>": 5255,
  "20,000</w>": 5256,
  "asylum</w>": 5257,
  "Hamas</w>": 5258,
  "roof</w>": 5259,
  "Edward</w>": 5260,
  "73</w>": 5261,
  "string</w>": 5262,
  "Week</w>": 5263,
  "clothing</w>": 5264,
  "ancy</w>": 5265,
  "sco": 5266,
  "squ": 5267,
  "ion": 5268,
  "photographs</w>": 5269,
  "tracks</w>": 5270,
  "hum": 5271,
  "category</w>": 5272,
  "milioane</w>": 5273,
  "med</w>": 5274,
  "11": 5275,
  "ately</w>": 5276,
  "tara</w>": 5277,
  "aceste</w>": 5278,
  "Wood": 5279,
  "elderly</w>": 5280,
  "midfielder</w>": 5281,
  "replacement</w>": 5282,
  "relative</w>": 5283,
  "Rick</w>": 5284,
  "Islamist</w>": 5285,
  "sized</w>": 5286,
  "Birmingham</w>": 5287,
  "readers</w>": 5288,
  "discovery</w>": 5289,
  "win": 5290,
  "pledged</w>": 5291,
  "tim": 5292,
  "NRL</w>": 5293,
  "medicine</w>": 5294,
  "e-mail</w>": 5295,
  "zero</w>": 5296,
  "exist</w>": 5297,
  "Columbia</w>": 5298,
  "tradition</w>": 5299,
  "marijuana</w>": 5300,
  "champions</w>": 5301,
  "classes</w>": 5302,
  "collapsed</w>": 5303,
  "kid</w>": 5304,
  "wor": 5305,
  "birds</w>": 5306,
  "criticised</w>": 5307,
  "veterans</w>": 5308,
  "mor": 5309,
  "appointment</w>": 5310,
  "Miliband</w>": 5311,
  "gathering</w>": 5312,
  "ash": 5313,
  "afraid</w>": 5314,
  "legacy</w>": 5315,
  "franchise</w>": 5316,
  "29": 5317,
  "sorry</w>": 5318,
  "24": 5319,
  "Australians</w>": 5320,
  "answers</w>": 5321,
  "recover</w>": 5322,
  "ays</w>": 5323,
  "Illinois</w>": 5324,
  "brilliant</w>": 5325,
  "praised</w>": 5326,
  "bling</w>": 5327,
  "ordinary</w>": 5328,
  "Shar": 5329,
  "fel</w>": 5330,
  "shoes</w>": 5331,
  "A-": 5332,
  "Ram": 5333,
  "Following</w>": 5334,
  "Me</w>": 5335,
  "ceea</w>": 5336,
  "PRNewswire</w>": 5337,
  "ices</w>": 5338,
  "collected</w>": 5339,
  "flu</w>": 5340,
  "putin</w>": 5341,
  "describe</w>": 5342,
  "1995</w>": 5343,
  "Right</w>": 5344,
  "Officer</w>": 5345,
  "pet</w>": 5346,
  "cul": 5347,
  "76</w>": 5348,
  "household</w>": 5349,
  "checks</w>": 5350,
  "wealthy</w>": 5351,
  "bone</w>": 5352,
  "emails</w>": 5353,
  "reference</w>": 5354,
  "fur": 5355,
  "Switzerland</w>": 5356,
  "Je": 5357,
  "elements</w>": 5358,
  "02</w>": 5359,
  "landing</w>": 5360,
  "fairly</w>": 5361,
  "ple</w>": 5362,
  "zile</w>": 5363,
  "Duke</w>": 5364,
  "Cambridge</w>": 5365,
  "Alabama</w>": 5366,
  "defended</w>": 5367,
  "covering</w>": 5368,
  "over-": 5369,
  "metres</w>": 5370,
  "Price</w>": 5371,
  "Vietnam</w>": 5372,
  "advised</w>": 5373,
  "divided</w>": 5374,
  "Bell</w>": 5375,
  "manner</w>": 5376,
  "mel": 5377,
  "Jimmy</w>": 5378,
  "88</w>": 5379,
  "lows</w>": 5380,
  "Which</w>": 5381,
  "ited</w>": 5382,
  "Marine</w>": 5383,
  "depression</w>": 5384,
  "pet": 5385,
  "wi": 5386,
  "context</w>": 5387,
  "throwing</w>": 5388,
  "Men</w>": 5389,
  "Avenue</w>": 5390,
  "Report</w>": 5391,
  "Cross</w>": 5392,
  "ight</w>": 5393,
  "CIA</w>": 5394,
  "FC</w>": 5395,
  "rapidly</w>": 5396,
  "switch</w>": 5397,
  "correct</w>": 5398,
  "quarterback</w>": 5399,
  "consumption</w>": 5400,
  "Technology</w>": 5401,
  "error</w>": 5402,
  "function</w>": 5403,
  "SNP</w>": 5404,
  "Abu</w>": 5405,
  "ura</w>": 5406,
  "tale</w>": 5407,
  "opponent</w>": 5408,
  "eurozone</w>": 5409,
  "quit</w>": 5410,
  "guess</w>": 5411,
  "viewed</w>": 5412,
  "stroke</w>": 5413,
  "honor</w>": 5414,
  "outlook</w>": 5415,
  "vis": 5416,
  "satellite</w>": 5417,
  "fiecare</w>": 5418,
  "luck</w>": 5419,
  "teaching</w>": 5420,
  "secured</w>": 5421,
  "carefully</w>": 5422,
  "Sometimes</w>": 5423,
  "SOURCE</w>": 5424,
  "auto</w>": 5425,
  "wo": 5426,
  "comprehensive</w>": 5427,
  "prima</w>": 5428,
  "guidance</w>": 5429,
  "update</w>": 5430,
  "promising</w>": 5431,
  "typical</w>": 5432,
  "targeting</w>": 5433,
  "engage</w>": 5434,
  "extensive</w>": 5435,
  "ownership</w>": 5436,
  "demanded</w>": 5437,
  "requests</w>": 5438,
  "blast</w>": 5439,
  "reveals</w>": 5440,
  "CH": 5441,
  "billions</w>": 5442,
  "ace</w>": 5443,
  "Giants</w>": 5444,
  "approached</w>": 5445,
  "weekly</w>": 5446,
  "acquisition</w>": 5447,
  "boyfriend</w>": 5448,
  "hire</w>": 5449,
  "guarantee</w>": 5450,
  "Tro": 5451,
  "constant</w>": 5452,
  "communication</w>": 5453,
  "rapid</w>": 5454,
  "detention</w>": 5455,
  "Palestinians</w>": 5456,
  "reasonable</w>": 5457,
  "counter</w>": 5458,
  "nationwide</w>": 5459,
  "fruit</w>": 5460,
  "ind</w>": 5461,
  "luni</w>": 5462,
  "rounds</w>": 5463,
  "Edwards</w>": 5464,
  "Commons</w>": 5465,
  "ions</w>": 5466,
  "du": 5467,
  "mann</w>": 5468,
  "phase</w>": 5469,
  "attractive</w>": 5470,
  "recognition</w>": 5471,
  "Information</w>": 5472,
  "IT": 5473,
  "funeral</w>": 5474,
  "cream</w>": 5475,
  "spots</w>": 5476,
  "Trade</w>": 5477,
  "amb": 5478,
  "primarily</w>": 5479,
  "Clark</w>": 5480,
  "attract</w>": 5481,
  "app": 5482,
  "cooperation</w>": 5483,
  "authors</w>": 5484,
  "modest</w>": 5485,
  "providers</w>": 5486,
  "sters</w>": 5487,
  "Ol": 5488,
  "trillion</w>": 5489,
  "LE": 5490,
  "contacted</w>": 5491,
  "choices</w>": 5492,
  "hotels</w>": 5493,
  "daughters</w>": 5494,
  "ills</w>": 5495,
  "Fr": 5496,
  "membership</w>": 5497,
  "Kh": 5498,
  "ust</w>": 5499,
  "unprecedented</w>": 5500,
  "academic</w>": 5501,
  "eligible</w>": 5502,
  "perspective</w>": 5503,
  "sun": 5504,
  "Bloomberg</w>": 5505,
  "testimony</w>": 5506,
  "towns</w>": 5507,
  "rocket</w>": 5508,
  "alism</w>": 5509,
  "arii</w>": 5510,
  "journal</w>": 5511,
  "ave</w>": 5512,
  "securities</w>": 5513,
  "politician</w>": 5514,
  "holes</w>": 5515,
  "routine</w>": 5516,
  "verdict</w>": 5517,
  "lifted</w>": 5518,
  "boards</w>": 5519,
  "Bucuresti</w>": 5520,
  "fires</w>": 5521,
  "cup</w>": 5522,
  "78</w>": 5523,
  "Wayne</w>": 5524,
  "drinks</w>": 5525,
  "tle</w>": 5526,
  "stages</w>": 5527,
  "Mah": 5528,
  "Hel": 5529,
  "streak</w>": 5530,
  "eri</w>": 5531,
  "Dor": 5532,
  "admits</w>": 5533,
  "handful</w>": 5534,
  "hor": 5535,
  "Bureau</w>": 5536,
  "iron</w>": 5537,
  "signal</w>": 5538,
  "militant</w>": 5539,
  "ok</w>": 5540,
  "Project</w>": 5541,
  "06</w>": 5542,
  "water": 5543,
  "45": 5544,
  "fitness</w>": 5545,
  "1996</w>": 5546,
  "foundation</w>": 5547,
  "coaches</w>": 5548,
  "ME": 5549,
  "pos": 5550,
  "ure": 5551,
  "aims</w>": 5552,
  "04</w>": 5553,
  "GDP</w>": 5554,
  "conviction</w>": 5555,
  "serves</w>": 5556,
  "Sport</w>": 5557,
  "mothers</w>": 5558,
  "bled</w>": 5559,
  "alling</w>": 5560,
  "mistakes</w>": 5561,
  "spune</w>": 5562,
  "Take</w>": 5563,
  "delays</w>": 5564,
  "Whether</w>": 5565,
  "R.</w>": 5566,
  "eman</w>": 5567,
  "ins": 5568,
  "occasion</w>": 5569,
  "steel</w>": 5570,
  "lady</w>": 5571,
  "aut": 5572,
  "lucru</w>": 5573,
  "universities</w>": 5574,
  "trials</w>": 5575,
  "add": 5576,
  "Poland</w>": 5577,
  "ert</w>": 5578,
  "pursue</w>": 5579,
  "awareness</w>": 5580,
  "Mad": 5581,
  "expanded</w>": 5582,
  "relevant</w>": 5583,
  "ex</w>": 5584,
  "Toyota</w>": 5585,
  "appearances</w>": 5586,
  "ake</w>": 5587,
  "ques</w>": 5588,
  "thus</w>": 5589,
  "revolution</w>": 5590,
  "ballot</w>": 5591,
  "ali</w>": 5592,
  "settle</w>": 5593,
  "covers</w>": 5594,
  "cut": 5595,
  "inch</w>": 5596,
  "strange</w>": 5597,
  "ranks</w>": 5598,
  "Warren</w>": 5599,
  "pressed</w>": 5600,
  "dying</w>": 5601,
  "odds</w>": 5602,
  "rolled</w>": 5603,
  "somewhere</w>": 5604,
  "Stanley</w>": 5605,
  "Pe</w>": 5606,
  "wages</w>": 5607,
  "gross</w>": 5608,
  "rated</w>": 5609,
  "warming</w>": 5610,
  "odd</w>": 5611,
  "anybody</w>": 5612,
  "Fairfax</w>": 5613,
  "representatives</w>": 5614,
  "celebrated</w>": 5615,
  "crazy</w>": 5616,
  "blocks</w>": 5617,
  "somewhat</w>": 5618,
  "49": 5619,
  "financing</w>": 5620,
  "prospects</w>": 5621,
  "democratic</w>": 5622,
  "Bu": 5623,
  "ners</w>": 5624,
  "tears</w>": 5625,
  "Reid</w>": 5626,
  "Westminster</w>": 5627,
  "recording</w>": 5628,
  "eh": 5629,
  "tall</w>": 5630,
  "valuable</w>": 5631,
  "Latin</w>": 5632,
  "hidden</w>": 5633,
  "eds</w>": 5634,
  "tool</w>": 5635,
  "tering</w>": 5636,
  "refugee</w>": 5637,
  "\u00bd</w>": 5638,
  "Mus": 5639,
  "searching</w>": 5640,
  "respectively</w>": 5641,
  "Tigers</w>": 5642,
  "attitude</w>": 5643,
  "aling</w>": 5644,
  "inches</w>": 5645,
  "output</w>": 5646,
  "pending</w>": 5647,
  "Netanyahu</w>": 5648,
  "fatal</w>": 5649,
  "pays</w>": 5650,
  "attempting</w>": 5651,
  "unul</w>": 5652,
  "Bor": 5653,
  "lers</w>": 5654,
  "N.": 5655,
  "ocean</w>": 5656,
  "Collins</w>": 5657,
  "doi</w>": 5658,
  "Be</w>": 5659,
  "resolve</w>": 5660,
  "atat</w>": 5661,
  "exista</w>": 5662,
  "pt": 5663,
  "rolling</w>": 5664,
  "EN": 5665,
  "pri": 5666,
  "at-": 5667,
  "Night</w>": 5668,
  "computers</w>": 5669,
  "Major</w>": 5670,
  "upper</w>": 5671,
  "pipeline</w>": 5672,
  "riding</w>": 5673,
  "ians</w>": 5674,
  "bul": 5675,
  "everywhere</w>": 5676,
  "economies</w>": 5677,
  "Antonio</w>": 5678,
  "anticipated</w>": 5679,
  "15-": 5680,
  "Corbyn</w>": 5681,
  "essentially</w>": 5682,
  "ains</w>": 5683,
  "McDonald</w>": 5684,
  "exact</w>": 5685,
  "Baltimore</w>": 5686,
  "han</w>": 5687,
  "forward-looking</w>": 5688,
  "Lu": 5689,
  "firing</w>": 5690,
  "03</w>": 5691,
  "Trans": 5692,
  "wer</w>": 5693,
  "provider</w>": 5694,
  "taught</w>": 5695,
  "arch": 5696,
  "medal</w>": 5697,
  "AN</w>": 5698,
  "barrel</w>": 5699,
  "arts</w>": 5700,
  "2.5</w>": 5701,
  "permission</w>": 5702,
  "premier</w>": 5703,
  "insists</w>": 5704,
  "Inc.</w>": 5705,
  "1994</w>": 5706,
  "pas": 5707,
  "Oil</w>": 5708,
  "Char": 5709,
  "ran": 5710,
  "speaks</w>": 5711,
  "ect": 5712,
  "sho": 5713,
  "bal": 5714,
  "describes</w>": 5715,
  "bankruptcy</w>": 5716,
  "istic</w>": 5717,
  "full-": 5718,
  "Utah</w>": 5719,
  "May": 5720,
  "Rob</w>": 5721,
  "Nigeria</w>": 5722,
  "asks</w>": 5723,
  "Indiana</w>": 5724,
  "pay": 5725,
  "introduce</w>": 5726,
  "acquired</w>": 5727,
  "82</w>": 5728,
  "rev": 5729,
  "guards</w>": 5730,
  "acesta</w>": 5731,
  "ba</w>": 5732,
  "religion</w>": 5733,
  "diverse</w>": 5734,
  "gar": 5735,
  "arguing</w>": 5736,
  "disappointing</w>": 5737,
  "addressed</w>": 5738,
  "79</w>": 5739,
  "tri": 5740,
  "stunning</w>": 5741,
  "suspension</w>": 5742,
  "unveiled</w>": 5743,
  "Stuart</w>": 5744,
  "fed</w>": 5745,
  "contribution</w>": 5746,
  "ord": 5747,
  "Cam": 5748,
  "attracted</w>": 5749,
  "monitor</w>": 5750,
  "Roman</w>": 5751,
  "constitutional</w>": 5752,
  "Sy": 5753,
  "Bas": 5754,
  "burning</w>": 5755,
  "ik": 5756,
  "generated</w>": 5757,
  "humanitarian</w>": 5758,
  "yen</w>": 5759,
  "She": 5760,
  "cer": 5761,
  "Wisconsin</w>": 5762,
  "4,000</w>": 5763,
  "steady</w>": 5764,
  "ander</w>": 5765,
  "alert</w>": 5766,
  "moderate</w>": 5767,
  "bat</w>": 5768,
  "landscape</w>": 5769,
  "procedures</w>": 5770,
  "Get</w>": 5771,
  "affordable</w>": 5772,
  "aming</w>": 5773,
  "AL</w>": 5774,
  "mum</w>": 5775,
  "py</w>": 5776,
  "snow": 5777,
  "useful</w>": 5778,
  "guest</w>": 5779,
  "personally</w>": 5780,
  "84</w>": 5781,
  "stimulus</w>": 5782,
  "Jr</w>": 5783,
  "ees</w>": 5784,
  "operator</w>": 5785,
  "unc": 5786,
  "volunteers</w>": 5787,
  "supports</w>": 5788,
  "83</w>": 5789,
  "tank</w>": 5790,
  "del</w>": 5791,
  "gs</w>": 5792,
  "dropping</w>": 5793,
  "pol": 5794,
  "sle": 5795,
  "Ray</w>": 5796,
  "Qaeda</w>": 5797,
  "persoane</w>": 5798,
  "Thailand</w>": 5799,
  "windows</w>": 5800,
  "mi": 5801,
  "Mag": 5802,
  "Air": 5803,
  "Va</w>": 5804,
  "downtown</w>": 5805,
  "Dar</w>": 5806,
  "resigned</w>": 5807,
  "Award</w>": 5808,
  "Hughes</w>": 5809,
  "competing</w>": 5810,
  "ove</w>": 5811,
  "ow</w>": 5812,
  "pr\u00e9": 5813,
  "Brazilian</w>": 5814,
  "Jay</w>": 5815,
  "Civil</w>": 5816,
  "popularity</w>": 5817,
  "venue</w>": 5818,
  "premium</w>": 5819,
  "stressed</w>": 5820,
  "Rome</w>": 5821,
  "copy</w>": 5822,
  "AP": 5823,
  "13.": 5824,
  "86</w>": 5825,
  "generate</w>": 5826,
  "tourism</w>": 5827,
  "diabetes</w>": 5828,
  "Pat": 5829,
  "inca</w>": 5830,
  "PA</w>": 5831,
  "book": 5832,
  "oldest</w>": 5833,
  "Hay": 5834,
  "Jane</w>": 5835,
  "dat</w>": 5836,
  "Lisa</w>": 5837,
  "participate</w>": 5838,
  "Aaron</w>": 5839,
  "incredibly</w>": 5840,
  "technologies</w>": 5841,
  "dates</w>": 5842,
  "Grant</w>": 5843,
  "equally</w>": 5844,
  "shed</w>": 5845,
  "accusations</w>": 5846,
  "Rob": 5847,
  "super</w>": 5848,
  "Cat": 5849,
  "ony</w>": 5850,
  "\u2022</w>": 5851,
  "Malaysia</w>": 5852,
  "mod": 5853,
  "ible</w>": 5854,
  "Coach</w>": 5855,
  "troubled</w>": 5856,
  "Dem": 5857,
  "Photograph</w>": 5858,
  "Originally</w>": 5859,
  "L.A.</w>": 5860,
  "cam": 5861,
  "nights</w>": 5862,
  "NE": 5863,
  "industries</w>": 5864,
  "14.": 5865,
  "anyway</w>": 5866,
  "tin": 5867,
  "op</w>": 5868,
  "memories</w>": 5869,
  "racial</w>": 5870,
  "taxpayers</w>": 5871,
  "Federer</w>": 5872,
  "Film</w>": 5873,
  "spokesperson</w>": 5874,
  "employed</w>": 5875,
  "grave</w>": 5876,
  "40": 5877,
  "risen</w>": 5878,
  "junior</w>": 5879,
  "infection</w>": 5880,
  "earth</w>": 5881,
  "knocked</w>": 5882,
  "let": 5883,
  "feared</w>": 5884,
  "trains</w>": 5885,
  "knife</w>": 5886,
  "resulting</w>": 5887,
  "kn": 5888,
  "entr": 5889,
  "tired</w>": 5890,
  "Is": 5891,
  "Economic</w>": 5892,
  "extension</w>": 5893,
  "fore": 5894,
  "guidelines</w>": 5895,
  "89</w>": 5896,
  "chicken</w>": 5897,
  "iles</w>": 5898,
  "lan</w>": 5899,
  "peaceful</w>": 5900,
  "buried</w>": 5901,
  "See</w>": 5902,
  "temperature</w>": 5903,
  "ideal</w>": 5904,
  "flew</w>": 5905,
  "counter": 5906,
  "Biden</w>": 5907,
  "teenage</w>": 5908,
  "TA</w>": 5909,
  "1990</w>": 5910,
  "Af": 5911,
  "bike</w>": 5912,
  "Tehran</w>": 5913,
  "D.</w>": 5914,
  "Dubai</w>": 5915,
  "Al-": 5916,
  "raid</w>": 5917,
  "Mis": 5918,
  "Hills</w>": 5919,
  "Murphy</w>": 5920,
  "reserves</w>": 5921,
  "bombs</w>": 5922,
  "Sab": 5923,
  "label</w>": 5924,
  "Ukrainian</w>": 5925,
  "End</w>": 5926,
  "anonymity</w>": 5927,
  "attending</w>": 5928,
  "Ban": 5929,
  "RT</w>": 5930,
  "breakfast</w>": 5931,
  "expanding</w>": 5932,
  "McC": 5933,
  "pregnancy</w>": 5934,
  "Wor": 5935,
  "establishment</w>": 5936,
  "Go</w>": 5937,
  "ears</w>": 5938,
  "singing</w>": 5939,
  "Wimbledon</w>": 5940,
  "Conservatives</w>": 5941,
  "divorce</w>": 5942,
  "ans": 5943,
  "Rugby</w>": 5944,
  "ush": 5945,
  "flood</w>": 5946,
  "Special</w>": 5947,
  "high-profile</w>": 5948,
  "DC</w>": 5949,
  "maintained</w>": 5950,
  "solve</w>": 5951,
  "rid</w>": 5952,
  "81</w>": 5953,
  "concrete</w>": 5954,
  "Budget</w>": 5955,
  "scrutiny</w>": 5956,
  "Boeing</w>": 5957,
  "Denver</w>": 5958,
  "swimming</w>": 5959,
  "discrimination</w>": 5960,
  "On": 5961,
  "tly</w>": 5962,
  "Look</w>": 5963,
  "fate</w>": 5964,
  "Goldman</w>": 5965,
  "dale</w>": 5966,
  "ide": 5967,
  "boom</w>": 5968,
  "perfectly</w>": 5969,
  "Alaska</w>": 5970,
  "Li": 5971,
  "sharply</w>": 5972,
  "fishing</w>": 5973,
  "Kentucky</w>": 5974,
  "contr": 5975,
  "followers</w>": 5976,
  "hard-": 5977,
  "E.</w>": 5978,
  "Si": 5979,
  "chef</w>": 5980,
  "flooding</w>": 5981,
  "Mars</w>": 5982,
  "protecting</w>": 5983,
  "vowed</w>": 5984,
  "alization</w>": 5985,
  "meal</w>": 5986,
  "lined</w>": 5987,
  "Capitol</w>": 5988,
  "walks</w>": 5989,
  "spo": 5990,
  "igh": 5991,
  "Tories</w>": 5992,
  "enjoying</w>": 5993,
  "Cardiff</w>": 5994,
  "Brad</w>": 5995,
  "interior</w>": 5996,
  "branch</w>": 5997,
  "swing</w>": 5998,
  "lessons</w>": 5999,
  "lim": 6000,
  "Commissioner</w>": 6001,
  "Samsung</w>": 6002,
  "Dodgers</w>": 6003,
  "cheaper</w>": 6004,
  "hosted</w>": 6005,
  "resistance</w>": 6006,
  "sy": 6007,
  "Swedish</w>": 6008,
  "nou</w>": 6009,
  "ali": 6010,
  "q</w>": 6011,
  "coup</w>": 6012,
  "gri": 6013,
  "involve</w>": 6014,
  "Wood</w>": 6015,
  "load</w>": 6016,
  "color</w>": 6017,
  "AC</w>": 6018,
  "politically</w>": 6019,
  "sporting</w>": 6020,
  "87</w>": 6021,
  "spre</w>": 6022,
  "hard": 6023,
  "no-": 6024,
  "Until</w>": 6025,
  "Additional</w>": 6026,
  "Tottenham</w>": 6027,
  "ped": 6028,
  "Pas": 6029,
  "storage</w>": 6030,
  "cri": 6031,
  "Han": 6032,
  "sum": 6033,
  "bottle</w>": 6034,
  "ual</w>": 6035,
  "passion</w>": 6036,
  "trips</w>": 6037,
  "Danny</w>": 6038,
  "lets</w>": 6039,
  "rush</w>": 6040,
  "delivering</w>": 6041,
  "stance</w>": 6042,
  "intention</w>": 6043,
  "deployed</w>": 6044,
  "investigated</w>": 6045,
  "fighter</w>": 6046,
  "UN": 6047,
  "Gl": 6048,
  "dro": 6049,
  "sexually</w>": 6050,
  "Europa</w>": 6051,
  "ger": 6052,
  "devastating</w>": 6053,
  "ci": 6054,
  "Jerusalem</w>": 6055,
  "challenged</w>": 6056,
  "surely</w>": 6057,
  "anch": 6058,
  "Lakers</w>": 6059,
  "Standard</w>": 6060,
  "Seven</w>": 6061,
  "1992</w>": 6062,
  "exclusive</w>": 6063,
  "23": 6064,
  "soccer</w>": 6065,
  "rushed</w>": 6066,
  "Parker</w>": 6067,
  "Oxford</w>": 6068,
  "timing</w>": 6069,
  "Commonwealth</w>": 6070,
  "Sony</w>": 6071,
  "labour</w>": 6072,
  "statistics</w>": 6073,
  "ond": 6074,
  "oms</w>": 6075,
  "smile</w>": 6076,
  "appeals</w>": 6077,
  "innovation</w>": 6078,
  "bird</w>": 6079,
  "bet</w>": 6080,
  "ologists</w>": 6081,
  "hal": 6082,
  "don": 6083,
  "airlines</w>": 6084,
  "rough</w>": 6085,
  "apps</w>": 6086,
  "proven</w>": 6087,
  "painting</w>": 6088,
  "same-sex</w>": 6089,
  "trapped</w>": 6090,
  "studied</w>": 6091,
  "vin</w>": 6092,
  "Affairs</w>": 6093,
  "ham": 6094,
  "ER": 6095,
  "infl": 6096,
  "ign": 6097,
  "Sudan</w>": 6098,
  "alt": 6099,
  "suspicion</w>": 6100,
  "Cabinet</w>": 6101,
  "defined</w>": 6102,
  "Din</w>": 6103,
  "imi</w>": 6104,
  "tu": 6105,
  "manufacturers</w>": 6106,
  "rebounds</w>": 6107,
  "Ly": 6108,
  "warnings</w>": 6109,
  "ultimate</w>": 6110,
  "Mohammed</w>": 6111,
  "Oregon</w>": 6112,
  "Ty": 6113,
  "commit</w>": 6114,
  "conspiracy</w>": 6115,
  "Nelson</w>": 6116,
  "contains</w>": 6117,
  "ello</w>": 6118,
  "enable</w>": 6119,
  "Defence</w>": 6120,
  "nervous</w>": 6121,
  "ough": 6122,
  "latter</w>": 6123,
  "enn": 6124,
  "lifestyle</w>": 6125,
  "deny</w>": 6126,
  "ille</w>": 6127,
  "Safety</w>": 6128,
  "rises</w>": 6129,
  "touchdown</w>": 6130,
  "our": 6131,
  "recommendations</w>": 6132,
  "under-": 6133,
  "Angela</w>": 6134,
  "uted</w>": 6135,
  "residential</w>": 6136,
  "alize</w>": 6137,
  "raw</w>": 6138,
  "nose</w>": 6139,
  "prefer</w>": 6140,
  "Por": 6141,
  "fundamental</w>": 6142,
  "Cu</w>": 6143,
  "Barry</w>": 6144,
  "professionals</w>": 6145,
  "Netherlands</w>": 6146,
  "ais</w>": 6147,
  "dialogue</w>": 6148,
  "arrests</w>": 6149,
  "surrounded</w>": 6150,
  "disorder</w>": 6151,
  "sheet</w>": 6152,
  "moon</w>": 6153,
  "tourist</w>": 6154,
  "accompanied</w>": 6155,
  "express</w>": 6156,
  "Mid": 6157,
  "feelings</w>": 6158,
  "mari</w>": 6159,
  "longtime</w>": 6160,
  "chaos</w>": 6161,
  "silence</w>": 6162,
  "ama</w>": 6163,
  "arguments</w>": 6164,
  "borders</w>": 6165,
  "ith</w>": 6166,
  "pollution</w>": 6167,
  "sits</w>": 6168,
  "Ten</w>": 6169,
  "anxiety</w>": 6170,
  "Blues</w>": 6171,
  "Kenya</w>": 6172,
  "Phoenix</w>": 6173,
  "ues</w>": 6174,
  "nu": 6175,
  "Out": 6176,
  "virtually</w>": 6177,
  "35": 6178,
  "A.": 6179,
  "aking</w>": 6180,
  "MORE</w>": 6181,
  "ean</w>": 6182,
  "frame</w>": 6183,
  "Orleans</w>": 6184,
  "ological</w>": 6185,
  "Coalition</w>": 6186,
  "urging</w>": 6187,
  "Pan": 6188,
  "Later</w>": 6189,
  "coaching</w>": 6190,
  "personality</w>": 6191,
  "chest</w>": 6192,
  "pink</w>": 6193,
  "noting</w>": 6194,
  "Lawrence</w>": 6195,
  "PC</w>": 6196,
  "Cou": 6197,
  "picking</w>": 6198,
  "screening</w>": 6199,
  "Leicester</w>": 6200,
  "60": 6201,
  "command</w>": 6202,
  "economists</w>": 6203,
  "offences</w>": 6204,
  "Dupa</w>": 6205,
  "pupils</w>": 6206,
  "Rel": 6207,
  "Ebola</w>": 6208,
  "Deputy</w>": 6209,
  "Pittsburgh</w>": 6210,
  "traded</w>": 6211,
  "horses</w>": 6212,
  "Hunt</w>": 6213,
  "resignation</w>": 6214,
  "Playing</w>": 6215,
  "Susan</w>": 6216,
  "Simpson</w>": 6217,
  "finishing</w>": 6218,
  "restore</w>": 6219,
  "interviewed</w>": 6220,
  "qualified</w>": 6221,
  "iti": 6222,
  "Ltd</w>": 6223,
  "aves</w>": 6224,
  "Division</w>": 6225,
  "sor": 6226,
  "alliance</w>": 6227,
  "C.": 6228,
  "numai</w>": 6229,
  "el-": 6230,
  "ris": 6231,
  "bailout</w>": 6232,
  "zz": 6233,
  "crossing</w>": 6234,
  "disappeared</w>": 6235,
  "Senior</w>": 6236,
  "foods</w>": 6237,
  "pulling</w>": 6238,
  "crowds</w>": 6239,
  "Medicare</w>": 6240,
  "Dow</w>": 6241,
  "survivors</w>": 6242,
  "assist</w>": 6243,
  "careful</w>": 6244,
  "Kurdish</w>": 6245,
  "Review</w>": 6246,
  "\u00e3</w>": 6247,
  "contribute</w>": 6248,
  "antly</w>": 6249,
  "thin</w>": 6250,
  "breach</w>": 6251,
  "engagement</w>": 6252,
  "penalties</w>": 6253,
  "eting</w>": 6254,
  "are": 6255,
  "for-": 6256,
  "constantly</w>": 6257,
  "ag</w>": 6258,
  "de-": 6259,
  "hanging</w>": 6260,
  "organized</w>": 6261,
  "gy</w>": 6262,
  "mom</w>": 6263,
  "Ocean</w>": 6264,
  "disabled</w>": 6265,
  "boats</w>": 6266,
  "Tar": 6267,
  "occur</w>": 6268,
  "succeed</w>": 6269,
  "36": 6270,
  "trail</w>": 6271,
  "sign": 6272,
  "comparison</w>": 6273,
  "11-": 6274,
  "households</w>": 6275,
  "conclusion</w>": 6276,
  "merely</w>": 6277,
  "tweet</w>": 6278,
  "connect</w>": 6279,
  "electoral</w>": 6280,
  "stat</w>": 6281,
  "briefly</w>": 6282,
  "visible</w>": 6283,
  "Hal": 6284,
  "Vi": 6285,
  "play": 6286,
  "Published</w>": 6287,
  "shore</w>": 6288,
  "ff": 6289,
  "somehow</w>": 6290,
  "30-": 6291,
  "Related</w>": 6292,
  "height</w>": 6293,
  "rell</w>": 6294,
  "basically</w>": 6295,
  "headlines</w>": 6296,
  "Stone</w>": 6297,
  "oring</w>": 6298,
  "Ken</w>": 6299,
  "ona</w>": 6300,
  "governing</w>": 6301,
  "judgment</w>": 6302,
  "Roy</w>": 6303,
  "joke</w>": 6304,
  "survival</w>": 6305,
  "seeks</w>": 6306,
  "comfort</w>": 6307,
  "seed</w>": 6308,
  "narrow</w>": 6309,
  "eta</w>": 6310,
  "Laura</w>": 6311,
  "brutal</w>": 6312,
  "Ren": 6313,
  "Sar": 6314,
  "eve</w>": 6315,
  "sudden</w>": 6316,
  "prof": 6317,
  "Fort</w>": 6318,
  "denies</w>": 6319,
  "playoff</w>": 6320,
  "craft</w>": 6321,
  "ante</w>": 6322,
  "entitled</w>": 6323,
  "Anne</w>": 6324,
  "ver</w>": 6325,
  "nominated</w>": 6326,
  "overcome</w>": 6327,
  "urgent</w>": 6328,
  "plea</w>": 6329,
  "OR": 6330,
  "tension</w>": 6331,
  "Hy": 6332,
  "Yankees</w>": 6333,
  "Researchers</w>": 6334,
  "halt</w>": 6335,
  "realised</w>": 6336,
  "defeated</w>": 6337,
  "je": 6338,
  "Max</w>": 6339,
  "Fin": 6340,
  "Green": 6341,
  "crackdown</w>": 6342,
  "centers</w>": 6343,
  "sustainable</w>": 6344,
  "delighted</w>": 6345,
  "black": 6346,
  "outbreak</w>": 6347,
  "Theatre</w>": 6348,
  "eggs</w>": 6349,
  "98</w>": 6350,
  "mut": 6351,
  "contributions</w>": 6352,
  "consultant</w>": 6353,
  "clashes</w>": 6354,
  "ca": 6355,
  "92</w>": 6356,
  "convention</w>": 6357,
  "diversity</w>": 6358,
  "compromise</w>": 6359,
  "itation</w>": 6360,
  "ation": 6361,
  "18-": 6362,
  "diseases</w>": 6363,
  "ambitious</w>": 6364,
  "advocates</w>": 6365,
  "earning</w>": 6366,
  "carries</w>": 6367,
  "Palin</w>": 6368,
  "Have</w>": 6369,
  "ization</w>": 6370,
  "Community</w>": 6371,
  "Rad": 6372,
  "ro</w>": 6373,
  "interim</w>": 6374,
  "Adams</w>": 6375,
  "Town</w>": 6376,
  "preferred</w>": 6377,
  "regarded</w>": 6378,
  "96</w>": 6379,
  "bani</w>": 6380,
  "burden</w>": 6381,
  "forecasts</w>": 6382,
  "quarters</w>": 6383,
  "Yorkshire</w>": 6384,
  "unlike</w>": 6385,
  "Sheriff</w>": 6386,
  "donations</w>": 6387,
  "worthy</w>": 6388,
  "Mu": 6389,
  "Qatar</w>": 6390,
  "ninth</w>": 6391,
  "hopefully</w>": 6392,
  "li</w>": 6393,
  "Ron</w>": 6394,
  "publication</w>": 6395,
  "graduate</w>": 6396,
  "2-1</w>": 6397,
  "short-term</w>": 6398,
  "newspapers</w>": 6399,
  "ders</w>": 6400,
  "Ce</w>": 6401,
  "lev": 6402,
  "sou": 6403,
  "20th</w>": 6404,
  "120</w>": 6405,
  "Pres": 6406,
  "ici": 6407,
  "organisations</w>": 6408,
  "Bon": 6409,
  "impressed</w>": 6410,
  "Ba": 6411,
  "enemy</w>": 6412,
  "ender</w>": 6413,
  "Davies</w>": 6414,
  "deemed</w>": 6415,
  "salt</w>": 6416,
  "ton": 6417,
  "listening</w>": 6418,
  "eze</w>": 6419,
  "syn": 6420,
  "innocent</w>": 6421,
  "legislative</w>": 6422,
  "Tre": 6423,
  "Lincoln</w>": 6424,
  "school": 6425,
  "cooking</w>": 6426,
  "900</w>": 6427,
  "admit</w>": 6428,
  "filing</w>": 6429,
  "ado</w>": 6430,
  "arriving</w>": 6431,
  "alta</w>": 6432,
  "seemingly</w>": 6433,
  "elor</w>": 6434,
  "1989</w>": 6435,
  "qu</w>": 6436,
  "pointing</w>": 6437,
  "procedure</w>": 6438,
  "Tennessee</w>": 6439,
  "joy</w>": 6440,
  "crossed</w>": 6441,
  "machines</w>": 6442,
  "ae</w>": 6443,
  "colour</w>": 6444,
  "negotiate</w>": 6445,
  "mers</w>": 6446,
  "med": 6447,
  "mail</w>": 6448,
  "escaped</w>": 6449,
  "realise</w>": 6450,
  "cazul</w>": 6451,
  "recognized</w>": 6452,
  "Book</w>": 6453,
  "efficiency</w>": 6454,
  "sec": 6455,
  "Tra": 6456,
  "intent</w>": 6457,
  "promoting</w>": 6458,
  "1960s</w>": 6459,
  "trecut</w>": 6460,
  "elli</w>": 6461,
  "developments</w>": 6462,
  "celebration</w>": 6463,
  "tape</w>": 6464,
  "Mitt</w>": 6465,
  "aud": 6466,
  "clock</w>": 6467,
  "Jan": 6468,
  "Barclays</w>": 6469,
  "Fi": 6470,
  "camps</w>": 6471,
  "ide</w>": 6472,
  "Yahoo</w>": 6473,
  "Harvard</w>": 6474,
  "storms</w>": 6475,
  "invested</w>": 6476,
  "ceva</w>": 6477,
  "Wo": 6478,
  "correspondent</w>": 6479,
  "agreements</w>": 6480,
  "Rom": 6481,
  "hide</w>": 6482,
  "ras": 6483,
  "unexpected</w>": 6484,
  "Lar": 6485,
  "involves</w>": 6486,
  "apping</w>": 6487,
  "optimistic</w>": 6488,
  "Les</w>": 6489,
  "export</w>": 6490,
  "Bir": 6491,
  "methods</w>": 6492,
  "tips</w>": 6493,
  "conversations</w>": 6494,
  "focusing</w>": 6495,
  "Did</w>": 6496,
  "Stre": 6497,
  "Lane</w>": 6498,
  "investing</w>": 6499,
  "repair</w>": 6500,
  "io": 6501,
  "ye</w>": 6502,
  "Arthur</w>": 6503,
  "kinds</w>": 6504,
  "fare</w>": 6505,
  "pattern</w>": 6506,
  "Sunni</w>": 6507,
  "associate</w>": 6508,
  "collect</w>": 6509,
  "retailer</w>": 6510,
  "soil</w>": 6511,
  "Ni": 6512,
  "operators</w>": 6513,
  "commissioner</w>": 6514,
  "\u00e9t\u00e9</w>": 6515,
  "Ru": 6516,
  "grant</w>": 6517,
  "och": 6518,
  "Mos": 6519,
  "march</w>": 6520,
  "Shanghai</w>": 6521,
  "Milan</w>": 6522,
  "yield</w>": 6523,
  "Keith</w>": 6524,
  "ey": 6525,
  "raises</w>": 6526,
  "swe": 6527,
  "lenders</w>": 6528,
  "hunt</w>": 6529,
  "afla</w>": 6530,
  "art": 6531,
  "minds</w>": 6532,
  "Nevada</w>": 6533,
  "cu": 6534,
  "orice</w>": 6535,
  "advisers</w>": 6536,
  "honour</w>": 6537,
  "lion</w>": 6538,
  "Venezuela</w>": 6539,
  "Nine</w>": 6540,
  "highlights</w>": 6541,
  "colleague</w>": 6542,
  "theater</w>": 6543,
  "Nadal</w>": 6544,
  "lifetime</w>": 6545,
  "az</w>": 6546,
  "Governor</w>": 6547,
  "letting</w>": 6548,
  "sin": 6549,
  "embassy</w>": 6550,
  "form": 6551,
  "1-0</w>": 6552,
  "destruction</w>": 6553,
  "teenagers</w>": 6554,
  "Pet": 6555,
  "chocolate</w>": 6556,
  "Jessica</w>": 6557,
  "Portugal</w>": 6558,
  "reviews</w>": 6559,
  "portion</w>": 6560,
  "Lebanon</w>": 6561,
  "crack</w>": 6562,
  "highlighted</w>": 6563,
  "proceedings</w>": 6564,
  "sessions</w>": 6565,
  "forest</w>": 6566,
  "Connecticut</w>": 6567,
  "or-": 6568,
  "fac</w>": 6569,
  "theatre</w>": 6570,
  "indicate</w>": 6571,
  "Dean</w>": 6572,
  "TH": 6573,
  "oameni</w>": 6574,
  "legitimate</w>": 6575,
  "method</w>": 6576,
  "Ak": 6577,
  "93</w>": 6578,
  "pus</w>": 6579,
  "missiles</w>": 6580,
  "literally</w>": 6581,
  "ry": 6582,
  "alt</w>": 6583,
  "ables</w>": 6584,
  "fault</w>": 6585,
  "cour": 6586,
  "mainstream</w>": 6587,
  "Cancer</w>": 6588,
  "Hurricane</w>": 6589,
  "1993</w>": 6590,
  "ie": 6591,
  "inn": 6592,
  "1991</w>": 6593,
  "loose</w>": 6594,
  "Rem": 6595,
  "ila</w>": 6596,
  "genetic</w>": 6597,
  "smartphone</w>": 6598,
  "Victor</w>": 6599,
  "stops</w>": 6600,
  "citizen</w>": 6601,
  "cho": 6602,
  "slipped</w>": 6603,
  "constitution</w>": 6604,
  "trends</w>": 6605,
  "Ted</w>": 6606,
  "forever</w>": 6607,
  "reverse</w>": 6608,
  "primul</w>": 6609,
  "Turner</w>": 6610,
  "Myanmar</w>": 6611,
  "Point</w>": 6612,
  "wanting</w>": 6613,
  "Analysts</w>": 6614,
  "apa</w>": 6615,
  "homeless</w>": 6616,
  "holidays</w>": 6617,
  "'r</w>": 6618,
  "ankle</w>": 6619,
  "Def": 6620,
  "P.</w>": 6621,
  "generations</w>": 6622,
  "genuine</w>": 6623,
  "drone</w>": 6624,
  "periods</w>": 6625,
  "decent</w>": 6626,
  "Mourinho</w>": 6627,
  "Theresa</w>": 6628,
  "Speaker</w>": 6629,
  "Anna</w>": 6630,
  "reflects</w>": 6631,
  "HIV</w>": 6632,
  "nes</w>": 6633,
  "Much</w>": 6634,
  "rh": 6635,
  "hat</w>": 6636,
  "ja</w>": 6637,
  "noise</w>": 6638,
  "Unfortunately</w>": 6639,
  "ignored</w>": 6640,
  "realized</w>": 6641,
  "of-": 6642,
  "si-a</w>": 6643,
  "Prosecutors</w>": 6644,
  "battery</w>": 6645,
  "Gil": 6646,
  "explore</w>": 6647,
  "Victorian</w>": 6648,
  "timpul</w>": 6649,
  "improvements</w>": 6650,
  "Assembly</w>": 6651,
  "esti</w>": 6652,
  "Taiwan</w>": 6653,
  "checked</w>": 6654,
  "es-": 6655,
  "regardless</w>": 6656,
  "Laden</w>": 6657,
  "Broadway</w>": 6658,
  "aboard</w>": 6659,
  "studying</w>": 6660,
  "thousand</w>": 6661,
  "dressing</w>": 6662,
  "Finance</w>": 6663,
  "ining</w>": 6664,
  "painful</w>": 6665,
  "Austin</w>": 6666,
  "Se</w>": 6667,
  "AS</w>": 6668,
  "Margaret</w>": 6669,
  "preliminary</w>": 6670,
  "14-": 6671,
  "speaker</w>": 6672,
  "part": 6673,
  "Ay": 6674,
  "Harvey</w>": 6675,
  "deserve</w>": 6676,
  "reserve</w>": 6677,
  "San": 6678,
  "Dev": 6679,
  "triggered</w>": 6680,
  "Charlotte</w>": 6681,
  "condemned</w>": 6682,
  "Kent</w>": 6683,
  "purchases</w>": 6684,
  "punishment</w>": 6685,
  "argues</w>": 6686,
  "doubled</w>": 6687,
  "Aberdeen</w>": 6688,
  "questioning</w>": 6689,
  "offense</w>": 6690,
  "websites</w>": 6691,
  "asupra</w>": 6692,
  "1.2</w>": 6693,
  "DE": 6694,
  "rescued</w>": 6695,
  "ous": 6696,
  "pt</w>": 6697,
  "ova</w>": 6698,
  "Sou": 6699,
  "requested</w>": 6700,
  "net": 6701,
  "mes</w>": 6702,
  "15.": 6703,
  "treating</w>": 6704,
  "Sav": 6705,
  "Belgium</w>": 6706,
  "recognize</w>": 6707,
  "vs.</w>": 6708,
  "onic</w>": 6709,
  "30,000</w>": 6710,
  "centres</w>": 6711,
  "Philippines</w>": 6712,
  "premiere</w>": 6713,
  "innovative</w>": 6714,
  "gotten</w>": 6715,
  "reflected</w>": 6716,
  "swept</w>": 6717,
  "Libyan</w>": 6718,
  "iconic</w>": 6719,
  "urile</w>": 6720,
  "0,": 6721,
  "Shares</w>": 6722,
  "ju": 6723,
  "Guard</w>": 6724,
  "photographer</w>": 6725,
  "ater</w>": 6726,
  "reliable</w>": 6727,
  "Gray</w>": 6728,
  "dra": 6729,
  "islands</w>": 6730,
  "Robin</w>": 6731,
  "regard</w>": 6732,
  "ser</w>": 6733,
  "organised</w>": 6734,
  "boxes</w>": 6735,
  "Phillips</w>": 6736,
  "cross-": 6737,
  "appearing</w>": 6738,
  "repeat</w>": 6739,
  "killings</w>": 6740,
  "collective</w>": 6741,
  "tactics</w>": 6742,
  "destination</w>": 6743,
  "Gingrich</w>": 6744,
  "SC": 6745,
  "inceput</w>": 6746,
  "speci": 6747,
  "hn": 6748,
  "Writing</w>": 6749,
  "Land</w>": 6750,
  "hiring</w>": 6751,
  "posting</w>": 6752,
  "accounting</w>": 6753,
  "Sim": 6754,
  "Douglas</w>": 6755,
  "explanation</w>": 6756,
  "researcher</w>": 6757,
  "ui</w>": 6758,
  "register</w>": 6759,
  "Met": 6760,
  "Baker</w>": 6761,
  "lists</w>": 6762,
  "16.": 6763,
  "dev": 6764,
  "transportation</w>": 6765,
  "91</w>": 6766,
  "Land": 6767,
  "Norway</w>": 6768,
  "trucks</w>": 6769,
  "Gates</w>": 6770,
  "Hu": 6771,
  "closure</w>": 6772,
  "conf": 6773,
  "harassment</w>": 6774,
  "Ev": 6775,
  "tal": 6776,
  "Orange</w>": 6777,
  "hopeful</w>": 6778,
  "highlight</w>": 6779,
  "dramatically</w>": 6780,
  "val": 6781,
  "cloud</w>": 6782,
  "III</w>": 6783,
  "bat": 6784,
  "rad": 6785,
  "oph": 6786,
  "Chi": 6787,
  "Arts</w>": 6788,
  "operated</w>": 6789,
  "bonus</w>": 6790,
  "sto": 6791,
  "icing</w>": 6792,
  "Virgin</w>": 6793,
  "ce": 6794,
  "Den": 6795,
  "cruise</w>": 6796,
  "BA</w>": 6797,
  "difficulties</w>": 6798,
  "Policy</w>": 6799,
  "polling</w>": 6800,
  "horror</w>": 6801,
  "loves</w>": 6802,
  "sufficient</w>": 6803,
  "Tom": 6804,
  "Staff</w>": 6805,
  "vaccine</w>": 6806,
  "strengthen</w>": 6807,
  "contemporary</w>": 6808,
  "lif": 6809,
  "B.</w>": 6810,
  "crews</w>": 6811,
  "attached</w>": 6812,
  "purchased</w>": 6813,
  "Vatican</w>": 6814,
  "bio": 6815,
  "ston</w>": 6816,
  "flowers</w>": 6817,
  "L.</w>": 6818,
  "Water</w>": 6819,
  "bed": 6820,
  "hur": 6821,
  "offshore</w>": 6822,
  "tragic</w>": 6823,
  "ab</w>": 6824,
  "frustration</w>": 6825,
  "memorial</w>": 6826,
  "mystery</w>": 6827,
  "Kings</w>": 6828,
  "fire": 6829,
  "monetary</w>": 6830,
  "formally</w>": 6831,
  "nevoie</w>": 6832,
  "Cop": 6833,
  "multi</w>": 6834,
  "pride</w>": 6835,
  "third-": 6836,
  "austerity</w>": 6837,
  "All": 6838,
  "Cairo</w>": 6839,
  "Bow": 6840,
  "comeback</w>": 6841,
  "damaging</w>": 6842,
  "Protection</w>": 6843,
  "sentiment</w>": 6844,
  "versus</w>": 6845,
  "takeover</w>": 6846,
  "1st</w>": 6847,
  "acks</w>": 6848,
  "keeper</w>": 6849,
  "dle</w>": 6850,
  "pledge</w>": 6851,
  "Des": 6852,
  "Station</w>": 6853,
  "lat": 6854,
  "ly": 6855,
  "Mir": 6856,
  "min</w>": 6857,
  "aying</w>": 6858,
  "BP</w>": 6859,
  "2-0</w>": 6860,
  "encounter</w>": 6861,
  "aici</w>": 6862,
  "94</w>": 6863,
  "sleeping</w>": 6864,
  "ING</w>": 6865,
  "loc": 6866,
  "golden</w>": 6867,
  "deeper</w>": 6868,
  "meals</w>": 6869,
  "roots</w>": 6870,
  "Everton</w>": 6871,
  "Dol": 6872,
  "treatments</w>": 6873,
  "precum</w>": 6874,
  "delegates</w>": 6875,
  "ailing</w>": 6876,
  "filmed</w>": 6877,
  "RO": 6878,
  "Amy</w>": 6879,
  "Control</w>": 6880,
  "rit": 6881,
  "carrier</w>": 6882,
  "conservatives</w>": 6883,
  "situations</w>": 6884,
  "autumn</w>": 6885,
  "occasions</w>": 6886,
  "Rodriguez</w>": 6887,
  "Pos": 6888,
  "holders</w>": 6889,
  "traveling</w>": 6890,
  "powered</w>": 6891,
  "Costa</w>": 6892,
  "racist</w>": 6893,
  "dividend</w>": 6894,
  "thick</w>": 6895,
  "Down</w>": 6896,
  "installed</w>": 6897,
  "ayed</w>": 6898,
  "brown</w>": 6899,
  "indication</w>": 6900,
  "ect</w>": 6901,
  "trainer</w>": 6902,
  "Bat": 6903,
  "format</w>": 6904,
  "scared</w>": 6905,
  "Gh": 6906,
  "Az": 6907,
  "Z</w>": 6908,
  "od</w>": 6909,
  "theft</w>": 6910,
  "qualify</w>": 6911,
  "Missouri</w>": 6912,
  "scientist</w>": 6913,
  "ete</w>": 6914,
  "amp": 6915,
  "strict</w>": 6916,
  "ular</w>": 6917,
  "practical</w>": 6918,
  "wick</w>": 6919,
  "10th</w>": 6920,
  "Cour": 6921,
  "Sales</w>": 6922,
  "element</w>": 6923,
  "Turnbull</w>": 6924,
  "starring</w>": 6925,
  "valued</w>": 6926,
  "multi": 6927,
  "Rice</w>": 6928,
  "consensus</w>": 6929,
  "pub</w>": 6930,
  "burned</w>": 6931,
  "default</w>": 6932,
  "Tim": 6933,
  "Freedom</w>": 6934,
  "Part</w>": 6935,
  "approve</w>": 6936,
  "run": 6937,
  "Good": 6938,
  "'It</w>": 6939,
  "worries</w>": 6940,
  "retain</w>": 6941,
  "paint</w>": 6942,
  "announcing</w>": 6943,
  "firefighters</w>": 6944,
  "flu": 6945,
  "n-": 6946,
  "donors</w>": 6947,
  "ment": 6948,
  "edi": 6949,
  "charging</w>": 6950,
  "ough</w>": 6951,
  "containing</w>": 6952,
  "Masters</w>": 6953,
  "000-": 6954,
  "\u00f4": 6955,
  "frustrated</w>": 6956,
  "ON</w>": 6957,
  "Consumer</w>": 6958,
  "futures</w>": 6959,
  "new": 6960,
  "audiences</w>": 6961,
  "Carlos</w>": 6962,
  "edition</w>": 6963,
  "dre": 6964,
  "existence</w>": 6965,
  "impose</w>": 6966,
  "surprisingly</w>": 6967,
  "shar": 6968,
  "Djokovic</w>": 6969,
  "Nathan</w>": 6970,
  "pu": 6971,
  "Jerry</w>": 6972,
  "und</w>": 6973,
  "bowl</w>": 6974,
  "tem": 6975,
  "operates</w>": 6976,
  "sible</w>": 6977,
  "hedge</w>": 6978,
  "Uber</w>": 6979,
  "cy": 6980,
  "cateva</w>": 6981,
  "Wells</w>": 6982,
  "impression</w>": 6983,
  "Mol": 6984,
  "The": 6985,
  "anne</w>": 6986,
  "sman</w>": 6987,
  "maintenance</w>": 6988,
  "chers</w>": 6989,
  "ots</w>": 6990,
  "Mi": 6991,
  "Medicine</w>": 6992,
  "launching</w>": 6993,
  "provision</w>": 6994,
  "IMF</w>": 6995,
  "realize</w>": 6996,
  "Oliver</w>": 6997,
  "introduction</w>": 6998,
  "IA</w>": 6999,
  "borrowing</w>": 7000,
  "Ker": 7001,
  "Country</w>": 7002,
  "achievement</w>": 7003,
  "shocking</w>": 7004,
  "spl": 7005,
  "ly-": 7006,
  "demonstrated</w>": 7007,
  "Jar": 7008,
  "gy": 7009,
  "assume</w>": 7010,
  "mandate</w>": 7011,
  "eth": 7012,
  "bread</w>": 7013,
  "tier</w>": 7014,
  "menu</w>": 7015,
  "imp": 7016,
  "Barbara</w>": 7017,
  "pul": 7018,
  "Hawaii</w>": 7019,
  "aide</w>": 7020,
  "consideration</w>": 7021,
  "ome</w>": 7022,
  "Over": 7023,
  "Pur": 7024,
  "accurate</w>": 7025,
  "strain</w>": 7026,
  "cheese</w>": 7027,
  "tracking</w>": 7028,
  "mit": 7029,
  "Duncan</w>": 7030,
  "ost": 7031,
  "tab": 7032,
  "Morning</w>": 7033,
  "Il": 7034,
  "ection</w>": 7035,
  "Dur": 7036,
  "lov": 7037,
  "dealt</w>": 7038,
  "FDA</w>": 7039,
  "stand": 7040,
  "photograph</w>": 7041,
  "subsequent</w>": 7042,
  "renewed</w>": 7043,
  "senators</w>": 7044,
  "MA": 7045,
  "cauza</w>": 7046,
  "far": 7047,
  "vol": 7048,
  "Cho": 7049,
  "Ri": 7050,
  "lovely</w>": 7051,
  "eller</w>": 7052,
  "overhaul</w>": 7053,
  "25,000</w>": 7054,
  "rom": 7055,
  "dancing</w>": 7056,
  "Ob": 7057,
  "Tu": 7058,
  "WA</w>": 7059,
  "hell</w>": 7060,
  "describing</w>": 7061,
  "criminals</w>": 7062,
  "grass</w>": 7063,
  "97</w>": 7064,
  "nurse</w>": 7065,
  "robust</w>": 7066,
  "laugh</w>": 7067,
  "teammates</w>": 7068,
  "AD": 7069,
  "amed</w>": 7070,
  "Kingdom</w>": 7071,
  "ranking</w>": 7072,
  "Fla</w>": 7073,
  "signature</w>": 7074,
  "Bradley</w>": 7075,
  "virtual</w>": 7076,
  "16-": 7077,
  "6,000</w>": 7078,
  "fiction</w>": 7079,
  "scenario</w>": 7080,
  "finances</w>": 7081,
  "foot": 7082,
  "ape</w>": 7083,
  "torture</w>": 7084,
  "hunting</w>": 7085,
  "tre</w>": 7086,
  "Marshall</w>": 7087,
  "wheel</w>": 7088,
  "privind</w>": 7089,
  "consistently</w>": 7090,
  "bun</w>": 7091,
  "aspects</w>": 7092,
  "Mississippi</w>": 7093,
  "Billy</w>": 7094,
  "TE": 7095,
  "institution</w>": 7096,
  "Unlike</w>": 7097,
  "Morris</w>": 7098,
  "solo</w>": 7099,
  "hair": 7100,
  "objects</w>": 7101,
  "businessman</w>": 7102,
  "70": 7103,
  "invasion</w>": 7104,
  "FT</w>": 7105,
  "partea</w>": 7106,
  "influential</w>": 7107,
  "ON": 7108,
  "Eur": 7109,
  "tons</w>": 7110,
  "considerable</w>": 7111,
  "37": 7112,
  "eight-": 7113,
  "Spurs</w>": 7114,
  "Sm": 7115,
  "Hen": 7116,
  "opener</w>": 7117,
  "Sher": 7118,
  "loaded</w>": 7119,
  "shelter</w>": 7120,
  "rob": 7121,
  "stri": 7122,
  "eness</w>": 7123,
  "sectors</w>": 7124,
  "Organization</w>": 7125,
  "poll": 7126,
  "submitted</w>": 7127,
  "C.</w>": 7128,
  "itors</w>": 7129,
  "principle</w>": 7130,
  "past": 7131,
  "depth</w>": 7132,
  "lab": 7133,
  "Everything</w>": 7134,
  "BR": 7135,
  "occupied</w>": 7136,
  "Marc</w>": 7137,
  "men": 7138,
  "200,000</w>": 7139,
  "teeth</w>": 7140,
  "AI": 7141,
  "bri": 7142,
  "painted</w>": 7143,
  "iness</w>": 7144,
  "gather</w>": 7145,
  "unfair</w>": 7146,
  "Palmer</w>": 7147,
  "Nearly</w>": 7148,
  "competitors</w>": 7149,
  "movements</w>": 7150,
  "physically</w>": 7151,
  "Sarkozy</w>": 7152,
  "act": 7153,
  "Fran": 7154,
  "cake</w>": 7155,
  "respected</w>": 7156,
  "Xi</w>": 7157,
  "license</w>": 7158,
  "ius</w>": 7159,
  "tel": 7160,
  "qualifying</w>": 7161,
  "touched</w>": 7162,
  "Bond</w>": 7163,
  "Sri</w>": 7164,
  "BST</w>": 7165,
  "Sun": 7166,
  "Loc": 7167,
  "petition</w>": 7168,
  "negotiating</w>": 7169,
  "inner</w>": 7170,
  "ops</w>": 7171,
  "Through</w>": 7172,
  "meets</w>": 7173,
  ".co.uk</w>": 7174,
  "Adrian</w>": 7175,
  "resolved</w>": 7176,
  "uit</w>": 7177,
  "filming</w>": 7178,
  "inmates</w>": 7179,
  "uk": 7180,
  "aides</w>": 7181,
  "spectacular</w>": 7182,
  "Jews</w>": 7183,
  "urge</w>": 7184,
  "teens</w>": 7185,
  "sued</w>": 7186,
  "immune</w>": 7187,
  "spun</w>": 7188,
  "murdered</w>": 7189,
  "Kir": 7190,
  "proportion</w>": 7191,
  "Netflix</w>": 7192,
  "trigger</w>": 7193,
  "Rooney</w>": 7194,
  "hill</w>": 7195,
  "predict</w>": 7196,
  "recognise</w>": 7197,
  "celebrities</w>": 7198,
  "arrangements</w>": 7199,
  "ula</w>": 7200,
  "belt</w>": 7201,
  "handled</w>": 7202,
  "rice</w>": 7203,
  "reward</w>": 7204,
  "transferred</w>": 7205,
  "pare</w>": 7206,
  "eni</w>": 7207,
  "climbed</w>": 7208,
  "ris</w>": 7209,
  "orb": 7210,
  "rum": 7211,
  "Shel": 7212,
  "principles</w>": 7213,
  "developers</w>": 7214,
  "Woman</w>": 7215,
  "ected</w>": 7216,
  "Thousands</w>": 7217,
  "grav": 7218,
  "Mount</w>": 7219,
  "forc": 7220,
  "parks</w>": 7221,
  "travelled</w>": 7222,
  "yed</w>": 7223,
  "ni</w>": 7224,
  "Colombia</w>": 7225,
  "CS": 7226,
  "closest</w>": 7227,
  "frequent</w>": 7228,
  "demonstrate</w>": 7229,
  "avec</w>": 7230,
  "ern</w>": 7231,
  "shire</w>": 7232,
  "lesson</w>": 7233,
  "isolated</w>": 7234,
  "Systems</w>": 7235,
  "sts</w>": 7236,
  "Scientists</w>": 7237,
  "plan": 7238,
  "tougher</w>": 7239,
  "underlying</w>": 7240,
  "Garden</w>": 7241,
  "iling</w>": 7242,
  "Mill": 7243,
  "Dan": 7244,
  "Hum": 7245,
  "PS": 7246,
  "faptul</w>": 7247,
  "i-a</w>": 7248,
  "Bulgaria</w>": 7249,
  "alists</w>": 7250,
  "Was</w>": 7251,
  "Should</w>": 7252,
  "Gen.</w>": 7253,
  "warns</w>": 7254,
  "Princess</w>": 7255,
  "Stock</w>": 7256,
  "dy": 7257,
  "sum</w>": 7258,
  "wars</w>": 7259,
  "neighbors</w>": 7260,
  "Eagles</w>": 7261,
  "Federation</w>": 7262,
  "left-": 7263,
  "stopping</w>": 7264,
  "attorneys</w>": 7265,
  "blo": 7266,
  "smo": 7267,
  "substance</w>": 7268,
  "Caribbean</w>": 7269,
  "hang</w>": 7270,
  "illegally</w>": 7271,
  "recalls</w>": 7272,
  "80": 7273,
  "pressing</w>": 7274,
  "Nasdaq</w>": 7275,
  "Larry</w>": 7276,
  "Hunter</w>": 7277,
  "hot": 7278,
  "underground</w>": 7279,
  "appreciate</w>": 7280,
  "iPad</w>": 7281,
  "Bot": 7282,
  "talented</w>": 7283,
  "resume</w>": 7284,
  "burst</w>": 7285,
  "execution</w>": 7286,
  "celebrating</w>": 7287,
  "mere</w>": 7288,
  "bitter</w>": 7289,
  "hood</w>": 7290,
  "ink": 7291,
  "technique</w>": 7292,
  "reads</w>": 7293,
  "Gri": 7294,
  "ols</w>": 7295,
  "ente</w>": 7296,
  "stat": 7297,
  "ensuring</w>": 7298,
  "Cri": 7299,
  "-off</w>": 7300,
  "Bri": 7301,
  "Investors</w>": 7302,
  "Forest</w>": 7303,
  "erg": 7304,
  "single-": 7305,
  "Der": 7306,
  "suspicious</w>": 7307,
  "participation</w>": 7308,
  "ait</w>": 7309,
  "Hollande</w>": 7310,
  "sley</w>": 7311,
  "spin</w>": 7312,
  "ential</w>": 7313,
  "Villa</w>": 7314,
  "Med": 7315,
  "17.": 7316,
  "Mrs.</w>": 7317,
  "lab</w>": 7318,
  "ple": 7319,
  "ech</w>": 7320,
  "Lov": 7321,
  "dly</w>": 7322,
  "bathroom</w>": 7323,
  "taxi</w>": 7324,
  "Ann</w>": 7325,
  "pricing</w>": 7326,
  "offence</w>": 7327,
  "locul</w>": 7328,
  "Colin</w>": 7329,
  "itated</w>": 7330,
  "offset</w>": 7331,
  "expression</w>": 7332,
  "experiment</w>": 7333,
  "Sto": 7334,
  "by-": 7335,
  "shaped</w>": 7336,
  "house": 7337,
  "vessel</w>": 7338,
  "loud</w>": 7339,
  "conventional</w>": 7340,
  "engineer</w>": 7341,
  "gear</w>": 7342,
  "chase</w>": 7343,
  "obtain</w>": 7344,
  "Romaniei</w>": 7345,
  "climb</w>": 7346,
  "fines</w>": 7347,
  "Blake</w>": 7348,
  "samples</w>": 7349,
  "Girl</w>": 7350,
  "South": 7351,
  "mi</w>": 7352,
  "Entertainment</w>": 7353,
  "Juan</w>": 7354,
  "aj</w>": 7355,
  "midnight</w>": 7356,
  "rac": 7357,
  "examined</w>": 7358,
  "legally</w>": 7359,
  "locals</w>": 7360,
  "Secret</w>": 7361,
  "supermarket</w>": 7362,
  "--": 7363,
  "mus": 7364,
  "Louisiana</w>": 7365,
  "Austria</w>": 7366,
  "Winter</w>": 7367,
  "creates</w>": 7368,
  "anymore</w>": 7369,
  "Il</w>": 7370,
  "depending</w>": 7371,
  "ajuns</w>": 7372,
  "Stars</w>": 7373,
  "mul": 7374,
  "encies</w>": 7375,
  "ira</w>": 7376,
  "san": 7377,
  "eri": 7378,
  "duties</w>": 7379,
  "nar": 7380,
  "hacking</w>": 7381,
  "aproape</w>": 7382,
  "Being</w>": 7383,
  "finger</w>": 7384,
  "Bennett</w>": 7385,
  "inspiration</w>": 7386,
  "cocaine</w>": 7387,
  "answered</w>": 7388,
  "stem</w>": 7389,
  "Bol": 7390,
  "sophisticated</w>": 7391,
  "ires</w>": 7392,
  "uk</w>": 7393,
  "Work</w>": 7394,
  "strongest</w>": 7395,
  "poses</w>": 7396,
  "voices</w>": 7397,
  "arata</w>": 7398,
  "fame</w>": 7399,
  "zona</w>": 7400,
  "discover</w>": 7401,
  "Os": 7402,
  "watchdog</w>": 7403,
  "recognised</w>": 7404,
  "Online</w>": 7405,
  "fe</w>": 7406,
  "merger</w>": 7407,
  "FIFA</w>": 7408,
  "Tw": 7409,
  "preparation</w>": 7410,
  "unacceptable</w>": 7411,
  "borough</w>": 7412,
  "teach</w>": 7413,
  "luna</w>": 7414,
  "mag": 7415,
  "segment</w>": 7416,
  "spy</w>": 7417,
  "initiatives</w>": 7418,
  "apology</w>": 7419,
  "connections</w>": 7420,
  "Fox": 7421,
  "pping</w>": 7422,
  "baza</w>": 7423,
  "lake</w>": 7424,
  "Benjamin</w>": 7425,
  "eur</w>": 7426,
  "wound</w>": 7427,
  "Intelligence</w>": 7428,
  "airports</w>": 7429,
  "rup": 7430,
  "eager</w>": 7431,
  "34": 7432,
  "peers</w>": 7433,
  "MA</w>": 7434,
  "History</w>": 7435,
  "Around</w>": 7436,
  "hi</w>": 7437,
  "5m</w>": 7438,
  "Does</w>": 7439,
  "AG": 7440,
  "expertise</w>": 7441,
  "youngest</w>": 7442,
  "Ashley</w>": 7443,
  "satisfied</w>": 7444,
  "ambulance</w>": 7445,
  "soci": 7446,
  "sit": 7447,
  "assists</w>": 7448,
  "Vol": 7449,
  "ner": 7450,
  "500,000</w>": 7451,
  "ishes</w>": 7452,
  "it\u00e9</w>": 7453,
  "fastest</w>": 7454,
  "Program</w>": 7455,
  "absolute</w>": 7456,
  "observed</w>": 7457,
  "lane</w>": 7458,
  "aded</w>": 7459,
  "select</w>": 7460,
  "remembered</w>": 7461,
  "goalkeeper</w>": 7462,
  "courses</w>": 7463,
  "ECB</w>": 7464,
  "hiding</w>": 7465,
  "'\u00e9": 7466,
  "frozen</w>": 7467,
  "praise</w>": 7468,
  "techniques</w>": 7469,
  "vic": 7470,
  "LI": 7471,
  "fun": 7472,
  "echipa</w>": 7473,
  "object</w>": 7474,
  "destroy</w>": 7475,
  "administrative</w>": 7476,
  "operational</w>": 7477,
  "Ahmed</w>": 7478,
  "Armstrong</w>": 7479,
  "notion</w>": 7480,
  "gallery</w>": 7481,
  "jacket</w>": 7482,
  "ceiling</w>": 7483,
  "bly</w>": 7484,
  "Jesus</w>": 7485,
  "Lynch</w>": 7486,
  "sim": 7487,
  "clinic</w>": 7488,
  "Kyle</w>": 7489,
  "per-": 7490,
  "uck</w>": 7491,
  "aspect</w>": 7492,
  "compound</w>": 7493,
  "lap</w>": 7494,
  "BC</w>": 7495,
  "pilots</w>": 7496,
  "tweets</w>": 7497,
  "Fal": 7498,
  "voter</w>": 7499,
  "iser</w>": 7500,
  "aka</w>": 7501,
  "auc": 7502,
  "disputed</w>": 7503,
  "emerge</w>": 7504,
  "channels</w>": 7505,
  "chat</w>": 7506,
  "ples</w>": 7507,
  "symbol</w>": 7508,
  "column</w>": 7509,
  "automatic</w>": 7510,
  "deja</w>": 7511,
  "heritage</w>": 7512,
  "strip</w>": 7513,
  "Murdoch</w>": 7514,
  "counsel</w>": 7515,
  "capabilities</w>": 7516,
  "owed</w>": 7517,
  "BE": 7518,
  "READ</w>": 7519,
  "break": 7520,
  "suits</w>": 7521,
  "wy": 7522,
  "wildlife</w>": 7523,
  "dreams</w>": 7524,
  "beneath</w>": 7525,
  "routes</w>": 7526,
  "obesity</w>": 7527,
  "Bishop</w>": 7528,
  "Line</w>": 7529,
  "actively</w>": 7530,
  "grateful</w>": 7531,
  "credits</w>": 7532,
  "anului</w>": 7533,
  "Wars</w>": 7534,
  "sponsored</w>": 7535,
  "Nazi</w>": 7536,
  "purposes</w>": 7537,
  "rig": 7538,
  "Shi": 7539,
  "licence</w>": 7540,
  "Early</w>": 7541,
  "seven-": 7542,
  "Nation</w>": 7543,
  "17-": 7544,
  "ball": 7545,
  "read": 7546,
  "narrative</w>": 7547,
  "Tal": 7548,
  "coastal</w>": 7549,
  "Alliance</w>": 7550,
  "bold</w>": 7551,
  "spotlight</w>": 7552,
  "workforce</w>": 7553,
  "benchmark</w>": 7554,
  "demonstrations</w>": 7555,
  "et-": 7556,
  "ranging</w>": 7557,
  "chip</w>": 7558,
  "dish</w>": 7559,
  "disclosed</w>": 7560,
  "harsh</w>": 7561,
  "ences</w>": 7562,
  "cancelled</w>": 7563,
  "safely</w>": 7564,
  "Obviously</w>": 7565,
  "forth</w>": 7566,
  "adjusted</w>": 7567,
  "....</w>": 7568,
  "47": 7569,
  "waited</w>": 7570,
  "counting</w>": 7571,
  "testified</w>": 7572,
  "ock": 7573,
  "Peace</w>": 7574,
  "shake</w>": 7575,
  "violations</w>": 7576,
  "mess</w>": 7577,
  "tend": 7578,
  "Ball": 7579,
  "overwhelming</w>": 7580,
  "regulator</w>": 7581,
  "dominant</w>": 7582,
  "two-year</w>": 7583,
  "aftermath</w>": 7584,
  "dar": 7585,
  "itor</w>": 7586,
  "infected</w>": 7587,
  "rhetoric</w>": 7588,
  "subjects</w>": 7589,
  "oning</w>": 7590,
  "pin</w>": 7591,
  "tors</w>": 7592,
  "highway</w>": 7593,
  "Leg": 7594,
  "discussing</w>": 7595,
  "13-": 7596,
  "romantic</w>": 7597,
  "promotion</w>": 7598,
  "circle</w>": 7599,
  "PR": 7600,
  "egg</w>": 7601,
  "shoppers</w>": 7602,
  "warn</w>": 7603,
  "implement</w>": 7604,
  "Somalia</w>": 7605,
  "files</w>": 7606,
  "Bailey</w>": 7607,
  "ective</w>": 7608,
  "buna</w>": 7609,
  "Rubio</w>": 7610,
  "excess</w>": 7611,
  "generous</w>": 7612,
  "None</w>": 7613,
  "Richmond</w>": 7614,
  "eaza</w>": 7615,
  "dubbed</w>": 7616,
  "Mubarak</w>": 7617,
  "aker</w>": 7618,
  "quake</w>": 7619,
  "embrace</w>": 7620,
  "Money</w>": 7621,
  "ank": 7622,
  "determination</w>": 7623,
  "rat": 7624,
  "recovering</w>": 7625,
  "ACT</w>": 7626,
  "ass</w>": 7627,
  "Wel": 7628,
  "Has": 7629,
  "tine</w>": 7630,
  "fortune</w>": 7631,
  "motivated</w>": 7632,
  "Bil": 7633,
  "person": 7634,
  "rookie</w>": 7635,
  "processing</w>": 7636,
  "stomach</w>": 7637,
  "Malcolm</w>": 7638,
  "Cash</w>": 7639,
  "Manning</w>": 7640,
  "Shane</w>": 7641,
  "educational</w>": 7642,
  "TI": 7643,
  "inder</w>": 7644,
  "reviewed</w>": 7645,
  "lung</w>": 7646,
  "Almost</w>": 7647,
  "ax": 7648,
  "cle": 7649,
  "ET</w>": 7650,
  "gas": 7651,
  "topic</w>": 7652,
  "matched</w>": 7653,
  "BO": 7654,
  "suggestion</w>": 7655,
  "Drug</w>": 7656,
  "oma</w>": 7657,
  "erous</w>": 7658,
  "forgotten</w>": 7659,
  "Communications</w>": 7660,
  "blind</w>": 7661,
  "scar": 7662,
  "bases</w>": 7663,
  "ust": 7664,
  "missions</w>": 7665,
  "pun": 7666,
  "clo": 7667,
  "toxic</w>": 7668,
  "ased</w>": 7669,
  "fel": 7670,
  "Bryant</w>": 7671,
  "debris</w>": 7672,
  "vin": 7673,
  "assess</w>": 7674,
  "integrity</w>": 7675,
  "af</w>": 7676,
  "'est</w>": 7677,
  "ela</w>": 7678,
  "prevented</w>": 7679,
  "ined</w>": 7680,
  "Fair</w>": 7681,
  "ager</w>": 7682,
  "collaboration</w>": 7683,
  "battles</w>": 7684,
  "Investment</w>": 7685,
  "1.3</w>": 7686,
  "bon": 7687,
  "spell</w>": 7688,
  "extr": 7689,
  "structures</w>": 7690,
  "warrant</w>": 7691,
  "muscle</w>": 7692,
  "transaction</w>": 7693,
  "Brady</w>": 7694,
  "Equ": 7695,
  "classified</w>": 7696,
  "oted</w>": 7697,
  "utes</w>": 7698,
  "Metropolitan</w>": 7699,
  "ic-": 7700,
  "GP</w>": 7701,
  "gym</w>": 7702,
  "wise</w>": 7703,
  "signals</w>": 7704,
  "viral</w>": 7705,
  "38": 7706,
  "abused</w>": 7707,
  "Reagan</w>": 7708,
  "full-time</w>": 7709,
  "referee</w>": 7710,
  "versions</w>": 7711,
  "Rudd</w>": 7712,
  "Av": 7713,
  "requiring</w>": 7714,
  "billionaire</w>": 7715,
  "ida</w>": 7716,
  "show": 7717,
  "eau</w>": 7718,
  "toti</w>": 7719,
  "pped</w>": 7720,
  "transactions</w>": 7721,
  "library</w>": 7722,
  "pocket</w>": 7723,
  "Revenue</w>": 7724,
  "pil": 7725,
  "priced</w>": 7726,
  "mortgages</w>": 7727,
  "les": 7728,
  "alarm</w>": 7729,
  "LO": 7730,
  "Data</w>": 7731,
  "Nov": 7732,
  "mobil": 7733,
  "Bab": 7734,
  "unrest</w>": 7735,
  "ye": 7736,
  "Islands</w>": 7737,
  "dining</w>": 7738,
  "Luc": 7739,
  "stabbed</w>": 7740,
  "Plus</w>": 7741,
  "PGA</w>": 7742,
  "sand</w>": 7743,
  "fence</w>": 7744,
  "Wenger</w>": 7745,
  "cru": 7746,
  "fleet</w>": 7747,
  "oppose</w>": 7748,
  "fined</w>": 7749,
  "cook</w>": 7750,
  "desert</w>": 7751,
  "ero": 7752,
  "parade</w>": 7753,
  "battling</w>": 7754,
  "Commerce</w>": 7755,
  "Ju": 7756,
  "Cast": 7757,
  "legend</w>": 7758,
  "Todd</w>": 7759,
  "Tower</w>": 7760,
  "prompting</w>": 7761,
  "berry</w>": 7762,
  "Pyongyang</w>": 7763,
  "noua</w>": 7764,
  "-related</w>": 7765,
  "grand": 7766,
  "Android</w>": 7767,
  "implications</w>": 7768,
  "Wi": 7769,
  "longest</w>": 7770,
  "tower</w>": 7771,
  "Easter</w>": 7772,
  "som": 7773,
  "sentences</w>": 7774,
  "Tiger</w>": 7775,
  "Tech</w>": 7776,
  "25-": 7777,
  "tag</w>": 7778,
  "grabbed</w>": 7779,
  "loyal</w>": 7780,
  "blaze</w>": 7781,
  "measured</w>": 7782,
  "Met</w>": 7783,
  "definition</w>": 7784,
  "grandmother</w>": 7785,
  "Markets</w>": 7786,
  "gen</w>": 7787,
  "compl": 7788,
  "Arena</w>": 7789,
  "neur": 7790,
  "avoided</w>": 7791,
  "pac": 7792,
  "bor": 7793,
  "Bristol</w>": 7794,
  "bra": 7795,
  "21st</w>": 7796,
  "Bos": 7797,
  "projected</w>": 7798,
  "Nobel</w>": 7799,
  "carpet</w>": 7800,
  "shame</w>": 7801,
  "converted</w>": 7802,
  "46": 7803,
  "difficulty</w>": 7804,
  "treaty</w>": 7805,
  "unt</w>": 7806,
  "examine</w>": 7807,
  "But": 7808,
  "nel</w>": 7809,
  "Mass</w>": 7810,
  "chronic</w>": 7811,
  "AF": 7812,
  "ingredients</w>": 7813,
  "depends</w>": 7814,
  "appealing</w>": 7815,
  "Transport</w>": 7816,
  "critic</w>": 7817,
  "Election</w>": 7818,
  "slide</w>": 7819,
  "inappropriate</w>": 7820,
  "SEC</w>": 7821,
  "stein</w>": 7822,
  "Emma</w>": 7823,
  "ented</w>": 7824,
  "Field</w>": 7825,
  "AD</w>": 7826,
  "Way</w>": 7827,
  "aver": 7828,
  "kg</w>": 7829,
  "wrapped</w>": 7830,
  "Not": 7831,
  "panic</w>": 7832,
  "entrance</w>": 7833,
  "Death</w>": 7834,
  "struggles</w>": 7835,
  "ands</w>": 7836,
  "Pot": 7837,
  "j</w>": 7838,
  "elled</w>": 7839,
  "Make</w>": 7840,
  "Low": 7841,
  "resign</w>": 7842,
  "nowhere</w>": 7843,
  "Stanford</w>": 7844,
  "bacteria</w>": 7845,
  "ading</w>": 7846,
  "Change</w>": 7847,
  "Hundreds</w>": 7848,
  "five-year</w>": 7849,
  "inevitable</w>": 7850,
  "pets</w>": 7851,
  "ignore</w>": 7852,
  "Castro</w>": 7853,
  "Barb": 7854,
  "hosting</w>": 7855,
  "slip</w>": 7856,
  "trav": 7857,
  "mod</w>": 7858,
  "8,000</w>": 7859,
  "patterns</w>": 7860,
  "lessly</w>": 7861,
  "atives</w>": 7862,
  "wire</w>": 7863,
  "Had": 7864,
  "soul</w>": 7865,
  "suppliers</w>": 7866,
  "shareholder</w>": 7867,
  "worn</w>": 7868,
  "Cole</w>": 7869,
  "supporter</w>": 7870,
  "desk</w>": 7871,
  "buc": 7872,
  "residence</w>": 7873,
  "mm</w>": 7874,
  "dri": 7875,
  "editing</w>": 7876,
  "uz": 7877,
  "F.</w>": 7878,
  "Nothing</w>": 7879,
  "suburb</w>": 7880,
  "ill-": 7881,
  "fied</w>": 7882,
  "stor": 7883,
  "naturally</w>": 7884,
  "successor</w>": 7885,
  "\u00e9es</w>": 7886,
  "diplomats</w>": 7887,
  "cou": 7888,
  "sweeping</w>": 7889,
  "oni</w>": 7890,
  "ax</w>": 7891,
  "Ward</w>": 7892,
  "tit": 7893,
  "cad": 7894,
  "Snowden</w>": 7895,
  "credited</w>": 7896,
  "lasted</w>": 7897,
  "witnessed</w>": 7898,
  "trafficking</w>": 7899,
  "casualties</w>": 7900,
  "protein</w>": 7901,
  "magic</w>": 7902,
  "snap</w>": 7903,
  "array</w>": 7904,
  "wounds</w>": 7905,
  "Franklin</w>": 7906,
  "strategies</w>": 7907,
  "son": 7908,
  "assembly</w>": 7909,
  "medium</w>": 7910,
  "removal</w>": 7911,
  "trebui</w>": 7912,
  "openly</w>": 7913,
  "withdraw</w>": 7914,
  "Manager</w>": 7915,
  "beef</w>": 7916,
  "organic</w>": 7917,
  "Sandy</w>": 7918,
  "utility</w>": 7919,
  "withdrawal</w>": 7920,
  "SP": 7921,
  "regret</w>": 7922,
  "Industry</w>": 7923,
  "Broncos</w>": 7924,
  "lasting</w>": 7925,
  "clip</w>": 7926,
  "decrease</w>": 7927,
  "insurgents</w>": 7928,
  "processes</w>": 7929,
  "arrives</w>": 7930,
  "villages</w>": 7931,
  "leaked</w>": 7932,
  "Mai</w>": 7933,
  "Haiti</w>": 7934,
  "quarterly</w>": 7935,
  "drilling</w>": 7936,
  "Op": 7937,
  "fierce</w>": 7938,
  "ren</w>": 7939,
  "Place</w>": 7940,
  "Orlando</w>": 7941,
  "Thomson</w>": 7942,
  "sells</w>": 7943,
  "Bernard</w>": 7944,
  "rab": 7945,
  "tear</w>": 7946,
  "discipline</w>": 7947,
  "revealing</w>": 7948,
  "guaranteed</w>": 7949,
  "medication</w>": 7950,
  "Wat": 7951,
  "reluctant</w>": 7952,
  "lit": 7953,
  "pensions</w>": 7954,
  "grab</w>": 7955,
  "avem</w>": 7956,
  "Kardashian</w>": 7957,
  "tail</w>": 7958,
  "continent</w>": 7959,
  "Rogers</w>": 7960,
  "campaigning</w>": 7961,
  "agrees</w>": 7962,
  "yers</w>": 7963,
  "convince</w>": 7964,
  "naked</w>": 7965,
  "Child</w>": 7966,
  "exploration</w>": 7967,
  "passage</w>": 7968,
  "Things</w>": 7969,
  "Potrivit</w>": 7970,
  "self</w>": 7971,
  "annually</w>": 7972,
  "dd</w>": 7973,
  "stakes</w>": 7974,
  "double-": 7975,
  "TS</w>": 7976,
  "districts</w>": 7977,
  "seekers</w>": 7978,
  "Head</w>": 7979,
  "traders</w>": 7980,
  "economics</w>": 7981,
  "skill</w>": 7982,
  "ult</w>": 7983,
  "LONDON</w>": 7984,
  "prea</w>": 7985,
  "6-3</w>": 7986,
  "outrage</w>": 7987,
  "refusing</w>": 7988,
  "kicking</w>": 7989,
  "restricted</w>": 7990,
  "iers</w>": 7991,
  "ze": 7992,
  "educated</w>": 7993,
  "afterwards</w>": 7994,
  "na": 7995,
  "blown</w>": 7996,
  "Rachel</w>": 7997,
  "Storm</w>": 7998,
  "Finally</w>": 7999,
  "Nancy</w>": 8000,
  "ace": 8001,
  "tor</w>": 8002,
  "chi</w>": 8003,
  "Prize</w>": 8004,
  "19.": 8005,
  "bottles</w>": 8006,
  "Inside</w>": 8007,
  "chemicals</w>": 8008,
  "J.": 8009,
  "Euro</w>": 8010,
  "news": 8011,
  "free-": 8012,
  "Heart</w>": 8013,
  "right-": 8014,
  "psych": 8015,
  "Chase</w>": 8016,
  "acres</w>": 8017,
  "Long": 8018,
  "mountains</w>": 8019,
  "encing</w>": 8020,
  "promoted</w>": 8021,
  "bil": 8022,
  "Anyone</w>": 8023,
  "ratio</w>": 8024,
  "Baby</w>": 8025,
  "near-": 8026,
  "explosive</w>": 8027,
  "authorized</w>": 8028,
  "faca</w>": 8029,
  "drives</w>": 8030,
  "Gor": 8031,
  "then-": 8032,
  "unding</w>": 8033,
  "Christ": 8034,
  "atively</w>": 8035,
  "Age</w>": 8036,
  "ar-": 8037,
  "lengthy</w>": 8038,
  "relation</w>": 8039,
  "doubts</w>": 8040,
  "weakness</w>": 8041,
  "chancellor</w>": 8042,
  "l-": 8043,
  "arding</w>": 8044,
  "sisters</w>": 8045,
  "copii</w>": 8046,
  "Russians</w>": 8047,
  "secondary</w>": 8048,
  ".org</w>": 8049,
  "margins</w>": 8050,
  "cit": 8051,
  "overs</w>": 8052,
  "bloody</w>": 8053,
  "tan": 8054,
  "not": 8055,
  "Pap": 8056,
  "van": 8057,
  "ress</w>": 8058,
  "reminder</w>": 8059,
  "wireless</w>": 8060,
  "equality</w>": 8061,
  "wind": 8062,
  "Li</w>": 8063,
  "18.": 8064,
  "sorts</w>": 8065,
  "Officers</w>": 8066,
  "neighbours</w>": 8067,
  "Mother</w>": 8068,
  "Bet": 8069,
  "victories</w>": 8070,
  "3.5</w>": 8071,
  "ester</w>": 8072,
  "wards</w>": 8073,
  "port": 8074,
  "22": 8075,
  "rol": 8076,
  "CA</w>": 8077,
  "playoffs</w>": 8078,
  "Express</w>": 8079,
  "outlets</w>": 8080,
  "Vis": 8081,
  "Within</w>": 8082,
  "N.Y.</w>": 8083,
  "briefing</w>": 8084,
  "with": 8085,
  "outdoor</w>": 8086,
  "ides</w>": 8087,
  "Rol": 8088,
  "ility</w>": 8089,
  "privately</w>": 8090,
  "Against</w>": 8091,
  "inainte</w>": 8092,
  "sof": 8093,
  "cry</w>": 8094,
  "Private</w>": 8095,
  "vom</w>": 8096,
  "exception</w>": 8097,
  "Julie</w>": 8098,
  "Rev": 8099,
  "Boehner</w>": 8100,
  "acestea</w>": 8101,
  "copies</w>": 8102,
  "barrels</w>": 8103,
  "Neither</w>": 8104,
  "presents</w>": 8105,
  "Rather</w>": 8106,
  "psychological</w>": 8107,
  "Brit": 8108,
  "councils</w>": 8109,
  "broadcaster</w>": 8110,
  "whis": 8111,
  "occasionally</w>": 8112,
  "130</w>": 8113,
  "transparency</w>": 8114,
  "conceded</w>": 8115,
  "deciding</w>": 8116,
  "Mak": 8117,
  "tremendous</w>": 8118,
  "Ku": 8119,
  "examples</w>": 8120,
  "demonstrators</w>": 8121,
  "starter</w>": 8122,
  "PE": 8123,
  "dig": 8124,
  "Clegg</w>": 8125,
  "maintaining</w>": 8126,
  "globe</w>": 8127,
  "judicial</w>": 8128,
  "bunch</w>": 8129,
  "Pro</w>": 8130,
  "phrase</w>": 8131,
  "easing</w>": 8132,
  "48": 8133,
  "Friends</w>": 8134,
  "Garcia</w>": 8135,
  "Win": 8136,
  "Windows</w>": 8137,
  "Ul": 8138,
  "aving</w>": 8139,
  "diagnosis</w>": 8140,
  "Fashion</w>": 8141,
  "Fri": 8142,
  "Tam": 8143,
  "bones</w>": 8144,
  "Ham</w>": 8145,
  "ifying</w>": 8146,
  "illa</w>": 8147,
  "motor</w>": 8148,
  "raped</w>": 8149,
  "50-": 8150,
  "modern": 8151,
  "vegetables</w>": 8152,
  "ael</w>": 8153,
  "Erdogan</w>": 8154,
  "evacuated</w>": 8155,
  "asts</w>": 8156,
  "downturn</w>": 8157,
  "drunk</w>": 8158,
  "observers</w>": 8159,
  "aps</w>": 8160,
  "external</w>": 8161,
  "preventing</w>": 8162,
  "Obamacare</w>": 8163,
  "suburbs</w>": 8164,
  "accusing</w>": 8165,
  "responding</w>": 8166,
  "staged</w>": 8167,
  "motor": 8168,
  "super-": 8169,
  "thin": 8170,
  "55": 8171,
  "nine-": 8172,
  "Mountain</w>": 8173,
  "Swansea</w>": 8174,
  "\u00e1": 8175,
  "edly</w>": 8176,
  "explaining</w>": 8177,
  "pleasure</w>": 8178,
  "Bangladesh</w>": 8179,
  "H.</w>": 8180,
  "tion": 8181,
  "script</w>": 8182,
  "relating</w>": 8183,
  "offenders</w>": 8184,
  "Spring</w>": 8185,
  "discount</w>": 8186,
  "temporarily</w>": 8187,
  "acceptable</w>": 8188,
  "Lib</w>": 8189,
  "gunman</w>": 8190,
  "Cohen</w>": 8191,
  "Harrison</w>": 8192,
  "AR</w>": 8193,
  "Angels</w>": 8194,
  "Law": 8195,
  "kins</w>": 8196,
  "SO": 8197,
  "everyday</w>": 8198,
  "damages</w>": 8199,
  "silent</w>": 8200,
  "mar</w>": 8201,
  "ption</w>": 8202,
  "spar": 8203,
  "Memorial</w>": 8204,
  "quietly</w>": 8205,
  "loving</w>": 8206,
  "ico</w>": 8207,
  "ros": 8208,
  "pot": 8209,
  "Stevens</w>": 8210,
  "dust</w>": 8211,
  "ID</w>": 8212,
  "Mohamed</w>": 8213,
  "Tan": 8214,
  "opera</w>": 8215,
  "posing</w>": 8216,
  "ashes</w>": 8217,
  "eck</w>": 8218,
  "2nd</w>": 8219,
  "Jan</w>": 8220,
  "Communist</w>": 8221,
  "Gol": 8222,
  "perceived</w>": 8223,
  "6-4</w>": 8224,
  "fy</w>": 8225,
  "UE</w>": 8226,
  "iss": 8227,
  "my": 8228,
  "radiation</w>": 8229,
  "Star": 8230,
  "fying</w>": 8231,
  "Puerto</w>": 8232,
  "Tampa</w>": 8233,
  "primit</w>": 8234,
  "Sullivan</w>": 8235,
  "unds</w>": 8236,
  "bearing</w>": 8237,
  "episodes</w>": 8238,
  "chamber</w>": 8239,
  "Call</w>": 8240,
  "defendants</w>": 8241,
  "Ashes</w>": 8242,
  "1988</w>": 8243,
  "hearts</w>": 8244,
  "ving</w>": 8245,
  "collision</w>": 8246,
  "aze</w>": 8247,
  "extremists</w>": 8248,
  "Action</w>": 8249,
  "Congressional</w>": 8250,
  "SI": 8251,
  "Fil": 8252,
  "Carl</w>": 8253,
  "dist": 8254,
  "ification</w>": 8255,
  "Hart</w>": 8256,
  "graphic</w>": 8257,
  "executed</w>": 8258,
  "Vancouver</w>": 8259,
  "Boris</w>": 8260,
  "Diana</w>": 8261,
  "two-thirds</w>": 8262,
  "15,000</w>": 8263,
  "ware</w>": 8264,
  "AA</w>": 8265,
  "Warriors</w>": 8266,
  "folks</w>": 8267,
  "preserve</w>": 8268,
  "Fisher</w>": 8269,
  "Damascus</w>": 8270,
  "productive</w>": 8271,
  "Holmes</w>": 8272,
  "Gi": 8273,
  "-out</w>": 8274,
  "imports</w>": 8275,
  "pit": 8276,
  "errors</w>": 8277,
  "stepping</w>": 8278,
  "Shiite</w>": 8279,
  "advocate</w>": 8280,
  "-in</w>": 8281,
  "ung": 8282,
  "differently</w>": 8283,
  "aching</w>": 8284,
  "examination</w>": 8285,
  "eth</w>": 8286,
  "DO": 8287,
  "Emergency</w>": 8288,
  "Brooks</w>": 8289,
  "robbery</w>": 8290,
  "mates</w>": 8291,
  "traveled</w>": 8292,
  "200": 8293,
  "fet": 8294,
  "breathing</w>": 8295,
  "nonprofit</w>": 8296,
  "rey</w>": 8297,
  "Walter</w>": 8298,
  "booked</w>": 8299,
  "devastated</w>": 8300,
  "ep</w>": 8301,
  "Julia</w>": 8302,
  "Nobody</w>": 8303,
  "Kal": 8304,
  "Cuban</w>": 8305,
  "Albert</w>": 8306,
  "Leeds</w>": 8307,
  "s.": 8308,
  "uniform</w>": 8309,
  "orange</w>": 8310,
  "trophy</w>": 8311,
  "violation</w>": 8312,
  "ports</w>": 8313,
  "mon</w>": 8314,
  "screens</w>": 8315,
  "Darren</w>": 8316,
  "suc": 8317,
  "Dennis</w>": 8318,
  "restructuring</w>": 8319,
  "IP": 8320,
  "athlete</w>": 8321,
  "priorities</w>": 8322,
  "ours</w>": 8323,
  "bloc</w>": 8324,
  "shipping</w>": 8325,
  "radar</w>": 8326,
  "1.4</w>": 8327,
  "bears</w>": 8328,
  "lam": 8329,
  "zy</w>": 8330,
  "1980</w>": 8331,
  "Cu": 8332,
  "departments</w>": 8333,
  "Glenn</w>": 8334,
  "Foster</w>": 8335,
  "ji</w>": 8336,
  "ua</w>": 8337,
  "lining</w>": 8338,
  "Emirates</w>": 8339,
  "\u00bf</w>": 8340,
  "Workers</w>": 8341,
  "landmark</w>": 8342,
  "umb": 8343,
  "torn</w>": 8344,
  "ble": 8345,
  "Mac</w>": 8346,
  "Key</w>": 8347,
  "evil</w>": 8348,
  "uncertain</w>": 8349,
  "LOS</w>": 8350,
  "conducting</w>": 8351,
  "ever": 8352,
  "ives</w>": 8353,
  "uts</w>": 8354,
  "accessible</w>": 8355,
  "understands</w>": 8356,
  "racism</w>": 8357,
  "Lopez</w>": 8358,
  "helpful</w>": 8359,
  "topped</w>": 8360,
  "titled</w>": 8361,
  "notably</w>": 8362,
  "predecessor</w>": 8363,
  "costly</w>": 8364,
  "opinions</w>": 8365,
  "spaces</w>": 8366,
  "jets</w>": 8367,
  "streaming</w>": 8368,
  "accommodation</w>": 8369,
  "duo</w>": 8370,
  "Saints</w>": 8371,
  "workplace</w>": 8372,
  "1.1</w>": 8373,
  "stock": 8374,
  "Bad": 8375,
  "ought</w>": 8376,
  "midfield</w>": 8377,
  "cred</w>": 8378,
  "erson</w>": 8379,
  "pon": 8380,
  "Sl": 8381,
  "uded</w>": 8382,
  "headline</w>": 8383,
  "excessive</w>": 8384,
  "crying</w>": 8385,
  "Interior</w>": 8386,
  "Chrysler</w>": 8387,
  "finale</w>": 8388,
  "ric": 8389,
  "Knight</w>": 8390,
  "eliminate</w>": 8391,
  "vedere</w>": 8392,
  "rocks</w>": 8393,
  "pro</w>": 8394,
  "sheriff</w>": 8395,
  "Income</w>": 8396,
  "Cum</w>": 8397,
  "gaining</w>": 8398,
  "Opposition</w>": 8399,
  "balanced</w>": 8400,
  "choosing</w>": 8401,
  "acestui</w>": 8402,
  "Nigel</w>": 8403,
  "subsidies</w>": 8404,
  "devoted</w>": 8405,
  "meters</w>": 8406,
  "consultation</w>": 8407,
  "Griffin</w>": 8408,
  "bizarre</w>": 8409,
  "keys</w>": 8410,
  "erv": 8411,
  "compliance</w>": 8412,
  "75": 8413,
  "ES</w>": 8414,
  "ux</w>": 8415,
  "wet</w>": 8416,
  "wr": 8417,
  "Mario</w>": 8418,
  "engineers</w>": 8419,
  "scope</w>": 8420,
  "nurses</w>": 8421,
  "visa</w>": 8422,
  "Cowboys</w>": 8423,
  "Ok": 8424,
  "Experts</w>": 8425,
  "courage</w>": 8426,
  "19th</w>": 8427,
  "Pictures</w>": 8428,
  "affecting</w>": 8429,
  "Please</w>": 8430,
  "eps</w>": 8431,
  "gam": 8432,
  "inquest</w>": 8433,
  "sacked</w>": 8434,
  "willingness</w>": 8435,
  "triumph</w>": 8436,
  "Walsh</w>": 8437,
  "fights</w>": 8438,
  "requirement</w>": 8439,
  "33": 8440,
  "Lin": 8441,
  "Belfast</w>": 8442,
  "Scots</w>": 8443,
  "affects</w>": 8444,
  "buses</w>": 8445,
  "comic</w>": 8446,
  "cats</w>": 8447,
  "medi": 8448,
  "Six": 8449,
  "draws</w>": 8450,
  "Crime</w>": 8451,
  "defendant</w>": 8452,
  "retire</w>": 8453,
  "Herald</w>": 8454,
  "Under": 8455,
  "chairs</w>": 8456,
  "permit</w>": 8457,
  "Kremlin</w>": 8458,
  "debts</w>": 8459,
  "'We</w>": 8460,
  "reception</w>": 8461,
  "Downing</w>": 8462,
  "developer</w>": 8463,
  "wooden</w>": 8464,
  "TR": 8465,
  "thro": 8466,
  "turmoil</w>": 8467,
  "ician</w>": 8468,
  "Relations</w>": 8469,
  "North": 8470,
  "sup": 8471,
  "Fol": 8472,
  "VI": 8473,
  "3-0</w>": 8474,
  "foul</w>": 8475,
  "tours</w>": 8476,
  "Penn</w>": 8477,
  "1.6</w>": 8478,
  "aster</w>": 8479,
  "att</w>": 8480,
  "gifts</w>": 8481,
  "nie</w>": 8482,
  "Jets</w>": 8483,
  "'Brien</w>": 8484,
  "pel": 8485,
  "itz</w>": 8486,
  "volunteer</w>": 8487,
  "bol": 8488,
  "visual</w>": 8489,
  "gun": 8490,
  "Sox</w>": 8491,
  "cm</w>": 8492,
  "Xinhua</w>": 8493,
  "Plan</w>": 8494,
  "heels</w>": 8495,
  "Studies</w>": 8496,
  "coll": 8497,
  "HE": 8498,
  "integration</w>": 8499,
  "employer</w>": 8500,
  "pit</w>": 8501,
  "presentation</w>": 8502,
  "schemes</w>": 8503,
  "automatically</w>": 8504,
  "disappointment</w>": 8505,
  "drought</w>": 8506,
  "freeze</w>": 8507,
  "Arctic</w>": 8508,
  "sample</w>": 8509,
  "branded</w>": 8510,
  "bomber</w>": 8511,
  "Index</w>": 8512,
  "angle</w>": 8513,
  "formation</w>": 8514,
  "credible</w>": 8515,
  "demonstration</w>": 8516,
  "brave</w>": 8517,
  "mosque</w>": 8518,
  "refuse</w>": 8519,
  "ums</w>": 8520,
  "stop": 8521,
  "subsequently</w>": 8522,
  "Delhi</w>": 8523,
  "adopt</w>": 8524,
  "l-a</w>": 8525,
  "Spencer</w>": 8526,
  "uring</w>": 8527,
  "deliberately</w>": 8528,
  "assured</w>": 8529,
  "grey</w>": 8530,
  "wal": 8531,
  "munca</w>": 8532,
  "Pat</w>": 8533,
  "phenomenon</w>": 8534,
  "Banks</w>": 8535,
  "acknowledge</w>": 8536,
  "worrying</w>": 8537,
  "displayed</w>": 8538,
  "Santorum</w>": 8539,
  "buyer</w>": 8540,
  "lobby</w>": 8541,
  "Luis</w>": 8542,
  "350</w>": 8543,
  "Could</w>": 8544,
  "publishing</w>": 8545,
  "traditionally</w>": 8546,
  "Overall</w>": 8547,
  "tribal</w>": 8548,
  "crop</w>": 8549,
  "unity</w>": 8550,
  "Whatever</w>": 8551,
  "Oval</w>": 8552,
  "appealed</w>": 8553,
  "Rus": 8554,
  "ato</w>": 8555,
  "uous</w>": 8556,
  "engines</w>": 8557,
  "astazi</w>": 8558,
  "removing</w>": 8559,
  "programmes</w>": 8560,
  "spare</w>": 8561,
  "listing</w>": 8562,
  "anna</w>": 8563,
  "outfit</w>": 8564,
  "Kel": 8565,
  "Critics</w>": 8566,
  "impotriva</w>": 8567,
  "las": 8568,
  "restored</w>": 8569,
  "Medicaid</w>": 8570,
  "Gun": 8571,
  "weighed</w>": 8572,
  "tru": 8573,
  "ther</w>": 8574,
  "lifting</w>": 8575,
  "minded</w>": 8576,
  "ho</w>": 8577,
  "renewable</w>": 8578,
  "cautious</w>": 8579,
  "grandfather</w>": 8580,
  "burg</w>": 8581,
  "Bay": 8582,
  "Mediterranean</w>": 8583,
  "McConnell</w>": 8584,
  "aks</w>": 8585,
  "mutual</w>": 8586,
  "conscious</w>": 8587,
  "Brotherhood</w>": 8588,
  "\u00e8re</w>": 8589,
  "1979</w>": 8590,
  "patrol</w>": 8591,
  "Czech</w>": 8592,
  "revised</w>": 8593,
  "awful</w>": 8594,
  "crown</w>": 8595,
  "Looking</w>": 8596,
  "ies": 8597,
  "Constitution</w>": 8598,
  "it-": 8599,
  "tobacco</w>": 8600,
  "Munich</w>": 8601,
  "fs</w>": 8602,
  "ito</w>": 8603,
  "Metro</w>": 8604,
  "Kabul</w>": 8605,
  "vacation</w>": 8606,
  "trailer</w>": 8607,
  "cargo</w>": 8608,
  "akers</w>": 8609,
  "chart</w>": 8610,
  "engaging</w>": 8611,
  "Partners</w>": 8612,
  "designs</w>": 8613,
  "tra": 8614,
  "Poor</w>": 8615,
  "nation": 8616,
  "assumed</w>": 8617,
  "Sil": 8618,
  "Ken": 8619,
  "vessels</w>": 8620,
  "suggestions</w>": 8621,
  "fic": 8622,
  "Rab": 8623,
  "deposits</w>": 8624,
  "furniture</w>": 8625,
  "pressures</w>": 8626,
  "implemented</w>": 8627,
  "overtime</w>": 8628,
  "taxpayer</w>": 8629,
  "fails</w>": 8630,
  "exploded</w>": 8631,
  "mol": 8632,
  "Marco</w>": 8633,
  "ush</w>": 8634,
  "eted</w>": 8635,
  "Abdullah</w>": 8636,
  "shell</w>": 8637,
  "39": 8638,
  "depend</w>": 8639,
  "vest": 8640,
  "misconduct</w>": 8641,
  "addressing</w>": 8642,
  "Karen</w>": 8643,
  "commun": 8644,
  "Ur": 8645,
  "sis</w>": 8646,
  "Johnny</w>": 8647,
  "excitement</w>": 8648,
  "Eddie</w>": 8649,
  "bombings</w>": 8650,
  "Jean</w>": 8651,
  "cond": 8652,
  "equipped</w>": 8653,
  "humanity</w>": 8654,
  "list": 8655,
  "Rep": 8656,
  "Cox</w>": 8657,
  "EPA</w>": 8658,
  "formula</w>": 8659,
  "UCLA</w>": 8660,
  "replacing</w>": 8661,
  "ip</w>": 8662,
  "spreading</w>": 8663,
  "citizenship</w>": 8664,
  "FTSE</w>": 8665,
  "butter</w>": 8666,
  "Building</w>": 8667,
  "Kiev</w>": 8668,
  "Bashar</w>": 8669,
  "Potter</w>": 8670,
  "3-1</w>": 8671,
  "fundraising</w>": 8672,
  "forum</w>": 8673,
  "10,": 8674,
  "threaten</w>": 8675,
  "Military</w>": 8676,
  "bag": 8677,
  "persuade</w>": 8678,
  "integrated</w>": 8679,
  "Catherine</w>": 8680,
  "migration</w>": 8681,
  "short": 8682,
  "Ronald</w>": 8683,
  "High": 8684,
  "heart": 8685,
  "Cot": 8686,
  "Natural</w>": 8687,
  "cav": 8688,
  "intellectual</w>": 8689,
  "\u00bai</w>": 8690,
  "Hugh</w>": 8691,
  "government-": 8692,
  "pursuit</w>": 8693,
  "Fel": 8694,
  "apoi</w>": 8695,
  "step": 8696,
  "Would</w>": 8697,
  "strategist</w>": 8698,
  "Using</w>": 8699,
  "Lev": 8700,
  "manufacturer</w>": 8701,
  "VA</w>": 8702,
  "eff": 8703,
  "10-year</w>": 8704,
  "ity-": 8705,
  "alise</w>": 8706,
  "Travel</w>": 8707,
  "lineup</w>": 8708,
  "osis</w>": 8709,
  "safer</w>": 8710,
  "recommend</w>": 8711,
  "Brothers</w>": 8712,
  "Environmental</w>": 8713,
  "ree</w>": 8714,
  "oral</w>": 8715,
  "categories</w>": 8716,
  "MP": 8717,
  "Chile</w>": 8718,
  "18th</w>": 8719,
  "bullying</w>": 8720,
  "breath</w>": 8721,
  "dynamic</w>": 8722,
  "ici</w>": 8723,
  "Boy</w>": 8724,
  "Thai</w>": 8725,
  "Never</w>": 8726,
  "Sn": 8727,
  "mad</w>": 8728,
  "occup": 8729,
  "yields</w>": 8730,
  "patch</w>": 8731,
  "Off</w>": 8732,
  "Delta</w>": 8733,
  "shortage</w>": 8734,
  "careers</w>": 8735,
  "Nicolas</w>": 8736,
  "1986</w>": 8737,
  "Dom": 8738,
  "alizing</w>": 8739,
  "helicopters</w>": 8740,
  "tin</w>": 8741,
  "Insurance</w>": 8742,
  "wings</w>": 8743,
  "Forces</w>": 8744,
  "Captain</w>": 8745,
  "Yo": 8746,
  "Based</w>": 8747,
  "enced</w>": 8748,
  "rental</w>": 8749,
  "relaxed</w>": 8750,
  "hit": 8751,
  "tap</w>": 8752,
  "uncomfortable</w>": 8753,
  "Hom": 8754,
  "ique</w>": 8755,
  "capit": 8756,
  "vac": 8757,
  "bud": 8758,
  "Scar": 8759,
  "emotions</w>": 8760,
  "Members</w>": 8761,
  "noastra</w>": 8762,
  "Fred</w>": 8763,
  "sym": 8764,
  "irs</w>": 8765,
  "sson</w>": 8766,
  "old": 8767,
  "Future</w>": 8768,
  "boarding</w>": 8769,
  "Astfel</w>": 8770,
  "risky</w>": 8771,
  "shy</w>": 8772,
  "U.S.-": 8773,
  "bankers</w>": 8774,
  "mes": 8775,
  "dragged</w>": 8776,
  "immigrant</w>": 8777,
  "Dy": 8778,
  "cycling</w>": 8779,
  "Front</w>": 8780,
  "Pul": 8781,
  "debates</w>": 8782,
  "tax": 8783,
  "yan</w>": 8784,
  "budgets</w>": 8785,
  "gradually</w>": 8786,
  "Jake</w>": 8787,
  "0.5</w>": 8788,
  "downs</w>": 8789,
  "Story</w>": 8790,
  "tunnel</w>": 8791,
  "drag</w>": 8792,
  "Cab": 8793,
  "illo</w>": 8794,
  "centuries</w>": 8795,
  "semi-final</w>": 8796,
  "insist</w>": 8797,
  "ambitions</w>": 8798,
  "'The</w>": 8799,
  "Harper</w>": 8800,
  "bands</w>": 8801,
  "CE": 8802,
  "aire</w>": 8803,
  "confusion</w>": 8804,
  "passionate</w>": 8805,
  "checking</w>": 8806,
  "description</w>": 8807,
  "oversight</w>": 8808,
  "Girls</w>": 8809,
  "addresses</w>": 8810,
  "Jobs</w>": 8811,
  "3D</w>": 8812,
  "1,500</w>": 8813,
  "Sum": 8814,
  "Doctors</w>": 8815,
  "cop": 8816,
  "tent</w>": 8817,
  "HO": 8818,
  "Mes": 8819,
  "40,000</w>": 8820,
  "portrait</w>": 8821,
  "Geneva</w>": 8822,
  "sand": 8823,
  "violated</w>": 8824,
  "mentally</w>": 8825,
  "platforms</w>": 8826,
  "aya</w>": 8827,
  "FI": 8828,
  "System</w>": 8829,
  "lard</w>": 8830,
  "Jam": 8831,
  "Denmark</w>": 8832,
  "Jr.</w>": 8833,
  "Chavez</w>": 8834,
  "Hudson</w>": 8835,
  "sentencing</w>": 8836,
  "Wallace</w>": 8837,
  "test": 8838,
  "Seoul</w>": 8839,
  "1984</w>": 8840,
  "Table</w>": 8841,
  "enterprise</w>": 8842,
  "neighboring</w>": 8843,
  "presedintele</w>": 8844,
  "consent</w>": 8845,
  "Bulldogs</w>": 8846,
  "mines</w>": 8847,
  "iller</w>": 8848,
  "Zimbabwe</w>": 8849,
  "Athens</w>": 8850,
  "ried</w>": 8851,
  "Mets</w>": 8852,
  "obligation</w>": 8853,
  "44": 8854,
  "Heat</w>": 8855,
  "fantasy</w>": 8856,
  "lum": 8857,
  "Div": 8858,
  "disclosure</w>": 8859,
  "circuit</w>": 8860,
  "tonnes</w>": 8861,
  "credibility</w>": 8862,
  "vorba</w>": 8863,
  "CCTV</w>": 8864,
  "Nas": 8865,
  "commitments</w>": 8866,
  "undermine</w>": 8867,
  "impl": 8868,
  "chy</w>": 8869,
  "suite</w>": 8870,
  "hugely</w>": 8871,
  "accepting</w>": 8872,
  "zo</w>": 8873,
  "fol": 8874,
  "firmly</w>": 8875,
  "freed</w>": 8876,
  "offs</w>": 8877,
  "dam": 8878,
  "point": 8879,
  "corn</w>": 8880,
  "Bernie</w>": 8881,
  "compelling</w>": 8882,
  "releases</w>": 8883,
  "ik</w>": 8884,
  "petrol</w>": 8885,
  "boots</w>": 8886,
  "nec": 8887,
  "ker": 8888,
  "11th</w>": 8889,
  "diesel</w>": 8890,
  "meaningful</w>": 8891,
  "McCarthy</w>": 8892,
  "shootings</w>": 8893,
  "coat</w>": 8894,
  "Gold": 8895,
  "Ki": 8896,
  "pursuing</w>": 8897,
  "Mae</w>": 8898,
  "viable</w>": 8899,
  "Sachs</w>": 8900,
  "ero</w>": 8901,
  "habits</w>": 8902,
  "confirmation</w>": 8903,
  "arg": 8904,
  "Karzai</w>": 8905,
  "ails</w>": 8906,
  "declining</w>": 8907,
  "presidents</w>": 8908,
  "Derby</w>": 8909,
  "imb": 8910,
  "universal</w>": 8911,
  "commissioned</w>": 8912,
  "paintings</w>": 8913,
  "E.": 8914,
  "marine</w>": 8915,
  "re-election</w>": 8916,
  "counterparts</w>": 8917,
  "gasoline</w>": 8918,
  "icon</w>": 8919,
  "usion</w>": 8920,
  "rank</w>": 8921,
  "crowded</w>": 8922,
  "co-founder</w>": 8923,
  "eva</w>": 8924,
  "abilities</w>": 8925,
  "s.com</w>": 8926,
  "numele</w>": 8927,
  "beloved</w>": 8928,
  "exchanges</w>": 8929,
  "Acc": 8930,
  "feeding</w>": 8931,
  "jokes</w>": 8932,
  "exists</w>": 8933,
  "Silver</w>": 8934,
  "gol": 8935,
  "iner</w>": 8936,
  "bulk</w>": 8937,
  "ints</w>": 8938,
  "audio</w>": 8939,
  "intensity</w>": 8940,
  "vocal</w>": 8941,
  "sa-si</w>": 8942,
  "Bak": 8943,
  "ume</w>": 8944,
  "distributed</w>": 8945,
  "presenter</w>": 8946,
  "erupted</w>": 8947,
  "band": 8948,
  "Helen</w>": 8949,
  "cel": 8950,
  "donated</w>": 8951,
  "Sanchez</w>": 8952,
  "OT": 8953,
  "semi-": 8954,
  "Powell</w>": 8955,
  "ens": 8956,
  "pile</w>": 8957,
  "contractors</w>": 8958,
  "esc</w>": 8959,
  "Cer": 8960,
  "ridiculous</w>": 8961,
  "Rap": 8962,
  "propaganda</w>": 8963,
  "placing</w>": 8964,
  "venit</w>": 8965,
  "7,000</w>": 8966,
  "Christians</w>": 8967,
  "addiction</w>": 8968,
  "Bou": 8969,
  "Aceasta</w>": 8970,
  "dirty</w>": 8971,
  "Origin</w>": 8972,
  "provisions</w>": 8973,
  "lit</w>": 8974,
  "Oakland</w>": 8975,
  "long": 8976,
  "20s</w>": 8977,
  "picks</w>": 8978,
  "anonymous</w>": 8979,
  "cont": 8980,
  "luc": 8981,
  "acolo</w>": 8982,
  "azi</w>": 8983,
  "arena</w>": 8984,
  "Dakota</w>": 8985,
  "catching</w>": 8986,
  "batting</w>": 8987,
  "formerly</w>": 8988,
  "glad</w>": 8989,
  "singles</w>": 8990,
  "vent</w>": 8991,
  "nit": 8992,
  "lighting</w>": 8993,
  "exceptional</w>": 8994,
  "enberg</w>": 8995,
  "tables</w>": 8996,
  "obligations</w>": 8997,
  "thr": 8998,
  "Flight</w>": 8999,
  "Bobby</w>": 9000,
  "rid": 9001,
  "populations</w>": 9002,
  "arian</w>": 9003,
  "ounce</w>": 9004,
  "calendar</w>": 9005,
  "glit": 9006,
  "luat</w>": 9007,
  "Mosul</w>": 9008,
  "Rd</w>": 9009,
  "approaches</w>": 9010,
  "cin": 9011,
  "opt</w>": 9012,
  "Duchess</w>": 9013,
  "responses</w>": 9014,
  "arranged</w>": 9015,
  "Manuel</w>": 9016,
  "flags</w>": 9017,
  "put": 9018,
  "Patriots</w>": 9019,
  "Mandela</w>": 9020,
  "severely</w>": 9021,
  "Norman</w>": 9022,
  "refer": 9023,
  "bosses</w>": 9024,
  "Tesco</w>": 9025,
  "breakthrough</w>": 9026,
  "Wang</w>": 9027,
  "dependent</w>": 9028,
  "Alzheimer</w>": 9029,
  "Bul": 9030,
  "slight</w>": 9031,
  "Investigators</w>": 9032,
  "out-of-": 9033,
  "Final</w>": 9034,
  "enthusiasm</w>": 9035,
  "Var": 9036,
  "Political</w>": 9037,
  "ami</w>": 9038,
  "plain</w>": 9039,
  "cab": 9040,
  "Andrews</w>": 9041,
  "tribunal</w>": 9042,
  "spectrum</w>": 9043,
  "eli": 9044,
  "tanks</w>": 9045,
  "evident</w>": 9046,
  "ime</w>": 9047,
  "iously</w>": 9048,
  "optimism</w>": 9049,
  "RA": 9050,
  "MI": 9051,
  "stal": 9052,
  "chapter</w>": 9053,
  "cher": 9054,
  "Belgian</w>": 9055,
  "Arkansas</w>": 9056,
  "chips</w>": 9057,
  "winger</w>": 9058,
  "hat": 9059,
  "fingers</w>": 9060,
  "commodity</w>": 9061,
  "flows</w>": 9062,
  "lume</w>": 9063,
  "Pit": 9064,
  "Iasi</w>": 9065,
  "PR</w>": 9066,
  "Transportation</w>": 9067,
  "big-": 9068,
  "scri": 9069,
  "Dame</w>": 9070,
  "viewing</w>": 9071,
  "flames</w>": 9072,
  "trio</w>": 9073,
  "Convention</w>": 9074,
  "assaulted</w>": 9075,
  "Universal</w>": 9076,
  "emo": 9077,
  "Hearts</w>": 9078,
  "sole</w>": 9079,
  "consulting</w>": 9080,
  "hung</w>": 9081,
  "esses</w>": 9082,
  "Tak": 9083,
  "h-": 9084,
  "rer</w>": 9085,
  "Sunderland</w>": 9086,
  "ored</w>": 9087,
  "DS</w>": 9088,
  "filling</w>": 9089,
  "throws</w>": 9090,
  "apped</w>": 9091,
  "patru</w>": 9092,
  "comedian</w>": 9093,
  "intensive</w>": 9094,
  "blocking</w>": 9095,
  "S.": 9096,
  "Small</w>": 9097,
  "drops</w>": 9098,
  "Southampton</w>": 9099,
  "aki</w>": 9100,
  "p-": 9101,
  "deserves</w>": 9102,
  "bits</w>": 9103,
  "button</w>": 9104,
  "boxing</w>": 9105,
  "perception</w>": 9106,
  "championships</w>": 9107,
  "piata</w>": 9108,
  "CF": 9109,
  "wan</w>": 9110,
  "liquid</w>": 9111,
  "Mercedes</w>": 9112,
  "flown</w>": 9113,
  "premi": 9114,
  "Richardson</w>": 9115,
  "screaming</w>": 9116,
  "Reports</w>": 9117,
  "PL": 9118,
  "fleeing</w>": 9119,
  "smooth</w>": 9120,
  "potrivit</w>": 9121,
  "HKT</w>": 9122,
  "pole</w>": 9123,
  "the-": 9124,
  "Camp</w>": 9125,
  "upgrade</w>": 9126,
  "Dick</w>": 9127,
  "power": 9128,
  "pure</w>": 9129,
  "aud</w>": 9130,
  "pants</w>": 9131,
  "Formula</w>": 9132,
  "dor": 9133,
  "excuse</w>": 9134,
  "life-": 9135,
  "cinema</w>": 9136,
  "weaker</w>": 9137,
  "East": 9138,
  "tery</w>": 9139,
  "corporations</w>": 9140,
  "rot": 9141,
  "leather</w>": 9142,
  "Galaxy</w>": 9143,
  "Liberty</w>": 9144,
  "Liam</w>": 9145,
  "C-": 9146,
  "sar": 9147,
  "governance</w>": 9148,
  "Years</w>": 9149,
  "sequ": 9150,
  "quar": 9151,
  "searched</w>": 9152,
  "opted</w>": 9153,
  "Mobile</w>": 9154,
  "Rod": 9155,
  "twin</w>": 9156,
  "reject</w>": 9157,
  "ear</w>": 9158,
  "three-year</w>": 9159,
  "rolls</w>": 9160,
  "quest</w>": 9161,
  "ocks</w>": 9162,
  "kil": 9163,
  "Environment</w>": 9164,
  "uprising</w>": 9165,
  "Guy</w>": 9166,
  "bonuses</w>": 9167,
  "hub</w>": 9168,
  "cleaning</w>": 9169,
  "artistic</w>": 9170,
  "conflicts</w>": 9171,
  "respective</w>": 9172,
  "emphasis</w>": 9173,
  "editorial</w>": 9174,
  "Haw": 9175,
  "separated</w>": 9176,
  "Airways</w>": 9177,
  "Serbia</w>": 9178,
  "Owen</w>": 9179,
  "Lou": 9180,
  "Saf": 9181,
  "jumping</w>": 9182,
  "mun": 9183,
  "Tax</w>": 9184,
  "gal": 9185,
  "Third</w>": 9186,
  "reminded</w>": 9187,
  "sealed</w>": 9188,
  "Hard": 9189,
  "anta</w>": 9190,
  "blaz": 9191,
  "weigh</w>": 9192,
  "itate</w>": 9193,
  "Mason</w>": 9194,
  "carriers</w>": 9195,
  "top": 9196,
  "item</w>": 9197,
  "Lloyd</w>": 9198,
  "heated</w>": 9199,
  "aked</w>": 9200,
  "Vincent</w>": 9201,
  "Highway</w>": 9202,
  "300,000</w>": 9203,
  "1950s</w>": 9204,
  "smartphones</w>": 9205,
  "desperately</w>": 9206,
  "outcomes</w>": 9207,
  "marry</w>": 9208,
  "pen</w>": 9209,
  "extremist</w>": 9210,
  "Marcus</w>": 9211,
  "Kur": 9212,
  "accounted</w>": 9213,
  "Sta": 9214,
  "infections</w>": 9215,
  "asser": 9216,
  "USC</w>": 9217,
  "iri</w>": 9218,
  "haul</w>": 9219,
  "Jeffrey</w>": 9220,
  "conservation</w>": 9221,
  "prescription</w>": 9222,
  "hed</w>": 9223,
  "insurers</w>": 9224,
  "rows</w>": 9225,
  "Climate</w>": 9226,
  "Kil": 9227,
  "canceled</w>": 9228,
  "eries</w>": 9229,
  "blew</w>": 9230,
  "GO": 9231,
  "ashed</w>": 9232,
  "controlling</w>": 9233,
  "250,000</w>": 9234,
  "universe</w>": 9235,
  "Century</w>": 9236,
  "Maine</w>": 9237,
  "God": 9238,
  "admission</w>": 9239,
  "caution</w>": 9240,
  "e.": 9241,
  "Eve</w>": 9242,
  "productivity</w>": 9243,
  "duc": 9244,
  "divisions</w>": 9245,
  "Village</w>": 9246,
  "Lucas</w>": 9247,
  "I.": 9248,
  "barrier</w>": 9249,
  "barriers</w>": 9250,
  "Gab": 9251,
  "Emily</w>": 9252,
  "anda</w>": 9253,
  "iro</w>": 9254,
  "Cape</w>": 9255,
  "org": 9256,
  "gene</w>": 9257,
  "Late</w>": 9258,
  "approaching</w>": 9259,
  "provincial</w>": 9260,
  "ady</w>": 9261,
  "calories</w>": 9262,
  "ben": 9263,
  "Ti": 9264,
  "toata</w>": 9265,
  "repeal</w>": 9266,
  "subsidiary</w>": 9267,
  "ury</w>": 9268,
  "artificial</w>": 9269,
  "doc": 9270,
  "Father</w>": 9271,
  "tissue</w>": 9272,
  "Rodgers</w>": 9273,
  "Lyn": 9274,
  "broker</w>": 9275,
  "disclose</w>": 9276,
  "mode</w>": 9277,
  "ling": 9278,
  "ANGELES</w>": 9279,
  "slowing</w>": 9280,
  "vrea</w>": 9281,
  "weird</w>": 9282,
  "Aleppo</w>": 9283,
  "Es": 9284,
  "fum": 9285,
  "heroes</w>": 9286,
  "migrant</w>": 9287,
  "Pay": 9288,
  "considers</w>": 9289,
  "Carson</w>": 9290,
  "Mitch</w>": 9291,
  "clas": 9292,
  "NYTimes.com</w>": 9293,
  "Pic": 9294,
  "ovic</w>": 9295,
  "sid": 9296,
  "enhance</w>": 9297,
  "Castle</w>": 9298,
  "log": 9299,
  "shut": 9300,
  "Verizon</w>": 9301,
  "steal</w>": 9302,
  "Dav": 9303,
  "Gibson</w>": 9304,
  "dangers</w>": 9305,
  "IR": 9306,
  "Reynolds</w>": 9307,
  "amp</w>": 9308,
  "advocacy</w>": 9309,
  "Ronaldo</w>": 9310,
  "ga</w>": 9311,
  "Mand": 9312,
  "Lanka</w>": 9313,
  "90": 9314,
  "30pm</w>": 9315,
  "nursing</w>": 9316,
  "cigarettes</w>": 9317,
  "Gabriel</w>": 9318,
  "parole</w>": 9319,
  "Abbas</w>": 9320,
  "marking</w>": 9321,
  "Katie</w>": 9322,
  "satisfaction</w>": 9323,
  "Morrison</w>": 9324,
  "1987</w>": 9325,
  "arrangement</w>": 9326,
  "detectives</w>": 9327,
  "Beg": 9328,
  "diplomat</w>": 9329,
  "beliefs</w>": 9330,
  "Wol": 9331,
  "ay-": 9332,
  "flexibility</w>": 9333,
  "aviation</w>": 9334,
  "comply</w>": 9335,
  "wit": 9336,
  "0.1</w>": 9337,
  "Too</w>": 9338,
  "hike</w>": 9339,
  "IM": 9340,
  "ambition</w>": 9341,
  "wid": 9342,
  "charities</w>": 9343,
  "ved</w>": 9344,
  "Bra": 9345,
  "smell</w>": 9346,
  "greenhouse</w>": 9347,
  "Ukip</w>": 9348,
  "foreigners</w>": 9349,
  "mond</w>": 9350,
  "incentives</w>": 9351,
  "stra": 9352,
  "Homeland</w>": 9353,
  "night": 9354,
  "progressive</w>": 9355,
  "hostile</w>": 9356,
  "root</w>": 9357,
  "Jer": 9358,
  "communicate</w>": 9359,
  "Raj": 9360,
  "ody</w>": 9361,
  "lo</w>": 9362,
  "Greater</w>": 9363,
  "Reed</w>": 9364,
  "bipartisan</w>": 9365,
  "Between</w>": 9366,
  "trick</w>": 9367,
  "ampl": 9368,
  "respondents</w>": 9369,
  "drept</w>": 9370,
  "grants</w>": 9371,
  "Corps</w>": 9372,
  "farms</w>": 9373,
  "Nicole</w>": 9374,
  "wishes</w>": 9375,
  "Light</w>": 9376,
  "Again</w>": 9377,
  "attendance</w>": 9378,
  "detainees</w>": 9379,
  "Polish</w>": 9380,
  "deposit</w>": 9381,
  "toilet</w>": 9382,
  "explosives</w>": 9383,
  "pa</w>": 9384,
  "lier</w>": 9385,
  "MO": 9386,
  "Raiders</w>": 9387,
  "Phil": 9388,
  "dom</w>": 9389,
  "ari": 9390,
  "tap": 9391,
  "open-": 9392,
  "erau</w>": 9393,
  "transformed</w>": 9394,
  "realistic</w>": 9395,
  "chi": 9396,
  "Portland</w>": 9397,
  "Dal": 9398,
  "hearings</w>": 9399,
  "Broad": 9400,
  "Madison</w>": 9401,
  "teammate</w>": 9402,
  "Car</w>": 9403,
  "Dead</w>": 9404,
  "shutdown</w>": 9405,
  "Hart": 9406,
  "well-known</w>": 9407,
  "simpl": 9408,
  "eas": 9409,
  "intends</w>": 9410,
  "author": 9411,
  "Cold</w>": 9412,
  "shoulders</w>": 9413,
  "designers</w>": 9414,
  "profitable</w>": 9415,
  "divide</w>": 9416,
  "beaches</w>": 9417,
  "strang": 9418,
  "Gallery</w>": 9419,
  "SC</w>": 9420,
  "lock": 9421,
  "Fair": 9422,
  "Scot": 9423,
  "forma</w>": 9424,
  "adventure</w>": 9425,
  "electronics</w>": 9426,
  "matching</w>": 9427,
  "zer</w>": 9428,
  "pan</w>": 9429,
  "forming</w>": 9430,
  "thir": 9431,
  "NHL</w>": 9432,
  "bit": 9433,
  "neighborhoods</w>": 9434,
  "embarrassing</w>": 9435,
  "lee</w>": 9436,
  "mea</w>": 9437,
  "amendment</w>": 9438,
  "lucrative</w>": 9439,
  "Joel</w>": 9440,
  "instant</w>": 9441,
  "Singh</w>": 9442,
  "Hope</w>": 9443,
  "romance</w>": 9444,
  "oh</w>": 9445,
  "participating</w>": 9446,
  "Clippers</w>": 9447,
  "Gaddafi</w>": 9448,
  "Ta": 9449,
  "bun": 9450,
  "react</w>": 9451,
  "sounded</w>": 9452,
  "Border</w>": 9453,
  "Lyon</w>": 9454,
  "nimic</w>": 9455,
  "cyber</w>": 9456,
  "precisely</w>": 9457,
  "joins</w>": 9458,
  "Representatives</w>": 9459,
  "Summer</w>": 9460,
  "Tyler</w>": 9461,
  "Dublin</w>": 9462,
  "iss</w>": 9463,
  "dealers</w>": 9464,
  "Limited</w>": 9465,
  "Kids</w>": 9466,
  "100": 9467,
  "railway</w>": 9468,
  "sta</w>": 9469,
  "ev</w>": 9470,
  "Hernandez</w>": 9471,
  "produces</w>": 9472,
  "6-2</w>": 9473,
  "Hezbollah</w>": 9474,
  "mot": 9475,
  "sub-": 9476,
  "ects</w>": 9477,
  "reas": 9478,
  "awa</w>": 9479,
  "ugly</w>": 9480,
  "ider</w>": 9481,
  "bite</w>": 9482,
  "database</w>": 9483,
  "Swift</w>": 9484,
  "moder": 9485,
  "nostru</w>": 9486,
  "stupid</w>": 9487,
  "musicians</w>": 9488,
  "TO": 9489,
  "compare</w>": 9490,
  "40-": 9491,
  "ision</w>": 9492,
  "T.</w>": 9493,
  "57": 9494,
  "sheer</w>": 9495,
  "deserved</w>": 9496,
  "suburban</w>": 9497,
  "Ferrari</w>": 9498,
  "holder</w>": 9499,
  "chasing</w>": 9500,
  "boosted</w>": 9501,
  "components</w>": 9502,
  "liv": 9503,
  "mic</w>": 9504,
  "Andre</w>": 9505,
  "knock</w>": 9506,
  "shi": 9507,
  "enko</w>": 9508,
  "outing</w>": 9509,
  "reader</w>": 9510,
  "availability</w>": 9511,
  "\u00c2</w>": 9512,
  "ulation</w>": 9513,
  "ually</w>": 9514,
  "tops</w>": 9515,
  "ch-": 9516,
  "Derek</w>": 9517,
  "Beckham</w>": 9518,
  "indicates</w>": 9519,
  "Brent</w>": 9520,
  "sne": 9521,
  "ections</w>": 9522,
  "izes</w>": 9523,
  "1,0": 9524,
  "Television</w>": 9525,
  "flies</w>": 9526,
  "updates</w>": 9527,
  "icker</w>": 9528,
  "indictment</w>": 9529,
  "terminal</w>": 9530,
  "sauce</w>": 9531,
  "Hon": 9532,
  "Sky": 9533,
  "joked</w>": 9534,
  "oz": 9535,
  "Nicholas</w>": 9536,
  "Wade</w>": 9537,
  "suitable</w>": 9538,
  "dif": 9539,
  "mounting</w>": 9540,
  "supportive</w>": 9541,
  "voluntary</w>": 9542,
  "magnitude</w>": 9543,
  "disappearance</w>": 9544,
  "ally-": 9545,
  "enemies</w>": 9546,
  "publish</w>": 9547,
  "Stat": 9548,
  "runners</w>": 9549,
  "registration</w>": 9550,
  "state-": 9551,
  "shark</w>": 9552,
  "complain</w>": 9553,
  "Cincinnati</w>": 9554,
  "road": 9555,
  "sovereign</w>": 9556,
  "Golf</w>": 9557,
  "celebrates</w>": 9558,
  "motive</w>": 9559,
  "liver</w>": 9560,
  "arb": 9561,
  "electrical</w>": 9562,
  "Dylan</w>": 9563,
  "e-up</w>": 9564,
  "underway</w>": 9565,
  "Ari": 9566,
  "fat": 9567,
  "righ": 9568,
  "1m</w>": 9569,
  "climbing</w>": 9570,
  "eter</w>": 9571,
  "dated</w>": 9572,
  "Cul": 9573,
  "disputes</w>": 9574,
  "Resources</w>": 9575,
  "runway</w>": 9576,
  "declare</w>": 9577,
  "unnecessary</w>": 9578,
  "genes</w>": 9579,
  "\u00ef</w>": 9580,
  "Honda</w>": 9581,
  "Theater</w>": 9582,
  "illing</w>": 9583,
  "Stor": 9584,
  "Py": 9585,
  "GB</w>": 9586,
  "acelasi</w>": 9587,
  "Rock": 9588,
  "hungry</w>": 9589,
  "itis</w>": 9590,
  "flash</w>": 9591,
  "1.8</w>": 9592,
  "broadband</w>": 9593,
  "elaborate</w>": 9594,
  "factories</w>": 9595,
  "statue</w>": 9596,
  "surveyed</w>": 9597,
  "year-": 9598,
  "Has</w>": 9599,
  "stole</w>": 9600,
  "habit</w>": 9601,
  "programming</w>": 9602,
  "asted</w>": 9603,
  "inst": 9604,
  "framework</w>": 9605,
  "disability</w>": 9606,
  "acestei</w>": 9607,
  "BMW</w>": 9608,
  "as-": 9609,
  "experiencing</w>": 9610,
  "Berlusconi</w>": 9611,
  "sends</w>": 9612,
  "salaries</w>": 9613,
  "collecting</w>": 9614,
  "lumea</w>": 9615,
  "tenure</w>": 9616,
  "liber": 9617,
  "passport</w>": 9618,
  "year-olds</w>": 9619,
  "Annual</w>": 9620,
  "sion": 9621,
  "Nar": 9622,
  "prisoner</w>": 9623,
  "advances</w>": 9624,
  "bullet</w>": 9625,
  "shifting</w>": 9626,
  "Ang": 9627,
  "bubble</w>": 9628,
  "saves</w>": 9629,
  "concerning</w>": 9630,
  "56": 9631,
  "confused</w>": 9632,
  "Pon": 9633,
  "toys</w>": 9634,
  "Class</w>": 9635,
  "stealing</w>": 9636,
  "ridge</w>": 9637,
  "dol": 9638,
  "define</w>": 9639,
  "1-1</w>": 9640,
  "academy</w>": 9641,
  "articles</w>": 9642,
  "backlash</w>": 9643,
  "Tol": 9644,
  "jeans</w>": 9645,
[...]
