{
  "<s>": 0,
  "</s>": 1,
  "<pad>": 2,
  "<unk>": 3,
  "<special0>": 4,
  "<special1>": 5,
  "<special2>": 6,
  "<special3>": 7,
  "<special4>": 8,
  "<special5>": 9,
  "<special6>": 10,
  "<special7>": 11,
  "<special8>": 12,
  "<special9>": 13,
  ",</w>": 14,
  ".</w>": 15,
  "the</w>": 16,
  "a</w>": 17,
  "to</w>": 18,
  "\"</w>": 19,
  "of</w>": 20,
  "and</w>": 21,
  "in</w>": 22,
  "de</w>": 23,
  "'s</w>": 24,
  "that</w>": 25,
  "on</w>": 26,
  "for</w>": 27,
  "la</w>": 28,
  "is</w>": 29,
  "The</w>": 30,
  "\u00e0</w>": 31,
  "was</w>": 32,
  "le</w>": 33,
  "with</w>": 34,
  "l'</w>": 35,
  "said</w>": 36,
  "et</w>": 37,
  "it</w>": 38,
  "as</w>": 39,
  "les</w>": 40,
  "at</w>": 41,
  ":</w>": 42,
  "des</w>": 43,
  "en</w>": 44,
  "d'</w>": 45,
  "he</w>": 46,
  "by</w>": 47,
  ")</w>": 48,
  "be</w>": 49,
  "(</w>": 50,
  "I</w>": 51,
  "have</w>": 52,
  "from</w>": 53,
  "-</w>": 54,
  "his</w>": 55,
  "has</w>": 56,
  "are</w>": 57,
  "un</w>": 58,
  "an</w>": 59,
  "du</w>": 60,
  "est</w>": 61,
  "not</w>": 62,
  "une</w>": 63,
  "will</w>": 64,
  "who</w>": 65,
  "pour</w>": 66,
  "but</w>": 67,
  "had</w>": 68,
  "they</w>": 69,
  "this</w>": 70,
  "que</w>": 71,
  "'</w>": 72,
  "their</w>": 73,
  "qui</w>": 74,
  "dans</w>": 75,
  "were</w>": 76,
  "been</w>": 77,
  "or</w>": 78,
  "more</w>": 79,
  "au</w>": 80,
  "'t</w>": 81,
  "which</w>": 82,
  "about</w>": 83,
  "you</w>": 84,
  "we</w>": 85,
  "her</w>": 86,
  "would</w>": 87,
  "It</w>": 88,
  "up</w>": 89,
  "one</w>": 90,
  "its</w>": 91,
  "sur</w>": 92,
  "after</w>": 93,
  "out</w>": 94,
  "par</w>": 95,
  "pas</w>": 96,
  "?</w>": 97,
  "il</w>": 98,
  "can</w>": 99,
  "she</w>": 100,
  "$</w>": 101,
  "also</w>": 102,
  "than</w>": 103,
  "when</w>": 104,
  "son</w>": 105,
  "people</w>": 106,
  "all</w>": 107,
  "A</w>": 108,
  "He</w>": 109,
  "plus</w>": 110,
  "year</w>": 111,
  "Le</w>": 112,
  "over</w>": 113,
  "But</w>": 114,
  "there</w>": 115,
  "into</w>": 116,
  "time</w>": 117,
  "se</w>": 118,
  "qu'</w>": 119,
  "In</w>": 120,
  "two</w>": 121,
  "first</w>": 122,
  "ce</w>": 123,
  "last</w>": 124,
  "s'</w>": 125,
  "ne</w>": 126,
  "new</w>": 127,
  "ont</w>": 128,
  "could</w>": 129,
  "avec</w>": 130,
  "so</w>": 131,
  "n'</w>": 132,
  "years</w>": 133,
  "what</w>": 134,
  "other</w>": 135,
  "just</w>": 136,
  "/</w>": 137,
  "We</w>": 138,
  "them</w>": 139,
  "some</w>": 140,
  "like</w>": 141,
  "if</w>": 142,
  "%</w>": 143,
  "no</w>": 144,
  "him</w>": 145,
  "\u00e9t\u00e9</w>": 146,
  ";</w>": 147,
  "La</w>": 148,
  "do</w>": 149,
  "our</w>": 150,
  "only</w>": 151,
  "y</w>": 152,
  "aux</w>": 153,
  "now</w>": 154,
  "Les</w>": 155,
  "back</w>": 156,
  "before</w>": 157,
  "my</w>": 158,
  "sont</w>": 159,
  "because</w>": 160,
  "says</w>": 161,
  "me</w>": 162,
  "most</w>": 163,
  "get</w>": 164,
  "being</w>": 165,
  "told</w>": 166,
  "where</w>": 167,
  "government</w>": 168,
  "sa</w>": 169,
  "against</w>": 170,
  "Il</w>": 171,
  "Mr</w>": 172,
  "made</w>": 173,
  "million</w>": 174,
  "off</w>": 175,
  "down</w>": 176,
  "--</w>": 177,
  "how</w>": 178,
  "any</w>": 179,
  "New</w>": 180,
  "three</w>": 181,
  "way</w>": 182,
  "ans</w>": 183,
  "ses</w>": 184,
  "make</w>": 185,
  "This</w>": 186,
  "many</w>": 187,
  "...</w>": 188,
  "while</w>": 189,
  "very</w>": 190,
  "through</w>": 191,
  "week</w>": 192,
  "those</w>": 193,
  "ou</w>": 194,
  "L'</w>": 195,
  "police</w>": 196,
  "And</w>": 197,
  "cette</w>": 198,
  "per</w>": 199,
  "then</w>": 200,
  "even</w>": 201,
  "They</w>": 202,
  "man</w>": 203,
  "mais</w>": 204,
  "10</w>": 205,
  "day</w>": 206,
  "world</w>": 207,
  "U.S.</w>": 208,
  "us</w>": 209,
  "well</w>": 210,
  "part</w>": 211,
  "home</w>": 212,
  "much</w>": 213,
  "work</w>": 214,
  "such</w>": 215,
  "fait</w>": 216,
  "deux</w>": 217,
  "since</w>": 218,
  "going</w>": 219,
  "still</w>": 220,
  "say</w>": 221,
  "your</w>": 222,
  "-": 223,
  "'re</w>": 224,
  "should</w>": 225,
  "'": 226,
  "percent</w>": 227,
  "place</w>": 228,
  "did</w>": 229,
  "On</w>": 230,
  "take</w>": 231,
  "may</w>": 232,
  "don</w>": 233,
  "1</w>": 234,
  "un": 235,
  "avait</w>": 236,
  "think</w>": 237,
  "during</w>": 238,
  "between</w>": 239,
  "public</w>": 240,
  "There</w>": 241,
  "including</w>": 242,
  "go</w>": 243,
  "around</w>": 244,
  "country</w>": 245,
  "leur</w>": 246,
  "see</w>": 247,
  "good</w>": 248,
  "company</w>": 249,
  "comme</w>": 250,
  "S": 251,
  "next</w>": 252,
  "re": 253,
  "\u00a3</w>": 254,
  "s</w>": 255,
  "found</w>": 256,
  "\u00eatre</w>": 257,
  "under</w>": 258,
  "\u00e9tait</w>": 259,
  "elle</w>": 260,
  "nous</w>": 261,
  "!</w>": 262,
  "state</w>": 263,
  "these</w>": 264,
  "She</w>": 265,
  "That</w>": 266,
  "know</w>": 267,
  "long</w>": 268,
  "2</w>": 269,
  "team</w>": 270,
  "second</w>": 271,
  "aussi</w>": 272,
  "want</w>": 273,
  "Obama</w>": 274,
  "game</w>": 275,
  "right</w>": 276,
  "former</w>": 277,
  "If</w>": 278,
  "c'</w>": 279,
  "end</w>": 280,
  "France</w>": 281,
  "able</w>": 282,
  "20</w>": 283,
  "tout</w>": 284,
  "US</w>": 285,
  "another</w>": 286,
  "'ve</w>": 287,
  "l</w>": 288,
  "cent</w>": 289,
  "30</w>": 290,
  "life</w>": 291,
  "four</w>": 292,
  "family</w>": 293,
  "own</w>": 294,
  "o</w>": 295,
  "United</w>": 296,
  "set</w>": 297,
  "both</w>": 298,
  "group</w>": 299,
  "too</w>": 300,
  "in": 301,
  "left</w>": 302,
  "need</w>": 303,
  "Mr.</w>": 304,
  "help</w>": 305,
  "T": 306,
  "m\u00eame</w>": 307,
  "used</w>": 308,
  "faire</w>": 309,
  "same</w>": 310,
  "come</w>": 311,
  "show</w>": 312,
  "got</w>": 313,
  "d</w>": 314,
  "point</w>": 315,
  "'m</w>": 316,
  "children</w>": 317,
  "apr\u00e8s</w>": 318,
  "really</w>": 319,
  "season</w>": 320,
  "days</w>": 321,
  "As</w>": 322,
  "face</w>": 323,
  "best</w>": 324,
  "points</w>": 325,
  "month</w>": 326,
  "York</w>": 327,
  "Trump</w>": 328,
  "C'</w>": 329,
  "months</w>": 330,
  "ing</w>": 331,
  "3</w>": 332,
  "ces</w>": 333,
  "called</w>": 334,
  "D": 335,
  "B": 336,
  "put</w>": 337,
  "En</w>": 338,
  "K": 339,
  "American</w>": 340,
  "i</w>": 341,
  "use</w>": 342,
  "je</w>": 343,
  "You</w>": 344,
  "women</w>": 345,
  "depuis</w>": 346,
  "15</w>": 347,
  "night</w>": 348,
  "six</w>": 349,
  "five</w>": 350,
  "avoir</w>": 351,
  "market</w>": 352,
  "lui</w>": 353,
  "never</w>": 354,
  "business</w>": 355,
  "report</w>": 356,
  "A": 357,
  "ils</w>": 358,
  "won</w>": 359,
  "President</w>": 360,
  "R": 361,
  "P": 362,
  "M": 363,
  "took</w>": 364,
  "entre</w>": 365,
  "ed</w>": 366,
  "top</w>": 367,
  "less</w>": 368,
  "number</w>": 369,
  "12</w>": 370,
  "tr\u00e8s</w>": 371,
  "case</w>": 372,
  "according</w>": 373,
  "might</w>": 374,
  "support</w>": 375,
  "here</w>": 376,
  "4</w>": 377,
  "president</w>": 378,
  "For</w>": 379,
  "away</w>": 380,
  "bien</w>": 381,
  "car</w>": 382,
  "city</w>": 383,
  "play</w>": 384,
  "added</w>": 385,
  "came</w>": 386,
  "Friday</w>": 387,
  "contre</w>": 388,
  "later</w>": 389,
  "5</w>": 390,
  "er</w>": 391,
  "few</w>": 392,
  "money</w>": 393,
  "G": 394,
  "court</w>": 395,
  "win</w>": 396,
  "China</w>": 397,
  "F": 398,
  "high</w>": 399,
  "am</w>": 400,
  "d": 401,
  "E": 402,
  "When</w>": 403,
  "Monday</w>": 404,
  "little</w>": 405,
  "Tuesday</w>": 406,
  "lot</w>": 407,
  "o\u00f9</w>": 408,
  "big</w>": 409,
  "officials</w>": 410,
  "11</w>": 411,
  "every</w>": 412,
  "past</w>": 413,
  "ai</w>": 414,
  "H": 415,
  "without</w>": 416,
  "k": 417,
  "Mais</w>": 418,
  "better</w>": 419,
  "N": 420,
  "men</w>": 421,
  "Wednesday</w>": 422,
  "Thursday</w>": 423,
  "plan</w>": 424,
  "millions</w>": 425,
  "ago</w>": 426,
  "h</w>": 427,
  "si</w>": 428,
  "early</w>": 429,
  "information</w>": 430,
  "something</w>": 431,
  "look</w>": 432,
  "&</w>": 433,
  "ers</w>": 434,
  "e": 435,
  "change</w>": 436,
  "far</w>": 437,
  "political</w>": 438,
  "billion</w>": 439,
  "already</w>": 440,
  "deal</w>": 441,
  "al</w>": 442,
  "whether</w>": 443,
  "didn</w>": 444,
  "W": 445,
  "each</w>": 446,
  "John</w>": 447,
  "Sunday</w>": 448,
  "until</w>": 449,
  "seen</w>": 450,
  "match</w>": 451,
  "school</w>": 452,
  "party</w>": 453,
  "t": 454,
  "least</w>": 455,
  "head</w>": 456,
  "side</w>": 457,
  "pays</w>": 458,
  "House</w>": 459,
  "London</w>": 460,
  "Un</w>": 461,
  "dont</w>": 462,
  "Europe</w>": 463,
  "2012</w>": 464,
  "autres</w>": 465,
  "important</w>": 466,
  "age</w>": 467,
  "reported</w>": 468,
  "Je</w>": 469,
  "One</w>": 470,
  "L": 471,
  "encore</w>": 472,
  "health</w>": 473,
  "went</w>": 474,
  "y": 475,
  "service</w>": 476,
  "led</w>": 477,
  "sans</w>": 478,
  "2014</w>": 479,
  "again</w>": 480,
  "2013</w>": 481,
  "UK</w>": 482,
  "campaign</w>": 483,
  "local</w>": 484,
  "South</w>": 485,
  "services</w>": 486,
  "C": 487,
  "things</w>": 488,
  "David</w>": 489,
  "expected</w>": 490,
  "g": 491,
  "run</w>": 492,
  "making</w>": 493,
  "At</w>": 494,
  "across</w>": 495,
  "great</w>": 496,
  "today</w>": 497,
  "national</w>": 498,
  "es</w>": 499,
  "system</w>": 500,
  "start</w>": 501,
  "6</w>": 502,
  "statement</w>": 503,
  "power</w>": 504,
  "7</w>": 505,
  "avant</w>": 506,
  "s": 507,
  "M.</w>": 508,
  "does</w>": 509,
  "[</w>": 510,
  "b": 511,
  "]</w>": 512,
  "h": 513,
  "recent</w>": 514,
  "euros</w>": 515,
  "law</w>": 516,
  "British</w>": 517,
  "Saturday</w>": 518,
  "security</w>": 519,
  "news</w>": 520,
  "saying</w>": 521,
  "military</w>": 522,
  "18</w>": 523,
  "likely</w>": 524,
  "among</w>": 525,
  "club</w>": 526,
  "trois</w>": 527,
  "taken</w>": 528,
  "2008</w>": 529,
  "become</w>": 530,
  "film</w>": 531,
  "final</w>": 532,
  "find</w>": 533,
  "hit</w>": 534,
  "line</w>": 535,
  "14</w>": 536,
  "young</w>": 537,
  "8</w>": 538,
  "times</w>": 539,
  "premier</w>": 540,
  "always</w>": 541,
  "States</w>": 542,
  "50</w>": 543,
  "having</w>": 544,
  "possible</w>": 545,
  "working</w>": 546,
  "death</w>": 547,
  "minutes</w>": 548,
  "members</w>": 549,
  "Australia</w>": 550,
  "Ce</w>": 551,
  "25</w>": 552,
  "site</w>": 553,
  "Une</w>": 554,
  "World</w>": 555,
  "f": 556,
  "What</w>": 557,
  "Washington</w>": 558,
  "half</w>": 559,
  "So</w>": 560,
  "international</w>": 561,
  "media</w>": 562,
  "give</w>": 563,
  "sera</w>": 564,
  "North</w>": 565,
  "several</w>": 566,
  "third</w>": 567,
  "ant</w>": 568,
  "players</w>": 569,
  "different</w>": 570,
  "moment</w>": 571,
  "chief</w>": 572,
  "m</w>": 573,
  "City</w>": 574,
  "pr\u00e9sident</w>": 575,
  "2011</w>": 576,
  "leurs</w>": 577,
  "dit</w>": 578,
  "though</w>": 579,
  "future</w>": 580,
  "dernier</w>": 581,
  "companies</w>": 582,
  "killed</w>": 583,
  "enough</w>": 584,
  "pay</w>": 585,
  "National</w>": 586,
  "en": 587,
  "ate</w>": 588,
  "question</w>": 589,
  "t</w>": 590,
  "16</w>": 591,
  "Pour</w>": 592,
  "moins</w>": 593,
  "asked</w>": 594,
  "financial</w>": 595,
  "n</w>": 596,
  "given</w>": 597,
  "lead</w>": 598,
  "n": 599,
  "State</w>": 600,
  "house</w>": 601,
  "p": 602,
  "13</w>": 603,
  "2009</w>": 604,
  "move</w>": 605,
  "keep</w>": 606,
  "must</w>": 607,
  "o": 608,
  "course</w>": 609,
  "Paris</w>": 610,
  "9</w>": 611,
  "After</w>": 612,
  "I": 613,
  "area</w>": 614,
  "known</w>": 615,
  "mois</w>": 616,
  "action</w>": 617,
  "tax</w>": 618,
  "O": 619,
  "decision</w>": 620,
  "England</w>": 621,
  "woman</w>": 622,
  "May</w>": 623,
  "major</w>": 624,
  "taking</w>": 625,
  "ar": 626,
  "'ll</w>": 627,
  "2015</w>": 628,
  "vote</w>": 629,
  "2010</w>": 630,
  "European</w>": 631,
  "17</w>": 632,
  "leader</w>": 633,
  "University</w>": 634,
  "record</w>": 635,
  "fois</w>": 636,
  "weeks</w>": 637,
  "tous</w>": 638,
  "alors</w>": 639,
  "job</w>": 640,
  "dis": 641,
  "ann\u00e9e</w>": 642,
  "Et</w>": 643,
  "lost</w>": 644,
  "water</w>": 645,
  "k</w>": 646,
  "peu</w>": 647,
  "close</w>": 648,
  "attack</w>": 649,
  "small</w>": 650,
  "social</w>": 651,
  "ministre</w>": 652,
  "va</w>": 653,
  "thought</w>": 654,
  "issue</w>": 655,
  "thing</w>": 656,
  "selon</w>": 657,
  "director</w>": 658,
  "why</w>": 659,
  "monde</w>": 660,
  "old</w>": 661,
  "behind</w>": 662,
  "ever</w>": 663,
  "100</w>": 664,
  "With</w>": 665,
  "economic</w>": 666,
  "ts</w>": 667,
  "His</w>": 668,
  "er": 669,
  "ent</w>": 670,
  "gouvernement</w>": 671,
  "trying</w>": 672,
  "hard</w>": 673,
  "held</w>": 674,
  "done</w>": 675,
  "care</w>": 676,
  "40</w>": 677,
  "often</w>": 678,
  "March</w>": 679,
  "field</w>": 680,
  "yet</w>": 681,
  "continue</w>": 682,
  "office</w>": 683,
  "once</w>": 684,
  "air</w>": 685,
  "fin</w>": 686,
  "following</w>": 687,
  "ch": 688,
  "economy</w>": 689,
  "America</w>": 690,
  "looking</w>": 691,
  "series</w>": 692,
  "ated</w>": 693,
  "almost</w>": 694,
  "further</w>": 695,
  "ar</w>": 696,
  "believe</w>": 697,
  "temps</w>": 698,
  "plans</w>": 699,
  "hours</w>": 700,
  "West</w>": 701,
  "election</w>": 702,
  "p</w>": 703,
  "No</w>": 704,
  "Police</w>": 705,
  "e-": 706,
  "w": 707,
  "clear</w>": 708,
  "countries</w>": 709,
  "situation</w>": 710,
  "premi\u00e8re</w>": 711,
  "late</w>": 712,
  "near</w>": 713,
  "large</w>": 714,
  "i": 715,
  "d\u00e9j\u00e0</w>": 716,
  "lors</w>": 717,
  "forces</w>": 718,
  "al": 719,
  "free</w>": 720,
  "earlier</w>": 721,
  "doing</w>": 722,
  "\u00e9</w>": 723,
  "J": 724,
  "V": 725,
  "getting</w>": 726,
  "died</w>": 727,
  "Dans</w>": 728,
  "real</w>": 729,
  "an": 730,
  "announced</w>": 731,
  "call</w>": 732,
  "games</w>": 733,
  "24</w>": 734,
  "'d</w>": 735,
  "try</w>": 736,
  "peut</w>": 737,
  "Qu\u00e9bec</w>": 738,
  "growth</w>": 739,
  "feel</w>": 740,
  "e</w>": 741,
  "autre</w>": 742,
  "vous</w>": 743,
  "war</w>": 744,
  "parents</w>": 745,
  "study</w>": 746,
  "5": 747,
  "industry</w>": 748,
  "News</w>": 749,
  "based</w>": 750,
  "others</w>": 751,
  "June</w>": 752,
  "using</w>": 753,
  "due</w>": 754,
  "outside</w>": 755,
  "played</w>": 756,
  "groupe</w>": 757,
  "risk</w>": 758,
  "shot</w>": 759,
  "Britain</w>": 760,
  "policy</w>": 761,
  "within</w>": 762,
  "\u00e9e</w>": 763,
  "along</w>": 764,
  "However</w>": 765,
  "full</w>": 766,
  "started</w>": 767,
  "comes</w>": 768,
  "\u00e9galement</w>": 769,
  "return</w>": 770,
  "open</w>": 771,
  "official</w>": 772,
  "together</w>": 773,
  "z": 774,
  "data</w>": 775,
  "Michael</w>": 776,
  "doesn</w>": 777,
  "cut</w>": 778,
  "Nous</w>": 779,
  "While</w>": 780,
  "19</w>": 781,
  "oil</w>": 782,
  "coming</w>": 783,
  "personnes</w>": 784,
  "executive</w>": 785,
  "capital</w>": 786,
  "person</w>": 787,
  "meeting</w>": 788,
  "share</w>": 789,
  "4": 790,
  "21</w>": 791,
  "ainsi</w>": 792,
  "key</w>": 793,
  "food</w>": 794,
  "live</w>": 795,
  "3": 796,
  "control</w>": 797,
  "ation</w>": 798,
  "toujours</w>": 799,
  "\u00e7a</w>": 800,
  "c": 801,
  "body</w>": 802,
  "position</w>": 803,
  "6": 804,
  "2007</w>": 805,
  "quarter</w>": 806,
  "r": 807,
  "Minister</w>": 808,
  "ons</w>": 809,
  "force</w>": 810,
  "wanted</w>": 811,
  "rate</w>": 812,
  "role</w>": 813,
  "name</w>": 814,
  "cause</w>": 815,
  "began</w>": 816,
  "sales</w>": 817,
  "whose</w>": 818,
  "couple</w>": 819,
  "plusieurs</w>": 820,
  "m": 821,
  "level</w>": 822,
  "federal</w>": 823,
  "released</w>": 824,
  "April</w>": 825,
  "strong</w>": 826,
  "ted</w>": 827,
  "interest</w>": 828,
  "de": 829,
  "l": 830,
  "TV</w>": 831,
  "price</w>": 832,
  "global</w>": 833,
  "22</w>": 834,
  "mother</w>": 835,
  "White</w>": 836,
  "history</w>": 837,
  "chance</w>": 838,
  "story</w>": 839,
  "cost</w>": 840,
  "j'</w>": 841,
  "To</w>": 842,
  "ating</w>": 843,
  "Australian</w>": 844,
  "Some</w>": 845,
  "main</w>": 846,
  "O</w>": 847,
  "video</w>": 848,
  "current</w>": 849,
  "Canada</w>": 850,
  "fire</w>": 851,
  "bank</w>": 852,
  "Russia</w>": 853,
  "dollars</w>": 854,
  "ly</w>": 855,
  "spokesman</w>": 856,
  "bit</w>": 857,
  "U": 858,
  "staff</w>": 859,
  "ting</w>": 860,
  "fact</w>": 861,
  "el": 862,
  "L</w>": 863,
  "nearly</w>": 864,
  "himself</w>": 865,
  "By</w>": 866,
  "total</w>": 867,
  "child</w>": 868,
  "leaders</w>": 869,
  "soit</w>": 870,
  "front</w>": 871,
  "wrote</w>": 872,
  "\u00e9quipe</w>": 873,
  "morning</w>": 874,
  "on": 875,
  "ait</w>": 876,
  "let</w>": 877,
  "love</w>": 878,
  "st": 879,
  "low</w>": 880,
  "process</w>": 881,
  "prices</w>": 882,
  "room</w>": 883,
  "increase</w>": 884,
  "Ch": 885,
  "administration</w>": 886,
  "building</w>": 887,
  "saw</w>": 888,
  "ann\u00e9es</w>": 889,
  "July</w>": 890,
  "board</w>": 891,
  "research</w>": 892,
  "James</w>": 893,
  "centre</w>": 894,
  "Re": 895,
  "u</w>": 896,
  "community</w>": 897,
  "co": 898,
  "program</w>": 899,
  "Clinton</w>": 900,
  "8": 901,
  "Y": 902,
  "forward</w>": 903,
  "2016</w>": 904,
  "production</w>": 905,
  "ahead</w>": 906,
  "star</w>": 907,
  "Reuters</w>": 908,
  "as": 909,
  "order</w>": 910,
  "reports</w>": 911,
  "playing</w>": 912,
  "problem</w>": 913,
  "Paul</w>": 914,
  "All</w>": 915,
  "7": 916,
  "\u00e9s</w>": 917,
  "rather</w>": 918,
  "book</w>": 919,
  "kind</w>": 920,
  "sure</w>": 921,
  "grand</w>": 922,
  "rights</w>": 923,
  "Cup</w>": 924,
  "Department</w>": 925,
  "sous</w>": 926,
  "shows</w>": 927,
  "wife</w>": 928,
  "private</w>": 929,
  "online</w>": 930,
  "seven</w>": 931,
  "Z": 932,
  "vie</w>": 933,
  "Scotland</w>": 934,
  "De</w>": 935,
  "performance</w>": 936,
  "In": 937,
  "tour</w>": 938,
  "became</w>": 939,
  "League</w>": 940,
  "evidence</w>": 941,
  "es": 942,
  "land</w>": 943,
  "notamment</w>": 944,
  "23</w>": 945,
  "notre</w>": 946,
  "conditions</w>": 947,
  "father</w>": 948,
  "minister</w>": 949,
  "opposition</w>": 950,
  "9": 951,
  "el</w>": 952,
  "include</w>": 953,
  "donc</w>": 954,
  "quelques</w>": 955,
  "am": 956,
  "makes</w>": 957,
  "result</w>": 958,
  "g</w>": 959,
  "Last</w>": 960,
  "nouveau</w>": 961,
  "recently</w>": 962,
  ".": 963,
  "questions</w>": 964,
  "li": 965,
  "Al": 966,
  "met</w>": 967,
  "results</w>": 968,
  "Street</w>": 969,
  "eu</w>": 970,
  "September</w>": 971,
  "biggest</w>": 972,
  "stop</w>": 973,
  "race</w>": 974,
  "Court</w>": 975,
  "sent</w>": 976,
  "Now</w>": 977,
  "issues</w>": 978,
  "\u00e9es</w>": 979,
  "j": 980,
  "January</w>": 981,
  "000</w>": 982,
  "ville</w>": 983,
  "investigation</w>": 984,
  "black</w>": 985,
  "leave</w>": 986,
  "hui</w>": 987,
  "energy</w>": 988,
  "gave</w>": 989,
  "students</w>": 990,
  "town</w>": 991,
  "event</w>": 992,
  "Republican</w>": 993,
  "fans</w>": 994,
  "higher</w>": 995,
  "Elle</w>": 996,
  "sh": 997,
  "period</w>": 998,
  "means</w>": 999,
  "groups</w>": 1000,
  "loss</w>": 1001,
  "An</w>": 1002,
  "budget</w>": 1003,
  "leading</w>": 1004,
  "coach</w>": 1005,
  "workers</w>": 1006,
  "d\u00e9": 1007,
  "French</w>": 1008,
  "eight</w>": 1009,
  "Iran</w>": 1010,
  "football</w>": 1011,
  "crisis</w>": 1012,
  "comment</w>": 1013,
  "De": 1014,
  "involved</w>": 1015,
  "experience</w>": 1016,
  "ti": 1017,
  "u": 1018,
  "player</w>": 1019,
  "received</w>": 1020,
  "foreign</w>": 1021,
  "provide</w>": 1022,
  "als</w>": 1023,
  "general</w>": 1024,
  "average</w>": 1025,
  "te</w>": 1026,
  "vers</w>": 1027,
  "a": 1028,
  "prison</w>": 1029,
  "ab": 1030,
  "at": 1031,
  "authorities</w>": 1032,
  "Des</w>": 1033,
  "showed</w>": 1034,
  "available</w>": 1035,
  "impact</w>": 1036,
  "despite</w>": 1037,
  "b</w>": 1038,
  "latest</w>": 1039,
  "problems</w>": 1040,
  "anything</w>": 1041,
  "nation</w>": 1042,
  "ad": 1043,
  "Chinese</w>": 1044,
  "goal</w>": 1045,
  "senior</w>": 1046,
  "faut</w>": 1047,
  "ball</w>": 1048,
  "manager</w>": 1049,
  "offer</w>": 1050,
  "nothing</w>": 1051,
  "a-t-il</w>": 1052,
  "running</w>": 1053,
  "December</w>": 1054,
  "friends</w>": 1055,
  "needs</w>": 1056,
  "jours</w>": 1057,
  "needed</w>": 1058,
  "non</w>": 1059,
  "member</w>": 1060,
  "human</w>": 1061,
  "Facebook</w>": 1062,
  "hope</w>": 1063,
  "politique</w>": 1064,
  "violence</w>": 1065,
  "Union</w>": 1066,
  "v": 1067,
  "career</w>": 1068,
  "art</w>": 1069,
  "potential</w>": 1070,
  "26</w>": 1071,
  "however</w>": 1072,
  "28</w>": 1073,
  "ton</w>": 1074,
  "hand</w>": 1075,
  "hospital</w>": 1076,
  "BBC</w>": 1077,
  "27</w>": 1078,
  "J'</w>": 1079,
  "legal</w>": 1080,
  "charge</w>": 1081,
  "projet</w>": 1082,
  "over": 1083,
  "Bank</w>": 1084,
  "costs</w>": 1085,
  "International</w>": 1086,
  "turn</w>": 1087,
  "Russian</w>": 1088,
  "th": 1089,
  "60</w>": 1090,
  "states</w>": 1091,
  "someone</w>": 1092,
  "beaucoup</w>": 1093,
  "AP</w>": 1094,
  "charges</w>": 1095,
  "California</w>": 1096,
  "My</w>": 1097,
  "jobs</w>": 1098,
  "visit</w>": 1099,
  "turned</w>": 1100,
  "November</w>": 1101,
  "Au</w>": 1102,
  "Co": 1103,
  "list</w>": 1104,
  "George</w>": 1105,
  "Twitter</w>": 1106,
  "ty</w>": 1107,
  "pressure</w>": 1108,
  "EU</w>": 1109,
  "difficult</w>": 1110,
  "nouvelle</w>": 1111,
  "stage</w>": 1112,
  "spent</w>": 1113,
  "wasn</w>": 1114,
  "ailleurs</w>": 1115,
  "di": 1116,
  "fell</w>": 1117,
  "cours</w>": 1118,
  "Cette</w>": 1119,
  "fight</w>": 1120,
  "doit</w>": 1121,
  "le": 1122,
  "red</w>": 1123,
  "lives</w>": 1124,
  "spending</w>": 1125,
  "patients</w>": 1126,
  "interview</w>": 1127,
  "em": 1128,
  "31</w>": 1129,
  "Le": 1130,
  "actually</w>": 1131,
  "summer</w>": 1132,
  "bad</w>": 1133,
  "Mar": 1134,
  "paid</w>": 1135,
  "worked</w>": 1136,
  "probably</w>": 1137,
  "attacks</w>": 1138,
  "chez</w>": 1139,
  "bring</w>": 1140,
  "cas</w>": 1141,
  "quatre</w>": 1142,
  "phone</w>": 1143,
  "Ms</w>": 1144,
  "form</w>": 1145,
  "ter</w>": 1146,
  "heard</w>": 1147,
  "fall</w>": 1148,
  "partie</w>": 1149,
  "devant</w>": 1150,
  "idea</w>": 1151,
  "round</w>": 1152,
  "areas</w>": 1153,
  "living</w>": 1154,
  "ground</w>": 1155,
  "Sh": 1156,
  "claims</w>": 1157,
  "themselves</w>": 1158,
  "c</w>": 1159,
  "Ar": 1160,
  "\u00e9taient</w>": 1161,
  "efforts</w>": 1162,
  "chef</w>": 1163,
  "music</w>": 1164,
  "changes</w>": 1165,
  "victory</w>": 1166,
  "ley</w>": 1167,
  "semaine</w>": 1168,
  "white</w>": 1169,
  "\u00c0</w>": 1170,
  "Times</w>": 1171,
  "travail</w>": 1172,
  "trial</w>": 1173,
  "base</w>": 1174,
  "population</w>": 1175,
  "test</w>": 1176,
  "era</w>": 1177,
  "Iraq</w>": 1178,
  "ma</w>": 1179,
  "remains</w>": 1180,
  "published</w>": 1181,
  "October</w>": 1182,
  "ine</w>": 1183,
  "short</w>": 1184,
  "technology</w>": 1185,
  "avaient</w>": 1186,
  "Los</w>": 1187,
  "d\u00e9but</w>": 1188,
  "C</w>": 1189,
  "cases</w>": 1190,
  "hold</w>": 1191,
  "der</w>": 1192,
  "soon</w>": 1193,
  "jusqu'</w>": 1194,
  "release</w>": 1195,
  "Mo": 1196,
  "rates</w>": 1197,
  "vendredi</w>": 1198,
  "ended</w>": 1199,
  "+</w>": 1200,
  "trade</w>": 1201,
  "pr\u00e8s</w>": 1202,
  "homme</w>": 1203,
  "ous</w>": 1204,
  "ad</w>": 1205,
  "weekend</w>": 1206,
  "certain</w>": 1207,
  "region</w>": 1208,
  "bill</w>": 1209,
  "source</w>": 1210,
  "agency</w>": 1211,
  "investment</w>": 1212,
  "officers</w>": 1213,
  "These</w>": 1214,
  "San</w>": 1215,
  "serious</w>": 1216,
  "similar</w>": 1217,
  "everything</w>": 1218,
  "cancer</w>": 1219,
  "rise</w>": 1220,
  "development</w>": 1221,
  "single</w>": 1222,
  "jour</w>": 1223,
  "wants</w>": 1224,
  "felt</w>": 1225,
  "gas</w>": 1226,
  "matter</w>": 1227,
  "remain</w>": 1228,
  "or": 1229,
  "Selon</w>": 1230,
  "aide</w>": 1231,
  "lower</w>": 1232,
  "dimanche</w>": 1233,
  "500</w>": 1234,
  "r</w>": 1235,
  "space</w>": 1236,
  "conference</w>": 1237,
  "Si</w>": 1238,
  "nos</w>": 1239,
  "banks</w>": 1240,
  "message</w>": 1241,
  "inside</w>": 1242,
  "brought</w>": 1243,
  "Syria</w>": 1244,
  "firm</w>": 1245,
  "worth</w>": 1246,
  "ations</w>": 1247,
  "light</w>": 1248,
  "largest</w>": 1249,
  "special</w>": 1250,
  "os</w>": 1251,
  "markets</w>": 1252,
  "saison</w>": 1253,
  "longer</w>": 1254,
  "29</w>": 1255,
  "se": 1256,
  "East</w>": 1257,
  "heart</w>": 1258,
  "Ils</w>": 1259,
  "programme</w>": 1260,
  "stay</w>": 1261,
  "prix</w>": 1262,
  "eux</w>": 1263,
  "training</w>": 1264,
  "Angeles</w>": 1265,
  "th</w>": 1266,
  "suis</w>": 1267,
  "helped</w>": 1268,
  "quand</w>": 1269,
  "date</w>": 1270,
  "accused</w>": 1271,
  "be": 1272,
  ".com</w>": 1273,
  "described</w>": 1274,
  "ways</w>": 1275,
  "talk</w>": 1276,
  "thousands</w>": 1277,
  "August</w>": 1278,
  "Senate</w>": 1279,
  "1.": 1280,
  "lundi</w>": 1281,
  "tried</w>": 1282,
  "previous</w>": 1283,
  "ally</w>": 1284,
  "rest</w>": 1285,
  "Americans</w>": 1286,
  "ro": 1287,
  "February</w>": 1288,
  "dead</w>": 1289,
  "net</w>": 1290,
  "mardi</w>": 1291,
  "quite</w>": 1292,
  "jeudi</w>": 1293,
  "happened</w>": 1294,
  "whole</w>": 1295,
  "bo": 1296,
  "everyone</w>": 1297,
  "d\u00e9clar\u00e9</w>": 1298,
  "project</w>": 1299,
  "ates</w>": 1300,
  "customers</w>": 1301,
  "fran\u00e7ais</w>": 1302,
  "especially</w>": 1303,
  "income</w>": 1304,
  "T</w>": 1305,
  "daughter</w>": 1306,
  "incident</w>": 1307,
  "view</w>": 1308,
  "Park</w>": 1309,
  "drug</w>": 1310,
  "huge</w>": 1311,
  "significant</w>": 1312,
  "meet</w>": 1313,
  "2006</w>": 1314,
  "break</w>": 1315,
  "failed</w>": 1316,
  "nuclear</w>": 1317,
  "Smith</w>": 1318,
  "seems</w>": 1319,
  "tell</w>": 1320,
  "pourrait</w>": 1321,
  "al-": 1322,
  "growing</w>": 1323,
  "access</w>": 1324,
  "samedi</w>": 1325,
  "officer</w>": 1326,
  "aujourd'</w>": 1327,
  "medical</w>": 1328,
  "personal</w>": 1329,
  "soir</w>": 1330,
  "debt</w>": 1331,
  "families</w>": 1332,
  "toute</w>": 1333,
  "ac": 1334,
  "Labour</w>": 1335,
  "although</w>": 1336,
  "arrested</w>": 1337,
  "t-": 1338,
  "Martin</w>": 1339,
  "central</w>": 1340,
  "mercredi</w>": 1341,
  "ag": 1342,
  "Ro": 1343,
  "im": 1344,
  "talks</w>": 1345,
  "elles</w>": 1346,
  "appeared</w>": 1347,
  "ability</w>": 1348,
  "attention</w>": 1349,
  "road</w>": 1350,
  "allowed</w>": 1351,
  "it": 1352,
  "train</w>": 1353,
  "milliards</w>": 1354,
  "enfants</w>": 1355,
  "jamais</w>": 1356,
  "effort</w>": 1357,
  "cet</w>": 1358,
  "cela</w>": 1359,
  "How</w>": 1360,
  "compte</w>": 1361,
  "Germany</w>": 1362,
  "ch</w>": 1363,
  "R</w>": 1364,
  "products</w>": 1365,
  "a-": 1366,
  "buy</w>": 1367,
  "either</w>": 1368,
  "Mark</w>": 1369,
  "anyone</w>": 1370,
  "allow</w>": 1371,
  "safety</w>": 1372,
  "Brown</w>": 1373,
  "isn</w>": 1374,
  "People</w>": 1375,
  "Congress</w>": 1376,
  "India</w>": 1377,
  "ici</w>": 1378,
  "zone</w>": 1379,
  "looked</w>": 1380,
  "derni\u00e8re</w>": 1381,
  "king</w>": 1382,
  "cash</w>": 1383,
  "voir</w>": 1384,
  "con": 1385,
  "compared</w>": 1386,
  "Japan</w>": 1387,
  "terms</w>": 1388,
  "Bo": 1389,
  "response</w>": 1390,
  "avons</w>": 1391,
  "sense</w>": 1392,
  "non-": 1393,
  "anti-": 1394,
  "Commission</w>": 1395,
  "charged</w>": 1396,
  "ol": 1397,
  "winning</w>": 1398,
  "forced</w>": 1399,
  "included</w>": 1400,
  "aurait</w>": 1401,
  "More</w>": 1402,
  "investors</w>": 1403,
  "Israel</w>": 1404,
  "value</w>": 1405,
  "Car": 1406,
  "particularly</w>": 1407,
  "example</w>": 1408,
  "to": 1409,
  "35</w>": 1410,
  "shares</w>": 1411,
  "ity</w>": 1412,
  "200</w>": 1413,
  "step</w>": 1414,
  "table</w>": 1415,
  "ri": 1416,
  "nine</w>": 1417,
  "justice</w>": 1418,
  "credit</w>": 1419,
  "takes</w>": 1420,
  "term</w>": 1421,
  "et": 1422,
  "ap": 1423,
  "cinq</w>": 1424,
  "Robert</w>": 1425,
  "Premier</w>": 1426,
  "Korea</w>": 1427,
  "presidential</w>": 1428,
  "ds</w>": 1429,
  "Con": 1430,
  "parties</w>": 1431,
  "march\u00e9</w>": 1432,
  "miles</w>": 1433,
  "schools</w>": 1434,
  "lieu</w>": 1435,
  "c\u00f4t\u00e9</w>": 1436,
  "calls</w>": 1437,
  "treatment</w>": 1438,
  "po": 1439,
  "claimed</w>": 1440,
  "moved</w>": 1441,
  "deuxi\u00e8me</w>": 1442,
  "direction</w>": 1443,
  "rules</w>": 1444,
  "S</w>": 1445,
  "press</w>": 1446,
  "cannot</w>": 1447,
  "B</w>": 1448,
  "www.": 1449,
  "quickly</w>": 1450,
  "Even</w>": 1451,
  "focus</w>": 1452,
  "property</w>": 1453,
  "Sydney</w>": 1454,
  "Prime</w>": 1455,
  "continued</w>": 1456,
  "om": 1457,
  "Afghanistan</w>": 1458,
  "Group</w>": 1459,
  "voters</w>": 1460,
  "Center</w>": 1461,
  "mo": 1462,
  "events</w>": 1463,
  "car": 1464,
  "D</w>": 1465,
  "grande</w>": 1466,
  "Cor": 1467,
  "friend</w>": 1468,
  "lo": 1469,
  "create</w>": 1470,
  "80</w>": 1471,
  "County</w>": 1472,
  "currently</w>": 1473,
  "Jones</w>": 1474,
  "popular</w>": 1475,
  "agreement</w>": 1476,
  "above</w>": 1477,
  "concerns</w>": 1478,
  "decided</w>": 1479,
  "dire</w>": 1480,
  "reason</w>": 1481,
  "increased</w>": 1482,
  "Two</w>": 1483,
  "per": 1484,
  "figure</w>": 1485,
  "success</w>": 1486,
  "demand</w>": 1487,
  "70</w>": 1488,
  "agreed</w>": 1489,
  "pendant</w>": 1490,
  "image</w>": 1491,
  "levels</w>": 1492,
  "pris</w>": 1493,
  "jeunes</w>": 1494,
  "sign</w>": 1495,
  "wrong</w>": 1496,
  "pm</w>": 1497,
  "45</w>": 1498,
  "opportunity</w>": 1499,
  "knew</w>": 1500,
  "seront</w>": 1501,
  "2": 1502,
  "Texas</w>": 1503,
  "annonc\u00e9</w>": 1504,
  "Google</w>": 1505,
  "television</w>": 1506,
  "=</w>": 1507,
  "works</w>": 1508,
  "minute</w>": 1509,
  "Chris</w>": 1510,
  "mis": 1511,
  "Government</w>": 1512,
  "fourth</w>": 1513,
  "itself</w>": 1514,
  "believed</w>": 1515,
  "mean</w>": 1516,
  "opening</w>": 1517,
  "gone</w>": 1518,
  "rapport</w>": 1519,
  "Johnson</w>": 1520,
  "giving</w>": 1521,
  "range</w>": 1522,
  "mis</w>": 1523,
  "homes</w>": 1524,
  "Apr\u00e8s</w>": 1525,
  "named</w>": 1526,
  "heures</w>": 1527,
  "raised</w>": 1528,
  "Peter</w>": 1529,
  "Our</w>": 1530,
  "debate</w>": 1531,
  "l\u00e0</w>": 1532,
  "ale</w>": 1533,
  "serait</w>": 1534,
  "husband</w>": 1535,
  "Republicans</w>": 1536,
  "Council</w>": 1537,
  "gens</w>": 1538,
  "rose</w>": 1539,
  "Party</w>": 1540,
  "coup</w>": 1541,
  "figures</w>": 1542,
  "reach</w>": 1543,
  "reste</w>": 1544,
  "mission</w>": 1545,
  "management</w>": 1546,
  "sold</w>": 1547,
  "born</w>": 1548,
  "words</w>": 1549,
  "is": 1550,
  "par": 1551,
  "relationship</w>": 1552,
  "m'</w>": 1553,
  "si": 1554,
  "Africa</w>": 1555,
  "ings</w>": 1556,
  "Association</w>": 1557,
  "goes</w>": 1558,
  "mon</w>": 1559,
  "ie</w>": 1560,
  "review</w>": 1561,
  "website</w>": 1562,
  "Be": 1563,
  "annual</w>": 1564,
  "travel</w>": 1565,
  "culture</w>": 1566,
  "Apple</w>": 1567,
  "toutes</w>": 1568,
  "An": 1569,
  "looks</w>": 1570,
  "die</w>": 1571,
  "18": 1572,
  "instead</w>": 1573,
  "Day</w>": 1574,
  "rien</w>": 1575,
  "bon</w>": 1576,
  "revealed</w>": 1577,
  "stock</w>": 1578,
  "version</w>": 1579,
  "happy</w>": 1580,
  "education</w>": 1581,
  "experts</w>": 1582,
  "Bar": 1583,
  "read</w>": 1584,
  "ist</w>": 1585,
  "challenge</w>": 1586,
  "Mc": 1587,
  "Scottish</w>": 1588,
  "Dr</w>": 1589,
  "Richard</w>": 1590,
  "Democrats</w>": 1591,
  "According</w>": 1592,
  "Cameron</w>": 1593,
  "y-": 1594,
  "tion</w>": 1595,
  "crime</w>": 1596,
  "self-": 1597,
  "Fran\u00e7ois</w>": 1598,
  "jeune</w>": 1599,
  "confirmed</w>": 1600,
  "suite</w>": 1601,
  "90</w>": 1602,
  "actions</w>": 1603,
  "*</w>": 1604,
  "t\u00eate</w>": 1605,
  "scene</w>": 1606,
  "girl</w>": 1607,
  "prendre</w>": 1608,
  "expect</w>": 1609,
  "g\u00e9n\u00e9ral</w>": 1610,
  "pouvoir</w>": 1611,
  "simply</w>": 1612,
  "station</w>": 1613,
  "operations</w>": 1614,
  "trop</w>": 1615,
  "teams</w>": 1616,
  "account</w>": 1617,
  "judge</w>": 1618,
  "Montr\u00e9al</w>": 1619,
  "St": 1620,
  "style</w>": 1621,
  "candidate</w>": 1622,
  "double</w>": 1623,
  "Williams</w>": 1624,
  "Many</w>": 1625,
  "act</w>": 1626,
  "parts</w>": 1627,
  "majority</w>": 1628,
  "else</w>": 1629,
  "construction</w>": 1630,
  "pretty</w>": 1631,
  "beat</w>": 1632,
  "title</w>": 1633,
  "stand</w>": 1634,
  "Democratic</w>": 1635,
  "2017</w>": 1636,
  "fully</w>": 1637,
  "scored</w>": 1638,
  "leaving</w>": 1639,
  "Donald</w>": 1640,
  "numbers</w>": 1641,
  "P</w>": 1642,
  "build</w>": 1643,
  "ard</w>": 1644,
  "caused</w>": 1645,
  "ner</w>": 1646,
  "sex</w>": 1647,
  "victims</w>": 1648,
  "followed</w>": 1649,
  "condition</w>": 1650,
  "places</w>": 1651,
  "devrait</w>": 1652,
  "Not</w>": 1653,
  "tr": 1654,
  "speech</w>": 1655,
  "nombre</w>": 1656,
  "prime</w>": 1657,
  "hour</w>": 1658,
  "E</w>": 1659,
  "he": 1660,
  "effet</w>": 1661,
  "Bush</w>": 1662,
  "inter": 1663,
  "ancien</w>": 1664,
  "out": 1665,
  "Her</w>": 1666,
  "type</w>": 1667,
  "boy</w>": 1668,
  "simple</w>": 1669,
  "understand</w>": 1670,
  "10": 1671,
  "common</w>": 1672,
  "amount</w>": 1673,
  "sector</w>": 1674,
  "euro</w>": 1675,
  "hands</w>": 1676,
  "Health</w>": 1677,
  "CNN</w>": 1678,
  "sort</w>": 1679,
  "cuts</w>": 1680,
  "di</w>": 1681,
  "claim</w>": 1682,
  "op": 1683,
  "loi</w>": 1684,
  "injury</w>": 1685,
  "do": 1686,
  "German</w>": 1687,
  "chose</w>": 1688,
  "immediately</w>": 1689,
  "man": 1690,
  "chairman</w>": 1691,
  "AFP</w>": 1692,
  "effect</w>": 1693,
  "\u20ac</w>": 1694,
  "General</w>": 1695,
  "runs</w>": 1696,
  "kids</w>": 1697,
  "x</w>": 1698,
  "via</w>": 1699,
  "ready</w>": 1700,
  "threat</w>": 1701,
  "border</w>": 1702,
  "track</w>": 1703,
  "s\u00e9curit\u00e9</w>": 1704,
  "1": 1705,
  "tant</w>": 1706,
  "fighting</w>": 1707,
  "built</w>": 1708,
  "created</w>": 1709,
  "Mac": 1710,
  "Manchester</w>": 1711,
  "ling</w>": 1712,
  "contract</w>": 1713,
  "ens</w>": 1714,
  "afin</w>": 1715,
  "adding</w>": 1716,
  "ps</w>": 1717,
  "veut</w>": 1718,
  "supporters</w>": 1719,
  "Par": 1720,
  "warned</w>": 1721,
  "positive</w>": 1722,
  "ties</w>": 1723,
  "pass</w>": 1724,
  "network</w>": 1725,
  "Internet</w>": 1726,
  "details</w>": 1727,
  "aura</w>": 1728,
  "gets</w>": 1729,
  "pe": 1730,
  "2005</w>": 1731,
  "happen</w>": 1732,
  "Press</w>": 1733,
  "cars</w>": 1734,
  "D'</w>": 1735,
  "certains</w>": 1736,
  "aient</w>": 1737,
  "Etat</w>": 1738,
  "offered</w>": 1739,
  "includes</w>": 1740,
  "kept</w>": 1741,
  "approach</w>": 1742,
  "movie</w>": 1743,
  "indiqu\u00e9</w>": 1744,
  "search</w>": 1745,
  "watch</w>": 1746,
  "note</w>": 1747,
  "poor</w>": 1748,
  "Thomas</w>": 1749,
  "post</w>": 1750,
  "M</w>": 1751,
  "drive</w>": 1752,
  "W</w>": 1753,
  "murder</w>": 1754,
  "aid</w>": 1755,
  "ran</w>": 1756,
  "photo</w>": 1757,
  "ke</w>": 1758,
  "cap": 1759,
  "related</w>": 1760,
  "businesses</w>": 1761,
  "ter": 1762,
  "mars</w>": 1763,
  "ones</w>": 1764,
  "Islamic</w>": 1765,
  "previously</w>": 1766,
  "residents</w>": 1767,
  "ic</w>": 1768,
  "mettre</w>": 1769,
  "yesterday</w>": 1770,
  "z</w>": 1771,
  "celui</w>": 1772,
  "re-": 1773,
  "ask</w>": 1774,
  "considered</w>": 1775,
  "explique</w>": 1776,
  "pre": 1777,
  "model</w>": 1778,
  "opened</w>": 1779,
  "Royal</w>": 1780,
  "histoire</w>": 1781,
  "ker</w>": 1782,
  "Barack</w>": 1783,
  "champion</w>": 1784,
  "ks</w>": 1785,
  "starting</w>": 1786,
  "s-": 1787,
  "funding</w>": 1788,
  "contact</w>": 1789,
  "En": 1790,
  "Of</w>": 1791,
  "directeur</w>": 1792,
  "moving</w>": 1793,
  "From</w>": 1794,
  "ensemble</w>": 1795,
  "reached</w>": 1796,
  "competition</w>": 1797,
  "Then</w>": 1798,
  "troops</w>": 1799,
  "easy</w>": 1800,
  "shooting</w>": 1801,
  "signed</w>": 1802,
  "jeu</w>": 1803,
  "Bill</w>": 1804,
  "School</w>": 1805,
  "ten</w>": 1806,
  "flight</w>": 1807,
  "injured</w>": 1808,
  "Justice</w>": 1809,
  "ding</w>": 1810,
  "Pakistan</w>": 1811,
  "mobile</w>": 1812,
  "changed</w>": 1813,
  "juin</w>": 1814,
  "returned</w>": 1815,
  "quality</w>": 1816,
  "hearing</w>": 1817,
  "committee</w>": 1818,
  "qu": 1819,
  "Office</w>": 1820,
  "decades</w>": 1821,
  "mise</w>": 1822,
  "Scott</w>": 1823,
  "trip</w>": 1824,
  "f</w>": 1825,
  "missing</w>": 1826,
  "class</w>": 1827,
  "English</w>": 1828,
  "occasion</w>": 1829,
  "Br": 1830,
  "fund</w>": 1831,
  "letter</w>": 1832,
  "ceux</w>": 1833,
  "janvier</w>": 1834,
  "Florida</w>": 1835,
  "sport</w>": 1836,
  "ensure</w>": 1837,
  "eau</w>": 1838,
  "posted</w>": 1839,
  "Secretary</w>": 1840,
  "route</w>": 1841,
  "sell</w>": 1842,
  "page</w>": 1843,
  "true</w>": 1844,
  "raison</w>": 1845,
  "ban</w>": 1846,
  "niveau</w>": 1847,
  "sexual</w>": 1848,
  "target</w>": 1849,
  "chaque</w>": 1850,
  "King</w>": 1851,
  "First</w>": 1852,
  "ey</w>": 1853,
  "benefits</w>": 1854,
  "closed</w>": 1855,
  "Tom</w>": 1856,
  "alone</w>": 1857,
  "launched</w>": 1858,
  "under": 1859,
  "famille</w>": 1860,
  "ka</w>": 1861,
  "um</w>": 1862,
  "on-": 1863,
  "ing": 1864,
  "straight</w>": 1865,
  "researchers</w>": 1866,
  "couldn</w>": 1867,
  "br": 1868,
  "te": 1869,
  "co-": 1870,
  "driving</w>": 1871,
  "towards</w>": 1872,
  "ants</w>": 1873,
  "drugs</w>": 1874,
  "v</w>": 1875,
  "images</w>": 1876,
  "Photo</w>": 1877,
  "accord</w>": 1878,
  "baby</w>": 1879,
  "2.": 1880,
  "Se": 1881,
  "raise</w>": 1882,
  "talking</w>": 1883,
  "Lo": 1884,
  "ou": 1885,
  "killing</w>": 1886,
  "ur": 1887,
  "r\u00e9": 1888,
  "funds</w>": 1889,
  "Ms.</w>": 1890,
  "UPI</w>": 1891,
  "matin</w>": 1892,
  "blood</w>": 1893,
  "r\u00e9gion</w>": 1894,
  "droit</w>": 1895,
  "parce</w>": 1896,
  "p.m.</w>": 1897,
  "gr": 1898,
  "certainly</w>": 1899,
  "league</w>": 1900,
  "safe</w>": 1901,
  "employees</w>": 1902,
  "sites</w>": 1903,
  "address</w>": 1904,
  "ment</w>": 1905,
  "student</w>": 1906,
  "hundreds</w>": 1907,
  "mind</w>": 1908,
  "comments</w>": 1909,
  "Po": 1910,
  "demande</w>": 1911,
  "street</w>": 1912,
  "ul": 1913,
  "measures</w>": 1914,
  "beyond</w>": 1915,
  "passed</w>": 1916,
  "Most</w>": 1917,
  "disease</w>": 1918,
  "hier</w>": 1919,
  "lack</w>": 1920,
  "protect</w>": 1921,
  "tough</w>": 1922,
  "sale</w>": 1923,
  "pu</w>": 1924,
  "goals</w>": 1925,
  "defense</w>": 1926,
  "camp</w>": 1927,
  "Or</w>": 1928,
  "provided</w>": 1929,
  "seem</w>": 1930,
  "Mexico</w>": 1931,
  "entreprises</w>": 1932,
  "civil</w>": 1933,
  "w</w>": 1934,
  "commission</w>": 1935,
  "Company</w>": 1936,
  "sources</w>": 1937,
  "appear</w>": 1938,
  "leadership</w>": 1939,
  "@</w>": 1940,
  "presse</w>": 1941,
  "issued</w>": 1942,
  "entreprise</w>": 1943,
  "ler</w>": 1944,
  "feet</w>": 1945,
  "politics</w>": 1946,
  "bonne</w>": 1947,
  "ir": 1948,
  "bid</w>": 1949,
  "300</w>": 1950,
  "trading</w>": 1951,
  "joueurs</w>": 1952,
  "seemed</w>": 1953,
  "we": 1954,
  "union</w>": 1955,
  "perhaps</w>": 1956,
  "battle</w>": 1957,
  "insurance</w>": 1958,
  "nature</w>": 1959,
  "sp": 1960,
  "ins</w>": 1961,
  "Melbourne</w>": 1962,
  "Image</w>": 1963,
  "audience</w>": 1964,
  "natural</w>": 1965,
  "El": 1966,
  "cover</w>": 1967,
  "septembre</w>": 1968,
  "Mike</w>": 1969,
  "dollar</w>": 1970,
  "d\u00e9cision</w>": 1971,
  "clients</w>": 1972,
  "damage</w>": 1973,
  "ante</w>": 1974,
  "pass\u00e9</w>": 1975,
  "Andrew</w>": 1976,
  "ed": 1977,
  "soci\u00e9t\u00e9</w>": 1978,
  "Although</w>": 1979,
  "protection</w>": 1980,
  "reporters</w>": 1981,
  "ages</w>": 1982,
  "avoid</w>": 1983,
  "ci": 1984,
  "revenue</w>": 1985,
  "ni</w>": 1986,
  "designed</w>": 1987,
  "seulement</w>": 1988,
  "profit</w>": 1989,
  "32</w>": 1990,
  "below</w>": 1991,
  "\u00e9": 1992,
  "respect</w>": 1993,
  "membres</w>": 1994,
  "planned</w>": 1995,
  "pair</w>": 1996,
  "attempt</w>": 1997,
  "partner</w>": 1998,
  "users</w>": 1999,
  "center</w>": 2000,
  "dropped</w>": 2001,
  "hotel</w>": 2002,
  "Du": 2003,
  "ni": 2004,
  "ex": 2005,
  "spend</w>": 2006,
  "appears</w>": 2007,
  "score</w>": 2008,
  "suggested</w>": 2009,
  "alleged</w>": 2010,
  "ay</w>": 2011,
  "newspaper</w>": 2012,
  "go": 2013,
  "der": 2014,
  "War</w>": 2015,
  "ak": 2016,
  "climate</w>": 2017,
  "mai</w>": 2018,
  "joined</w>": 2019,
  "Christmas</w>": 2020,
  "rue</w>": 2021,
  "ver": 2022,
  "mieux</w>": 2023,
  "Chicago</w>": 2024,
  "store</w>": 2025,
  "door</w>": 2026,
  "decade</w>": 2027,
  "suffered</w>": 2028,
  "Com": 2029,
  "retour</w>": 2030,
  "calling</w>": 2031,
  "titre</w>": 2032,
  "bl": 2033,
  "size</w>": 2034,
  "lose</w>": 2035,
  "accident</w>": 2036,
  "independent</w>": 2037,
  "save</w>": 2038,
  "arrived</w>": 2039,
  "Another</w>": 2040,
  "puis</w>": 2041,
  "Western</w>": 2042,
  "Air</w>": 2043,
  "plane</w>": 2044,
  "finally</w>": 2045,
  "Ces</w>": 2046,
  "crise</w>": 2047,
  "ec": 2048,
  "2004</w>": 2049,
  "Steve</w>": 2050,
  "commercial</w>": 2051,
  "No": 2052,
  "St</w>": 2053,
  "Dr.</w>": 2054,
  "relations</w>": 2055,
  "maire</w>": 2056,
  "Ukraine</w>": 2057,
  "Ben</w>": 2058,
  "emergency</w>": 2059,
  "Me": 2060,
  "affaires</w>": 2061,
  "Security</w>": 2062,
  "improve</w>": 2063,
  "weapons</w>": 2064,
  "product</w>": 2065,
  "choice</w>": 2066,
  "additional</w>": 2067,
  "ina</w>": 2068,
  "confidence</w>": 2069,
  "vu</w>": 2070,
  "Bre": 2071,
  "sometimes</w>": 2072,
  "enqu\u00eate</w>": 2073,
  "organisation</w>": 2074,
  "successful</w>": 2075,
  "afternoon</w>": 2076,
  "surprise</w>": 2077,
  "d\u00e8s</w>": 2078,
  "toward</w>": 2079,
  "ho": 2080,
  "spoke</w>": 2081,
  "driver</w>": 2082,
  "femmes</w>": 2083,
  "seeking</w>": 2084,
  "Since</w>": 2085,
  "host</w>": 2086,
  "original</w>": 2087,
  "north</w>": 2088,
  "am\u00e9ricain</w>": 2089,
  "row</w>": 2090,
  "av": 2091,
  "mes</w>": 2092,
  "Romney</w>": 2093,
  "launch</w>": 2094,
  "intelligence</w>": 2095,
  "abuse</w>": 2096,
  "written</w>": 2097,
  "sant\u00e9</w>": 2098,
  "paper</w>": 2099,
  "vi": 2100,
  "aller</w>": 2101,
  "Wales</w>": 2102,
  "km</w>": 2103,
  "council</w>": 2104,
  "documents</w>": 2105,
  "laws</w>": 2106,
  "guilty</w>": 2107,
  "housing</w>": 2108,
  "il": 2109,
  "ana</w>": 2110,
  "juillet</w>": 2111,
  "internet</w>": 2112,
  "believes</w>": 2113,
  "novembre</w>": 2114,
  "throughout</w>": 2115,
  "Ireland</w>": 2116,
  "Th": 2117,
  "0": 2118,
  "fear</w>": 2119,
  "complete</w>": 2120,
  "surtout</w>": 2121,
  "Italy</w>": 2122,
  "Ryan</w>": 2123,
  "About</w>": 2124,
  "parti</w>": 2125,
  "reduce</w>": 2126,
  "fine</w>": 2127,
  "Is</w>": 2128,
  "Service</w>": 2129,
  "winner</w>": 2130,
  "autant</w>": 2131,
  "bus</w>": 2132,
  "Syrian</w>": 2133,
  "nationale</w>": 2134,
  "crowd</w>": 2135,
  "wouldn</w>": 2136,
  "worst</w>": 2137,
  "solution</w>": 2138,
  "mal</w>": 2139,
  "hopes</w>": 2140,
  "rule</w>": 2141,
  "ah</w>": 2142,
  "highest</w>": 2143,
  "partir</w>": 2144,
  "ex-": 2145,
  "extra</w>": 2146,
  "crash</w>": 2147,
  "direct</w>": 2148,
  "celle</w>": 2149,
  "caught</w>": 2150,
  "Just</w>": 2151,
  "Di": 2152,
  "ve</w>": 2153,
  "domestic</w>": 2154,
  "served</w>": 2155,
  "stars</w>": 2156,
  "album</w>": 2157,
  "carried</w>": 2158,
  "girls</w>": 2159,
  "ary</w>": 2160,
  "spot</w>": 2161,
  "holding</w>": 2162,
  "present</w>": 2163,
  "marriage</w>": 2164,
  "Other</w>": 2165,
  "journ\u00e9e</w>": 2166,
  "elections</w>": 2167,
  "assets</w>": 2168,
  "practice</w>": 2169,
  "selling</w>": 2170,
  "required</w>": 2171,
  "mer</w>": 2172,
  "consider</w>": 2173,
  "troisi\u00e8me</w>": 2174,
  "admitted</w>": 2175,
  "avril</w>": 2176,
  "Despite</w>": 2177,
  "Wall</w>": 2178,
  "Committee</w>": 2179,
  "whom</w>": 2180,
  "Centre</w>": 2181,
  "strategy</w>": 2182,
  "Grand</w>": 2183,
  "hommes</w>": 2184,
  "IS": 2185,
  "word</w>": 2186,
  "sports</w>": 2187,
  "er-": 2188,
  "matches</w>": 2189,
  "brother</w>": 2190,
  "sw": 2191,
  "Daniel</w>": 2192,
  "tes</w>": 2193,
  "me": 2194,
  "Man": 2195,
  "secretary</w>": 2196,
  "box</w>": 2197,
  "operating</w>": 2198,
  "hausse</w>": 2199,
  "bi": 2200,
  "foot</w>": 2201,
  "criminal</w>": 2202,
  "IS</w>": 2203,
  "thinking</w>": 2204,
  "bar</w>": 2205,
  "female</w>": 2206,
  "Pro": 2207,
  "finale</w>": 2208,
  "movement</w>": 2209,
  "greater</w>": 2210,
  "Avec</w>": 2211,
  "peace</w>": 2212,
  "75</w>": 2213,
  "deep</w>": 2214,
  "33</w>": 2215,
  "femme</w>": 2216,
  "injuries</w>": 2217,
  "3.": 2218,
  "benefit</w>": 2219,
  "picture</w>": 2220,
  "films</w>": 2221,
  "ance</w>": 2222,
  "ligne</w>": 2223,
  "sides</w>": 2224,
  "declined</w>": 2225,
  "den</w>": 2226,
  "Inc</w>": 2227,
  "Ho": 2228,
  "finished</w>": 2229,
  "speak</w>": 2230,
  "begin</w>": 2231,
  "lines</w>": 2232,
  "Red</w>": 2233,
  "faces</w>": 2234,
  "Mon": 2235,
  "http</w>": 2236,
  "showing</w>": 2237,
  "photos</w>": 2238,
  "activity</w>": 2239,
  "coalition</w>": 2240,
  "secteur</w>": 2241,
  "ship</w>": 2242,
  "Open</w>": 2243,
  "planning</w>": 2244,
  "concern</w>": 2245,
  "hear</w>": 2246,
  "owner</w>": 2247,
  "da</w>": 2248,
  "gold</w>": 2249,
  "ne": 2250,
  "Q": 2251,
  "addition</w>": 2252,
  "concerned</w>": 2253,
  "department</w>": 2254,
  "mort</w>": 2255,
  "weather</w>": 2256,
  "taux</w>": 2257,
  "association</w>": 2258,
  "gu": 2259,
  "piece</w>": 2260,
  "quelque</w>": 2261,
  "ked</w>": 2262,
  "ence</w>": 2263,
  "Christian</w>": 2264,
  "massive</w>": 2265,
  "Go": 2266,
  "particular</w>": 2267,
  "weight</w>": 2268,
  "radio</w>": 2269,
  "middle</w>": 2270,
  "denied</w>": 2271,
  "strike</w>": 2272,
  "soldiers</w>": 2273,
  "victoire</w>": 2274,
  "f\u00e9vrier</w>": 2275,
  "formation</w>": 2276,
  "Lee</w>": 2277,
  "pl": 2278,
  "restaurant</w>": 2279,
  "entire</w>": 2280,
  "So": 2281,
  "bed</w>": 2282,
  "Both</w>": 2283,
  "rising</w>": 2284,
  "ness</w>": 2285,
  "evening</w>": 2286,
  "souvent</w>": 2287,
  "wide</w>": 2288,
  "ator</w>": 2289,
  "cher</w>": 2290,
  "us": 2291,
  "octobre</w>": 2292,
  "fl": 2293,
  "d\u00e9cembre</w>": 2294,
  "province</w>": 2295,
  "vehicle</w>": 2296,
  "join</w>": 2297,
  "bu": 2298,
  "shown</w>": 2299,
  "Sur</w>": 2300,
  "X</w>": 2301,
  "unique</w>": 2302,
  "losing</w>": 2303,
  "operation</w>": 2304,
  "so": 2305,
  "continues</w>": 2306,
  "normal</w>": 2307,
  "Spain</w>": 2308,
  "powerful</w>": 2309,
  "village</w>": 2310,
  "ai": 2311,
  "sommes</w>": 2312,
  "ite</w>": 2313,
  "appeal</w>": 2314,
  "allegations</w>": 2315,
  "N</w>": 2316,
  "reality</w>": 2317,
  "candidates</w>": 2318,
  "answer</w>": 2319,
  "semaines</w>": 2320,
  "systems</w>": 2321,
  "feeling</w>": 2322,
  "immigration</w>": 2323,
  "seul</w>": 2324,
  "ia</w>": 2325,
  "personne</w>": 2326,
  "During</w>": 2327,
  "receive</w>": 2328,
  "34</w>": 2329,
  "cities</w>": 2330,
  "offers</w>": 2331,
  "Today</w>": 2332,
  "Tony</w>": 2333,
  "ber</w>": 2334,
  "design</w>": 2335,
  "facing</w>": 2336,
  "gun</w>": 2337,
  "F</w>": 2338,
  "walk</w>": 2339,
  "prevent</w>": 2340,
  "meant</w>": 2341,
  "2000</w>": 2342,
  "drop</w>": 2343,
  "in-": 2344,
  "books</w>": 2345,
  "William</w>": 2346,
  "Those</w>": 2347,
  "critical</w>": 2348,
  "lawyer</w>": 2349,
  "article</w>": 2350,
  "card</w>": 2351,
  "overall</w>": 2352,
  "36</w>": 2353,
  "individual</w>": 2354,
  "putting</w>": 2355,
  "century</w>": 2356,
  "militants</w>": 2357,
  "no": 2358,
  "p\u00e9riode</w>": 2359,
  "subject</w>": 2360,
  "au": 2361,
  "policies</w>": 2362,
  "heavy</w>": 2363,
  "taxes</w>": 2364,
  "Federal</w>": 2365,
  "1,": 2366,
  "aw": 2367,
  "\u00e9conomique</w>": 2368,
  "ruling</w>": 2369,
  "0.": 2370,
  "proposed</w>": 2371,
  "Ad": 2372,
  "older</w>": 2373,
  "estimated</w>": 2374,
  "Chelsea</w>": 2375,
  "Why</w>": 2376,
  "ir</w>": 2377,
  "europ\u00e9enne</w>": 2378,
  "campagne</w>": 2379,
  "Su": 2380,
  "Ne": 2381,
  "traditional</w>": 2382,
  "cadre</w>": 2383,
  "ge</w>": 2384,
  "ette</w>": 2385,
  "aged</w>": 2386,
  "Nations</w>": 2387,
  "ge": 2388,
  "ats</w>": 2389,
  "Joe</w>": 2390,
  "Kim</w>": 2391,
  "nouvelles</w>": 2392,
  "ice</w>": 2393,
  "beginning</w>": 2394,
  "south</w>": 2395,
  "2003</w>": 2396,
  "font</w>": 2397,
  "signs</w>": 2398,
  "option</w>": 2399,
  "els</w>": 2400,
  "push</w>": 2401,
  "Institute</w>": 2402,
  "Hollywood</w>": 2403,
  "20": 2404,
  "floor</w>": 2405,
  "plut\u00f4t</w>": 2406,
  "influence</w>": 2407,
  "legislation</w>": 2408,
  "ane</w>": 2409,
  "doctors</w>": 2410,
  "Pe": 2411,
  "reform</w>": 2412,
  "petit</w>": 2413,
  "fi": 2414,
  "mark</w>": 2415,
  "Charles</w>": 2416,
  "eventually</w>": 2417,
  "Depuis</w>": 2418,
  "serve</w>": 2419,
  "green</w>": 2420,
  "ajout\u00e9</w>": 2421,
  "amid</w>": 2422,
  "becoming</w>": 2423,
  "fa\u00e7on</w>": 2424,
  "Nicolas</w>": 2425,
  "tu": 2426,
  "ani</w>": 2427,
  "peuvent</w>": 2428,
  "broke</w>": 2429,
  "rare</w>": 2430,
  "pick</w>": 2431,
  "Yet</w>": 2432,
  "stopped</w>": 2433,
  "discovered</w>": 2434,
  "seeing</w>": 2435,
  "African</w>": 2436,
  "Ex": 2437,
  "res": 2438,
  "bar": 2439,
  "statements</w>": 2440,
  "_</w>": 2441,
  "affected</w>": 2442,
  "Plus</w>": 2443,
  "Israeli</w>": 2444,
  "He": 2445,
  "sanctions</w>": 2446,
  "clearly</w>": 2447,
  "responsible</w>": 2448,
  "offering</w>": 2449,
  "Jackson</w>": 2450,
  "prochain</w>": 2451,
  "records</w>": 2452,
  "balance</w>": 2453,
  "consumers</w>": 2454,
  "army</w>": 2455,
  "dangerous</w>": 2456,
  "clubs</w>": 2457,
  "helping</w>": 2458,
  "lin</w>": 2459,
  "twice</w>": 2460,
  "plant</w>": 2461,
  "toutefois</w>": 2462,
  "ves</w>": 2463,
  "primary</w>": 2464,
  "committed</w>": 2465,
  "Per": 2466,
  "follow</w>": 2467,
  "Here</w>": 2468,
  "0</w>": 2469,
  "G</w>": 2470,
  "brand</w>": 2471,
  "bought</w>": 2472,
  "communiqu\u00e9</w>": 2473,
  "attend</w>": 2474,
  "secret</w>": 2475,
  "Meanwhile</w>": 2476,
  "environment</w>": 2477,
  "Ab": 2478,
  "du": 2479,
  "Son</w>": 2480,
  "seat</w>": 2481,
  "identified</w>": 2482,
  "rencontre</w>": 2483,
  "wearing</w>": 2484,
  "managed</w>": 2485,
  "croissance</w>": 2486,
  "character</w>": 2487,
  "ent": 2488,
  "Sir</w>": 2489,
  "environ</w>": 2490,
  "gives</w>": 2491,
  "Prince</w>": 2492,
  "progress</w>": 2493,
  "knows</w>": 2494,
  "suspect</w>": 2495,
  "syst\u00e8me</w>": 2496,
  "brain</w>": 2497,
  "ze</w>": 2498,
  "telling</w>": 2499,
  "programs</w>": 2500,
  "struck</w>": 2501,
  "ra</w>": 2502,
  "moi</w>": 2503,
  "Central</w>": 2504,
  "college</w>": 2505,
  "Their</w>": 2506,
  "ky</w>": 2507,
  "exemple</w>": 2508,
  "55</w>": 2509,
  "conseil</w>": 2510,
  "fellow</w>": 2511,
  "ering</w>": 2512,
  "Boston</w>": 2513,
  "baisse</w>": 2514,
  "one-": 2515,
  "yards</w>": 2516,
  "Un": 2517,
  "savoir</w>": 2518,
  "Do": 2519,
  "pain</w>": 2520,
  "ending</w>": 2521,
  "haven</w>": 2522,
  "scheduled</w>": 2523,
  "cr": 2524,
  "mar": 2525,
  "options</w>": 2526,
  "gh": 2527,
  "48</w>": 2528,
  "asking</w>": 2529,
  "Murray</w>": 2530,
  "Etats-Unis</w>": 2531,
  "donn\u00e9</w>": 2532,
  "terrain</w>": 2533,
  "carry</w>": 2534,
  "limited</w>": 2535,
  "measure</w>": 2536,
  "Big</w>": 2537,
  "X": 2538,
  "fuel</w>": 2539,
  "inflation</w>": 2540,
  "wood</w>": 2541,
  "add</w>": 2542,
  "d-": 2543,
  "tests</w>": 2544,
  "writing</w>": 2545,
  "waiting</w>": 2546,
  "remained</w>": 2547,
  "increasingly</w>": 2548,
  "remember</w>": 2549,
  "for": 2550,
  "magazine</w>": 2551,
  "park</w>": 2552,
  "loin</w>": 2553,
  "missed</w>": 2554,
  "ters</w>": 2555,
  "society</w>": 2556,
  "completely</w>": 2557,
  "band</w>": 2558,
  "Stephen</w>": 2559,
  "victim</w>": 2560,
  "science</w>": 2561,
  "65</w>": 2562,
  "difference</w>": 2563,
  "x": 2564,
  "learn</w>": 2565,
  "noted</w>": 2566,
  "d\u00e9sormais</w>": 2567,
  "married</w>": 2568,
  "\u00e9tat</w>": 2569,
  "yn</w>": 2570,
  "400</w>": 2571,
  "38</w>": 2572,
  "shared</w>": 2573,
  "developed</w>": 2574,
  "tri": 2575,
  "agit</w>": 2576,
  "Muslim</w>": 2577,
  "survey</w>": 2578,
  "Mme</w>": 2579,
  "tard</w>": 2580,
  "agent</w>": 2581,
  "eyes</w>": 2582,
  "nom</w>": 2583,
  "plays</w>": 2584,
  "derniers</w>": 2585,
  "projects</w>": 2586,
  "Fox</w>": 2587,
  "gauche</w>": 2588,
  "trust</w>": 2589,
  "ingly</w>": 2590,
  "ak</w>": 2591,
  "views</w>": 2592,
  "maison</w>": 2593,
  "bs</w>": 2594,
  "streets</w>": 2595,
  "storm</w>": 2596,
  "placed</w>": 2597,
  "ement</w>": 2598,
  "ber": 2599,
  "perfect</w>": 2600,
  "highly</w>": 2601,
  "sea</w>": 2602,
  "myself</w>": 2603,
  "risque</w>": 2604,
  "dog</w>": 2605,
  "daily</w>": 2606,
  "fair</w>": 2607,
  "ded</w>": 2608,
  "send</w>": 2609,
  "largely</w>": 2610,
  "s\u00e9rie</w>": 2611,
  "personnel</w>": 2612,
  "reasons</w>": 2613,
  "Ber": 2614,
  "earnings</w>": 2615,
  "derni\u00e8res</w>": 2616,
  "paying</w>": 2617,
  "modern</w>": 2618,
  "vue</w>": 2619,
  "airport</w>": 2620,
  "vont</w>": 2621,
  "refused</w>": 2622,
  "37</w>": 2623,
  "Post</w>": 2624,
  "gain</w>": 2625,
  "doubt</w>": 2626,
  "terme</w>": 2627,
  "Turkey</w>": 2628,
  "filed</w>": 2629,
  "risks</w>": 2630,
  "nombreux</w>": 2631,
  "Chief</w>": 2632,
  "Act</w>": 2633,
  "Green</w>": 2634,
  "eye</w>": 2635,
  "High</w>": 2636,
  "usually</w>": 2637,
  "prepared</w>": 2638,
  "ists</w>": 2639,
  "Hollande</w>": 2640,
  "supply</w>": 2641,
  "fit</w>": 2642,
  "Ver": 2643,
  "II</w>": 2644,
  "fired</w>": 2645,
  "content</w>": 2646,
  "penalty</w>": 2647,
  "long-term</w>": 2648,
  "gr\u00e2ce</w>": 2649,
  "church</w>": 2650,
  "2001</w>": 2651,
  "owners</w>": 2652,
  "Li": 2653,
  "d\u00e9veloppement</w>": 2654,
  "reporting</w>": 2655,
  "vehicles</w>": 2656,
  "holiday</w>": 2657,
  "votes</w>": 2658,
  "Tour</w>": 2659,
  "Daily</w>": 2660,
  "recovery</w>": 2661,
  "ative</w>": 2662,
  "regular</w>": 2663,
  "ayant</w>": 2664,
  "cents</w>": 2665,
  "focused</w>": 2666,
  "spokeswoman</w>": 2667,
  "faced</w>": 2668,
  "backed</w>": 2669,
  "opinion</w>": 2670,
  "Editing</w>": 2671,
  "fort</w>": 2672,
  "sub": 2673,
  "festival</w>": 2674,
  "Har": 2675,
  "suicide</w>": 2676,
  "exactly</w>": 2677,
  "sur": 2678,
  "rival</w>": 2679,
  "watching</w>": 2680,
  "Don</w>": 2681,
  "professional</w>": 2682,
  "actor</w>": 2683,
  "CEO</w>": 2684,
  "ong</w>": 2685,
  "Patrick</w>": 2686,
  "warning</w>": 2687,
  "ta</w>": 2688,
  "attorney</w>": 2689,
  "Black</w>": 2690,
  "Kevin</w>": 2691,
  "armed</w>": 2692,
  "vient</w>": 2693,
  "linked</w>": 2694,
  "defence</w>": 2695,
  "fast</w>": 2696,
  "responsibility</w>": 2697,
  "tic</w>": 2698,
  "44</w>": 2699,
  "illegal</w>": 2700,
  "appel</w>": 2701,
  "eur</w>": 2702,
  "collection</w>": 2703,
  "suit</w>": 2704,
  "Hill</w>": 2705,
  "Asia</w>": 2706,
  "patient</w>": 2707,
  "Mrs</w>": 2708,
  "aircraft</w>": 2709,
  "pi": 2710,
  "ell</w>": 2711,
  "heure</w>": 2712,
  "screen</w>": 2713,
  "sc": 2714,
  "Par</w>": 2715,
  "produced</w>": 2716,
  "re</w>": 2717,
  "dy</w>": 2718,
  "vraiment</w>": 2719,
  "Alex</w>": 2720,
  "voice</w>": 2721,
  "sc\u00e8ne</w>": 2722,
  "Sarkozy</w>": 2723,
  "cl": 2724,
  "active</w>": 2725,
  "ic": 2726,
  "mostly</w>": 2727,
  "42</w>": 2728,
  "Research</w>": 2729,
  "fran\u00e7aise</w>": 2730,
  "Fran\u00e7ais</w>": 2731,
  "protests</w>": 2732,
  "US": 2733,
  "wait</w>": 2734,
  "standing</w>": 2735,
  "fiscal</w>": 2736,
  "nouveaux</w>": 2737,
  "Coast</w>": 2738,
  "lived</w>": 2739,
  "governor</w>": 2740,
  "unit</w>": 2741,
  "Bu": 2742,
  "conflict</w>": 2743,
  "maintenant</w>": 2744,
  "worse</w>": 2745,
  "treated</w>": 2746,
  "hi": 2747,
  "passer</w>": 2748,
  "4.": 2749,
  "chances</w>": 2750,
  "Italian</w>": 2751,
  "consumer</w>": 2752,
  "donner</w>": 2753,
  "r\u00e9sultats</w>": 2754,
  "succ\u00e8s</w>": 2755,
  "fun</w>": 2756,
  "names</w>": 2757,
  "arrest</w>": 2758,
  "author</w>": 2759,
  "jury</w>": 2760,
  "standards</w>": 2761,
  "mesure</w>": 2762,
  "super": 2763,
  "famous</w>": 2764,
  "Tr": 2765,
  "ill</w>": 2766,
  "assault</w>": 2767,
  "ordered</w>": 2768,
  "protest</w>": 2769,
  "Ko": 2770,
  "necessary</w>": 2771,
  "fr": 2772,
  "keeping</w>": 2773,
  "cor": 2774,
  "poll</w>": 2775,
  "stories</w>": 2776,
  "basis</w>": 2777,
  "block</w>": 2778,
  "traffic</w>": 2779,
  "transport</w>": 2780,
  "generation</w>": 2781,
  "su": 2782,
  "grands</w>": 2783,
  "cast</w>": 2784,
  "ABC</w>": 2785,
  "Bay</w>": 2786,
  "ade</w>": 2787,
  "speaking</w>": 2788,
  "Olympic</w>": 2789,
  "ao\u00fbt</w>": 2790,
  "affaire</w>": 2791,
  "ford</w>": 2792,
  "speed</w>": 2793,
  "vision</w>": 2794,
  "\u00c9tat</w>": 2795,
  "gi": 2796,
  "ars</w>": 2797,
  "Army</w>": 2798,
  "language</w>": 2799,
  "ish</w>": 2800,
  "gay</w>": 2801,
  "owned</w>": 2802,
  "Hall</w>": 2803,
  "grow</w>": 2804,
  "various</w>": 2805,
  "cu": 2806,
  "district</w>": 2807,
  "fresh</w>": 2808,
  "produits</w>": 2809,
  "id": 2810,
  "end": 2811,
  "Indian</w>": 2812,
  "fashion</w>": 2813,
  "#</w>": 2814,
  "status</w>": 2815,
  "finance</w>": 2816,
  "boys</w>": 2817,
  "analysts</w>": 2818,
  "Club</w>": 2819,
  "surgery</w>": 2820,
  "St.</w>": 2821,
  "MP</w>": 2822,
  "Japanese</w>": 2823,
  "\u00c9tats-Unis</w>": 2824,
  "Qu": 2825,
  "2002</w>": 2826,
  "exchange</w>": 2827,
  "Virginia</w>": 2828,
  "decisions</w>": 2829,
  "island</w>": 2830,
  "Pierre</w>": 2831,
  "failure</w>": 2832,
  "ini</w>": 2833,
  "sein</w>": 2834,
  "ore</w>": 2835,
  "northern</w>": 2836,
  "d\u00e9part</w>": 2837,
  "Am": 2838,
  "deaths</w>": 2839,
  "Ri": 2840,
  "Associated</w>": 2841,
  "ously</w>": 2842,
  "ru": 2843,
  "porte-parole</w>": 2844,
  "professor</w>": 2845,
  "Liverpool</w>": 2846,
  "giant</w>": 2847,
  "ais</w>": 2848,
  "choix</w>": 2849,
  "draw</w>": 2850,
  "advantage</w>": 2851,
  "Beijing</w>": 2852,
  "finish</w>": 2853,
  "accounts</w>": 2854,
  "captain</w>": 2855,
  "hot</w>": 2856,
  "agents</w>": 2857,
  "st</w>": 2858,
  "Bl": 2859,
  "boost</w>": 2860,
  "tournament</w>": 2861,
  "17": 2862,
  "aware</w>": 2863,
  "minist\u00e8re</w>": 2864,
  "ensuite</w>": 2865,
  "ies</w>": 2866,
  "eted</w>": 2867,
  "aren</w>": 2868,
  "effective</w>": 2869,
  "finding</w>": 2870,
  "seek</w>": 2871,
  "broken</w>": 2872,
  "estate</w>": 2873,
  "aucun</w>": 2874,
  "port</w>": 2875,
  "\u00e9conomie</w>": 2876,
  "separate</w>": 2877,
  "ales</w>": 2878,
  "computer</w>": 2879,
  "complex</w>": 2880,
  "besoin</w>": 2881,
  "hair</w>": 2882,
  "autour</w>": 2883,
  "scientists</w>": 2884,
  "increasing</w>": 2885,
  "Hillary</w>": 2886,
  "nearby</w>": 2887,
  "resources</w>": 2888,
  "rock</w>": 2889,
  "conservative</w>": 2890,
  "Foreign</w>": 2891,
  "wall</w>": 2892,
  "seconds</w>": 2893,
  "southern</w>": 2894,
  "mental</w>": 2895,
  "Gu": 2896,
  "PM</w>": 2897,
  "corruption</w>": 2898,
  "shop</w>": 2899,
  "expliqu\u00e9</w>": 2900,
  "ered</w>": 2901,
  "advice</w>": 2902,
  "directly</w>": 2903,
  "af": 2904,
  "spread</w>": 2905,
  "herself</w>": 2906,
  "pro": 2907,
  "tel</w>": 2908,
  "mid-": 2909,
  "guy</w>": 2910,
  "Ke": 2911,
  "steps</w>": 2912,
  "com": 2913,
  "Taylor</w>": 2914,
  "Supreme</w>": 2915,
  "dossier</w>": 2916,
  "am\u00e9ricaine</w>": 2917,
  "Louis</w>": 2918,
  "corporate</w>": 2919,
  "sound</w>": 2920,
  "activities</w>": 2921,
  "losses</w>": 2922,
  "pulled</w>": 2923,
  "Jack</w>": 2924,
  "defeat</w>": 2925,
  "university</w>": 2926,
  "lie</w>": 2927,
  "explained</w>": 2928,
  "39</w>": 2929,
  "combat</w>": 2930,
  "H</w>": 2931,
  "onto</w>": 2932,
  "crimes</w>": 2933,
  "fifth</w>": 2934,
  "Tim</w>": 2935,
  "passengers</w>": 2936,
  "tions</w>": 2937,
  "allegedly</w>": 2938,
  "nations</w>": 2939,
  "joint</w>": 2940,
  "ino</w>": 2941,
  "Sch": 2942,
  "ali": 2943,
  "suggests</w>": 2944,
  "danger</w>": 2945,
  "parliament</w>": 2946,
  "Man</w>": 2947,
  "proposal</w>": 2948,
  "ya</w>": 2949,
  "Gr": 2950,
  "Fed</w>": 2951,
  "estime</w>": 2952,
  "ger</w>": 2953,
  "permis</w>": 2954,
  "providing</w>": 2955,
  "politicians</w>": 2956,
  "difficile</w>": 2957,
  "Carolina</w>": 2958,
  "shots</w>": 2959,
  "\u00e9cole</w>": 2960,
  "Northern</w>": 2961,
  "west</w>": 2962,
  "firms</w>": 2963,
  "autorit\u00e9s</w>": 2964,
  "protesters</w>": 2965,
  "jouer</w>": 2966,
  "Instead</w>": 2967,
  "approved</w>": 2968,
  "division</w>": 2969,
  "annonce</w>": 2970,
  "College</w>": 2971,
  "physical</w>": 2972,
  "effects</w>": 2973,
  "announcement</w>": 2974,
  "pr": 2975,
  "ig": 2976,
  "Michel</w>": 2977,
  "moments</w>": 2978,
  "Three</w>": 2979,
  "regime</w>": 2980,
  "ines</w>": 2981,
  "arrive</w>": 2982,
  "12": 2983,
  "allowing</w>": 2984,
  "For": 2985,
  "develop</w>": 2986,
  "guys</w>": 2987,
  "Brazil</w>": 2988,
  "kill</w>": 2989,
  "ach": 2990,
  "high-": 2991,
  "Reporting</w>": 2992,
  "votre</w>": 2993,
  "discuss</w>": 2994,
  "Eric</w>": 2995,
  "birth</w>": 2996,
  "J</w>": 2997,
  "Greece</w>": 2998,
  "produce</w>": 2999,
  "Ford</w>": 3000,
  "District</w>": 3001,
  "features</w>": 3002,
  "arm</w>": 3003,
  "index</w>": 3004,
  "Or": 3005,
  "publique</w>": 3006,
  "grew</w>": 3007,
  "Comme</w>": 3008,
  "hu": 3009,
  "Pi": 3010,
  "sens</w>": 3011,
  "organization</w>": 3012,
  "uses</w>": 3013,
  "Jo": 3014,
  "Mal": 3015,
  "Nick</w>": 3016,
  "squad</w>": 3017,
  "suggest</w>": 3018,
  "upon</w>": 3019,
  "ez</w>": 3020,
  "rich</w>": 3021,
  "setting</w>": 3022,
  "Putin</w>": 3023,
  "citizens</w>": 3024,
  "secure</w>": 3025,
  "up": 3026,
  "premiers</w>": 3027,
  "ends</w>": 3028,
  "responsable</w>": 3029,
  "ads</w>": 3030,
  "lanc\u00e9</w>": 3031,
  "mon": 3032,
  "Tout</w>": 3033,
  "43</w>": 3034,
  "ery</w>": 3035,
  "maybe</w>": 3036,
  "tive</w>": 3037,
  "loans</w>": 3038,
  "falling</w>": 3039,
  "Sal": 3040,
  "ruled</w>": 3041,
  "41</w>": 3042,
  "doivent</w>": 3043,
  "ain</w>": 3044,
  "1,000</w>": 3045,
  "arms</w>": 3046,
  "buying</w>": 3047,
  "ches</w>": 3048,
  "ise</w>": 3049,
  "sentence</w>": 3050,
  "Hospital</w>": 3051,
  "Simon</w>": 3052,
  "unlikely</w>": 3053,
  "recherche</w>": 3054,
  "mesures</w>": 3055,
  "dark</w>": 3056,
  "r\u00f4le</w>": 3057,
  "Y</w>": 3058,
  "ma": 3059,
  "aupr\u00e8s</w>": 3060,
  "ten": 3061,
  "request</w>": 3062,
  "droits</w>": 3063,
  "argent</w>": 3064,
  "session</w>": 3065,
  "Under</w>": 3066,
  "Toronto</w>": 3067,
  "specific</w>": 3068,
  "Lord</w>": 3069,
  "carrying</w>": 3070,
  "15": 3071,
  "loan</w>": 3072,
  "Road</w>": 3073,
  "Over</w>": 3074,
  "impossible</w>": 3075,
  "initial</w>": 3076,
  "declared</w>": 3077,
  "anti": 3078,
  "changing</w>": 3079,
  "dix</w>": 3080,
  "offre</w>": 3081,
  "sitting</w>": 3082,
  "bigger</w>": 3083,
  "Egypt</w>": 3084,
  "cre": 3085,
  "healthy</w>": 3086,
  "equipment</w>": 3087,
  "bodies</w>": 3088,
  "passe</w>": 3089,
  "affirm\u00e9</w>": 3090,
  "Cela</w>": 3091,
  "Matt</w>": 3092,
  "ful</w>": 3093,
  "violent</w>": 3094,
  "emploi</w>": 3095,
  "Korean</w>": 3096,
  "check</w>": 3097,
  "provides</w>": 3098,
  "religious</w>": 3099,
  "49</w>": 3100,
  "expert</w>": 3101,
  "Her": 3102,
  "Queen</w>": 3103,
  "positions</w>": 3104,
  "deliver</w>": 3105,
  "ors</w>": 3106,
  "surface</w>": 3107,
  "Jean</w>": 3108,
  "absence</w>": 3109,
  "juste</w>": 3110,
  "agencies</w>": 3111,
  "stores</w>": 3112,
  "communities</w>": 3113,
  "ess</w>": 3114,
  "institutions</w>": 3115,
  "multiple</w>": 3116,
  "material</w>": 3117,
  "importance</w>": 3118,
  "Zealand</w>": 3119,
  "Middle</w>": 3120,
  "smaller</w>": 3121,
  "choses</w>": 3122,
  "two-": 3123,
  "back": 3124,
  "regional</w>": 3125,
  "47</w>": 3126,
  "sujet</w>": 3127,
  "jail</w>": 3128,
  "petite</w>": 3129,
  "Conseil</w>": 3130,
  "guerre</w>": 3131,
  "a.m.</w>": 3132,
  "ay": 3133,
  "MPs</w>": 3134,
  "standard</w>": 3135,
  "profits</w>": 3136,
  "politiques</w>": 3137,
  "id\u00e9e</w>": 3138,
  "appearance</w>": 3139,
  "remaining</w>": 3140,
  "elected</w>": 3141,
  "reading</w>": 3142,
  "marketing</w>": 3143,
  "ff</w>": 3144,
  "sister</w>": 3145,
  "email</w>": 3146,
  "Davis</w>": 3147,
  "46</w>": 3148,
  "fo": 3149,
  "presence</w>": 3150,
  "ys</w>": 3151,
  "ring</w>": 3152,
  "Star</w>": 3153,
  "um": 3154,
  "criticism</w>": 3155,
  "trouble</w>": 3156,
  "McCain</w>": 3157,
  "id</w>": 3158,
  "offensive</w>": 3159,
  "extremely</w>": 3160,
  "CBS</w>": 3161,
  "wins</w>": 3162,
  "Still</w>": 3163,
  "Pl": 3164,
  "accept</w>": 3165,
  "ables</w>": 3166,
  "scheme</w>": 3167,
  "Web</w>": 3168,
  "ph": 3169,
  "pre-": 3170,
  "song</w>": 3171,
  "application</w>": 3172,
  "d\u00e9cid\u00e9</w>": 3173,
  "aucune</w>": 3174,
  "Dis": 3175,
  "oc": 3176,
  "bringing</w>": 3177,
  "urged</w>": 3178,
  "governments</w>": 3179,
  "Saint-": 3180,
  "permet</w>": 3181,
  "Its</w>": 3182,
  "reportedly</w>": 3183,
  "150</w>": 3184,
  "agree</w>": 3185,
  "rec": 3186,
  "hasn</w>": 3187,
  "panel</w>": 3188,
  "negotiations</w>": 3189,
  "messages</w>": 3190,
  "alongside</w>": 3191,
  "challenges</w>": 3192,
  "fan</w>": 3193,
  "semble</w>": 3194,
  "dec": 3195,
  "Q</w>": 3196,
  "individuals</w>": 3197,
  "probl\u00e8me</w>": 3198,
  "loved</w>": 3199,
  "introduced</w>": 3200,
  "Test</w>": 3201,
  "sought</w>": 3202,
  "Sen.</w>": 3203,
  "terrorist</w>": 3204,
  "objectif</w>": 3205,
  "Francisco</w>": 3206,
  "mer": 3207,
  "Harry</w>": 3208,
  "slightly</w>": 3209,
  "coverage</w>": 3210,
  "contributed</w>": 3211,
  "Hu": 3212,
  "expensive</w>": 3213,
  "decide</w>": 3214,
  "tw": 3215,
  "Anthony</w>": 3216,
  "Because</w>": 3217,
  "Energy</w>": 3218,
  "Former</w>": 3219,
  "writer</w>": 3220,
  "dr": 3221,
  "and": 3222,
  "developing</w>": 3223,
  "Madrid</w>": 3224,
  "vice</w>": 3225,
  "durant</w>": 3226,
  "hurt</w>": 3227,
  "activit\u00e9</w>": 3228,
  "trouver</w>": 3229,
  "ang": 3230,
  "Mor": 3231,
  "camera</w>": 3232,
  "updated</w>": 3233,
  "salle</w>": 3234,
  "completed</w>": 3235,
  "east</w>": 3236,
  "male</w>": 3237,
  "fish</w>": 3238,
  "Victoria</w>": 3239,
  "serving</w>": 3240,
  "interests</w>": 3241,
  "sk": 3242,
  "expressed</w>": 3243,
  "digital</w>": 3244,
  "haut</w>": 3245,
  "meilleur</w>": 3246,
  "discussions</w>": 3247,
  "intervention</w>": 3248,
  "Like</w>": 3249,
  "wind</w>": 3250,
  "turning</w>": 3251,
  "bottom</w>": 3252,
  "52</w>": 3253,
  "voted</w>": 3254,
  "mass</w>": 3255,
  "unable</w>": 3256,
  "\u00c7a</w>": 3257,
  "mani\u00e8re</w>": 3258,
  "principal</w>": 3259,
  "Saudi</w>": 3260,
  "Canadian</w>": 3261,
  "K</w>": 3262,
  "droite</w>": 3263,
  "confident</w>": 3264,
  "seule</w>": 3265,
  "boss</w>": 3266,
  "struggling</w>": 3267,
  "Taliban</w>": 3268,
  "opportunities</w>": 3269,
  "colleagues</w>": 3270,
  "Great</w>": 3271,
  "determined</w>": 3272,
  "blue</w>": 3273,
  "ve": 3274,
  "pictures</w>": 3275,
  "convicted</w>": 3276,
  "laquelle</w>": 3277,
  "Pr": 3278,
  "00</w>": 3279,
  "picked</w>": 3280,
  "nuit</w>": 3281,
  "Sept</w>": 3282,
  "prove</w>": 3283,
  "ff": 3284,
  "ism</w>": 3285,
  "decline</w>": 3286,
  "Hong</w>": 3287,
  "95</w>": 3288,
  "16": 3289,
  "slow</w>": 3290,
  "Labor</w>": 3291,
  "doctor</w>": 3292,
  "starts</w>": 3293,
  "capable</w>": 3294,
  "FBI</w>": 3295,
  "happens</w>": 3296,
  "Young</w>": 3297,
  "Ohio</w>": 3298,
  "younger</w>": 3299,
  "larger</w>": 3300,
  "well-": 3301,
  "joueur</w>": 3302,
  "Real</w>": 3303,
  "existing</w>": 3304,
  "Jim</w>": 3305,
  "houses</w>": 3306,
  "coast</w>": 3307,
  "mal": 3308,
  "antes</w>": 3309,
  "trans": 3310,
  "structure</w>": 3311,
  "deals</w>": 3312,
  "99</w>": 3313,
  "minimum</w>": 3314,
  "hits</w>": 3315,
  "Sam</w>": 3316,
  "policiers</w>": 3317,
  "eat</w>": 3318,
  "pense</w>": 3319,
  "crew</w>": 3320,
  "ely</w>": 3321,
  "animal</w>": 3322,
  "NS": 3323,
  "removed</w>": 3324,
  "Services</w>": 3325,
  "milieu</w>": 3326,
  "Home</w>": 3327,
  "Island</w>": 3328,
  "payments</w>": 3329,
  "abord</w>": 3330,
  "600</w>": 3331,
  "Financial</w>": 3332,
  "emerged</w>": 3333,
  "GOP</w>": 3334,
  "spring</w>": 3335,
  "studies</w>": 3336,
  "acting</w>": 3337,
  "section</w>": 3338,
  "learned</w>": 3339,
  "winter</w>": 3340,
  "ba</w>": 3341,
  "bomb</w>": 3342,
  "covered</w>": 3343,
  "expectations</w>": 3344,
  "5.": 3345,
  "Quand</w>": 3346,
  "Will</w>": 3347,
  "Col": 3348,
  "notes</w>": 3349,
  "p\u00e8re</w>": 3350,
  "walking</w>": 3351,
  "analyst</w>": 3352,
  "creating</w>": 3353,
  "Media</w>": 3354,
  "GMT</w>": 3355,
  "min": 3356,
  "assez</w>": 3357,
  "U</w>": 3358,
  "talent</w>": 3359,
  "sets</w>": 3360,
  "Festival</w>": 3361,
  "Spanish</w>": 3362,
  "passage</w>": 3363,
  "Gar": 3364,
  "migrants</w>": 3365,
  "Adam</w>": 3366,
  "Queensland</w>": 3367,
  "scale</w>": 3368,
  "capacity</w>": 3369,
  "nice</w>": 3370,
  "2,": 3371,
  "require</w>": 3372,
  "hoping</w>": 3373,
  "allows</w>": 3374,
  "peine</w>": 3375,
  "NHS</w>": 3376,
  "singer</w>": 3377,
  "arriv\u00e9e</w>": 3378,
  "write</w>": 3379,
  "wing</w>": 3380,
  "fonds</w>": 3381,
  "corps</w>": 3382,
  "closer</w>": 3383,
  "Parliament</w>": 3384,
  "wear</w>": 3385,
  "d\u00fb</w>": 3386,
  "pu": 3387,
  "potentially</w>": 3388,
  "Super</w>": 3389,
  "tie</w>": 3390,
  "ry</w>": 3391,
  "voix</w>": 3392,
  "Who</w>": 3393,
  "yn": 3394,
  "U.N.</w>": 3395,
  "Journal</w>": 3396,
  "AF": 3397,
  "guard</w>": 3398,
  "heads</w>": 3399,
  "animals</w>": 3400,
  "Fe": 3401,
  "Allemagne</w>": 3402,
  "51</w>": 3403,
  "driven</w>": 3404,
  "Iraqi</w>": 3405,
  "Bi": 3406,
  "Lewis</w>": 3407,
  "mine</w>": 3408,
  "54</w>": 3409,
  "plenty</w>": 3410,
  "ant": 3411,
  "Chine</w>": 3412,
  "t\u00e9</w>": 3413,
  "earned</w>": 3414,
  "tells</w>": 3415,
  "willing</w>": 3416,
  "three-": 3417,
  "Vous</w>": 3418,
  "items</w>": 3419,
  "cabinet</w>": 3420,
  "handed</w>": 3421,
  "suffering</w>": 3422,
  "fe": 3423,
  "Agency</w>": 3424,
  "analysis</w>": 3425,
  "ash</w>": 3426,
  "established</w>": 3427,
  "Kong</w>": 3428,
  "Sp": 3429,
  "sept</w>": 3430,
  "85</w>": 3431,
  "ue</w>": 3432,
  "God</w>": 3433,
  "supported</w>": 3434,
  "concert</w>": 3435,
  "majorit\u00e9</w>": 3436,
  "easily</w>": 3437,
  "0,": 3438,
  "\u00e9tude</w>": 3439,
  "cold</w>": 3440,
  "software</w>": 3441,
  "seats</w>": 3442,
  "touch</w>": 3443,
  "03</w>": 3444,
  "yard</w>": 3445,
  "stuff</w>": 3446,
  "Year</w>": 3447,
  "ched</w>": 3448,
  "apparently</w>": 3449,
  "stood</w>": 3450,
  "Alors</w>": 3451,
  "post-": 3452,
  "fears</w>": 3453,
  "Afghan</w>": 3454,
  "ski</w>": 3455,
  "Force</w>": 3456,
  "rally</w>": 3457,
  "rescue</w>": 3458,
  "Me</w>": 3459,
  "che": 3460,
  "pace</w>": 3461,
  "strength</w>": 3462,
  "recorded</w>": 3463,
  "ms</w>": 3464,
  "beautiful</w>": 3465,
  "alternative</w>": 3466,
  "Moscow</w>": 3467,
  "headed</w>": 3468,
  "drivers</w>": 3469,
  "solutions</w>": 3470,
  "lawyers</w>": 3471,
  "str": 3472,
  "14": 3473,
  "Min": 3474,
  "Cl": 3475,
  "pr\u00e9cis\u00e9</w>": 3476,
  "virus</w>": 3477,
  "forme</w>": 3478,
  "location</w>": 3479,
  "argued</w>": 3480,
  "clean</w>": 3481,
  "Im": 3482,
  "debut</w>": 3483,
  "Games</w>": 3484,
  "journal</w>": 3485,
  "Mer": 3486,
  "ministers</w>": 3487,
  "Jersey</w>": 3488,
  "infrastructure</w>": 3489,
  "buildings</w>": 3490,
  "ology</w>": 3491,
  "ordre</w>": 3492,
  "53</w>": 3493,
  "raising</w>": 3494,
  "sl": 3495,
  "visitors</w>": 3496,
  "feels</w>": 3497,
  "porte</w>": 3498,
  "Ge": 3499,
  "UN</w>": 3500,
  "seriously</w>": 3501,
  "continuing</w>": 3502,
  "deputy</w>": 3503,
  "negative</w>": 3504,
  "ob": 3505,
  "ko</w>": 3506,
  "activit\u00e9s</w>": 3507,
  "Rio</w>": 3508,
  "findings</w>": 3509,
  "Arsenal</w>": 3510,
  "feature</w>": 3511,
  "Capital</w>": 3512,
  "13": 3513,
  "to-": 3514,
  "interested</w>": 3515,
  "Gre": 3516,
  "doute</w>": 3517,
  "To": 3518,
  "sit</w>": 3519,
  "currency</w>": 3520,
  "respond</w>": 3521,
  "PS</w>": 3522,
  "artist</w>": 3523,
  "authority</w>": 3524,
  "ep": 3525,
  "pushed</w>": 3526,
  "approval</w>": 3527,
  "rendre</w>": 3528,
  "lawmakers</w>": 3529,
  "Far": 3530,
  "peut-\u00eatre</w>": 3531,
  "demand\u00e9</w>": 3532,
  "Before</w>": 3533,
  "Kelly</w>": 3534,
  "></w>": 3535,
  "path</w>": 3536,
  "promised</w>": 3537,
  "reduced</w>": 3538,
  "Brian</w>": 3539,
  "Ligue</w>": 3540,
  "cur": 3541,
  "referendum</w>": 3542,
  "gains</w>": 3543,
  "Life</w>": 3544,
  "fees</w>": 3545,
  "Edinburgh</w>": 3546,
  "quick</w>": 3547,
  "ping</w>": 3548,
  "distance</w>": 3549,
  "Ville</w>": 3550,
  "powers</w>": 3551,
  "enter</w>": 3552,
  "all-": 3553,
  "possibility</w>": 3554,
  "devices</w>": 3555,
  "gar": 3556,
  "sed</w>": 3557,
  "commitment</w>": 3558,
  "limit</w>": 3559,
  "dress</w>": 3560,
  "scoring</w>": 3561,
  "pop</w>": 3562,
  "enjoy</w>": 3563,
  "aff": 3564,
  "relatively</w>": 3565,
  "leg</w>": 3566,
  "perdu</w>": 3567,
  "retail</w>": 3568,
  "corner</w>": 3569,
  "Bernard</w>": 3570,
  "bout</w>": 3571,
  "Arab</w>": 3572,
  "by": 3573,
  "conversation</w>": 3574,
  "surveillance</w>": 3575,
  "We": 3576,
  "tor": 3577,
  "absolutely</w>": 3578,
  "inquiry</w>": 3579,
  "freedom</w>": 3580,
  "Stadium</w>": 3581,
  "stands</w>": 3582,
  "widely</w>": 3583,
  "victimes</w>": 3584,
  "entr\u00e9e</w>": 3585,
  "Do</w>": 3586,
  "sait</w>": 3587,
  "delivered</w>": 3588,
  "charity</w>": 3589,
  "code</w>": 3590,
  "1er</w>": 3591,
  "eu": 3592,
  "Once</w>": 3593,
  "Wilson</w>": 3594,
  "Ste": 3595,
  "pr\u00e9sence</w>": 3596,
  "ste": 3597,
  "juge</w>": 3598,
  "grandes</w>": 3599,
  "Lu": 3600,
  "che</w>": 3601,
  "worried</w>": 3602,
  "the": 3603,
  "sel": 3604,
  "skin</w>": 3605,
  "walked</w>": 3606,
  "Morgan</w>": 3607,
  "rejected</w>": 3608,
  "maker</w>": 3609,
  "document</w>": 3610,
  "feu</w>": 3611,
  "Miss</w>": 3612,
  "threatened</w>": 3613,
  "rain</w>": 3614,
  "7.": 3615,
  "ble</w>": 3616,
  "sing</w>": 3617,
  "internationale</w>": 3618,
  "Among</w>": 3619,
  "immediate</w>": 3620,
  "tribunal</w>": 3621,
  "affirme</w>": 3622,
  "Earth</w>": 3623,
  "travaux</w>": 3624,
  "56</w>": 3625,
  "pro-": 3626,
  "Van</w>": 3627,
  "morts</w>": 3628,
  "Sea</w>": 3629,
  "Miller</w>": 3630,
  "musique</w>": 3631,
  "57</w>": 3632,
  "Only</w>": 3633,
  "Treasury</w>": 3634,
  "\u00e8re</w>": 3635,
  "apr\u00e8s-midi</w>": 3636,
  "Philippe</w>": 3637,
  "Women</w>": 3638,
  "stone</w>": 3639,
  "ano</w>": 3640,
  "stocks</w>": 3641,
  "head": 3642,
  "suspended</w>": 3643,
  "mi": 3644,
  "Bob</w>": 3645,
  "meaning</w>": 3646,
  "enforcement</w>": 3647,
  "op\u00e9ration</w>": 3648,
  "factors</w>": 3649,
  "xit</w>": 3650,
  "anger</w>": 3651,
  "display</w>": 3652,
  "suspected</w>": 3653,
  "severe</w>": 3654,
  "banking</w>": 3655,
  "Public</w>": 3656,
  "heat</w>": 3657,
  "proud</w>": 3658,
  "connu</w>": 3659,
  "Ali</w>": 3660,
  "controversial</w>": 3661,
  "Miami</w>": 3662,
  "quoi</w>": 3663,
  "considering</w>": 3664,
  "breaking</w>": 3665,
  "\u00e9tant</w>": 3666,
  "teacher</w>": 3667,
  "informations</w>": 3668,
  "participation</w>": 3669,
  "sortie</w>": 3670,
  "air": 3671,
  "candidat</w>": 3672,
  "initiative</w>": 3673,
  "western</w>": 3674,
  "d\u00e9fense</w>": 3675,
  "thanks</w>": 3676,
  "Andy</w>": 3677,
  "forte</w>": 3678,
  "ongoing</w>": 3679,
  "ying</w>": 3680,
  "\u00c9": 3681,
  "industrial</w>": 3682,
  "drama</w>": 3683,
  "contr\u00f4le</w>": 3684,
  "Bel": 3685,
  "conducted</w>": 3686,
  "voting</w>": 3687,
  "att": 3688,
  "lies</w>": 3689,
  "ati": 3690,
  "stress</w>": 3691,
  "leaves</w>": 3692,
  "Al</w>": 3693,
  "twe": 3694,
  "eastern</w>": 3695,
  "Irish</w>": 3696,
  "sy</w>": 3697,
  "boat</w>": 3698,
  "forecast</w>": 3699,
  "ev": 3700,
  "transition</w>": 3701,
  "Brisbane</w>": 3702,
  "Coupe</w>": 3703,
  "possibly</w>": 3704,
  "insisted</w>": 3705,
  "5-": 3706,
  "equity</w>": 3707,
  "four-": 3708,
  "discussion</w>": 3709,
  "avenir</w>": 3710,
  "ing-": 3711,
  "crucial</w>": 3712,
  "watched</w>": 3713,
  "soutien</w>": 3714,
  "5,000</w>": 3715,
  "NFL</w>": 3716,
  "58</w>": 3717,
  "800</w>": 3718,
  "unemployment</w>": 3719,
  "Cas": 3720,
  "Asian</w>": 3721,
  "associated</w>": 3722,
  "client</w>": 3723,
  "pen": 3724,
  "ably</w>": 3725,
  "est": 3726,
  "partners</w>": 3727,
  "app</w>": 3728,
  "arm\u00e9e</w>": 3729,
  "malgr\u00e9</w>": 3730,
  "edge</w>": 3731,
  "polls</w>": 3732,
  "Business</w>": 3733,
  "listed</w>": 3734,
  "deficit</w>": 3735,
  "Si": 3736,
  "r\u00e9seau</w>": 3737,
  "alcohol</w>": 3738,
  "Foundation</w>": 3739,
  "device</w>": 3740,
  "independence</w>": 3741,
  "van</w>": 3742,
  "initially</w>": 3743,
  "Earlier</w>": 3744,
  "assistant</w>": 3745,
  "skills</w>": 3746,
  "pitch</w>": 3747,
  "core</w>": 3748,
  "pool</w>": 3749,
  "attacked</w>": 3750,
  "Ni": 3751,
  "ain": 3752,
  "scandal</w>": 3753,
  "award</w>": 3754,
  "can": 3755,
  "nor</w>": 3756,
  "venir</w>": 3757,
  "prosecutors</w>": 3758,
  "Source</w>": 3759,
  "pourtant</w>": 3760,
  "participants</w>": 3761,
  "shift</w>": 3762,
  "den": 3763,
  "moyenne</w>": 3764,
  "recession</w>": 3765,
  "Arizona</w>": 3766,
  "testing</w>": 3767,
  "fly</w>": 3768,
  "intention</w>": 3769,
  "responded</w>": 3770,
  "contrat</w>": 3771,
  "ideas</w>": 3772,
  "Frank</w>": 3773,
  "az": 3774,
  "critics</w>": 3775,
  "mortgage</w>": 3776,
  "occurred</w>": 3777,
  "communication</w>": 3778,
  "euse</w>": 3779,
  "experienced</w>": 3780,
  "r\u00e9gime</w>": 3781,
  "actress</w>": 3782,
  "ang</w>": 3783,
  "parmi</w>": 3784,
  "Berlin</w>": 3785,
  "Jordan</w>": 3786,
  "shopping</w>": 3787,
  "ching</w>": 3788,
  "choose</w>": 3789,
  "\u00e9lections</w>": 3790,
  "cells</w>": 3791,
  "technique</w>": 3792,
  "degree</w>": 3793,
  "aimed</w>": 3794,
  "truth</w>": 3795,
  "acts</w>": 3796,
  "Fl": 3797,
  "67</w>": 3798,
  "6.": 3799,
  "sky</w>": 3800,
  "rebels</w>": 3801,
  "m\u00e8re</w>": 3802,
  "mann</w>": 3803,
  "fin": 3804,
  "an-": 3805,
  "Libya</w>": 3806,
  "targets</w>": 3807,
  "machine</w>": 3808,
  "entered</w>": 3809,
  "cap</w>": 3810,
  "europ\u00e9en</w>": 3811,
  "enfant</w>": 3812,
  "bond</w>": 3813,
  "involving</w>": 3814,
  "Valley</w>": 3815,
  "grown</w>": 3816,
  "ster</w>": 3817,
  "chiffre</w>": 3818,
  "Global</w>": 3819,
  "definitely</w>": 3820,
  "pictured</w>": 3821,
  "ators</w>": 3822,
  "proved</w>": 3823,
  "iPhone</w>": 3824,
  "Em": 3825,
  "miss</w>": 3826,
  "sleep</w>": 3827,
  "presented</w>": 3828,
  "m\u00e9dias</w>": 3829,
  "teachers</w>": 3830,
  "huit</w>": 3831,
  "Getty</w>": 3832,
  "re\u00e7u</w>": 3833,
  "ns</w>": 3834,
  "easier</w>": 3835,
  "za</w>": 3836,
  "Jason</w>": 3837,
  "mondiale</w>": 3838,
  "improved</w>": 3839,
  "carri\u00e8re</w>": 3840,
  "fallen</w>": 3841,
  "replace</w>": 3842,
  "ver</w>": 3843,
  "ped</w>": 3844,
  "kers</w>": 3845,
  "Microsoft</w>": 3846,
  "knowledge</w>": 3847,
  "relief</w>": 3848,
  "pc</w>": 3849,
  "conduct</w>": 3850,
  "generally</w>": 3851,
  "ham</w>": 3852,
  "ell": 3853,
  "cell</w>": 3854,
  "confiance</w>": 3855,
  "Sports</w>": 3856,
  "Jonathan</w>": 3857,
  "Ac": 3858,
  "Gordon</w>": 3859,
  "ran": 3860,
  "Judge</w>": 3861,
  "attended</w>": 3862,
  "whatever</w>": 3863,
  "des": 3864,
  "flights</w>": 3865,
  "59</w>": 3866,
  "publicly</w>": 3867,
  "count</w>": 3868,
  "spectacle</w>": 3869,
  "Well</w>": 3870,
  "\u00e9poque</w>": 3871,
  "Mu": 3872,
  "environmental</w>": 3873,
  "donne</w>": 3874,
  "Palestinian</w>": 3875,
  "adults</w>": 3876,
  "Best</w>": 3877,
  "yourself</w>": 3878,
  "Adel": 3879,
  "eating</w>": 3880,
  "Ru": 3881,
  "Nord</w>": 3882,
  "acc\u00e8s</w>": 3883,
  "M\u00eame</w>": 3884,
  "Gaza</w>": 3885,
  "year-old</w>": 3886,
  "activists</w>": 3887,
  "aire</w>": 3888,
  "parfois</w>": 3889,
  "produit</w>": 3890,
  "trouve</w>": 3891,
  "argument</w>": 3892,
  "orders</w>": 3893,
  "apartment</w>": 3894,
  "dem": 3895,
  "compagnie</w>": 3896,
  "mayor</w>": 3897,
  "passing</w>": 3898,
  "flat</w>": 3899,
  "pointed</w>": 3900,
  "kin</w>": 3901,
  "inspired</w>": 3902,
  "ouverture</w>": 3903,
  "68</w>": 3904,
  "Cal": 3905,
  "bridge</w>": 3906,
  "combined</w>": 3907,
  "assistance</w>": 3908,
  "explain</w>": 3909,
  "fraud</w>": 3910,
  "Also</w>": 3911,
  "filled</w>": 3912,
  "maximum</w>": 3913,
  "bro": 3914,
  "customer</w>": 3915,
  "returns</w>": 3916,
  "poste</w>": 3917,
  "roads</w>": 3918,
  "Time</w>": 3919,
  "72</w>": 3920,
  "lots</w>": 3921,
  "pension</w>": 3922,
  "connection</w>": 3923,
  "facility</w>": 3924,
  "competitive</w>": 3925,
  "phase</w>": 3926,
  "tied</w>": 3927,
  "Mary</w>": 3928,
  "engagement</w>": 3929,
  "targeted</w>": 3930,
  "gl": 3931,
  "Kennedy</w>": 3932,
  "interesting</w>": 3933,
  "Rangers</w>": 3934,
  "familiar</w>": 3935,
  "terrorism</w>": 3936,
  "conf\u00e9rence</w>": 3937,
  "flying</w>": 3938,
  "repeatedly</w>": 3939,
  "pounds</w>": 3940,
  "fewer</w>": 3941,
  "kes</w>": 3942,
  "so-called</w>": 3943,
  "ek</w>": 3944,
  "turns</w>": 3945,
  "disaster</w>": 3946,
  "wh": 3947,
  "cutting</w>": 3948,
  "soir\u00e9e</w>": 3949,
  "cr\u00e9ation</w>": 3950,
  "controlled</w>": 3951,
  "RE": 3952,
  "Yes</w>": 3953,
  "WASHINGTON</w>": 3954,
  "greatest</w>": 3955,
  "ban": 3956,
  "El</w>": 3957,
  "Top</w>": 3958,
  "88</w>": 3959,
  "welcome</w>": 3960,
  "66</w>": 3961,
  "mati\u00e8re</w>": 3962,
  "Russie</w>": 3963,
  "ft</w>": 3964,
  "visited</w>": 3965,
  "capitale</w>": 3966,
  "ality</w>": 3967,
  "gros</w>": 3968,
  "USA</w>": 3969,
  "shut</w>": 3970,
  "pr\u00e9": 3971,
  "learning</w>": 3972,
  "fer": 3973,
  "intended</w>": 3974,
  "Str": 3975,
  "ney</w>": 3976,
  "causing</w>": 3977,
  "circumstances</w>": 3978,
  "Glasgow</w>": 3979,
  "platform</w>": 3980,
  "yes</w>": 3981,
  "historic</w>": 3982,
  "retired</w>": 3983,
  "NEW</w>": 3984,
  "nomination</w>": 3985,
  "fighters</w>": 3986,
  "communications</w>": 3987,
  "exercise</w>": 3988,
  "ceremony</w>": 3989,
  "meetings</w>": 3990,
  "certaines</w>": 3991,
  "rapidement</w>": 3992,
  "Instagram</w>": 3993,
  "tu</w>": 3994,
  "bag</w>": 3995,
  "Radio</w>": 3996,
  "causes</w>": 3997,
  "\u00e9quipes</w>": 3998,
  "returning</w>": 3999,
  "origine</w>": 4000,
  "parler</w>": 4001,
  "Church</w>": 4002,
  "Olympics</w>": 4003,
  "projets</w>": 4004,
  "supporting</w>": 4005,
  "terror</w>": 4006,
  "refugees</w>": 4007,
  "Let</w>": 4008,
  "determine</w>": 4009,
  "derri\u00e8re</w>": 4010,
  "cross</w>": 4011,
  "ack</w>": 4012,
  "ick</w>": 4013,
  "bur": 4014,
  "64</w>": 4015,
  "distribution</w>": 4016,
  "drink</w>": 4017,
  "wi": 4018,
  "holds</w>": 4019,
  "prochaine</w>": 4020,
  "vast</w>": 4021,
  "Fr": 4022,
  "plants</w>": 4023,
  "Your</w>": 4024,
  "basic</w>": 4025,
  "prend</w>": 4026,
  "banned</w>": 4027,
  "J.</w>": 4028,
  "rivals</w>": 4029,
  "Four</w>": 4030,
  "Marc</w>": 4031,
  "Justin</w>": 4032,
  "donn\u00e9es</w>": 4033,
  "sees</w>": 4034,
  "heading</w>": 4035,
  "Wil": 4036,
  "Bro": 4037,
  "62</w>": 4038,
  "AS": 4039,
  "champions</w>": 4040,
  "har": 4041,
  "propos</w>": 4042,
  "leads</w>": 4043,
  "tandis</w>": 4044,
  "10-": 4045,
  "Georgia</w>": 4046,
  "closely</w>": 4047,
  "struggle</w>": 4048,
  "becomes</w>": 4049,
  "zed</w>": 4050,
  "actuellement</w>": 4051,
  "instance</w>": 4052,
  "t\u00f4t</w>": 4053,
  "AL": 4054,
  "River</w>": 4055,
  "ari": 4056,
  "dozen</w>": 4057,
  "helps</w>": 4058,
  "exp\u00e9rience</w>": 4059,
  "unless</w>": 4060,
  "liste</w>": 4061,
  "file</w>": 4062,
  "Val": 4063,
  "livre</w>": 4064,
  "Houston</w>": 4065,
  "duty</w>": 4066,
  "Blue</w>": 4067,
  "dinner</w>": 4068,
  "behaviour</w>": 4069,
  "Inter": 4070,
  "ash": 4071,
  "dogs</w>": 4072,
  "Board</w>": 4073,
  "Sarah</w>": 4074,
  "attaque</w>": 4075,
  "r\u00e9ussi</w>": 4076,
  "estimates</w>": 4077,
  "stake</w>": 4078,
  "claiming</w>": 4079,
  "march\u00e9s</w>": 4080,
  "mode</w>": 4081,
  "ws</w>": 4082,
  "buts</w>": 4083,
  "lawsuit</w>": 4084,
  "Pacific</w>": 4085,
  "hole</w>": 4086,
  "g\u00e9n\u00e9rale</w>": 4087,
  "No.</w>": 4088,
  "Ki": 4089,
  "\u00e2ge</w>": 4090,
  "prise</w>": 4091,
  "fond</w>": 4092,
  "Ottawa</w>": 4093,
  "investigators</w>": 4094,
  "Beach</w>": 4095,
  "affect</w>": 4096,
  "worldwide</w>": 4097,
  "vente</w>": 4098,
  "As": 4099,
  "pull</w>": 4100,
  "window</w>": 4101,
  "mouvement</w>": 4102,
  "belle</w>": 4103,
  "package</w>": 4104,
  "marque</w>": 4105,
  "investigating</w>": 4106,
  "Champions</w>": 4107,
  "plein</w>": 4108,
  "Defense</w>": 4109,
  "int\u00e9r\u00eat</w>": 4110,
  "chain</w>": 4111,
  "ure</w>": 4112,
  "wine</w>": 4113,
  "pages</w>": 4114,
  "Human</w>": 4115,
  "shortly</w>": 4116,
  "journalists</w>": 4117,
  "tro": 4118,
  "pr\u00e9cise</w>": 4119,
  "rugby</w>": 4120,
  "split</w>": 4121,
  "reforms</w>": 4122,
  "lu": 4123,
  "moves</w>": 4124,
  "species</w>": 4125,
  "Kar": 4126,
  "Game</w>": 4127,
  "maintain</w>": 4128,
  "facilities</w>": 4129,
  "emotional</w>": 4130,
  "ill": 4131,
  "heavily</w>": 4132,
  "bri": 4133,
  "Pre": 4134,
  "davantage</w>": 4135,
  "beach</w>": 4136,
  "Parti</w>": 4137,
  "qualit\u00e9</w>": 4138,
  "executives</w>": 4139,
  "wish</w>": 4140,
  "gender</w>": 4141,
  "happening</w>": 4142,
  "Bal": 4143,
  "phones</w>": 4144,
  "savings</w>": 4145,
  "quant</w>": 4146,
  "genre</w>": 4147,
  "Ministry</w>": 4148,
  "understood</w>": 4149,
  "ach</w>": 4150,
  "permettre</w>": 4151,
  "footage</w>": 4152,
  "increases</w>": 4153,
  "souligne</w>": 4154,
  "cas": 4155,
  "ac</w>": 4156,
  "Telegraph</w>": 4157,
  "groupes</w>": 4158,
  "garde</w>": 4159,
  "AN": 4160,
  "link</w>": 4161,
  "Old</w>": 4162,
  "V</w>": 4163,
  "ret": 4164,
  "understanding</w>": 4165,
  "finalement</w>": 4166,
  "pr\u00e9vu</w>": 4167,
  "Kate</w>": 4168,
  "identify</w>": 4169,
  "overseas</w>": 4170,
  "extended</w>": 4171,
  "Deux</w>": 4172,
  "wake</w>": 4173,
  "Pal": 4174,
  "3,": 4175,
  "strikes</w>": 4176,
  "Every</w>": 4177,
  "territory</w>": 4178,
  "explosion</w>": 4179,
  "and-": 4180,
  "dies</w>": 4181,
  "pe</w>": 4182,
  "mu": 4183,
  "Show</w>": 4184,
  "Bur": 4185,
  "atory</w>": 4186,
  "mondial</w>": 4187,
  "achieve</w>": 4188,
  "s\u00fbr</w>": 4189,
  "iste</w>": 4190,
  "1999</w>": 4191,
  "lorsque</w>": 4192,
  "Au": 4193,
  "sending</w>": 4194,
  "emb": 4195,
  "models</w>": 4196,
  "all": 4197,
  "Medical</w>": 4198,
  "matters</w>": 4199,
  "11": 4200,
  "alive</w>": 4201,
  "Hamilton</w>": 4202,
  "obviously</w>": 4203,
  "qu</w>": 4204,
  "tackle</w>": 4205,
  "Moore</w>": 4206,
  "supposed</w>": 4207,
  "Nov.</w>": 4208,
  "accepted</w>": 4209,
  "ride</w>": 4210,
  "none</w>": 4211,
  "fils</w>": 4212,
  "propose</w>": 4213,
  "worry</w>": 4214,
  "pourraient</w>": 4215,
  "Ed</w>": 4216,
  "Images</w>": 4217,
  "700</w>": 4218,
  "suspects</w>": 4219,
  "wounded</w>": 4220,
  "Marine</w>": 4221,
  "surprised</w>": 4222,
  "copyright</w>": 4223,
  "failing</w>": 4224,
  "Merkel</w>": 4225,
  "restaurants</w>": 4226,
  "d\u00e9bat</w>": 4227,
  "dream</w>": 4228,
  "voiture</w>": 4229,
  "threats</w>": 4230,
  "cho": 4231,
  "our": 4232,
  "sociaux</w>": 4233,
  "cards</w>": 4234,
  "deeply</w>": 4235,
  "gestion</w>": 4236,
  "advertising</w>": 4237,
  "Ju": 4238,
  "Hor": 4239,
  "Henry</w>": 4240,
  "longtemps</w>": 4241,
  "veteran</w>": 4242,
  "8.": 4243,
  "stations</w>": 4244,
  "Car</w>": 4245,
  "transfer</w>": 4246,
  "catch</w>": 4247,
  "63</w>": 4248,
  "weak</w>": 4249,
  "pushing</w>": 4250,
  "Joseph</w>": 4251,
  "reaction</w>": 4252,
  "Detroit</w>": 4253,
  "Er": 4254,
  "Southern</w>": 4255,
  "perform</w>": 4256,
  "Watch</w>": 4257,
  "19": 4258,
  "Iranian</w>": 4259,
  "ren": 4260,
  "ements</w>": 4261,
  "hand": 4262,
  "expansion</w>": 4263,
  "ques</w>": 4264,
  "\u00e9viter</w>": 4265,
  "R\u00e9publique</w>": 4266,
  "captured</w>": 4267,
  "-based</w>": 4268,
  "2,000</w>": 4269,
  "dozens</w>": 4270,
  "types</w>": 4271,
  "nu": 4272,
  "wedding</w>": 4273,
  "stable</w>": 4274,
  "worker</w>": 4275,
  "secr\u00e9taire</w>": 4276,
  "retirement</w>": 4277,
  "Gold</w>": 4278,
  "71</w>": 4279,
  "gap</w>": 4280,
  "ki</w>": 4281,
  "elling</w>": 4282,
  "Democrat</w>": 4283,
  "1-": 4284,
  "ticket</w>": 4285,
  "encourage</w>": 4286,
  "friendly</w>": 4287,
  "low-": 4288,
  "Anderson</w>": 4289,
  "carbon</w>": 4290,
  "entirely</w>": 4291,
  "pied</w>": 4292,
  "significantly</w>": 4293,
  "Abbott</w>": 4294,
  "salari\u00e9s</w>": 4295,
  "percentage</w>": 4296,
  "founder</w>": 4297,
  "ours</w>": 4298,
  "2018</w>": 4299,
  "Charlie</w>": 4300,
  "allies</w>": 4301,
  "Ian</w>": 4302,
  "performed</w>": 4303,
  "venue</w>": 4304,
  "Senator</w>": 4305,
  "Oct.</w>": 4306,
  "jo": 4307,
  "her": 4308,
  "3-": 4309,
  "sat</w>": 4310,
  "lorsqu'</w>": 4311,
  "co</w>": 4312,
  "closing</w>": 4313,
  "Rights</w>": 4314,
  "receiving</w>": 4315,
  "gs</w>": 4316,
  "pose</w>": 4317,
  "bas</w>": 4318,
  "bn</w>": 4319,
  "dispute</w>": 4320,
  "producer</w>": 4321,
  "attempts</w>": 4322,
  "Professor</w>": 4323,
  "passes</w>": 4324,
  "promise</w>": 4325,
  "Eastern</w>": 4326,
  "journey</w>": 4327,
  "square</w>": 4328,
  "Iowa</w>": 4329,
  "courts</w>": 4330,
  "berg</w>": 4331,
  "Greek</w>": 4332,
  "studio</w>": 4333,
  "shareholders</w>": 4334,
  "pieces</w>": 4335,
  "apart</w>": 4336,
  "\u00e9crit</w>": 4337,
  "glass</w>": 4338,
  "inc": 4339,
  "ser": 4340,
  "ultimately</w>": 4341,
  "fille</w>": 4342,
  "69</w>": 4343,
  "vo": 4344,
  "trimestre</w>": 4345,
  ".com.</w>": 4346,
  "flow</w>": 4347,
  "cool</w>": 4348,
  "summit</w>": 4349,
  "o-": 4350,
  "sentenced</w>": 4351,
  "delivery</w>": 4352,
  "performances</w>": 4353,
  "drawn</w>": 4354,
  "likes</w>": 4355,
  "Though</w>": 4356,
  "imagine</w>": 4357,
  "ath": 4358,
  "Michigan</w>": 4359,
  "remove</w>": 4360,
  "es-": 4361,
  "rer</w>": 4362,
  "missile</w>": 4363,
  "Tu": 4364,
  "ents</w>": 4365,
  "soulign\u00e9</w>": 4366,
  "presque</w>": 4367,
  "tend</w>": 4368,
  "ow": 4369,
  "AM</w>": 4370,
  "advance</w>": 4371,
  "internal</w>": 4372,
  "bills</w>": 4373,
  "vulnerable</w>": 4374,
  "golf</w>": 4375,
  "Conservative</w>": 4376,
  "'I</w>": 4377,
  "ot</w>": 4378,
  "wave</w>": 4379,
  "Amazon</w>": 4380,
  "aim</w>": 4381,
  "drinking</w>": 4382,
  "applications</w>": 4383,
  "premi\u00e8res</w>": 4384,
  "Pas</w>": 4385,
  "episode</w>": 4386,
  "trend</w>": 4387,
  "compensation</w>": 4388,
  "250</w>": 4389,
  "eurs</w>": 4390,
  "travers</w>": 4391,
  "pr\u00e9sent</w>": 4392,
  "accusations</w>": 4393,
  "otherwise</w>": 4394,
  "amazing</w>": 4395,
  "identity</w>": 4396,
  "adds</w>": 4397,
  "settlement</w>": 4398,
  "Colorado</w>": 4399,
  "yer</w>": 4400,
  "task</w>": 4401,
  "values</w>": 4402,
  "Assad</w>": 4403,
  "devait</w>": 4404,
  "cultural</w>": 4405,
  "Museum</w>": 4406,
  "shape</w>": 4407,
  "visite</w>": 4408,
  "moyens</w>": 4409,
  "voit</w>": 4410,
  "ouvert</w>": 4411,
  "agenda</w>": 4412,
  "opposed</w>": 4413,
  "Alan</w>": 4414,
  "indique</w>": 4415,
  "FC</w>": 4416,
  "reputation</w>": 4417,
  "communaut\u00e9</w>": 4418,
  "ments</w>": 4419,
  "Can</w>": 4420,
  "regard</w>": 4421,
  "hoped</w>": 4422,
  "2-": 4423,
  "tiny</w>": 4424,
  "NBC</w>": 4425,
  "memory</w>": 4426,
  "draft</w>": 4427,
  "Love</w>": 4428,
  "Steven</w>": 4429,
  "tries</w>": 4430,
  "met": 4431,
  "civilians</w>": 4432,
  "eront</w>": 4433,
  "appointed</w>": 4434,
  "Mi": 4435,
  "nombreuses</w>": 4436,
  "Sun</w>": 4437,
  "faith</w>": 4438,
  "represents</w>": 4439,
  "attempted</w>": 4440,
  "contest</w>": 4441,
  "purchase</w>": 4442,
  "ke": 4443,
  "chair</w>": 4444,
  "Fo": 4445,
  "Vi": 4446,
  "89</w>": 4447,
  "Del": 4448,
  "na</w>": 4449,
  "vid\u00e9o</w>": 4450,
  "innings</w>": 4451,
  "anniversary</w>": 4452,
  "war": 4453,
  "snow</w>": 4454,
  "valeur</w>": 4455,
  "61</w>": 4456,
  "stronger</w>": 4457,
  "weren</w>": 4458,
  "Dan</w>": 4459,
  "ron</w>": 4460,
  "five-": 4461,
  "knee</w>": 4462,
  "Te": 4463,
  "probl\u00e8mes</w>": 4464,
  "9.": 4465,
  "vite</w>": 4466,
  "blog</w>": 4467,
  "fied</w>": 4468,
  "a-t-elle</w>": 4469,
  "ee</w>": 4470,
  "instant</w>": 4471,
  "victime</w>": 4472,
  "Speaking</w>": 4473,
  "tennis</w>": 4474,
  "prior</w>": 4475,
  "incidents</w>": 4476,
  "\u00e9lection</w>": 4477,
  "blame</w>": 4478,
  "grave</w>": 4479,
  "enc": 4480,
  "characters</w>": 4481,
  "opponents</w>": 4482,
  "revenues</w>": 4483,
  "Francis</w>": 4484,
  "manufacturing</w>": 4485,
  "avance</w>": 4486,
  "pression</w>": 4487,
  "travailler</w>": 4488,
  "ap</w>": 4489,
  "apply</w>": 4490,
  "proche</w>": 4491,
  "puisque</w>": 4492,
  "goods</w>": 4493,
  "Du</w>": 4494,
  "ty": 4495,
  "ake</w>": 4496,
  "Tokyo</w>": 4497,
  "particuli\u00e8rement</w>": 4498,
  "lock</w>": 4499,
  "Management</w>": 4500,
  "novel</w>": 4501,
  "faits</w>": 4502,
  "expects</w>": 4503,
  "musical</w>": 4504,
  "quotidien</w>": 4505,
  "publi\u00e9</w>": 4506,
  "bas": 4507,
  "shock</w>": 4508,
  "unusual</w>": 4509,
  "texte</w>": 4510,
  "off": 4511,
  "favourite</w>": 4512,
  "replaced</w>": 4513,
  "Matthew</w>": 4514,
  "tensions</w>": 4515,
  "Six</w>": 4516,
  "bin</w>": 4517,
  "contracts</w>": 4518,
  "factor</w>": 4519,
  "gained</w>": 4520,
  "Gov.</w>": 4521,
  "excellent</w>": 4522,
  "dialogue</w>": 4523,
  "Ti": 4524,
  "Gary</w>": 4525,
  "appropriate</w>": 4526,
  "YouTube</w>": 4527,
  "Ben": 4528,
  "habitants</w>": 4529,
  "tomorrow</w>": 4530,
  "immigrants</w>": 4531,
  "dance</w>": 4532,
  "sons</w>": 4533,
  "assure</w>": 4534,
  "ab</w>": 4535,
  "Mail</w>": 4536,
  "manque</w>": 4537,
  "emissions</w>": 4538,
  "expenses</w>": 4539,
  "writes</w>": 4540,
  "enne</w>": 4541,
  "Red": 4542,
  "Dar": 4543,
  "Jeff</w>": 4544,
  "Total</w>": 4545,
  "movies</w>": 4546,
  "text</w>": 4547,
  "ington</w>": 4548,
  "thinks</w>": 4549,
  "-up</w>": 4550,
  "Vegas</w>": 4551,
  "ically</w>": 4552,
  "employment</w>": 4553,
  "cependant</w>": 4554,
  "sch": 4555,
  "ven": 4556,
  "vital</w>": 4557,
  "Children</w>": 4558,
  "entra\u00eeneur</w>": 4559,
  "treat</w>": 4560,
  "youth</w>": 4561,
  "hitting</w>": 4562,
  "ah": 4563,
  "ace</w>": 4564,
  "Republic</w>": 4565,
  "Turkish</w>": 4566,
  "Tri": 4567,
  "ym": 4568,
  "pilot</w>": 4569,
  "assurer</w>": 4570,
  "oeuvre</w>": 4571,
  "seasons</w>": 4572,
  "vrai</w>": 4573,
  "q": 4574,
  "bureau</w>": 4575,
  "Jan.</w>": 4576,
  "obtenir</w>": 4577,
  "Video</w>": 4578,
  "Wi": 4579,
  "guide</w>": 4580,
  "everybody</w>": 4581,
  "Dr": 4582,
  "truck</w>": 4583,
  "ard": 4584,
  "impression</w>": 4585,
  "alised</w>": 4586,
  "democracy</w>": 4587,
  "d\u00e9put\u00e9</w>": 4588,
  "effectively</w>": 4589,
  "viewers</w>": 4590,
  "tly</w>": 4591,
  "Bou": 4592,
  "elsewhere</w>": 4593,
  "Good</w>": 4594,
  "estim\u00e9</w>": 4595,
  "beau</w>": 4596,
  "\u00e9nergie</w>": 4597,
  "artists</w>": 4598,
  "Director</w>": 4599,
  "editor</w>": 4600,
  "permanent</w>": 4601,
  "erait</w>": 4602,
  "bre": 4603,
  "Education</w>": 4604,
  "payment</w>": 4605,
  "sharing</w>": 4606,
  "lequel</w>": 4607,
  "Alexander</w>": 4608,
  "proposals</w>": 4609,
  "ian</w>": 4610,
  "quartier</w>": 4611,
  "AT": 4612,
  "kick</w>": 4613,
  "sti": 4614,
  "pr\u00e9sent\u00e9</w>": 4615,
  "Channel</w>": 4616,
  "McC": 4617,
  "parent</w>": 4618,
  "sun</w>": 4619,
  "chi": 4620,
  "Perry</w>": 4621,
  "UMP</w>": 4622,
  "k-": 4623,
  "locked</w>": 4624,
  "en-": 4625,
  "Square</w>": 4626,
  "1998</w>": 4627,
  "Are</w>": 4628,
  "cro": 4629,
  "Graham</w>": 4630,
  "Roger</w>": 4631,
  "hospitals</w>": 4632,
  "wild</w>": 4633,
  "advanced</w>": 4634,
  "stick</w>": 4635,
  "begins</w>": 4636,
  "pp": 4637,
  "harder</w>": 4638,
  "r\u00e9sultat</w>": 4639,
  "ass": 4640,
  "Cour</w>": 4641,
  "ventes</w>": 4642,
  "acknowledged</w>": 4643,
  "dramatic</w>": 4644,
  "ao</w>": 4645,
  "tree</w>": 4646,
  "ann": 4647,
  "Gl": 4648,
  "tur": 4649,
  "intense</w>": 4650,
  "Las</w>": 4651,
  "Jewish</w>": 4652,
  "actual</w>": 4653,
  "airline</w>": 4654,
  "auteur</w>": 4655,
  "custody</w>": 4656,
  "Rose</w>": 4657,
  "Ma": 4658,
  "reporter</w>": 4659,
  "Can": 4660,
  "Social</w>": 4661,
  "ss": 4662,
  "possession</w>": 4663,
  "Oscar</w>": 4664,
  "ships</w>": 4665,
  "dirigeants</w>": 4666,
  "lift</w>": 4667,
  "mix</w>": 4668,
  "false</w>": 4669,
  "Allen</w>": 4670,
  "coeur</w>": 4671,
  "micro": 4672,
  "tested</w>": 4673,
  "enjoyed</w>": 4674,
  "comfortable</w>": 4675,
  "acquisition</w>": 4676,
  "sen</w>": 4677,
  "judges</w>": 4678,
  "argue</w>": 4679,
  "tickets</w>": 4680,
  "4-": 4681,
  "10,000</w>": 4682,
  "responsables</w>": 4683,
  "7-": 4684,
  "Football</w>": 4685,
  "concept</w>": 4686,
  "Diego</w>": 4687,
  "le-": 4688,
  "r\u00e9union</w>": 4689,
  "A-": 4690,
  "demands</w>": 4691,
  "2020</w>": 4692,
  "mor": 4693,
  "\u00e9lus</w>": 4694,
  "Che": 4695,
  "banques</w>": 4696,
  "publication</w>": 4697,
  "formed</w>": 4698,
  "FA</w>": 4699,
  "sixth</w>": 4700,
  "bal": 4701,
  "73</w>": 4702,
  "Is": 4703,
  "Ser": 4704,
  "m\u00e8tres</w>": 4705,
  "horse</w>": 4706,
  "angry</w>": 4707,
  "vent</w>": 4708,
  "em</w>": 4709,
  "Feb.</w>": 4710,
  "collapse</w>": 4711,
  "makers</w>": 4712,
  "NATO</w>": 4713,
  "tonight</w>": 4714,
  "Power</w>": 4715,
  "emplois</w>": 4716,
  "truly</w>": 4717,
  "ine": 4718,
  "im</w>": 4719,
  "Elizabeth</w>": 4720,
  "Kerry</w>": 4721,
  "Harris</w>": 4722,
  "inger</w>": 4723,
  "non": 4724,
  "outcome</w>": 4725,
  "ami</w>": 4726,
  "Howard</w>": 4727,
  "rel": 4728,
  "emerging</w>": 4729,
  "Society</w>": 4730,
  "Jacques</w>": 4731,
  "NBA</w>": 4732,
  "technologies</w>": 4733,
  "petits</w>": 4734,
  "buyers</w>": 4735,
  "Syrie</w>": 4736,
  "Don": 4737,
  "Hol": 4738,
  "volume</w>": 4739,
  "surrounding</w>": 4740,
  "ently</w>": 4741,
  "tenu</w>": 4742,
  "post": 4743,
  "74</w>": 4744,
  "DNA</w>": 4745,
  "mile</w>": 4746,
  "managing</w>": 4747,
  "soient</w>": 4748,
  "nord</w>": 4749,
  "iz": 4750,
  "rooms</w>": 4751,
  "favorite</w>": 4752,
  "banque</w>": 4753,
  "songs</w>": 4754,
  "Cro": 4755,
  "hood</w>": 4756,
  "neuf</w>": 4757,
  "usual</w>": 4758,
  "ara</w>": 4759,
  "afford</w>": 4760,
  "struggled</w>": 4761,
  "managers</w>": 4762,
  "sal": 4763,
  "perspective</w>": 4764,
  "Laurent</w>": 4765,
  "ory</w>": 4766,
  "de-": 4767,
  "busy</w>": 4768,
  "leg": 4769,
  "directed</w>": 4770,
  "fut</w>": 4771,
  "Cu": 4772,
  "tradition</w>": 4773,
  "Ham": 4774,
  "questioned</w>": 4775,
  "Academy</w>": 4776,
  "Reserve</w>": 4777,
  "visiting</w>": 4778,
  "r\u00e9forme</w>": 4779,
  "classes</w>": 4780,
  "escape</w>": 4781,
  "priority</w>": 4782,
  "organisations</w>": 4783,
  "located</w>": 4784,
  "offices</w>": 4785,
  "Walker</w>": 4786,
  "Credit</w>": 4787,
  "connected</w>": 4788,
  "Jeremy</w>": 4789,
  "clothes</w>": 4790,
  "Sud</w>": 4791,
  "aside</w>": 4792,
  "obvious</w>": 4793,
  "77</w>": 4794,
  "broadcast</w>": 4795,
  "sou": 4796,
  "Josh</w>": 4797,
  "propre</w>": 4798,
  "destroyed</w>": 4799,
  "Administration</w>": 4800,
  "gagner</w>": 4801,
  "Rome</w>": 4802,
  "talked</w>": 4803,
  "matchs</w>": 4804,
  "dismissed</w>": 4805,
  "fought</w>": 4806,
  "expand</w>": 4807,
  "\u00e9t": 4808,
  "aggressive</w>": 4809,
  "mat": 4810,
  "Ger": 4811,
  "cr\u00e9er</w>": 4812,
  "atteint</w>": 4813,
  "excited</w>": 4814,
  "regularly</w>": 4815,
  "of-": 4816,
  "Lake</w>": 4817,
  "Market</w>": 4818,
  "electricity</w>": 4819,
  "properties</w>": 4820,
  "notice</w>": 4821,
  "Sw": 4822,
  "roughly</w>": 4823,
  "comedy</w>": 4824,
  "candidats</w>": 4825,
  "puts</w>": 4826,
  "ut": 4827,
  "ett</w>": 4828,
  "background</w>": 4829,
  "cycle</w>": 4830,
  "CH": 4831,
  "luxury</w>": 4832,
  "Tory</w>": 4833,
  "pourquoi</w>": 4834,
  "adviser</w>": 4835,
  "rester</w>": 4836,
  "j</w>": 4837,
  "Hotel</w>": 4838,
  "Manhattan</w>": 4839,
  "rape</w>": 4840,
  "remarks</w>": 4841,
  "dry</w>": 4842,
  "100,000</w>": 4843,
  "lucky</w>": 4844,
  "drove</w>": 4845,
  "War": 4846,
  "ster": 4847,
  "mention</w>": 4848,
  "wealth</w>": 4849,
  "units</w>": 4850,
  "represent</w>": 4851,
  "tens</w>": 4852,
  "brings</w>": 4853,
  "gy</w>": 4854,
  "Londres</w>": 4855,
  "6-": 4856,
  "warm</w>": 4857,
  "Family</w>": 4858,
  "arts</w>": 4859,
  "blow</w>": 4860,
  "gathered</w>": 4861,
  "sm": 4862,
  "publics</w>": 4863,
  "consequences</w>": 4864,
  "\u00e9dition</w>": 4865,
  "sentiment</w>": 4866,
  "Atlanta</w>": 4867,
  "ga</w>": 4868,
  "Sky</w>": 4869,
  "bou": 4870,
  "1997</w>": 4871,
  "Awards</w>": 4872,
  "requires</w>": 4873,
  "Cuba</w>": 4874,
  "dealing</w>": 4875,
  "rural</w>": 4876,
  "manage</w>": 4877,
  "stated</w>": 4878,
  "complaints</w>": 4879,
  "falls</w>": 4880,
  "typically</w>": 4881,
  "centres</w>": 4882,
  "contribution</w>": 4883,
  "lights</w>": 4884,
  "damaged</w>": 4885,
  "suspension</w>": 4886,
  "chemical</w>": 4887,
  "throw</w>": 4888,
  "lutte</w>": 4889,
  "Art</w>": 4890,
  "extreme</w>": 4891,
  "witness</w>": 4892,
  "coffee</w>": 4893,
  "regulations</w>": 4894,
  "birthday</w>": 4895,
  "comit\u00e9</w>": 4896,
  "9-": 4897,
  "h\u00f4pital</w>": 4898,
  "abroad</w>": 4899,
  "aider</w>": 4900,
  "Where</w>": 4901,
  "user</w>": 4902,
  "gan</w>": 4903,
  "funded</w>": 4904,
  "bonds</w>": 4905,
  "impressive</w>": 4906,
  "rou": 4907,
  "coal</w>": 4908,
  "sters</w>": 4909,
  "Bor": 4910,
  "relation</w>": 4911,
  "avais</w>": 4912,
  "YORK</w>": 4913,
  "0-": 4914,
  "Navy</w>": 4915,
  "Muslims</w>": 4916,
  "Craig</w>": 4917,
  "milliers</w>": 4918,
  "Vincent</w>": 4919,
  "threw</w>": 4920,
  "qu\u00e9b\u00e9cois</w>": 4921,
  "sociale</w>": 4922,
  "ier</w>": 4923,
  "ning</w>": 4924,
  "originally</w>": 4925,
  "brief</w>": 4926,
  "Fre": 4927,
  "ics</w>": 4928,
  "rang</w>": 4929,
  "discours</w>": 4930,
  "performing</w>": 4931,
  "libert\u00e9</w>": 4932,
  "La": 4933,
  "reveal</w>": 4934,
  "Trust</w>": 4935,
  "A.</w>": 4936,
  "pr\u00e9sidentielle</w>": 4937,
  "trained</w>": 4938,
  "ada</w>": 4939,
  "Sand": 4940,
  "AR": 4941,
  "tech</w>": 4942,
  "cricket</w>": 4943,
  "ata</w>": 4944,
  "strategic</w>": 4945,
  "aries</w>": 4946,
  "unclear</w>": 4947,
  "8-": 4948,
  "76</w>": 4949,
  "sud</w>": 4950,
  "lire</w>": 4951,
  "labor</w>": 4952,
  "Canberra</w>": 4953,
  "Philadelphia</w>": 4954,
  "journalist</w>": 4955,
  "ail</w>": 4956,
  "commenc\u00e9</w>": 4957,
  "britannique</w>": 4958,
  "ajoute</w>": 4959,
  "Stewart</w>": 4960,
  "Dallas</w>": 4961,
  "Mat": 4962,
  "indicated</w>": 4963,
  "variety</w>": 4964,
  "gg": 4965,
  "Sur": 4966,
  "employee</w>": 4967,
  "contrast</w>": 4968,
  "\u00e9l\u00e8ves</w>": 4969,
  "resolution</w>": 4970,
  "ateur</w>": 4971,
  "territoire</w>": 4972,
  "Mil": 4973,
  "D\u00e9": 4974,
  "Je": 4975,
  "keen</w>": 4976,
  "trees</w>": 4977,
  "coups</w>": 4978,
  "agence</w>": 4979,
  "3,000</w>": 4980,
  "tight</w>": 4981,
  "citoyens</w>": 4982,
  "Woods</w>": 4983,
  "avis</w>": 4984,
  "compete</w>": 4985,
  "fat</w>": 4986,
  "industrie</w>": 4987,
  "techniques</w>": 4988,
  "plupart</w>": 4989,
  "bound</w>": 4990,
  "Evans</w>": 4991,
  "yeux</w>": 4992,
  "S'</w>": 4993,
  "devraient</w>": 4994,
  "Fire</w>": 4995,
  "championship</w>": 4996,
  "videos</w>": 4997,
  "num\u00e9ro</w>": 4998,
  "terrible</w>": 4999,
  "strongly</w>": 5000,
  "int": 5001,
  "county</w>": 5002,
  "78</w>": 5003,
  "Afrique</w>": 5004,
  "voie</w>": 5005,
  "technical</w>": 5006,
  "mistake</w>": 5007,
  "parle</w>": 5008,
  "attitude</w>": 5009,
  "spoken</w>": 5010,
  "organizations</w>": 5011,
  "n\u00e9gociations</w>": 5012,
  "militaire</w>": 5013,
  "concluded</w>": 5014,
  "museum</w>": 5015,
  "Rep.</w>": 5016,
  "Wal": 5017,
  "Catholic</w>": 5018,
  "Anne</w>": 5019,
  "grounds</w>": 5020,
  "registered</w>": 5021,
  "Long</w>": 5022,
  "lay</w>": 5023,
  "zing</w>": 5024,
  "quatri\u00e8me</w>": 5025,
  "Roy</w>": 5026,
  "crude</w>": 5027,
  "signing</w>": 5028,
  "silence</w>": 5029,
  "headquarters</w>": 5030,
  "Cook</w>": 5031,
  "employ\u00e9s</w>": 5032,
  "NASA</w>": 5033,
  "blamed</w>": 5034,
  "Mas": 5035,
  "alisation</w>": 5036,
  "bord</w>": 5037,
  "Char": 5038,
  "promote</w>": 5039,
  "GM</w>": 5040,
  "diff\u00e9rents</w>": 5041,
  "parking</w>": 5042,
  "harm</w>": 5043,
  "farm</w>": 5044,
  "sharp</w>": 5045,
  "fonction</w>": 5046,
  "scores</w>": 5047,
  "ains</w>": 5048,
  "Maria</w>": 5049,
  "Mel": 5050,
  "behavior</w>": 5051,
  "commerce</w>": 5052,
  "healthcare</w>": 5053,
  "quiet</w>": 5054,
  "ca</w>": 5055,
  "prompted</w>": 5056,
  "web</w>": 5057,
  "bon": 5058,
  "Arabia</w>": 5059,
  "Des": 5060,
  "Bowl</w>": 5061,
  "defend</w>": 5062,
  "Co</w>": 5063,
  "Italie</w>": 5064,
  "Liberal</w>": 5065,
  "Bureau</w>": 5066,
  "overnight</w>": 5067,
  "Conference</w>": 5068,
  "ards</w>": 5069,
  "marked</w>": 5070,
  "mainly</w>": 5071,
  "please</w>": 5072,
  "Santa</w>": 5073,
  "follows</w>": 5074,
  "lowest</w>": 5075,
  "centrale</w>": 5076,
  "neighborhood</w>": 5077,
  "exposed</w>": 5078,
  "Cre": 5079,
  "pregnant</w>": 5080,
  "teen</w>": 5081,
  "finances</w>": 5082,
  "ised</w>": 5083,
  "long-": 5084,
  "retraite</w>": 5085,
  "affairs</w>": 5086,
  "Fund</w>": 5087,
  "rendu</w>": 5088,
  "Manuel</w>": 5089,
  "profile</w>": 5090,
  "Thompson</w>": 5091,
  "ls</w>": 5092,
  "second-": 5093,
  "jou\u00e9</w>": 5094,
  "minor</w>": 5095,
  "sortir</w>": 5096,
  "Asked</w>": 5097,
  "chi</w>": 5098,
  "engine</w>": 5099,
  "inf": 5100,
  "01</w>": 5101,
  "chacun</w>": 5102,
  "couples</w>": 5103,
  "pr\u00e9sente</w>": 5104,
  "beauty</w>": 5105,
  "chiffres</w>": 5106,
  "82</w>": 5107,
  "1995</w>": 5108,
  "waste</w>": 5109,
  "defensive</w>": 5110,
  "Fer": 5111,
  "neither</w>": 5112,
  "patron</w>": 5113,
  "Airport</w>": 5114,
  "supplies</w>": 5115,
  "investments</w>": 5116,
  "familles</w>": 5117,
  "restrictions</w>": 5118,
  "stuck</w>": 5119,
  "passion</w>": 5120,
  "ri</w>": 5121,
  "Championship</w>": 5122,
  "Z</w>": 5123,
  "prospect</w>": 5124,
  "retrouver</w>": 5125,
  "ju": 5126,
  "Atlantic</w>": 5127,
  "smart</w>": 5128,
  "granted</w>": 5129,
  "Music</w>": 5130,
  "Such</w>": 5131,
  "Watson</w>": 5132,
  "dad</w>": 5133,
  "longue</w>": 5134,
  "recalled</w>": 5135,
  "financement</w>": 5136,
  "gate</w>": 5137,
  "networks</w>": 5138,
  "assur\u00e9</w>": 5139,
  "Mus": 5140,
  "\u00e9v\u00e9nement</w>": 5141,
  "baseball</w>": 5142,
  "faisant</w>": 5143,
  "esp\u00e8re</w>": 5144,
  "Sanders</w>": 5145,
  "Bell</w>": 5146,
  "consecutive</w>": 5147,
  "amis</w>": 5148,
  "garden</w>": 5149,
  "terre</w>": 5150,
  "stepped</w>": 5151,
  "uc": 5152,
  "revenus</w>": 5153,
  "villes</w>": 5154,
  "espace</w>": 5155,
  "essential</w>": 5156,
  "classic</w>": 5157,
  "suivi</w>": 5158,
  "cited</w>": 5159,
  "qui": 5160,
  "Up</w>": 5161,
  "stayed</w>": 5162,
  "discussed</w>": 5163,
  "Several</w>": 5164,
  "beating</w>": 5165,
  "Ross</w>": 5166,
  "drew</w>": 5167,
  "adult</w>": 5168,
  "dette</w>": 5169,
  "Gi": 5170,
  "Rock</w>": 5171,
  "desire</w>": 5172,
  "ders</w>": 5173,
  "reprise</w>": 5174,
  "compris</w>": 5175,
  "4,": 5176,
  "Food</w>": 5177,
  "Vo": 5178,
  "Mitchell</w>": 5179,
  "objet</w>": 5180,
  "featured</w>": 5181,
  "solid</w>": 5182,
  "programmes</w>": 5183,
  "83</w>": 5184,
  "ol</w>": 5185,
  "Hamas</w>": 5186,
  "Exchange</w>": 5187,
  "practices</w>": 5188,
  "selection</w>": 5189,
  "combination</w>": 5190,
  "Disney</w>": 5191,
  "mid": 5192,
  "lets</w>": 5193,
  "Swiss</w>": 5194,
  "down": 5195,
  "oo": 5196,
  "Mayor</w>": 5197,
  "Mad": 5198,
  "win": 5199,
  "Michelle</w>": 5200,
  "bench</w>": 5201,
  "zones</w>": 5202,
  "meilleure</w>": 5203,
  "racing</w>": 5204,
  "Pri": 5205,
  "ast</w>": 5206,
  "voter</w>": 5207,
  "proc\u00e8s</w>": 5208,
  "Pu": 5209,
  "poverty</w>": 5210,
  "revanche</w>": 5211,
  "existence</w>": 5212,
  "delay</w>": 5213,
  "finds</w>": 5214,
  "Vladimir</w>": 5215,
  "ministry</w>": 5216,
  "celles</w>": 5217,
  "avocat</w>": 5218,
  "Science</w>": 5219,
  "Sa</w>": 5220,
  "Sou": 5221,
  "links</w>": 5222,
  "Harper</w>": 5223,
  "seized</w>": 5224,
  "Airlines</w>": 5225,
  "shoot</w>": 5226,
  "fee</w>": 5227,
  "fer</w>": 5228,
  "partnership</w>": 5229,
  "tle</w>": 5230,
  "Live</w>": 5231,
  "Alain</w>": 5232,
  "passenger</w>": 5233,
  "journalistes</w>": 5234,
  "russe</w>": 5235,
  "veulent</w>": 5236,
  "aine</w>": 5237,
  "Jose</w>": 5238,
  "1990</w>": 5239,
  "religion</w>": 5240,
  "lic": 5241,
  "Little</w>": 5242,
  "multi": 5243,
  "reaching</w>": 5244,
  "forms</w>": 5245,
  "Fin": 5246,
  "widespread</w>": 5247,
  "trouv\u00e9</w>": 5248,
  "shoulder</w>": 5249,
  "joining</w>": 5250,
  "ori": 5251,
  "innovation</w>": 5252,
  "deadly</w>": 5253,
  "Law</w>": 5254,
  "CA</w>": 5255,
  "Oh</w>": 5256,
  "backs</w>": 5257,
  "doors</w>": 5258,
  "30": 5259,
  "guests</w>": 5260,
  "confirm\u00e9</w>": 5261,
  "lieux</w>": 5262,
  "elli</w>": 5263,
  "ical</w>": 5264,
  "THE</w>": 5265,
  "devenir</w>": 5266,
  "moral</w>": 5267,
  "sn": 5268,
  "flag</w>": 5269,
  "armes</w>": 5270,
  "int\u00e9rieur</w>": 5271,
  "vivre</w>": 5272,
  "particulier</w>": 5273,
  "Picture</w>": 5274,
  "earn</w>": 5275,
  "importante</w>": 5276,
  "Sweden</w>": 5277,
  "Gulf</w>": 5278,
  "ko": 5279,
  "races</w>": 5280,
  "pourra</w>": 5281,
  "six-": 5282,
  "relatives</w>": 5283,
  "preparing</w>": 5284,
  "minority</w>": 5285,
  "improving</w>": 5286,
  "ese</w>": 5287,
  "dd</w>": 5288,
  "wonder</w>": 5289,
  "legs</w>": 5290,
  "rating</w>": 5291,
  "Mur": 5292,
  "therefore</w>": 5293,
  "faster</w>": 5294,
  "ished</w>": 5295,
  "engaged</w>": 5296,
  "regarding</w>": 5297,
  "fruit</w>": 5298,
  "upset</w>": 5299,
  "counts</w>": 5300,
  "84</w>": 5301,
  "obtenu</w>": 5302,
  "rent</w>": 5303,
  "behalf</w>": 5304,
  "jumped</w>": 5305,
  "half-": 5306,
  "designer</w>": 5307,
  "girlfriend</w>": 5308,
  "celebrate</w>": 5309,
  "tourists</w>": 5310,
  "fill</w>": 5311,
  "hero</w>": 5312,
  "ra": 5313,
  "rail</w>": 5314,
  "Russell</w>": 5315,
  "W.</w>": 5316,
  "pleased</w>": 5317,
  "environnement</w>": 5318,
  "owns</w>": 5319,
  "IN": 5320,
  "wage</w>": 5321,
  "Brussels</w>": 5322,
  "entry</w>": 5323,
  "ena</w>": 5324,
  "tis</w>": 5325,
  "diplomatic</w>": 5326,
  "Aujourd'</w>": 5327,
  "vert</w>": 5328,
  "Ferguson</w>": 5329,
  "challenging</w>": 5330,
  "quel</w>": 5331,
  "solar</w>": 5332,
  "jump</w>": 5333,
  "r\u00e9alis\u00e9</w>": 5334,
  "bars</w>": 5335,
  "cal": 5336,
  "ast": 5337,
  "Corporation</w>": 5338,
  "reduction</w>": 5339,
  "disappointed</w>": 5340,
  "urgence</w>": 5341,
  "except</w>": 5342,
  "backing</w>": 5343,
  "00": 5344,
  "oned</w>": 5345,
  "winds</w>": 5346,
  "accus\u00e9</w>": 5347,
  "stadium</w>": 5348,
  "indeed</w>": 5349,
  "bright</w>": 5350,
  "mixed</w>": 5351,
  "broad</w>": 5352,
  "valeurs</w>": 5353,
  "financi\u00e8re</w>": 5354,
  "r\u00e9cemment</w>": 5355,
  "temporary</w>": 5356,
  "86</w>": 5357,
  "locaux</w>": 5358,
  "inning</w>": 5359,
  "tic": 5360,
  "mandat</w>": 5361,
  "Barcelona</w>": 5362,
  "complaint</w>": 5363,
  "Newcastle</w>": 5364,
  "saved</w>": 5365,
  "shouldn</w>": 5366,
  "Massachusetts</w>": 5367,
  "Universit\u00e9</w>": 5368,
  "Por": 5369,
  "begun</w>": 5370,
  "awards</w>": 5371,
  "Christopher</w>": 5372,
  "campus</w>": 5373,
  "commune</w>": 5374,
  "kitchen</w>": 5375,
  "dating</w>": 5376,
  "moyen</w>": 5377,
  "sensitive</w>": 5378,
  "Notre</w>": 5379,
  "exciting</w>": 5380,
  "Pennsylvania</w>": 5381,
  "rouge</w>": 5382,
  "entertainment</w>": 5383,
  "et-": 5384,
  "fled</w>": 5385,
  "cer": 5386,
  "represented</w>": 5387,
  "peur</w>": 5388,
  "winners</w>": 5389,
  "Dun": 5390,
  "cha\u00eene</w>": 5391,
  "hors</w>": 5392,
  "ologist</w>": 5393,
  "Guardian</w>": 5394,
  "sounds</w>": 5395,
  "sugar</w>": 5396,
  "operate</w>": 5397,
  "purpose</w>": 5398,
  "Cruz</w>": 5399,
  "farmers</w>": 5400,
  "Espagne</w>": 5401,
  "quoted</w>": 5402,
  "ord": 5403,
  "moiti\u00e9</w>": 5404,
  "Port</w>": 5405,
  "neck</w>": 5406,
  "marks</w>": 5407,
  "t\u00e9l\u00e9vision</w>": 5408,
  "Cam": 5409,
  "outstanding</w>": 5410,
  "ti</w>": 5411,
  "burn</w>": 5412,
  "off-": 5413,
  "Golden</w>": 5414,
  "bear</w>": 5415,
  "circuit</w>": 5416,
  "numerous</w>": 5417,
  "explains</w>": 5418,
  "suggesting</w>": 5419,
  "institution</w>": 5420,
  "pa": 5421,
  "Neil</w>": 5422,
  "auraient</w>": 5423,
  "bat</w>": 5424,
  "am\u00e9ricains</w>": 5425,
  "Lyon</w>": 5426,
  "ha</w>": 5427,
  "top-": 5428,
  "tent</w>": 5429,
  "Having</w>": 5430,
  "peak</w>": 5431,
  "expression</w>": 5432,
  "reflect</w>": 5433,
  "prepare</w>": 5434,
  "extraordinary</w>": 5435,
  "Perhaps</w>": 5436,
  "ear": 5437,
  "Officials</w>": 5438,
  "Care</w>": 5439,
  "engage</w>": 5440,
  "handle</w>": 5441,
  "week-end</w>": 5442,
  "jailed</w>": 5443,
  "materials</w>": 5444,
  "\u00e9tais</w>": 5445,
  "Net</w>": 5446,
  "d\u00e9put\u00e9s</w>": 5447,
  "79</w>": 5448,
  "05</w>": 5449,
  "Perth</w>": 5450,
  "Assembl\u00e9e</w>": 5451,
  "montant</w>": 5452,
  "confirm</w>": 5453,
  "electric</w>": 5454,
  "meat</w>": 5455,
  "gaz</w>": 5456,
  "Executive</w>": 5457,
  "\u00e9tudes</w>": 5458,
  "Mexican</w>": 5459,
  "New": 5460,
  "Ed": 5461,
  "changer</w>": 5462,
  "ari</w>": 5463,
  "suddenly</w>": 5464,
  "Cr": 5465,
  "investigations</w>": 5466,
  "teenager</w>": 5467,
  "fil": 5468,
  "Warner</w>": 5469,
  "remport\u00e9</w>": 5470,
  "81</w>": 5471,
  "prize</w>": 5472,
  "atic</w>": 5473,
  "margin</w>": 5474,
  "devra</w>": 5475,
  "reducing</w>": 5476,
  "r\u00e9alit\u00e9</w>": 5477,
  "She": 5478,
  "cameras</w>": 5479,
  "bit": 5480,
  "pleaded</w>": 5481,
  "OK</w>": 5482,
  "seraient</w>": 5483,
  "chosen</w>": 5484,
  "chefs</w>": 5485,
  "900</w>": 5486,
  "plastic</w>": 5487,
  "river</w>": 5488,
  "S.</w>": 5489,
  "mas": 5490,
  "IT</w>": 5491,
  "letters</w>": 5492,
  "Front</w>": 5493,
  "clash</w>": 5494,
  "dd": 5495,
  "lunch</w>": 5496,
  "approximately</w>": 5497,
  "devenu</w>": 5498,
  "Sar": 5499,
  "Bruxelles</w>": 5500,
  "it\u00e9</w>": 5501,
  "Standard</w>": 5502,
  "hate</w>": 5503,
  "06</w>": 5504,
  "changement</w>": 5505,
  "Carter</w>": 5506,
  "Minnesota</w>": 5507,
  "Maybe</w>": 5508,
  "del</w>": 5509,
  "sick</w>": 5510,
  "Fi": 5511,
  "creative</w>": 5512,
  "processus</w>": 5513,
  "collaboration</w>": 5514,
  "th-": 5515,
  "achieved</w>": 5516,
  "gang</w>": 5517,
  "radical</w>": 5518,
  "predicted</w>": 5519,
  "Crown</w>": 5520,
  "scenes</w>": 5521,
  "improvement</w>": 5522,
  "Dec.</w>": 5523,
  "D.C.</w>": 5524,
  "Phil</w>": 5525,
  "bilan</w>": 5526,
  "apparent</w>": 5527,
  "ries</w>": 5528,
  "limits</w>": 5529,
  "clo": 5530,
  "hockey</w>": 5531,
  "equal</w>": 5532,
  "guns</w>": 5533,
  "hom": 5534,
  "investissement</w>": 5535,
  "eng": 5536,
  "ances</w>": 5537,
  "Each</w>": 5538,
  "Lady</w>": 5539,
  "Price</w>": 5540,
  "eting</w>": 5541,
  "ourselves</w>": 5542,
  "Dave</w>": 5543,
  "athletes</w>": 5544,
  "ki": 5545,
  "Gal": 5546,
  "dominated</w>": 5547,
  "rappelle</w>": 5548,
  "royal</w>": 5549,
  "formal</w>": 5550,
  "ser</w>": 5551,
  "enfin</w>": 5552,
  "Celtic</w>": 5553,
  "Seattle</w>": 5554,
  "domicile</w>": 5555,
  "Strasbourg</w>": 5556,
  "schedule</w>": 5557,
  "Tur": 5558,
  "souhaite</w>": 5559,
  "Team</w>": 5560,
  "involvement</w>": 5561,
  "fac": 5562,
  "Philip</w>": 5563,
  "laid</w>": 5564,
  "87</w>": 5565,
  "ath</w>": 5566,
  "founded</w>": 5567,
  "invited</w>": 5568,
  "Local</w>": 5569,
  "municipal</w>": 5570,
  "verdict</w>": 5571,
  "pack</w>": 5572,
  "referring</w>": 5573,
  "wonderful</w>": 5574,
  "militant</w>": 5575,
  "NR": 5576,
  "stolen</w>": 5577,
  "wider</w>": 5578,
  "beaten</w>": 5579,
  "resort</w>": 5580,
  "cin\u00e9ma</w>": 5581,
  "illness</w>": 5582,
  "Comment</w>": 5583,
  "master</w>": 5584,
  "pr\u00eat</w>": 5585,
  "waters</w>": 5586,
  "ton": 5587,
  "Mag": 5588,
  "unions</w>": 5589,
  "\u00e9tape</w>": 5590,
  "properly</w>": 5591,
  "Bon": 5592,
  "ella</w>": 5593,
  "Sans</w>": 5594,
  "consommation</w>": 5595,
  "Palace</w>": 5596,
  "CO": 5597,
  "classement</w>": 5598,
  "1996</w>": 5599,
  "enti": 5600,
  "Pan": 5601,
  "asset</w>": 5602,
  "honest</w>": 5603,
  "Five</w>": 5604,
  "witnesses</w>": 5605,
  "striker</w>": 5606,
  "\u00e9tudiants</w>": 5607,
  "augmentation</w>": 5608,
  "motion</w>": 5609,
  "thrown</w>": 5610,
  "tiers</w>": 5611,
  "bedroom</w>": 5612,
  "symptoms</w>": 5613,
  "Free</w>": 5614,
  "veille</w>": 5615,
  "20-": 5616,
  "investigate</w>": 5617,
  "pping</w>": 5618,
  "AT</w>": 5619,
  "92</w>": 5620,
  "planet</w>": 5621,
  "bles</w>": 5622,
  "interviews</w>": 5623,
  "jet</w>": 5624,
  "Jennifer</w>": 5625,
  "telephone</w>": 5626,
  "Greg</w>": 5627,
  "Maryland</w>": 5628,
  "recovered</w>": 5629,
  "voyage</w>": 5630,
  "stade</w>": 5631,
  "Angela</w>": 5632,
  "ado</w>": 5633,
  "Network</w>": 5634,
  "invest</w>": 5635,
  "Attorney</w>": 5636,
  "mining</w>": 5637,
  "5,": 5638,
  "multi-": 5639,
  "r\u00e9duire</w>": 5640,
  "pas": 5641,
  "SA</w>": 5642,
  "locations</w>": 5643,
  "Cleveland</w>": 5644,
  "Bruce</w>": 5645,
  "brands</w>": 5646,
  "1.5</w>": 5647,
  "atmosphere</w>": 5648,
  "parliamentary</w>": 5649,
  "Ren": 5650,
  "privacy</w>": 5651,
  "t\u00e9s</w>": 5652,
  "exit</w>": 5653,
  "Stanley</w>": 5654,
  "relationships</w>": 5655,
  "ny</w>": 5656,
  "soft</w>": 5657,
  "sight</w>": 5658,
  "trains</w>": 5659,
  "Back</w>": 5660,
  "ani": 5661,
  "Bas": 5662,
  "laisser</w>": 5663,
  "signal</w>": 5664,
  "relative</w>": 5665,
  "convention</w>": 5666,
  "nouvel</w>": 5667,
  "Corp</w>": 5668,
  "bags</w>": 5669,
  "Ra": 5670,
  "AM": 5671,
  "ille</w>": 5672,
  "Bourse</w>": 5673,
  "Portugal</w>": 5674,
  "shops</w>": 5675,
  "1994</w>": 5676,
  "informed</w>": 5677,
  "telle</w>": 5678,
  "Dutch</w>": 5679,
  "impose</w>": 5680,
  "survived</w>": 5681,
  "staying</w>": 5682,
  "olo": 5683,
  "detailed</w>": 5684,
  "brothers</w>": 5685,
  "spotted</w>": 5686,
  "LA</w>": 5687,
  "ente</w>": 5688,
  "facts</w>": 5689,
  "extend</w>": 5690,
  "Robinson</w>": 5691,
  "preuve</w>": 5692,
  "ist": 5693,
  "smoke</w>": 5694,
  "ther": 5695,
  "sem": 5696,
  "12.": 5697,
  "ail": 5698,
  "length</w>": 5699,
  "Bri": 5700,
  "anywhere</w>": 5701,
  "extent</w>": 5702,
  "welfare</w>": 5703,
  "rendez-vous</w>": 5704,
  "metal</w>": 5705,
  "ira</w>": 5706,
  "flu": 5707,
  "seconde</w>": 5708,
  "ward</w>": 5709,
  "nie</w>": 5710,
  "Nigeria</w>": 5711,
  "Pen</w>": 5712,
  "50,000</w>": 5713,
  "tier</w>": 5714,
  "Cooper</w>": 5715,
  "Jamie</w>": 5716,
  "Calif</w>": 5717,
  "96</w>": 5718,
  "writers</w>": 5719,
  "Blair</w>": 5720,
  "senator</w>": 5721,
  "pur": 5722,
  "Series</w>": 5723,
  "vin</w>": 5724,
  "alist</w>": 5725,
  "ites</w>": 5726,
  "appel\u00e9</w>": 5727,
  "pollution</w>": 5728,
  "regions</w>": 5729,
  "sign\u00e9</w>": 5730,
  "destination</w>": 5731,
  "ts": 5732,
  "08</w>": 5733,
  "super</w>": 5734,
  "pr\u00e9voit</w>": 5735,
  "citing</w>": 5736,
  "financier</w>": 5737,
  "ens": 5738,
  "ello</w>": 5739,
  "Bridge</w>": 5740,
  "sang</w>": 5741,
  "saving</w>": 5742,
  "detail</w>": 5743,
  "My": 5744,
  "temperatures</w>": 5745,
  "ce": 5746,
  "referred</w>": 5747,
  "opposite</w>": 5748,
  "\u00e9mission</w>": 5749,
  "fields</w>": 5750,
  "iner</w>": 5751,
  "payer</w>": 5752,
  "membre</w>": 5753,
  "faisait</w>": 5754,
  "Ag": 5755,
  "prisoners</w>": 5756,
  "bons</w>": 5757,
  "por": 5758,
  "blo": 5759,
  "parcours</w>": 5760,
  "aime</w>": 5761,
  "grade</w>": 5762,
  "ch\u00f4mage</w>": 5763,
  "comp\u00e9tition</w>": 5764,
  "Dow</w>": 5765,
  "promotion</w>": 5766,
  "detained</w>": 5767,
  "franchise</w>": 5768,
  "Sean</w>": 5769,
  "Ainsi</w>": 5770,
  "ths</w>": 5771,
  "awarded</w>": 5772,
  "bail</w>": 5773,
  "Kansas</w>": 5774,
  "Jon</w>": 5775,
  "lying</w>": 5776,
  "prosecutor</w>": 5777,
  "Al-": 5778,
  "sol</w>": 5779,
  "partly</w>": 5780,
  "Edward</w>": 5781,
  "hall</w>": 5782,
  "120</w>": 5783,
  "Dem": 5784,
  "native</w>": 5785,
  "prominent</w>": 5786,
  "tered</w>": 5787,
  "ST": 5788,
  "lim": 5789,
  "1990s</w>": 5790,
  "mouth</w>": 5791,
  "entendre</w>": 5792,
  "speculation</w>": 5793,
  "Corp.</w>": 5794,
  "proper</w>": 5795,
  "Tous</w>": 5796,
  "lit</w>": 5797,
  "barely</w>": 5798,
  "repr\u00e9sente</w>": 5799,
  "roll</w>": 5800,
  "adi</w>": 5801,
  "1980s</w>": 5802,
  "alliance</w>": 5803,
  "ram": 5804,
  "tre": 5805,
  "pal": 5806,
  "Sel": 5807,
  "spirit</w>": 5808,
  "f\u00eate</w>": 5809,
  "factory</w>": 5810,
  "boo": 5811,
  "ass</w>": 5812,
  "D-": 5813,
  "char": 5814,
  "Mul": 5815,
  "ene</w>": 5816,
  "toll</w>": 5817,
  "feed</w>": 5818,
  "attendre</w>": 5819,
  "201": 5820,
  "Guy</w>": 5821,
  "tab": 5822,
  "lier</w>": 5823,
  "gen": 5824,
  "Aug.</w>": 5825,
  "volont\u00e9</w>": 5826,
  "Milan</w>": 5827,
  "ams</w>": 5828,
  "fail</w>": 5829,
  "cour": 5830,
  "Boeing</w>": 5831,
  "ades</w>": 5832,
  "50": 5833,
  "bombing</w>": 5834,
  "sorte</w>": 5835,
  "Tor": 5836,
  "civilian</w>": 5837,
  "expense</w>": 5838,
  "estimate</w>": 5839,
  "frais</w>": 5840,
  "lien</w>": 5841,
  "totally</w>": 5842,
  "Prix</w>": 5843,
  "necessarily</w>": 5844,
  "ire</w>": 5845,
  "beer</w>": 5846,
  "planes</w>": 5847,
  "Sol": 5848,
  "2-1</w>": 5849,
  "faveur</w>": 5850,
  "roles</w>": 5851,
  "Federer</w>": 5852,
  "collective</w>": 5853,
  "badly</w>": 5854,
  "pound</w>": 5855,
  "ational</w>": 5856,
  "EN": 5857,
  "alism</w>": 5858,
  "journaliste</w>": 5859,
  "Hal": 5860,
  "outs</w>": 5861,
  "ily</w>": 5862,
  "favour</w>": 5863,
  "survive</w>": 5864,
  "continuer</w>": 5865,
  "revenir</w>": 5866,
  "milliard</w>": 5867,
  "stretch</w>": 5868,
  "ung</w>": 5869,
  "terrorists</w>": 5870,
  "occasions</w>": 5871,
  "establish</w>": 5872,
  "dates</w>": 5873,
  "dedicated</w>": 5874,
  "satellite</w>": 5875,
  "amounts</w>": 5876,
  "conclusion</w>": 5877,
  "zz": 5878,
  "welcomed</w>": 5879,
  "fu": 5880,
  "93</w>": 5881,
  "auction</w>": 5882,
  "conviction</w>": 5883,
  "fying</w>": 5884,
  "Pakistani</w>": 5885,
  "junior</w>": 5886,
  "AC": 5887,
  "hy": 5888,
  "Securities</w>": 5889,
  "chat</w>": 5890,
  "tor</w>": 5891,
  "knowing</w>": 5892,
  "98</w>": 5893,
  "plot</w>": 5894,
  "abortion</w>": 5895,
  "pon": 5896,
  "Cri": 5897,
  "producers</w>": 5898,
  "simplement</w>": 5899,
  "n\u00e9cessaire</w>": 5900,
  "yen</w>": 5901,
  "Next</w>": 5902,
  "lui-m\u00eame</w>": 5903,
  "fera</w>": 5904,
  "dos</w>": 5905,
  "equivalent</w>": 5906,
  "commander</w>": 5907,
  "ama</w>": 5908,
  "imposed</w>": 5909,
  "Argentina</w>": 5910,
  "routes</w>": 5911,
  "bras</w>": 5912,
  "fix</w>": 5913,
  "ong": 5914,
  "proof</w>": 5915,
  "finals</w>": 5916,
  "announce</w>": 5917,
  "Authority</w>": 5918,
  "proches</w>": 5919,
  "regulatory</w>": 5920,
  "differences</w>": 5921,
  "ave</w>": 5922,
  "sey</w>": 5923,
  "helicopter</w>": 5924,
  "09</w>": 5925,
  "aj": 5926,
  "Development</w>": 5927,
  "vos</w>": 5928,
  "Claude</w>": 5929,
  "chute</w>": 5930,
  "bola</w>": 5931,
  "exploitation</w>": 5932,
  "hor": 5933,
  "Roberts</w>": 5934,
  "incredible</w>": 5935,
  "settled</w>": 5936,
  "Antonio</w>": 5937,
  "ets</w>": 5938,
  "Clarke</w>": 5939,
  "Second</w>": 5940,
  "dri": 5941,
  "tru": 5942,
  "Super": 5943,
  "bull</w>": 5944,
  "Lions</w>": 5945,
  "Jimmy</w>": 5946,
  "swe": 5947,
  "1-0</w>": 5948,
  "Parlement</w>": 5949,
  "hardly</w>": 5950,
  "forget</w>": 5951,
  "atteindre</w>": 5952,
  "exception</w>": 5953,
  "Men": 5954,
  "AD</w>": 5955,
  "capture</w>": 5956,
  "ming</w>": 5957,
  "humans</w>": 5958,
  "r\u00e9pondre</w>": 5959,
  "pouvait</w>": 5960,
  "Nice</w>": 5961,
  "compter</w>": 5962,
  "ion</w>": 5963,
  "blocked</w>": 5964,
  "choisi</w>": 5965,
  "Khan</w>": 5966,
  "ving</w>": 5967,
  "auront</w>": 5968,
  "Ap": 5969,
  "Ram": 5970,
  "entering</w>": 5971,
  "wore</w>": 5972,
  "controversy</w>": 5973,
  "iss": 5974,
  "dic": 5975,
  "chemin</w>": 5976,
  "marijuana</w>": 5977,
  "zi": 5978,
  "Campbell</w>": 5979,
  "R\u00e9": 5980,
  "ES</w>": 5981,
  "europ\u00e9ens</w>": 5982,
  "concernant</w>": 5983,
  "ture</w>": 5984,
  "\u00e9conomiques</w>": 5985,
  "Vietnam</w>": 5986,
  "aides</w>": 5987,
  "Sun": 5988,
  "co\u00fbt</w>": 5989,
  "At": 5990,
  "marche</w>": 5991,
  "lin": 5992,
  "Yemen</w>": 5993,
  "situations</w>": 5994,
  "25": 5995,
  "walls</w>": 5996,
  "Authorities</w>": 5997,
  "Haw": 5998,
  "cheap</w>": 5999,
  "Gri": 6000,
  "extension</w>": 6001,
  "Rick</w>": 6002,
  "diff\u00e9rentes</w>": 6003,
  "momentum</w>": 6004,
  "diagnosed</w>": 6005,
  "function</w>": 6006,
  "Islam</w>": 6007,
  "resident</w>": 6008,
  "reg": 6009,
  "Plusieurs</w>": 6010,
  "hadn</w>": 6011,
  "threatening</w>": 6012,
  "surge</w>": 6013,
  "channel</w>": 6014,
  "titles</w>": 6015,
  "metres</w>": 6016,
  "assessment</w>": 6017,
  "d\u00e9penses</w>": 6018,
  "CIA</w>": 6019,
  "All": 6020,
  "Ontario</w>": 6021,
  "associations</w>": 6022,
  "gre": 6023,
  "regulation</w>": 6024,
  "encouraged</w>": 6025,
  "Updated</w>": 6026,
  "promises</w>": 6027,
  "shocked</w>": 6028,
  "basketball</w>": 6029,
  "R-": 6030,
  "camps</w>": 6031,
  "paix</w>": 6032,
  "defender</w>": 6033,
  "ministres</w>": 6034,
  "aires</w>": 6035,
  "Read</w>": 6036,
  "PC</w>": 6037,
  "somebody</w>": 6038,
  "Terry</w>": 6039,
  "representing</w>": 6040,
  "Rou": 6041,
  "listen</w>": 6042,
  "diet</w>": 6043,
  "Toyota</w>": 6044,
  "gro": 6045,
  "keeps</w>": 6046,
  "sad</w>": 6047,
  "sommet</w>": 6048,
  "11.": 6049,
  "istes</w>": 6050,
  "protected</w>": 6051,
  "Mars</w>": 6052,
  "v\u00e9hicule</w>": 6053,
  "r\u00e9ponse</w>": 6054,
  "regulators</w>": 6055,
  "ush": 6056,
  "d\u00e9faite</w>": 6057,
  "Shi": 6058,
  "Qatar</w>": 6059,
  "May": 6060,
  "mod\u00e8le</w>": 6061,
  "arguments</w>": 6062,
  "risques</w>": 6063,
  "Any</w>": 6064,
  "at-": 6065,
  "\u00b0</w>": 6066,
  "ston</w>": 6067,
  "exhibition</w>": 6068,
  "eless</w>": 6069,
  "bio": 6070,
  "print</w>": 6071,
  "soldier</w>": 6072,
  "sweet</w>": 6073,
  "contained</w>": 6074,
  "Independent</w>": 6075,
  "tea</w>": 6076,
  "ack": 6077,
  "esprit</w>": 6078,
  "bury</w>": 6079,
  "empty</w>": 6080,
  "Cour": 6081,
  "tering</w>": 6082,
  "dev": 6083,
  "degrees</w>": 6084,
  "dressed</w>": 6085,
  "Brooklyn</w>": 6086,
  "Oklahoma</w>": 6087,
  "substantial</w>": 6088,
  "Parmi</w>": 6089,
  "belief</w>": 6090,
  "arrival</w>": 6091,
  "scientific</w>": 6092,
  "hired</w>": 6093,
  "\u00e9l\u00e9ments</w>": 6094,
  "UN": 6095,
  "officially</w>": 6096,
  "ind": 6097,
  "missions</w>": 6098,
  "Chi": 6099,
  "stability</w>": 6100,
  "Lam": 6101,
  "signature</w>": 6102,
  "ov</w>": 6103,
  "proposition</w>": 6104,
  "holes</w>": 6105,
  "tons</w>": 6106,
  "milk</w>": 6107,
  "libre</w>": 6108,
  "normally</w>": 6109,
  "ala</w>": 6110,
  "demanding</w>": 6111,
  "comp": 6112,
  "07</w>": 6113,
  "refuse</w>": 6114,
  "clinical</w>": 6115,
  "investisseurs</w>": 6116,
  "Ker": 6117,
  "kilom\u00e8tres</w>": 6118,
  "newly</w>": 6119,
  "dge</w>": 6120,
  "requirements</w>": 6121,
  "consensus</w>": 6122,
  "acy</w>": 6123,
  "economist</w>": 6124,
  "delayed</w>": 6125,
  "weapon</w>": 6126,
  "cat</w>": 6127,
  "taste</w>": 6128,
  "breast</w>": 6129,
  "rely</w>": 6130,
  "shadow</w>": 6131,
  "vis": 6132,
  "correct</w>": 6133,
  "Ku": 6134,
  "Enfin</w>": 6135,
  "Hampshire</w>": 6136,
  "t\u00e9e</w>": 6137,
  "Wright</w>": 6138,
  "replied</w>": 6139,
  "rebel</w>": 6140,
  "Wh": 6141,
  "judiciaire</w>": 6142,
  "ambassador</w>": 6143,
  "centaines</w>": 6144,
  "balls</w>": 6145,
  "ratings</w>": 6146,
  "reconnu</w>": 6147,
  "ease</w>": 6148,
  "Ter": 6149,
  "smoking</w>": 6150,
  "Suisse</w>": 6151,
  "publiques</w>": 6152,
  "repeated</w>": 6153,
  "handling</w>": 6154,
  "creation</w>": 6155,
  "desperate</w>": 6156,
  "exports</w>": 6157,
  "Luke</w>": 6158,
  "gn": 6159,
  "Osborne</w>": 6160,
  "fy</w>": 6161,
  "silver</w>": 6162,
  "imp": 6163,
  "ck</w>": 6164,
  "Sport</w>": 6165,
  "Indonesia</w>": 6166,
  "gri": 6167,
  "militaires</w>": 6168,
  "gagn\u00e9</w>": 6169,
  "controls</w>": 6170,
  "venture</w>": 6171,
  "consistent</w>": 6172,
  "lis</w>": 6173,
  "joue</w>": 6174,
  "zer</w>": 6175,
  "ONU</w>": 6176,
  "possibilit\u00e9</w>": 6177,
  "q</w>": 6178,
  "applied</w>": 6179,
  "Bat": 6180,
  "suffer</w>": 6181,
  "experiences</w>": 6182,
  "actors</w>": 6183,
  "v\u00e9hicules</w>": 6184,
  "def": 6185,
  "rem": 6186,
  "strat\u00e9gie</w>": 6187,
  "calm</w>": 6188,
  "02</w>": 6189,
  "91</w>": 6190,
  "West": 6191,
  "uncertainty</w>": 6192,
  "eman</w>": 6193,
  "mots</w>": 6194,
  "tion": 6195,
  "lan</w>": 6196,
  "Dor": 6197,
  "adopted</w>": 6198,
  "Pol": 6199,
  "uni": 6200,
  "ile</w>": 6201,
  "amour</w>": 6202,
  "tone</w>": 6203,
  "mountain</w>": 6204,
  "v\u00e9ritable</w>": 6205,
  "tension</w>": 6206,
  "SE": 6207,
  "tonnes</w>": 6208,
  "defending</w>": 6209,
  "probe</w>": 6210,
  "und</w>": 6211,
  "avez</w>": 6212,
  "cher": 6213,
  "Bloomberg</w>": 6214,
  "Cur": 6215,
  "seventh</w>": 6216,
  "Banque</w>": 6217,
  "presidency</w>": 6218,
  "slowly</w>": 6219,
  "CA": 6220,
  "d\u00e9s": 6221,
  "Quant</w>": 6222,
  "exposure</w>": 6223,
  "stages</w>": 6224,
  "therapy</w>": 6225,
  "producing</w>": 6226,
  "aking</w>": 6227,
  "partis</w>": 6228,
  "broader</w>": 6229,
  "UE</w>": 6230,
  "bel</w>": 6231,
  "col": 6232,
  "ranked</w>": 6233,
  "noticed</w>": 6234,
  "departure</w>": 6235,
  "r\u00e9seaux</w>": 6236,
  "4,000</w>": 6237,
  "Whit": 6238,
  "tournoi</w>": 6239,
  "ned</w>": 6240,
  "remote</w>": 6241,
  "circulation</w>": 6242,
  "\u00e9r": 6243,
  "12-": 6244,
  "Leader</w>": 6245,
  "menace</w>": 6246,
  "tools</w>": 6247,
  "ili": 6248,
  "sparked</w>": 6249,
  "analyse</w>": 6250,
  "Others</w>": 6251,
  "15-": 6252,
  "Egyptian</w>": 6253,
  "mains</w>": 6254,
  "monitoring</w>": 6255,
  "acteurs</w>": 6256,
  "Soviet</w>": 6257,
  "discrimination</w>": 6258,
  "Space</w>": 6259,
  "ans": 6260,
  "montre</w>": 6261,
  "forcing</w>": 6262,
  "featuring</w>": 6263,
  "chers</w>": 6264,
  "sec": 6265,
  "Malgr\u00e9</w>": 6266,
  "fantastic</w>": 6267,
  "allait</w>": 6268,
  "Lors</w>": 6269,
  "gal": 6270,
  "unknown</w>": 6271,
  "Baghdad</w>": 6272,
  "exposition</w>": 6273,
  "abandoned</w>": 6274,
  "opens</w>": 6275,
  "04</w>": 6276,
  "packed</w>": 6277,
  "rest": 6278,
  "tt": 6279,
  "bless\u00e9s</w>": 6280,
  "historical</w>": 6281,
  "ettes</w>": 6282,
  "parole</w>": 6283,
  "Budget</w>": 6284,
  "championnat</w>": 6285,
  "laiss\u00e9</w>": 6286,
  "breaks</w>": 6287,
  "posts</w>": 6288,
  "courses</w>": 6289,
  "resulted</w>": 6290,
  "rap": 6291,
  "eighth</w>": 6292,
  "Week</w>": 6293,
  "Coalition</w>": 6294,
  "elite</w>": 6295,
  "prosecution</w>": 6296,
  "Nadal</w>": 6297,
  "Samsung</w>": 6298,
  "ere</w>": 6299,
  "tragedy</w>": 6300,
  "ES": 6301,
  "striking</w>": 6302,
  "raisons</w>": 6303,
  "documentary</w>": 6304,
  "mood</w>": 6305,
  "Christie</w>": 6306,
  "travelling</w>": 6307,
  "capacit\u00e9</w>": 6308,
  "Yo": 6309,
  "tically</w>": 6310,
  "contexte</w>": 6311,
  "Islamist</w>": 6312,
  "cul": 6313,
  "hal": 6314,
  "directors</w>": 6315,
  "r\u00e9gions</w>": 6316,
  "AS</w>": 6317,
  "marqu\u00e9</w>": 6318,
  "monthly</w>": 6319,
  "aging</w>": 6320,
  "Reporter</w>": 6321,
  "nominee</w>": 6322,
  "earthquake</w>": 6323,
  "portfolio</w>": 6324,
  "del": 6325,
  "Pentagon</w>": 6326,
  "94</w>": 6327,
  "theory</w>": 6328,
  "Olivier</w>": 6329,
  "contain</w>": 6330,
  "1992</w>": 6331,
  "io": 6332,
  "arr\u00eat\u00e9</w>": 6333,
  "thoughts</w>": 6334,
  "liberal</w>": 6335,
  "recall</w>": 6336,
  "retailers</w>": 6337,
  "electronic</w>": 6338,
  "map</w>": 6339,
  "specialist</w>": 6340,
  "Pope</w>": 6341,
  "noir</w>": 6342,
  "carte</w>": 6343,
  "Illinois</w>": 6344,
  "favor</w>": 6345,
  "Der": 6346,
  "Out</w>": 6347,
  "bor": 6348,
  "f\u00e9d\u00e9ral</w>": 6349,
  "Vice</w>": 6350,
  "Mario</w>": 6351,
  "Avenue</w>": 6352,
  "visits</w>": 6353,
  "isme</w>": 6354,
  "ed-": 6355,
  "classe</w>": 6356,
  "reprises</w>": 6357,
  "drawing</w>": 6358,
  "historique</w>": 6359,
  "demander</w>": 6360,
  "Tom": 6361,
  "Everyone</w>": 6362,
  "existe</w>": 6363,
  "industries</w>": 6364,
  "soccer</w>": 6365,
  "app": 6366,
  "porter</w>": 6367,
  "funny</w>": 6368,
  "employers</w>": 6369,
  "routine</w>": 6370,
  "frequently</w>": 6371,
  "urban</w>": 6372,
  "convinced</w>": 6373,
  "PA</w>": 6374,
  "successfully</w>": 6375,
  "Hi": 6376,
  "visible</w>": 6377,
  "voulu</w>": 6378,
  "\u00e9tranger</w>": 6379,
  "io</w>": 6380,
  "Han": 6381,
  "selected</w>": 6382,
  "activist</w>": 6383,
  "22": 6384,
  "97</w>": 6385,
  "remarkable</w>": 6386,
  "gift</w>": 6387,
  "Netanyahu</w>": 6388,
  "complained</w>": 6389,
  "tics</w>": 6390,
  "kicked</w>": 6391,
  "babies</w>": 6392,
  "campaigns</w>": 6393,
  "hundred</w>": 6394,
  "\u00e9lu</w>": 6395,
  "si\u00e8cle</w>": 6396,
  "Cat": 6397,
  "Abu</w>": 6398,
  "obtained</w>": 6399,
  "hire</w>": 6400,
  "2-0</w>": 6401,
  "Denis</w>": 6402,
  "raconte</w>": 6403,
  "populaire</w>": 6404,
  "obligations</w>": 6405,
  "celebrity</w>": 6406,
  "fake</w>": 6407,
  "investor</w>": 6408,
  "ges</w>": 6409,
  "landed</w>": 6410,
  "Rob</w>": 6411,
  "iness</w>": 6412,
  "congressional</w>": 6413,
  "fil</w>": 6414,
  "appris</w>": 6415,
  "crashed</w>": 6416,
  "Columbia</w>": 6417,
  "Indeed</w>": 6418,
  "cleared</w>": 6419,
  "py</w>": 6420,
  "n\u00e9e</w>": 6421,
  "ordinary</w>": 6422,
  "jeux</w>": 6423,
  "pr\u00e9senter</w>": 6424,
  "sais</w>": 6425,
  "Avant</w>": 6426,
  "deadline</w>": 6427,
  "Clark</w>": 6428,
  "enormous</w>": 6429,
  "23": 6430,
  "upcoming</w>": 6431,
  "complicated</w>": 6432,
  "comprendre</w>": 6433,
  "rarely</w>": 6434,
  "papers</w>": 6435,
  "Singapore</w>": 6436,
  "Cambridge</w>": 6437,
  "meanwhile</w>": 6438,
  "encouraging</w>": 6439,
  "criticized</w>": 6440,
  "salary</w>": 6441,
  "op\u00e9rations</w>": 6442,
  "parc</w>": 6443,
  "ethnic</w>": 6444,
  "mph</w>": 6445,
  "affair</w>": 6446,
  "Gr\u00e8ce</w>": 6447,
  "Mohamed</w>": 6448,
  "Sk": 6449,
  "fixed</w>": 6450,
  "mate</w>": 6451,
  "artistes</w>": 6452,
  "Wayne</w>": 6453,
  "grav": 6454,
  "sustained</w>": 6455,
  "Birmingham</w>": 6456,
  "Without</w>": 6457,
  "ink</w>": 6458,
  "sis</w>": 6459,
  "Chancellor</w>": 6460,
  "attacking</w>": 6461,
  "nobody</w>": 6462,
  "Information</w>": 6463,
  "surprising</w>": 6464,
  "Mohammed</w>": 6465,
  "poursuit</w>": 6466,
  "Sony</w>": 6467,
  "Chairman</w>": 6468,
  "od": 6469,
  "lending</w>": 6470,
  "tin</w>": 6471,
  "posed</w>": 6472,
  "yellow</w>": 6473,
  "representative</w>": 6474,
  "Giants</w>": 6475,
  "specifically</w>": 6476,
  "Orange</w>": 6477,
  "lists</w>": 6478,
  "killer</w>": 6479,
  "label</w>": 6480,
  "SP": 6481,
  "shirt</w>": 6482,
  "expecting</w>": 6483,
  "sho": 6484,
  "bo</w>": 6485,
  "fun": 6486,
  "tribute</w>": 6487,
  "Wimbledon</w>": 6488,
  "hosts</w>": 6489,
  "cable</w>": 6490,
  "divorce</w>": 6491,
  "ises</w>": 6492,
  "Tro": 6493,
  "r\u00e8gles</w>": 6494,
  "viennent</w>": 6495,
  "Given</w>": 6496,
  "Carlos</w>": 6497,
  "asylum</w>": 6498,
  "thank</w>": 6499,
  "relevant</w>": 6500,
  "Max</w>": 6501,
  "pres": 6502,
  "typical</w>": 6503,
  "ancienne</w>": 6504,
  "ising</w>": 6505,
  "Belgique</w>": 6506,
  "ze": 6507,
  "infection</w>": 6508,
  "Alabama</w>": 6509,
  "no-": 6510,
  "ancient</w>": 6511,
  "engineering</w>": 6512,
  "pic": 6513,
  "string</w>": 6514,
  "recommended</w>": 6515,
  "exercice</w>": 6516,
  "tors</w>": 6517,
  "Men</w>": 6518,
  "menu</w>": 6519,
  "constant</w>": 6520,
  "ich</w>": 6521,
  "Gen": 6522,
  "1970s</w>": 6523,
  "dur\u00e9e</w>": 6524,
  "Welsh</w>": 6525,
  "Catherine</w>": 6526,
  "Sto": 6527,
  "liked</w>": 6528,
  "6-3</w>": 6529,
  "fro": 6530,
  "Euro</w>": 6531,
  "pledged</w>": 6532,
  "arm": 6533,
  "tient</w>": 6534,
  "tir</w>": 6535,
  "avions</w>": 6536,
  "childhood</w>": 6537,
  "20,000</w>": 6538,
  "Miliband</w>": 6539,
  "s\u00e9ance</w>": 6540,
  "Warren</w>": 6541,
  "destruction</w>": 6542,
  "theme</w>": 6543,
  "tracks</w>": 6544,
  "birds</w>": 6545,
  "replacement</w>": 6546,
  "midfielder</w>": 6547,
  "Fort</w>": 6548,
  "Technology</w>": 6549,
  "pipeline</w>": 6550,
  "Trans": 6551,
  "Goldman</w>": 6552,
  "dly</w>": 6553,
  "ta": 6554,
  "Ray</w>": 6555,
  "clothing</w>": 6556,
  "emails</w>": 6557,
  "men": 6558,
  "yl": 6559,
  "serves</w>": 6560,
  "min</w>": 6561,
  "kid</w>": 6562,
  "Marie</w>": 6563,
  "cup</w>": 6564,
  "det": 6565,
  "category</w>": 6566,
  "machines</w>": 6567,
  "Duke</w>": 6568,
  "comptes</w>": 6569,
  "chaos</w>": 6570,
  "photographs</w>": 6571,
  "el-": 6572,
  "port\u00e9</w>": 6573,
  "roof</w>": 6574,
  "veux</w>": 6575,
  "collapsed</w>": 6576,
  "outre</w>": 6577,
  "ert</w>": 6578,
  "elderly</w>": 6579,
  "Cross</w>": 6580,
  "discipline</w>": 6581,
  "discovery</w>": 6582,
  "anc": 6583,
  "duo</w>": 6584,
  "arr\u00eat</w>": 6585,
  "Lisa</w>": 6586,
  "iron</w>": 6587,
  "je": 6588,
  "medicine</w>": 6589,
  "0,000</w>": 6590,
  "readers</w>": 6591,
  "ER</w>": 6592,
  "eth</w>": 6593,
  "expertise</w>": 6594,
  "criticised</w>": 6595,
  "outlook</w>": 6596,
  "la": 6597,
  "gathering</w>": 6598,
  "Additional</w>": 6599,
  "Right</w>": 6600,
  "participer</w>": 6601,
  "largement</w>": 6602,
  "recover</w>": 6603,
  "anglais</w>": 6604,
  "alise</w>": 6605,
  "Nelson</w>": 6606,
  "Cap": 6607,
  "Edwards</w>": 6608,
  "m\u00eames</w>": 6609,
  "appointment</w>": 6610,
  "lancer</w>": 6611,
  "collected</w>": 6612,
  "Trade</w>": 6613,
  "Officer</w>": 6614,
  "Air": 6615,
  "veterans</w>": 6616,
  "aps</w>": 6617,
  "lendemain</w>": 6618,
  "Go</w>": 6619,
  "\u00e8res</w>": 6620,
  "1993</w>": 6621,
  "flu</w>": 6622,
  "legacy</w>": 6623,
  "afraid</w>": 6624,
  "Vatican</w>": 6625,
  "land": 6626,
  "load</w>": 6627,
  "spots</w>": 6628,
  "Sim": 6629,
  "Blues</w>": 6630,
  "Elles</w>": 6631,
  "sorry</w>": 6632,
  "answers</w>": 6633,
  "pr\u00e9sidente</w>": 6634,
  "Switzerland</w>": 6635,
  "revenu</w>": 6636,
  "Following</w>": 6637,
  "40": 6638,
  "brilliant</w>": 6639,
  "lia</w>": 6640,
  "attractive</w>": 6641,
  "Australians</w>": 6642,
  "ish": 6643,
  "Brad</w>": 6644,
  "alized</w>": 6645,
  "Report</w>": 6646,
  "viewed</w>": 6647,
  "10.": 6648,
  "cour</w>": 6649,
  "ye</w>": 6650,
  "supports</w>": 6651,
  "checks</w>": 6652,
  "Den": 6653,
  "reference</w>": 6654,
  "elled</w>": 6655,
  "vais</w>": 6656,
  "bli": 6657,
  "ken</w>": 6658,
  "Certains</w>": 6659,
  "shoes</w>": 6660,
  "permission</w>": 6661,
  "ores</w>": 6662,
  "Sam": 6663,
  "Baltimore</w>": 6664,
  "work": 6665,
  "wealthy</w>": 6666,
  "Jay</w>": 6667,
  "defended</w>": 6668,
  "household</w>": 6669,
  "6-4</w>": 6670,
  "divided</w>": 6671,
  "exist</w>": 6672,
  "ures</w>": 6673,
  "SNP</w>": 6674,
  "describe</w>": 6675,
  "Phoenix</w>": 6676,
  "EL": 6677,
  "conflit</w>": 6678,
  "nucl\u00e9aire</w>": 6679,
  "elements</w>": 6680,
  "landing</w>": 6681,
  "Reid</w>": 6682,
  "ase</w>": 6683,
  "Palestinians</w>": 6684,
  "weekly</w>": 6685,
  "h\u00f4tel</w>": 6686,
  "Rugby</w>": 6687,
  "fairly</w>": 6688,
  "III</w>": 6689,
  "switch</w>": 6690,
  "aise</w>": 6691,
  "consumption</w>": 6692,
  "quarterback</w>": 6693,
  "conna\u00eetre</w>": 6694,
  "quit</w>": 6695,
  "covering</w>": 6696,
  "mot</w>": 6697,
  "coin</w>": 6698,
  "ateurs</w>": 6699,
  "advised</w>": 6700,
  "PRNewswire</w>": 6701,
  "th\u00e9\u00e2tre</w>": 6702,
  "blast</w>": 6703,
  "Pittsburgh</w>": 6704,
  "Ash": 6705,
  "throwing</w>": 6706,
  "bi</w>": 6707,
  "iles</w>": 6708,
  "manner</w>": 6709,
  "adi": 6710,
  "bel": 6711,
  "eurozone</w>": 6712,
  "jusqu</w>": 6713,
  "play": 6714,
  "Jan": 6715,
  "rapidly</w>": 6716,
  "2.5</w>": 6717,
  "guidance</w>": 6718,
  "croire</w>": 6719,
  "praised</w>": 6720,
  "opponent</w>": 6721,
  "ick": 6722,
  "lifted</w>": 6723,
  "maladie</w>": 6724,
  "ved</w>": 6725,
  "stream</w>": 6726,
  "iser</w>": 6727,
  "retrouve</w>": 6728,
  "targeting</w>": 6729,
  "Benjamin</w>": 6730,
  "mentioned</w>": 6731,
  "trillion</w>": 6732,
  "Oil</w>": 6733,
  "Jane</w>": 6734,
  "Project</w>": 6735,
  "alit\u00e9</w>": 6736,
  "Djokovic</w>": 6737,
  "livres</w>": 6738,
  "requests</w>": 6739,
  "billions</w>": 6740,
  "tenir</w>": 6741,
  "error</w>": 6742,
  "Marseille</w>": 6743,
  "responsabilit\u00e9</w>": 6744,
  "depression</w>": 6745,
  "Indiana</w>": 6746,
  "actuel</w>": 6747,
  "Which</w>": 6748,
  "Pa": 6749,
  "Pen": 6750,
  "cooperation</w>": 6751,
  "honor</w>": 6752,
  "poids</w>": 6753,
  "first-": 6754,
  "demanded</w>": 6755,
  "guess</w>": 6756,
  "Que</w>": 6757,
  "comprehensive</w>": 6758,
  "iv": 6759,
  "h.</w>": 6760,
  "oning</w>": 6761,
  "ailing</w>": 6762,
  "promising</w>": 6763,
  "oun": 6764,
  "acted</w>": 6765,
  "Night</w>": 6766,
  "B.</w>": 6767,
  "carefully</w>": 6768,
  "Ly": 6769,
  "extensive</w>": 6770,
  "Finance</w>": 6771,
  "voire</w>": 6772,
  "Collins</w>": 6773,
  "Arthur</w>": 6774,
  "Sometimes</w>": 6775,
  "plate</w>": 6776,
  "ownership</w>": 6777,
  "Am\u00e9rique</w>": 6778,
  "pan": 6779,
  "star": 6780,
  "partout</w>": 6781,
  "output</w>": 6782,
  "Kh": 6783,
  "indice</w>": 6784,
  "teaching</w>": 6785,
  "\u00e9tablissement</w>": 6786,
  "transaction</w>": 6787,
  "inscrit</w>": 6788,
  "Kenya</w>": 6789,
  "fatal</w>": 6790,
  "cr\u00e9\u00e9</w>": 6791,
  "endroit</w>": 6792,
  "obligation</w>": 6793,
  "barrel</w>": 6794,
  "Vancouver</w>": 6795,
  "allemand</w>": 6796,
  "SOURCE</w>": 6797,
  "PR": 6798,
  "Aaron</w>": 6799,
  "guarantee</w>": 6800,
  "priv\u00e9</w>": 6801,
  "detention</w>": 6802,
  "auto</w>": 6803,
  "meilleurs</w>": 6804,
  "pay": 6805,
  "ER": 6806,
  "Emmanuel</w>": 6807,
  "mum</w>": 6808,
  "approached</w>": 6809,
  "update</w>": 6810,
  "rocket</w>": 6811,
  "E.</w>": 6812,
  "eling</w>": 6813,
  "Pap": 6814,
  "membership</w>": 6815,
  "nationwide</w>": 6816,
  "avion</w>": 6817,
  "Parker</w>": 6818,
  "Bien</w>": 6819,
  "GDP</w>": 6820,
  "Tigers</w>": 6821,
  "coaches</w>": 6822,
  "reasonable</w>": 6823,
  "reveals</w>": 6824,
  "Commons</w>": 6825,
  "Actualit\u00e9s</w>": 6826,
  "zero</w>": 6827,
  "Point</w>": 6828,
  "boyfriend</w>": 6829,
  "towns</w>": 6830,
  "ita</w>": 6831,
  "introduction</w>": 6832,
  "streak</w>": 6833,
  "rounds</w>": 6834,
  "constitution</w>": 6835,
  "trials</w>": 6836,
  "hiver</w>": 6837,
  "securities</w>": 6838,
  "missiles</w>": 6839,
  "attract</w>": 6840,
  "lands</w>": 6841,
  "mou": 6842,
  "Tottenham</w>": 6843,
  "providers</w>": 6844,
  "funeral</w>": 6845,
  "Major</w>": 6846,
  "recognition</w>": 6847,
  "cont": 6848,
  "gie</w>": 6849,
  "sol": 6850,
  "raid</w>": 6851,
  "primarily</w>": 6852,
  "unprecedented</w>": 6853,
  "manifestants</w>": 6854,
  "fortune</w>": 6855,
  "devient</w>": 6856,
  "Sher": 6857,
  "Julie</w>": 6858,
  "financiers</w>": 6859,
  "aims</w>": 6860,
  "ja</w>": 6861,
  "bly</w>": 6862,
  "Westminster</w>": 6863,
  "achat</w>": 6864,
  "sen": 6865,
  "espoir</w>": 6866,
  "fires</w>": 6867,
  "Jeux</w>": 6868,
  "testimony</w>": 6869,
  "iting</w>": 6870,
  "hotels</w>": 6871,
  "smartphone</w>": 6872,
  "contacted</w>": 6873,
  "cream</w>": 6874,
  "dizaines</w>": 6875,
  "ups</w>": 6876,
  "authors</w>": 6877,
  "erie</w>": 6878,
  "boom</w>": 6879,
  "assurance</w>": 6880,
  "rac": 6881,
  "Take</w>": 6882,
  "choices</w>": 6883,
  "Danny</w>": 6884,
  "Nor": 6885,
  "AP": 6886,
  "steel</w>": 6887,
  "n\u00e9</w>": 6888,
  "ign": 6889,
  "R.</w>": 6890,
  "democratic</w>": 6891,
  "Jr</w>": 6892,
  "Utah</w>": 6893,
  "gardien</w>": 6894,
  "daughters</w>": 6895,
  "spo": 6896,
  "waves</w>": 6897,
  "Be</w>": 6898,
  "se-": 6899,
  "dre": 6900,
  "dying</w>": 6901,
  "tank</w>": 6902,
  "prospects</w>": 6903,
  "commun</w>": 6904,
  "cou": 6905,
  "scr": 6906,
  "ender</w>": 6907,
  "Cet</w>": 6908,
  "modest</w>": 6909,
  "initiatives</w>": 6910,
  "transactions</w>": 6911,
  "\u00eele</w>": 6912,
  "Online</w>": 6913,
  "\u00e8": 6914,
  "appelle</w>": 6915,
  "handful</w>": 6916,
  "Grant</w>": 6917,
  "tweet</w>": 6918,
  "suivre</w>": 6919,
  "thus</w>": 6920,
  "drinks</w>": 6921,
  "don": 6922,
  "atives</w>": 6923,
  "euses</w>": 6924,
  "Alsace</w>": 6925,
  "Isra\u00ebl</w>": 6926,
  "wed</w>": 6927,
  "critique</w>": 6928,
  "delays</w>": 6929,
  "expanded</w>": 6930,
  "anciens</w>": 6931,
  "domaine</w>": 6932,
  "p\u00e9trole</w>": 6933,
  "foundation</w>": 6934,
  "financing</w>": 6935,
  "futures</w>": 6936,
  "ation": 6937,
  "blocks</w>": 6938,
  "settle</w>": 6939,
  "proportion</w>": 6940,
  "canadienne</w>": 6941,
  "fitness</w>": 6942,
  "\u00e9ducation</w>": 6943,
  "mistakes</w>": 6944,
  "Poland</w>": 6945,
  "canadien</w>": 6946,
  "perte</w>": 6947,
  "Stuart</w>": 6948,
  "pourront</w>": 6949,
  "e-mail</w>": 6950,
  "tendance</w>": 6951,
  "Venezuela</w>": 6952,
  "pursue</w>": 6953,
  "admits</w>": 6954,
  "lady</w>": 6955,
  "Malaysia</w>": 6956,
  "chinois</w>": 6957,
  "CI": 6958,
  "Robin</w>": 6959,
  "luck</w>": 6960,
  "Wisconsin</w>": 6961,
  "Est</w>": 6962,
  "pot</w>": 6963,
  "Express</w>": 6964,
  "mothers</w>": 6965,
  "ballot</w>": 6966,
  "petites</w>": 6967,
  "wages</w>": 6968,
  "AC</w>": 6969,
  "structures</w>": 6970,
  "usage</w>": 6971,
  "consultant</w>": 6972,
  "rie</w>": 6973,
  "break": 6974,
  "show": 6975,
  "Whether</w>": 6976,
  "syndicats</w>": 6977,
  "gross</w>": 6978,
  "appearances</w>": 6979,
  "revolution</w>": 6980,
  "Fal": 6981,
  "Japon</w>": 6982,
  "Latin</w>": 6983,
  "Rom": 6984,
  "\u00e9coles</w>": 6985,
  "Shanghai</w>": 6986,
  "pers</w>": 6987,
  "Film</w>": 6988,
  "Denver</w>": 6989,
  "Tam": 6990,
  "fication</w>": 6991,
  "Zi": 6992,
  "stroke</w>": 6993,
  "ranks</w>": 6994,
  "ona</w>": 6995,
  "1989</w>": 6996,
  "Arts</w>": 6997,
  "Constitution</w>": 6998,
  "eli": 6999,
  "universities</w>": 7000,
  "Hughes</w>": 7001,
  "refugee</w>": 7002,
  "are": 7003,
  "Nasdaq</w>": 7004,
  "consultation</w>": 7005,
  "bonus</w>": 7006,
  "covers</w>": 7007,
  "representatives</w>": 7008,
  "continent</w>": 7009,
  "Fairfax</w>": 7010,
  "vitesse</w>": 7011,
  "1991</w>": 7012,
  "hunt</w>": 7013,
  "awareness</w>": 7014,
  "odds</w>": 7015,
  "Dimanche</w>": 7016,
  "tag</w>": 7017,
  "academic</w>": 7018,
  "economies</w>": 7019,
  "ORE</w>": 7020,
  "shed</w>": 7021,
  "new": 7022,
  "pleine</w>": 7023,
  "resolve</w>": 7024,
  "McDonald</w>": 7025,
  "examen</w>": 7026,
  "Lev": 7027,
  "somewhat</w>": 7028,
  "ex</w>": 7029,
  "celebrated</w>": 7030,
  "warming</w>": 7031,
  "illa</w>": 7032,
  "partenaires</w>": 7033,
  "tall</w>": 7034,
  "stimulus</w>": 7035,
  "bases</w>": 7036,
  "prises</w>": 7037,
  "gr\u00e8ve</w>": 7038,
  "crazy</w>": 7039,
  "demain</w>": 7040,
  "somewhere</w>": 7041,
  "respectively</w>": 7042,
  "Dou": 7043,
  "anybody</w>": 7044,
  "Canadien</w>": 7045,
  "recording</w>": 7046,
  "tool</w>": 7047,
  "printemps</w>": 7048,
  "snow": 7049,
  "rush</w>": 7050,
  "m\u00e9": 7051,
  "tears</w>": 7052,
  "portion</w>": 7053,
  "sun": 7054,
  "haute</w>": 7055,
  "ren</w>": 7056,
  "venu</w>": 7057,
  "Cou": 7058,
  "book": 7059,
  "automne</w>": 7060,
  "valuable</w>": 7061,
  "6,000</w>": 7062,
  "conseiller</w>": 7063,
  "uck</w>": 7064,
  "Win": 7065,
  "ner": 7066,
  "laisse</w>": 7067,
  "Yahoo</w>": 7068,
  "entr": 7069,
  "premium</w>": 7070,
  "searching</w>": 7071,
  "oui</w>": 7072,
  "Biden</w>": 7073,
  "hidden</w>": 7074,
  "termin\u00e9</w>": 7075,
  "Place</w>": 7076,
  "firing</w>": 7077,
  "audiences</w>": 7078,
  "co\u00fbts</w>": 7079,
  "frame</w>": 7080,
  "Lawrence</w>": 7081,
  "repr\u00e9sentants</w>": 7082,
  "attempting</w>": 7083,
  "sting</w>": 7084,
  "ening</w>": 7085,
  "bonnes</w>": 7086,
  "dro": 7087,
  "offrir</w>": 7088,
  "On": 7089,
  "steady</w>": 7090,
  "aspects</w>": 7091,
  "humanitarian</w>": 7092,
  "TR": 7093,
  "bankruptcy</w>": 7094,
  "Get</w>": 7095,
  "Inc.</w>": 7096,
  "computers</w>": 7097,
  "Ukrainian</w>": 7098,
  "Murphy</w>": 7099,
  "courage</w>": 7100,
  "odd</w>": 7101,
  "Division</w>": 7102,
  "oms</w>": 7103,
  "importe</w>": 7104,
  "exclusive</w>": 7105,
  "provider</w>": 7106,
  "facile</w>": 7107,
  "zation</w>": 7108,
  "\u00e9trang\u00e8res</w>": 7109,
  "politician</w>": 7110,
  "contributions</w>": 7111,
  "t\u00e9l\u00e9phone</w>": 7112,
  "professionnels</w>": 7113,
  "everywhere</w>": 7114,
  "riding</w>": 7115,
  "Qaeda</w>": 7116,
  "1980</w>": 7117,
  "propri\u00e9taire</w>": 7118,
  "Monaco</w>": 7119,
  "essentially</w>": 7120,
  "Alaska</w>": 7121,
  "disappointing</w>": 7122,
  "envie</w>": 7123,
  "Charlotte</w>": 7124,
  "medal</w>": 7125,
  "bois</w>": 7126,
  "Roo": 7127,
  "Mun": 7128,
  "tours</w>": 7129,
  "kg</w>": 7130,
  "ble": 7131,
  "ged</w>": 7132,
  "Award</w>": 7133,
  "acquired</w>": 7134,
  "flo": 7135,
  "speaks</w>": 7136,
  "bun": 7137,
  "ager</w>": 7138,
  "troubled</w>": 7139,
  "Costa</w>": 7140,
  "si\u00e8ge</w>": 7141,
  "entra\u00eenement</w>": 7142,
  "strange</w>": 7143,
  "taught</w>": 7144,
  "forward-looking</w>": 7145,
  "directement</w>": 7146,
  "Ass": 7147,
  "conversations</w>": 7148,
  "ess": 7149,
  "insists</w>": 7150,
  "croit</w>": 7151,
  "faible</w>": 7152,
  "Stone</w>": 7153,
  "Ken</w>": 7154,
  "timing</w>": 7155,
  "unveiled</w>": 7156,
  "su</w>": 7157,
  "30-": 7158,
  "entretien</w>": 7159,
  "signe</w>": 7160,
  "arguing</w>": 7161,
  "automobile</w>": 7162,
  "End</w>": 7163,
  "describes</w>": 7164,
  "asks</w>": 7165,
  "trio</w>": 7166,
  "num\u00e9rique</w>": 7167,
  "addressed</w>": 7168,
  "am\u00e9liorer</w>": 7169,
  "establishment</w>": 7170,
  "rues</w>": 7171,
  "poursuivre</w>": 7172,
  "solo</w>": 7173,
  "ger": 7174,
  "contraire</w>": 7175,
  "stunning</w>": 7176,
  "attracted</w>": 7177,
  "Brazilian</w>": 7178,
  "generated</w>": 7179,
  "emp": 7180,
  "ON": 7181,
  "Thailand</w>": 7182,
  "guest</w>": 7183,
  "sign": 7184,
  "tel": 7185,
  "Trois</w>": 7186,
  "Anna</w>": 7187,
  "bet</w>": 7188,
  "dropping</w>": 7189,
  "burning</w>": 7190,
  "or-": 7191,
  "gen</w>": 7192,
  "monitor</w>": 7193,
  "soci\u00e9t\u00e9s</w>": 7194,
  "procedures</w>": 7195,
  "res</w>": 7196,
  "tz</w>": 7197,
  "Barry</w>": 7198,
  "sy": 7199,
  "Hills</w>": 7200,
  "Ess": 7201,
  "Civil</w>": 7202,
  "usine</w>": 7203,
  "moderate</w>": 7204,
  "Dodgers</w>": 7205,
  "\u00e9v\u00e9nements</w>": 7206,
  "socialiste</w>": 7207,
  "condamn\u00e9</w>": 7208,
  "tin": 7209,
  "racial</w>": 7210,
  "35": 7211,
  "personally</w>": 7212,
  "CR": 7213,
  "onne</w>": 7214,
  "11-": 7215,
  "landscape</w>": 7216,
  "affordable</w>": 7217,
  "bul": 7218,
  "Wood</w>": 7219,
  "volunteers</w>": 7220,
  "rencontres</w>": 7221,
  "ological</w>": 7222,
  "investissements</w>": 7223,
  "Alliance</w>": 7224,
  "efficient</w>": 7225,
  "remis</w>": 7226,
  "alert</w>": 7227,
  "useful</w>": 7228,
  "resigned</w>": 7229,
  "competing</w>": 7230,
  "Harvey</w>": 7231,
  "stressed</w>": 7232,
  "vol</w>": 7233,
  "Hel": 7234,
  "popularity</w>": 7235,
  "eter</w>": 7236,
  "voitures</w>": 7237,
  "sized</w>": 7238,
  "downtown</w>": 7239,
  "inches</w>": 7240,
  "honneur</w>": 7241,
  "hat</w>": 7242,
  "hoo": 7243,
  "ater</w>": 7244,
  "windows</w>": 7245,
  "titres</w>": 7246,
  "constitutional</w>": 7247,
  "Laura</w>": 7248,
  "swing</w>": 7249,
  "Leicester</w>": 7250,
  "L.A.</w>": 7251,
  "Lar": 7252,
  "risen</w>": 7253,
  "Coach</w>": 7254,
  "Cardiff</w>": 7255,
  "24": 7256,
  "express</w>": 7257,
  "tourism</w>": 7258,
  "Tehran</w>": 7259,
  "participate</w>": 7260,
  "demeure</w>": 7261,
  "BA</w>": 7262,
  "arr": 7263,
  "upper</w>": 7264,
  "ays</w>": 7265,
  "travailleurs</w>": 7266,
  "aring</w>": 7267,
  "recours</w>": 7268,
  "tric": 7269,
  "IT": 7270,
  "plaisir</w>": 7271,
  "Albert</w>": 7272,
  "Affaires</w>": 7273,
  "reprendre</w>": 7274,
  "bless\u00e9</w>": 7275,
  "suspicion</w>": 7276,
  "spr": 7277,
  "\u00e9trangers</w>": 7278,
  "18-": 7279,
  "adoption</w>": 7280,
  "Susan</w>": 7281,
  "arriver</w>": 7282,
  "diabetes</w>": 7283,
  "tu\u00e9</w>": 7284,
  "Mont": 7285,
  "ext\u00e9rieur</w>": 7286,
  "puisqu'</w>": 7287,
  "L.</w>": 7288,
  "zes</w>": 7289,
  "stance</w>": 7290,
  "retrouv\u00e9</w>": 7291,
  "Lakers</w>": 7292,
  "filles</w>": 7293,
  "ouvrir</w>": 7294,
  "equally</w>": 7295,
  "rappel\u00e9</w>": 7296,
  "ressources</w>": 7297,
  "ame</w>": 7298,
  "reserves</w>": 7299,
  "portrait</w>": 7300,
  "ate": 7301,
  "Mah": 7302,
  "peaceful</w>": 7303,
  "FIFA</w>": 7304,
  "cat": 7305,
  "followers</w>": 7306,
  "incredibly</w>": 7307,
  "bone</w>": 7308,
  "cli": 7309,
  "Ltd</w>": 7310,
  "bike</w>": 7311,
  "cy": 7312,
  "Oxford</w>": 7313,
  "vise</w>": 7314,
  "i-": 7315,
  "Economic</w>": 7316,
  "manifestation</w>": 7317,
  "Kentucky</w>": 7318,
  "context</w>": 7319,
  "prochaines</w>": 7320,
  "knocked</w>": 7321,
  "Ty": 7322,
  "feared</w>": 7323,
  "anonymity</w>": 7324,
  "PR</w>": 7325,
  "aded</w>": 7326,
  "Dubai</w>": 7327,
  "Philippines</w>": 7328,
  "Sup": 7329,
  "AD": 7330,
  "nights</w>": 7331,
  "sharply</w>": 7332,
  "aud</w>": 7333,
  "See</w>": 7334,
  "arriv\u00e9</w>": 7335,
  "anyway</w>": 7336,
  "memories</w>": 7337,
  "quart</w>": 7338,
  "Commonwealth</w>": 7339,
  "Christine</w>": 7340,
  "peux</w>": 7341,
  "knife</w>": 7342,
  "hip</w>": 7343,
  "drone</w>": 7344,
  "villages</w>": 7345,
  "brutal</w>": 7346,
  "employed</w>": 7347,
  "Lou": 7348,
  "Photograph</w>": 7349,
  "Barclays</w>": 7350,
  "Laden</w>": 7351,
  "resulting</w>": 7352,
  "taxpayers</w>": 7353,
  "No\u00ebl</w>": 7354,
  "earth</w>": 7355,
  "spokesperson</w>": 7356,
  "guidelines</w>": 7357,
  "guards</w>": 7358,
  "lettre</w>": 7359,
  "Rodriguez</w>": 7360,
  "flew</w>": 7361,
  "counter</w>": 7362,
  "Originally</w>": 7363,
  "tran": 7364,
  "Az": 7365,
  "Yankees</w>": 7366,
  "Agence</w>": 7367,
  "anticipated</w>": 7368,
  "Jessica</w>": 7369,
  "expanding</w>": 7370,
  "Oregon</w>": 7371,
  "progression</w>": 7372,
  "Ph": 7373,
  "secured</w>": 7374,
  "fie</w>": 7375,
  "Andr\u00e9</w>": 7376,
  "buried</w>": 7377,
  "Caroline</w>": 7378,
  "pi\u00e8ce</w>": 7379,
  "Juan</w>": 7380,
  "chicken</w>": 7381,
  "Masters</w>": 7382,
  "m\u00e9decins</w>": 7383,
  "Black": 7384,
  "Fillon</w>": 7385,
  "CE": 7386,
  "Conservatives</w>": 7387,
  "acteur</w>": 7388,
  "generate</w>": 7389,
  "Rec": 7390,
  "hauteur</w>": 7391,
  "ect</w>": 7392,
  "Ol": 7393,
  "visiteurs</w>": 7394,
  "Special</w>": 7395,
  "Land": 7396,
  "fate</w>": 7397,
  "14-": 7398,
  "45": 7399,
  "temperature</w>": 7400,
  "principe</w>": 7401,
  "Dominique</w>": 7402,
  "vowed</w>": 7403,
  "teenage</w>": 7404,
  "rier</w>": 7405,
  "D.</w>": 7406,
  "Simpson</w>": 7407,
  "heart": 7408,
  "ouverte</w>": 7409,
  "Ron</w>": 7410,
  "professeur</w>": 7411,
  "augmenter</w>": 7412,
  "attending</w>": 7413,
  "solve</w>": 7414,
  "high-profile</w>": 7415,
  "universit\u00e9</w>": 7416,
  "difficult\u00e9s</w>": 7417,
  "faudra</w>": 7418,
  "oppose</w>": 7419,
  "C.</w>": 7420,
  "6,": 7421,
  "maintained</w>": 7422,
  "scrutiny</w>": 7423,
  "Look</w>": 7424,
  "inspiration</w>": 7425,
  "pratique</w>": 7426,
  "az</w>": 7427,
  "breakfast</w>": 7428,
  "introduce</w>": 7429,
  "Roman</w>": 7430,
  "OS</w>": 7431,
  "tale</w>": 7432,
  "Ban": 7433,
  "flood</w>": 7434,
  "artiste</w>": 7435,
  "Adams</w>": 7436,
  "clair</w>": 7437,
  "fini</w>": 7438,
  "walks</w>": 7439,
  "Jerusalem</w>": 7440,
  "F\u00e9d\u00e9ration</w>": 7441,
  "lance</w>": 7442,
  "Bruno</w>": 7443,
  "soldats</w>": 7444,
  "Nancy</w>": 7445,
  "mauvais</w>": 7446,
  "reli": 7447,
  "aspect</w>": 7448,
  "pregnancy</w>": 7449,
  "singing</w>": 7450,
  "populations</w>": 7451,
  "resistance</w>": 7452,
  "illi": 7453,
  "bombs</w>": 7454,
  "Turn": 7455,
  "flooding</w>": 7456,
  "ocean</w>": 7457,
  "r\u00e9pondu</w>": 7458,
  "correspondent</w>": 7459,
  "fiction</w>": 7460,
  "c\u0153ur</w>": 7461,
  "mag": 7462,
  "Swedish</w>": 7463,
  "fighter</w>": 7464,
  "tired</w>": 7465,
  "protecting</w>": 7466,
  "soci": 7467,
  "attendant</w>": 7468,
  "fishing</w>": 7469,
  "politically</w>": 7470,
  "operator</w>": 7471,
  "Tories</w>": 7472,
  "Capitol</w>": 7473,
  "Star": 7474,
  "taxi</w>": 7475,
  "val": 7476,
  "penser</w>": 7477,
  "Commissioner</w>": 7478,
  "ment": 7479,
  "dar": 7480,
  "concurrence</w>": 7481,
  "cheaper</w>": 7482,
  "14.": 7483,
  "swimming</w>": 7484,
  "quitter</w>": 7485,
  "Mitt</w>": 7486,
  "trips</w>": 7487,
  "perfectly</w>": 7488,
  "igh": 7489,
  "branch</w>": 7490,
  "auto": 7491,
  "Sant": 7492,
  "acte</w>": 7493,
  "quer</w>": 7494,
  "Seven</w>": 7495,
  "deployed</w>": 7496,
  "fur": 7497,
  "fed</w>": 7498,
  "Sav": 7499,
  "bird</w>": 7500,
  "sil": 7501,
  "tre</w>": 7502,
  "labour</w>": 7503,
  "commence</w>": 7504,
  "Face</w>": 7505,
  "storage</w>": 7506,
  "export</w>": 7507,
  "entendu</w>": 7508,
  "Writing</w>": 7509,
  "conna\u00eet</w>": 7510,
  "meal</w>": 7511,
  "enjoying</w>": 7512,
  "powered</w>": 7513,
  "elec": 7514,
  "pr\u00e9vue</w>": 7515,
  "tape</w>": 7516,
  "involve</w>": 7517,
  "rythme</w>": 7518,
  "lessons</w>": 7519,
  "voulait</w>": 7520,
  "lam": 7521,
  "articles</w>": 7522,
  "Until</w>": 7523,
  "bling</w>": 7524,
  "coaching</w>": 7525,
  "eg": 7526,
  "mairie</w>": 7527,
  "peuple</w>": 7528,
  "Cabinet</w>": 7529,
  "Defence</w>": 7530,
  "vouloir</w>": 7531,
  "actifs</w>": 7532,
  "traitement</w>": 7533,
  "pped</w>": 7534,
  "c\u00f4t\u00e9s</w>": 7535,
  "my": 7536,
  "\u00e9glise</w>": 7537,
  "sav": 7538,
  "pet</w>": 7539,
  "P.</w>": 7540,
  "stein</w>": 7541,
  "Boo": 7542,
  "favorable</w>": 7543,
  "puisse</w>": 7544,
  "violences</w>": 7545,
  "ris": 7546,
  "bottle</w>": 7547,
  "lined</w>": 7548,
  "Gro": 7549,
  "investigated</w>": 7550,
  "sporting</w>": 7551,
  "delivering</w>": 7552,
  "hosted</w>": 7553,
  "airlines</w>": 7554,
  "Keith</w>": 7555,
  "alists</w>": 7556,
  "pressed</w>": 7557,
  "frustration</w>": 7558,
  "Hay": 7559,
  "Kurdish</w>": 7560,
  "Affairs</w>": 7561,
  "appeals</w>": 7562,
  "Ob": 7563,
  "ome</w>": 7564,
  "boards</w>": 7565,
  "Valls</w>": 7566,
  "challenged</w>": 7567,
  "notion</w>": 7568,
  "perdre</w>": 7569,
  "revient</w>": 7570,
  "Cer": 7571,
  "r\u00e9aliser</w>": 7572,
  "devastating</w>": 7573,
  "anna</w>": 7574,
  "rushed</w>": 7575,
  "13.": 7576,
  "130</w>": 7577,
  "pr\u00e9sidence</w>": 7578,
  "dit-il</w>": 7579,
  "Hunt</w>": 7580,
  "attaques</w>": 7581,
  "sexually</w>": 7582,
  "Monde</w>": 7583,
  "traded</w>": 7584,
  "Safety</w>": 7585,
  "tenter</w>": 7586,
  "ennes</w>": 7587,
  "statistics</w>": 7588,
  "same-sex</w>": 7589,
  "\u00e9lev\u00e9</w>": 7590,
  "rebounds</w>": 7591,
  "pr\u00eats</w>": 7592,
  "trapped</w>": 7593,
  "ecting</w>": 7594,
  "courant</w>": 7595,
  "sel</w>": 7596,
  "surely</w>": 7597,
  "Dec": 7598,
  "chest</w>": 7599,
  ".org</w>": 7600,
  "Netherlands</w>": 7601,
  "over-": 7602,
  "touchdown</w>": 7603,
  "assume</w>": 7604,
  "proven</w>": 7605,
  "bailout</w>": 7606,
  "manufacturers</w>": 7607,
  "Sudan</w>": 7608,
  "a\u00e9roport</w>": 7609,
  "dated</w>": 7610,
  "Mourinho</w>": 7611,
  "smile</w>": 7612,
  "gh</w>": 7613,
  "squ": 7614,
  "pat": 7615,
  "warnings</w>": 7616,
  "borders</w>": 7617,
  "maintenance</w>": 7618,
  "\u2022</w>": 7619,
  "color</w>": 7620,
  "ultimate</w>": 7621,
  "rises</w>": 7622,
  "p-": 7623,
  "pun": 7624,
  "Harvard</w>": 7625,
  "RT</w>": 7626,
  "ag</w>": 7627,
  "AN</w>": 7628,
  "Ted</w>": 7629,
  "soins</w>": 7630,
  "wer</w>": 7631,
  "attaquant</w>": 7632,
  "affiche</w>": 7633,
  "jug\u00e9</w>": 7634,
  "San": 7635,
  "innocent</w>": 7636,
  "commit</w>": 7637,
  "physique</w>": 7638,
  "wai": 7639,
  "Kings</w>": 7640,
  "economists</w>": 7641,
  "substance</w>": 7642,
  "deny</w>": 7643,
  "studied</w>": 7644,
  "latter</w>": 7645,
  "postes</w>": 7646,
  "trail</w>": 7647,
  "sheet</w>": 7648,
  "defined</w>": 7649,
  "nervous</w>": 7650,
  "zy</w>": 7651,
  "moon</w>": 7652,
  "pr\u00e9c\u00e9dent</w>": 7653,
  "ato</w>": 7654,
  "3e</w>": 7655,
  "conspiracy</w>": 7656,
  "cin": 7657,
  "Nobel</w>": 7658,
  "lifestyle</w>": 7659,
  "penalties</w>": 7660,
  "Ten</w>": 7661,
  "eligible</w>": 7662,
  "ye": 7663,
  "torture</w>": 7664,
  "attentats</w>": 7665,
  "Hou": 7666,
  "Orleans</w>": 7667,
  "blanc</w>": 7668,
  "Ocean</w>": 7669,
  "accueil</w>": 7670,
  "8,000</w>": 7671,
  "arrests</w>": 7672,
  "arch": 7673,
  "recommendations</w>": 7674,
  "langue</w>": 7675,
  "contains</w>": 7676,
  "--": 7677,
  "residential</w>": 7678,
  "directrice</w>": 7679,
  "agriculture</w>": 7680,
  "Soci\u00e9t\u00e9</w>": 7681,
  "nation": 7682,
  "Dan": 7683,
  "painting</w>": 7684,
  "administrative</w>": 7685,
  "compromise</w>": 7686,
  "ar-": 7687,
  "pub</w>": 7688,
  "Ses</w>": 7689,
  "identit\u00e9</w>": 7690,
  "hard-": 7691,
  "lows</w>": 7692,
  "utiliser</w>": 7693,
  "accompanied</w>": 7694,
  "tourist</w>": 7695,
  "d\u00e9couvrir</w>": 7696,
  "VI": 7697,
  "surrounded</w>": 7698,
  "int\u00e9r\u00eats</w>": 7699,
  "refus\u00e9</w>": 7700,
  "professionals</w>": 7701,
  "Palin</w>": 7702,
  "licence</w>": 7703,
  "Theresa</w>": 7704,
  "ini": 7705,
  "phrase</w>": 7706,
  "Sy": 7707,
  "tal": 7708,
  "noting</w>": 7709,
  "tique</w>": 7710,
  "urging</w>": 7711,
  "Deputy</w>": 7712,
  "Review</w>": 7713,
  "disorder</w>": 7714,
  "mod": 7715,
  "c\u00e9l\u00e8bre</w>": 7716,
  "longtime</w>": 7717,
  "1000</w>": 7718,
  "Senior</w>": 7719,
  "command</w>": 7720,
  "restore</w>": 7721,
  "Lincoln</w>": 7722,
  "feelings</w>": 7723,
  "picking</w>": 7724,
  "conf": 7725,
  "Land</w>": 7726,
  "Met": 7727,
  "assist</w>": 7728,
  "sits</w>": 7729,
  "von</w>": 7730,
  "aces</w>": 7731,
  "d\u00e9velopper</w>": 7732,
  "montr\u00e9</w>": 7733,
  "Tennessee</w>": 7734,
  "halt</w>": 7735,
  "abo": 7736,
  "anxiety</w>": 7737,
  "virtually</w>": 7738,
  "tables</w>": 7739,
  "ique</w>": 7740,
  "ambition</w>": 7741,
  "The": 7742,
  "resignation</w>": 7743,
  "etc.</w>": 7744,
  "ham": 7745,
  "crossing</w>": 7746,
  "AL</w>": 7747,
  "6-2</w>": 7748,
  "Later</w>": 7749,
  "aya</w>": 7750,
  "importants</w>": 7751,
  "approche</w>": 7752,
  "d\u00e9ficit</w>": 7753,
  "cit\u00e9</w>": 7754,
  "Pas": 7755,
  "ony</w>": 7756,
  "prefer</w>": 7757,
  "eff": 7758,
  "collision</w>": 7759,
  "personality</w>": 7760,
  "Cannes</w>": 7761,
  "Station</w>": 7762,
  "pin": 7763,
  "Medicare</w>": 7764,
  "N.": 7765,
  "charg\u00e9</w>": 7766,
  "exact</w>": 7767,
  "qualified</w>": 7768,
  "pink</w>": 7769,
  "fri": 7770,
  "ich": 7771,
  "finishing</w>": 7772,
  "Ahmed</w>": 7773,
  "montrer</w>": 7774,
  "intentions</w>": 7775,
  "listening</w>": 7776,
  "pulling</w>": 7777,
  "ignore</w>": 7778,
  "outbreak</w>": 7779,
  "breach</w>": 7780,
  "screening</w>": 7781,
  "Netflix</w>": 7782,
  "futur</w>": 7783,
  "offences</w>": 7784,
  "humour</w>": 7785,
  "seeks</w>": 7786,
  "piste</w>": 7787,
  "seed</w>": 7788,
  "foods</w>": 7789,
  "disabled</w>": 7790,
  "liber": 7791,
  "interviewed</w>": 7792,
  "centers</w>": 7793,
  "Douglas</w>": 7794,
  "utilisation</w>": 7795,
  "raw</w>": 7796,
  "apps</w>": 7797,
  "ur</w>": 7798,
  "Davies</w>": 7799,
  "crowds</w>": 7800,
  "Nathan</w>": 7801,
  "horses</w>": 7802,
  "survivors</w>": 7803,
  "Playing</w>": 7804,
  "Theatre</w>": 7805,
  "ll": 7806,
  "tent\u00e9</w>": 7807,
  "scolaire</w>": 7808,
  "briefly</w>": 7809,
  "concrete</w>": 7810,
  "\u00e9volution</w>": 7811,
  "ideal</w>": 7812,
  "pupils</w>": 7813,
  "tenue</w>": 7814,
  "disappeared</w>": 7815,
  "visant</w>": 7816,
  "inch</w>": 7817,
  "denies</w>": 7818,
  "contribute</w>": 7819,
  "boats</w>": 7820,
  "operated</w>": 7821,
  "equ": 7822,
  "forecasts</w>": 7823,
  "thin</w>": 7824,
  "effets</w>": 7825,
  "fundamental</w>": 7826,
  "organized</w>": 7827,
  "succeed</w>": 7828,
  "careful</w>": 7829,
  "\u00e9lecteurs</w>": 7830,
  "governing</w>": 7831,
  "cope</w>": 7832,
  "Nevada</w>": 7833,
  "clashes</w>": 7834,
  "ins": 7835,
  "medi": 7836,
  "Town</w>": 7837,
  "oll": 7838,
  "Barbara</w>": 7839,
  "ened</w>": 7840,
  "cal</w>": 7841,
  "explore</w>": 7842,
  "noise</w>": 7843,
  "households</w>": 7844,
  "Goo": 7845,
  "Wood": 7846,
  "kh": 7847,
  "prof": 7848,
  "hanging</w>": 7849,
  "restent</w>": 7850,
  "playoff</w>": 7851,
  "constantly</w>": 7852,
  "rated</w>": 7853,
  "contrats</w>": 7854,
  "occur</w>": 7855,
  "comparison</w>": 7856,
  "narrow</w>": 7857,
  "donations</w>": 7858,
  "height</w>": 7859,
  "ferme</w>": 7860,
  "interim</w>": 7861,
  "merely</w>": 7862,
  "crackdown</w>": 7863,
  "mom</w>": 7864,
  "Erdogan</w>": 7865,
  "black": 7866,
  "headlines</w>": 7867,
  "survival</w>": 7868,
  "Book</w>": 7869,
  "joke</w>": 7870,
  "communes</w>": 7871,
  "orange</w>": 7872,
  "overcome</w>": 7873,
  "r\u00e9f\u00e9rence</w>": 7874,
  "27": 7875,
  "faute</w>": 7876,
  "basically</w>": 7877,
  "Munich</w>": 7878,
  "Community</w>": 7879,
  "judgment</w>": 7880,
  "60": 7881,
  "somehow</w>": 7882,
  "sudden</w>": 7883,
  "sive</w>": 7884,
  "Connecticut</w>": 7885,
  "Margaret</w>": 7886,
  "ular</w>": 7887,
  "r\u00e9duction</w>": 7888,
  "Dean</w>": 7889,
  "21": 7890,
  "LI": 7891,
  "comfort</w>": 7892,
  "Related</w>": 7893,
  "Austin</w>": 7894,
  "defeated</w>": 7895,
  "Reg": 7896,
  "Kent</w>": 7897,
  "Sunni</w>": 7898,
  "podium</w>": 7899,
  "urgent</w>": 7900,
  "ty-": 7901,
  "hommage</w>": 7902,
  "sustainable</w>": 7903,
  "Wells</w>": 7904,
  "Lane</w>": 7905,
  "nominated</w>": 7906,
  "han</w>": 7907,
  "indication</w>": 7908,
  "Mon</w>": 7909,
  "ow</w>": 7910,
  "quarters</w>": 7911,
  "cad": 7912,
  "plea</w>": 7913,
  "Virgin</w>": 7914,
  "mail</w>": 7915,
  "ae": 7916,
  "entitled</w>": 7917,
  "ET</w>": 7918,
  "mel": 7919,
  "ambitions</w>": 7920,
  "Published</w>": 7921,
  "ninth</w>": 7922,
  "probablement</w>": 7923,
  "Gor": 7924,
  "Nu": 7925,
  "Gates</w>": 7926,
  "marge</w>": 7927,
  "portes</w>": 7928,
  "Commerce</w>": 7929,
  "men\u00e9</w>": 7930,
  "ais": 7931,
  "eries</w>": 7932,
  "particip\u00e9</w>": 7933,
  "pending</w>": 7934,
  "mariage</w>": 7935,
  "Have</w>": 7936,
  "dizaine</w>": 7937,
  "crack</w>": 7938,
  "hol": 7939,
  "offshore</w>": 7940,
  "exp": 7941,
  "Kil": 7942,
  "Tran": 7943,
  "eri": 7944,
  "Tar": 7945,
  "ambitious</w>": 7946,
  "delighted</w>": 7947,
  "carries</w>": 7948,
  "versions</w>": 7949,
  "ids</w>": 7950,
  "realised</w>": 7951,
  "Researchers</w>": 7952,
  "short-term</w>": 7953,
  "burden</w>": 7954,
  "Yorkshire</w>": 7955,
  "advocates</w>": 7956,
  "entend</w>": 7957,
  "touch\u00e9</w>": 7958,
  "qu\u00e9</w>": 7959,
  "wn</w>": 7960,
  "tan": 7961,
  "lib\u00e9ral</w>": 7962,
  "yield</w>": 7963,
  "diversity</w>": 7964,
  "enemy</w>": 7965,
  "Governor</w>": 7966,
  "diseases</w>": 7967,
  "totalement</w>": 7968,
  "preferred</w>": 7969,
  "rolling</w>": 7970,
  "filing</w>": 7971,
  "Turner</w>": 7972,
  "ologists</w>": 7973,
  "Airbus</w>": 7974,
  "actuelle</w>": 7975,
  "20th</w>": 7976,
  "manifestations</w>": 7977,
  "sessions</w>": 7978,
  "16.": 7979,
  "CS": 7980,
  "regarded</w>": 7981,
  "sous-": 7982,
  "earning</w>": 7983,
  "10,": 7984,
  "Phillips</w>": 7985,
  "Coll": 7986,
  "eggs</w>": 7987,
  "remettre</w>": 7988,
  "of": 7989,
  "Cancer</w>": 7990,
  "Oliver</w>": 7991,
  "iPad</w>": 7992,
  "metronews</w>": 7993,
  "fron": 7994,
  "nes</w>": 7995,
  "pit": 7996,
  "worthy</w>": 7997,
  "organis\u00e9</w>": 7998,
  "joy</w>": 7999,
  "ep</w>": 8000,
  "lumi\u00e8re</w>": 8001,
  "conscience</w>": 8002,
  "borough</w>": 8003,
  "unlike</w>": 8004,
  "newspapers</w>": 8005,
  "storms</w>": 8006,
  "St\u00e9phane</w>": 8007,
  "invasion</w>": 8008,
  "fault</w>": 8009,
  "Rob": 8010,
  "Ve": 8011,
  "hopefully</w>": 8012,
  "Broadway</w>": 8013,
  "teur</w>": 8014,
  "tellement</w>": 8015,
  "ond": 8016,
  "deemed</w>": 8017,
  "Gray</w>": 8018,
  "rapid</w>": 8019,
  "sup": 8020,
  "school": 8021,
  "red": 8022,
  "crossed</w>": 8023,
  "pointing</w>": 8024,
  "arriving</w>": 8025,
  "Pyongyang</w>": 8026,
  "graduate</w>": 8027,
  "Ay": 8028,
  "aka</w>": 8029,
  "hur": 8030,
  "Gran": 8031,
  "ici": 8032,
  "avantage</w>": 8033,
  "impressed</w>": 8034,
  "AI": 8035,
  "DC</w>": 8036,
  "intent</w>": 8037,
  "Everton</w>": 8038,
  "accessible</w>": 8039,
  "gotten</w>": 8040,
  "ops</w>": 8041,
  "d\u00e9partement</w>": 8042,
  "exploration</w>": 8043,
  "Kiev</w>": 8044,
  "principaux</w>": 8045,
  "Kal": 8046,
  "bes": 8047,
  "Obam": 8048,
  "fs</w>": 8049,
  "diff\u00e9rence</w>": 8050,
  "Tim": 8051,
  "procedure</w>": 8052,
  "agreements</w>": 8053,
  "developments</w>": 8054,
  "r\u00e9fugi\u00e9s</w>": 8055,
  "Baker</w>": 8056,
  "Bradley</w>": 8057,
  "dominant</w>": 8058,
  "cloud</w>": 8059,
  "1.2</w>": 8060,
  "lenders</w>": 8061,
  "seemingly</w>": 8062,
  "rapide</w>": 8063,
  "tt</w>": 8064,
  "locale</w>": 8065,
  "escaped</w>": 8066,
  "Sho": 8067,
  "2e</w>": 8068,
  "poses</w>": 8069,
  "copy</w>": 8070,
  "zi</w>": 8071,
  "efficiency</w>": 8072,
  "aur": 8073,
  "cooking</w>": 8074,
  "Amy</w>": 8075,
  "pes</w>": 8076,
  "recognized</w>": 8077,
  "optimistic</w>": 8078,
  "cr\u00e9dit</w>": 8079,
  "oldest</w>": 8080,
  "promoting</w>": 8081,
  "pli": 8082,
  "raises</w>": 8083,
  "Pin": 8084,
  "let": 8085,
  "supporter</w>": 8086,
  "promis</w>": 8087,
  "Protection</w>": 8088,
  "envers</w>": 8089,
  "cons\u00e9quences</w>": 8090,
  "colour</w>": 8091,
  "invested</w>": 8092,
  "pompiers</w>": 8093,
  "clock</w>": 8094,
  "Taiwan</w>": 8095,
  "prot\u00e9ger</w>": 8096,
  "1960s</w>": 8097,
  "celebration</w>": 8098,
  "vague</w>": 8099,
  "unexpected</w>": 8100,
  "realise</w>": 8101,
  "focusing</w>": 8102,
  "tourn\u00e9e</w>": 8103,
  "immense</w>": 8104,
  "Mid": 8105,
  "counter": 8106,
  "admit</w>": 8107,
  "retailer</w>": 8108,
  "age": 8109,
  "Myanmar</w>": 8110,
  "operators</w>": 8111,
  "Sheriff</w>": 8112,
  "investing</w>": 8113,
  "march</w>": 8114,
  "chercheurs</w>": 8115,
  "form": 8116,
  "Gilles</w>": 8117,
  "Nine</w>": 8118,
  "devoir</w>": 8119,
  "med</w>": 8120,
  "dale</w>": 8121,
  "Analysts</w>": 8122,
  "attentat</w>": 8123,
  "200": 8124,
  "Xi</w>": 8125,
  "organisme</w>": 8126,
  "Rab": 8127,
  "entente</w>": 8128,
  "soil</w>": 8129,
  "salt</w>": 8130,
  "parquet</w>": 8131,
  "Green": 8132,
  "SA": 8133,
  "3-1</w>": 8134,
  "Qu\u00e9b\u00e9cois</w>": 8135,
  "Kas": 8136,
  "Stars</w>": 8137,
  "advisers</w>": 8138,
  "Il": 8139,
  "involves</w>": 8140,
  "embassy</w>": 8141,
  "methods</w>": 8142,
  "ports</w>": 8143,
  "contr": 8144,
  "Villa</w>": 8145,
  "pattern</w>": 8146,
  "7,000</w>": 8147,
  "Belgium</w>": 8148,
  "aming</w>": 8149,
  "Garcia</w>": 8150,
  "plainte</w>": 8151,
  "repair</w>": 8152,
  "slipped</w>": 8153,
  "Did</w>": 8154,
  "tips</w>": 8155,
  "\u00eates</w>": 8156,
  "Fu": 8157,
  "collect</w>": 8158,
  "Armstrong</w>": 8159,
  "ancy</w>": 8160,
  "crois</w>": 8161,
  "commissioner</w>": 8162,
  "kinds</w>": 8163,
  "sor": 8164,
  "ev</w>": 8165,
  "associate</w>": 8166,
  "b\u00e9n\u00e9fice</w>": 8167,
  "enn": 8168,
  "Nation</w>": 8169,
  "segment</w>": 8170,
  "Plan</w>": 8171,
  "suppl\u00e9mentaires</w>": 8172,
  "Lebanon</w>": 8173,
  "C-": 8174,
  "Mol": 8175,
  "poursuivi</w>": 8176,
  "somme</w>": 8177,
  "Pourquoi</w>": 8178,
  "ency</w>": 8179,
  "gun": 8180,
  "Bond</w>": 8181,
  "IR": 8182,
  "heureux</w>": 8183,
  "propres</w>": 8184,
  "chy</w>": 8185,
  "syndicat</w>": 8186,
  "reverse</w>": 8187,
  "bloc</w>": 8188,
  "theater</w>": 8189,
  "Shares</w>": 8190,
  "CE</w>": 8191,
  "A.": 8192,
  "ences</w>": 8193,
  "tter</w>": 8194,
  "europ\u00e9ennes</w>": 8195,
  "allons</w>": 8196,
  "ED</w>": 8197,
  "d\u00e9c\u00e8s</w>": 8198,
  "Spurs</w>": 8199,
  "travaille</w>": 8200,
  "highlights</w>": 8201,
  "Gun": 8202,
  "honour</w>": 8203,
  "aw</w>": 8204,
  "letting</w>": 8205,
  "mainstream</w>": 8206,
  "Br\u00e9sil</w>": 8207,
  "1-1</w>": 8208,
  "offense</w>": 8209,
  "fruits</w>": 8210,
  "ited</w>": 8211,
  "hide</w>": 8212,
  "Missouri</w>": 8213,
  "highlighted</w>": 8214,
  "adjoint</w>": 8215,
  "Rice</w>": 8216,
  "monetary</w>": 8217,
  "Mari": 8218,
  "....</w>": 8219,
  "Puis</w>": 8220,
  "taille</w>": 8221,
  "grant</w>": 8222,
  "chercher</w>": 8223,
  "pensions</w>": 8224,
  "ners</w>": 8225,
  "arrangements</w>": 8226,
  "350</w>": 8227,
  "propos\u00e9</w>": 8228,
  "proceedings</w>": 8229,
  "strict</w>": 8230,
  "teenagers</w>": 8231,
  "lifetime</w>": 8232,
  "sted</w>": 8233,
  "shi": 8234,
  "GP</w>": 8235,
  "objectifs</w>": 8236,
  "Jerry</w>": 8237,
  "besoins</w>": 8238,
  "enable</w>": 8239,
  "lat": 8240,
  "sensible</w>": 8241,
  "colleague</w>": 8242,
  "reviews</w>": 8243,
  "ali</w>": 8244,
  "loose</w>": 8245,
  "installation</w>": 8246,
  "Colin</w>": 8247,
  "disent</w>": 8248,
  "Billy</w>": 8249,
  "Hurricane</w>": 8250,
  "ON</w>": 8251,
  "forest</w>": 8252,
  "Castro</w>": 8253,
  "Aff": 8254,
  "cible</w>": 8255,
  "chocolate</w>": 8256,
  "Jan</w>": 8257,
  "FN</w>": 8258,
  "script</w>": 8259,
  "divers</w>": 8260,
  "chang\u00e9</w>": 8261,
  "Maison</w>": 8262,
  "Mali</w>": 8263,
  "citizen</w>": 8264,
  "theatre</w>": 8265,
  "stops</w>": 8266,
  "fier</w>": 8267,
  "sie</w>": 8268,
  "BP</w>": 8269,
  "method</w>": 8270,
  "permettant</w>": 8271,
  "speaker</w>": 8272,
  "tip</w>": 8273,
  "compl\u00e8tement</w>": 8274,
  "purchases</w>": 8275,
  "trends</w>": 8276,
  "scientist</w>": 8277,
  "pi\u00e8ces</w>": 8278,
  "Sa": 8279,
  "Sn": 8280,
  "triggered</w>": 8281,
  "preliminary</w>": 8282,
  "Bir": 8283,
  "ero</w>": 8284,
  "Speaker</w>": 8285,
  "Stu": 8286,
  "Much</w>": 8287,
  "lou": 8288,
  "Larry</w>": 8289,
  "anniversaire</w>": 8290,
  "Pic": 8291,
  "auteurs</w>": 8292,
  "pause</w>": 8293,
  "literally</w>": 8294,
  "Jean-": 8295,
  "fines</w>": 8296,
  "ankle</w>": 8297,
  "Sub": 8298,
  "Assembly</w>": 8299,
  "forever</w>": 8300,
  "\u00e9preuve</w>": 8301,
  "ica</w>": 8302,
  "sh</w>": 8303,
  "water": 8304,
  "Luis</w>": 8305,
  "reflects</w>": 8306,
  "CC</w>": 8307,
  "\u0153uvre</w>": 8308,
  "F.</w>": 8309,
  "petition</w>": 8310,
  "wanting</w>": 8311,
  "holidays</w>": 8312,
  "rid</w>": 8313,
  "Gingrich</w>": 8314,
  "d\u00e9fenseur</w>": 8315,
  "trafic</w>": 8316,
  "Vol": 8317,
  "homeless</w>": 8318,
  "hedge</w>": 8319,
  "Prosecutors</w>": 8320,
  "Qu'</w>": 8321,
  "generations</w>": 8322,
  "iller</w>": 8323,
  "interior</w>": 8324,
  "condemned</w>": 8325,
  "genuine</w>": 8326,
  "periods</w>": 8327,
  "Turquie</w>": 8328,
  "trucks</w>": 8329,
  "passant</w>": 8330,
  "Aberdeen</w>": 8331,
  "Sm": 8332,
  "gue</w>": 8333,
  "chambre</w>": 8334,
  "pin</w>": 8335,
  "Policy</w>": 8336,
  "soutenir</w>": 8337,
  "reserve</w>": 8338,
  "9,": 8339,
  "Sab": 8340,
  "officielle</w>": 8341,
  "imp\u00f4t</w>": 8342,
  "Snowden</w>": 8343,
  "ignored</w>": 8344,
  "\u00e9change</w>": 8345,
  "checked</w>": 8346,
  "Duncan</w>": 8347,
  "devront</w>": 8348,
  "Bow": 8349,
  "expliquer</w>": 8350,
  "garder</w>": 8351,
  "changements</w>": 8352,
  "ink": 8353,
  "fies</w>": 8354,
  "aboard</w>": 8355,
  "improvements</w>": 8356,
  "om</w>": 8357,
  "Unfortunately</w>": 8358,
  "Mai": 8359,
  "clip</w>": 8360,
  "battery</w>": 8361,
  "Water</w>": 8362,
  "connect</w>": 8363,
  "doubled</w>": 8364,
  "Mir": 8365,
  "vieux</w>": 8366,
  "Guard</w>": 8367,
  "regardless</w>": 8368,
  "thousand</w>": 8369,
  "Libyan</w>": 8370,
  "etti</w>": 8371,
  "Forest</w>": 8372,
  "Sc": 8373,
  "swept</w>": 8374,
  "Android</w>": 8375,
  "statut</w>": 8376,
  "painful</w>": 8377,
  "ith</w>": 8378,
  "D\u00e8s</w>": 8379,
  "requested</w>": 8380,
  "\u00e9videmment</w>": 8381,
  "islands</w>": 8382,
  "ly": 8383,
  "argues</w>": 8384,
  "punishment</w>": 8385,
  "rolled</w>": 8386,
  "locales</w>": 8387,
  "cop": 8388,
  "grass</w>": 8389,
  "Moscou</w>": 8390,
  "arri\u00e8re</w>": 8391,
  "studying</w>": 8392,
  "repris</w>": 8393,
  "questioning</w>": 8394,
  "s\u00e9": 8395,
  "s.com</w>": 8396,
  "Marco</w>": 8397,
  "vs.</w>": 8398,
  "provinces</w>": 8399,
  "rescued</w>": 8400,
  "faite</w>": 8401,
  "ix</w>": 8402,
  "violations</w>": 8403,
  "websites</w>": 8404,
  "minds</w>": 8405,
  "mar</w>": 8406,
  "onn": 8407,
  "versus</w>": 8408,
  "deserve</w>": 8409,
  "killings</w>": 8410,
  "Victorian</w>": 8411,
  "pr\u00e9sents</w>": 8412,
  "vic": 8413,
  "boxes</w>": 8414,
  "violation</w>": 8415,
  "sions</w>": 8416,
  "conclu</w>": 8417,
  "satisfaction</w>": 8418,
  "iter</w>": 8419,
  "erson</w>": 8420,
  "recognize</w>": 8421,
  "difficult\u00e9</w>": 8422,
  "rough</w>": 8423,
  "sion</w>": 8424,
  "entrer</w>": 8425,
  "reflected</w>": 8426,
  "26": 8427,
  "1988</w>": 8428,
  "fallait</w>": 8429,
  "proc\u00e9dure</w>": 8430,
  "ent-": 8431,
  "accidents</w>": 8432,
  "3-0</w>": 8433,
  "eled</w>": 8434,
  "30,000</w>": 8435,
  "shore</w>": 8436,
  "indicate</w>": 8437,
  "Pro</w>": 8438,
  "g\u00e9ant</w>": 8439,
  "confirme</w>": 8440,
  "accounting</w>": 8441,
  "ois</w>": 8442,
  "rum": 8443,
  "stand": 8444,
  "aker</w>": 8445,
  "Irak</w>": 8446,
  "repeat</w>": 8447,
  "bient\u00f4t</w>": 8448,
  "80": 8449,
  "troubles</w>": 8450,
  "ratio</w>": 8451,
  "Lin": 8452,
  "tactics</w>": 8453,
  "Down</w>": 8454,
  "posting</w>": 8455,
  "electoral</w>": 8456,
  "hiring</w>": 8457,
  "FDA</w>": 8458,
  "sex": 8459,
  "lap</w>": 8460,
  "Action</w>": 8461,
  "13-": 8462,
  "Marshall</w>": 8463,
  "strengthen</w>": 8464,
  "Sri</w>": 8465,
  "organised</w>": 8466,
  "rel\u00e8ve</w>": 8467,
  "Pendant</w>": 8468,
  "innovative</w>": 8469,
  "fr\u00e8re</w>": 8470,
  "wise</w>": 8471,
  "takeover</w>": 8472,
  "entrepreneurs</w>": 8473,
  "appearing</w>": 8474,
  "keeper</w>": 8475,
  "Renault</w>": 8476,
  "wor": 8477,
  "nose</w>": 8478,
  "Morris</w>": 8479,
  "tweets</w>": 8480,
  "b\u00e2timent</w>": 8481,
  "closure</w>": 8482,
  "seuls</w>": 8483,
  "provincial</w>": 8484,
  "provision</w>": 8485,
  "incendie</w>": 8486,
  "craft</w>": 8487,
  "Stock</w>": 8488,
  "photographer</w>": 8489,
  "Ou": 8490,
  "af</w>": 8491,
  "Uni": 8492,
  "iconic</w>": 8493,
  "transportation</w>": 8494,
  "mises</w>": 8495,
  "polling</w>": 8496,
  "legislative</w>": 8497,
  "Norway</w>": 8498,
  "dramatically</w>": 8499,
  "explanation</w>": 8500,
  "Ur": 8501,
  "hopeful</w>": 8502,
  "primaire</w>": 8503,
  "register</w>": 8504,
  "Eagles</w>": 8505,
  "quitt\u00e9</w>": 8506,
  "Ma</w>": 8507,
  "adversaire</w>": 8508,
  "researcher</w>": 8509,
  "Kr": 8510,
  "budgets</w>": 8511,
  "pire</w>": 8512,
  "stri": 8513,
  "tirs</w>": 8514,
  "Tou": 8515,
  "pride</w>": 8516,
  "arian</w>": 8517,
  "genetic</w>": 8518,
  "Morning</w>": 8519,
  "Out": 8520,
  "vaccine</w>": 8521,
  "n\u00e9cessaires</w>": 8522,
  "ambulance</w>": 8523,
  "ING</w>": 8524,
  "decent</w>": 8525,
  "aver": 8526,
  "wy": 8527,
  "formally</w>": 8528,
  "highlight</w>": 8529,
  "opinions</w>": 8530,
  "sufficient</w>": 8531,
  "Blake</w>": 8532,
  "\u00e9galit\u00e9</w>": 8533,
  "Staff</w>": 8534,
  "difficulties</w>": 8535,
  "harassment</w>": 8536,
  "third-": 8537,
  "pledge</w>": 8538,
  "s\u00e9ries</w>": 8539,
  "golden</w>": 8540,
  "critiques</w>": 8541,
  "Av": 8542,
  "cruise</w>": 8543,
  "venus</w>": 8544,
  "abandon</w>": 8545,
  "\u00e9lectorale</w>": 8546,
  "civile</w>": 8547,
  "28": 8548,
  "Freedom</w>": 8549,
  "Country</w>": 8550,
  "McG": 8551,
  "Lire</w>": 8552,
  "suc": 8553,
  "worries</w>": 8554,
  "comeback</w>": 8555,
  "gam": 8556,
  "id\u00e9es</w>": 8557,
  "8,": 8558,
  "Cairo</w>": 8559,
  "certaine</w>": 8560,
  "son": 8561,
  "ro</w>": 8562,
  "hill</w>": 8563,
  "Wars</w>": 8564,
  "ologie</w>": 8565,
  "purchased</w>": 8566,
  "milli": 8567,
  "crews</w>": 8568,
  "Thomson</w>": 8569,
  "accuse</w>": 8570,
  "Medicine</w>": 8571,
  "Carl</w>": 8572,
  "Has": 8573,
  "carrier</w>": 8574,
  "omb": 8575,
  "Lynch</w>": 8576,
  "utilis\u00e9</w>": 8577,
  "Ci": 8578,
  "attached</w>": 8579,
  "apping</w>": 8580,
  "IMF</w>": 8581,
  "damaging</w>": 8582,
  "default</w>": 8583,
  "Ann</w>": 8584,
  "scrutin</w>": 8585,
  "flowers</w>": 8586,
  "7,": 8587,
  "path": 8588,
  "contemporary</w>": 8589,
  "70": 8590,
  "conservatives</w>": 8591,
  "termes</w>": 8592,
  "plan": 8593,
  "deeper</w>": 8594,
  "Consumer</w>": 8595,
  "fran\u00e7aises</w>": 8596,
  "Part</w>": 8597,
  "mystery</w>": 8598,
  "am\u00e9ricaines</w>": 8599,
  "Kyle</w>": 8600,
  "Rooney</w>": 8601,
  "onner</w>": 8602,
  "pos": 8603,
  "Tech</w>": 8604,
  "vacances</w>": 8605,
  "quelqu'</w>": 8606,
  "HIV</w>": 8607,
  "partisans</w>": 8608,
  "pro</w>": 8609,
  "Sales</w>": 8610,
  "wick</w>": 8611,
  "encounter</w>": 8612,
  "puissance</w>": 8613,
  "parade</w>": 8614,
  "amp": 8615,
  "25-": 8616,
  "tunnel</w>": 8617,
  "horror</w>": 8618,
  "Institut</w>": 8619,
  "Jam": 8620,
  "Palmer</w>": 8621,
  "concerne</w>": 8622,
  "operates</w>": 8623,
  "dividend</w>": 8624,
  "lecture</w>": 8625,
  "Rogers</w>": 8626,
  "C.": 8627,
  "invite</w>": 8628,
  "\u00e2g\u00e9</w>": 8629,
  "15.": 8630,
  "T\u00e9l</w>": 8631,
  "bing</w>": 8632,
  "som": 8633,
  "c\u00e9r\u00e9monie</w>": 8634,
  "BST</w>": 8635,
  "premiere</w>": 8636,
  "Op": 8637,
  "fronti\u00e8re</w>": 8638,
  "10th</w>": 8639,
  "sleeping</w>": 8640,
  "ills</w>": 8641,
  "Var": 8642,
  "traveling</w>": 8643,
  "treatments</w>": 8644,
  "yo": 8645,
  "tentative</w>": 8646,
  "Secret</w>": 8647,
  "graphic</w>": 8648,
  "Hy": 8649,
  "Mississippi</w>": 8650,
  "Hawaii</w>": 8651,
  "ora</w>": 8652,
  "OR": 8653,
  "qualification</w>": 8654,
  "approve</w>": 8655,
  "acceptable</w>": 8656,
  "qualify</w>": 8657,
  "bronze</w>": 8658,
  "meals</w>": 8659,
  "Garden</w>": 8660,
  "cent": 8661,
  "retain</w>": 8662,
  "tels</w>": 8663,
  "commencer</w>": 8664,
  "filmed</w>": 8665,
  "racist</w>": 8666,
  "installed</w>": 8667,
  "Line</w>": 8668,
  "Non</w>": 8669,
  "secondes</w>": 8670,
  "-to-": 8671,
  "autumn</w>": 8672,
  "ys": 8673,
  "oll</w>": 8674,
  "\u00e9g": 8675,
  "s.": 8676,
  "FI": 8677,
  "memorial</w>": 8678,
  "theft</w>": 8679,
  "\u00e9tablissements</w>": 8680,
  "scared</w>": 8681,
  "thick</w>": 8682,
  "coll": 8683,
  "announcing</w>": 8684,
  "bowl</w>": 8685,
  "trainer</w>": 8686,
  "burned</w>": 8687,
  "practical</w>": 8688,
  "lis": 8689,
  "brown</w>": 8690,
  "under-": 8691,
  "Control</w>": 8692,
  "est-ce</w>": 8693,
  "r\u00e9guli\u00e8rement</w>": 8694,
  "donors</w>": 8695,
  "d\u00e9fi</w>": 8696,
  "Lopez</w>": 8697,
  "ame": 8698,
  "borrowing</w>": 8699,
  "d\u00e9fendre</w>": 8700,
  "aci": 8701,
  "architecture</w>": 8702,
  "ut</w>": 8703,
  "charging</w>": 8704,
  "valoir</w>": 8705,
  "Cop": 8706,
  "frustrated</w>": 8707,
  "consommateurs</w>": 8708,
  "oul": 8709,
  "marine</w>": 8710,
  "Bun": 8711,
  "pape</w>": 8712,
  "Ann": 8713,
  "cannabis</w>": 8714,
  "Systems</w>": 8715,
  "transformation</w>": 8716,
  "plo": 8717,
  "Entertainment</w>": 8718,
  "Sil": 8719,
  "photo": 8720,
  "Kingdom</w>": 8721,
  "containing</w>": 8722,
  "au-del\u00e0</w>": 8723,
  "augment\u00e9</w>": 8724,
  "tracking</w>": 8725,
  "Hum": 8726,
  "firefighters</w>": 8727,
  "r\u00e9sidence</w>": 8728,
  "starring</w>": 8729,
  "renewed</w>": 8730,
  "dur</w>": 8731,
  "bert</w>": 8732,
  "li</w>": 8733,
  "seven-": 8734,
  "ECB</w>": 8735,
  "launching</w>": 8736,
  "surprisingly</w>": 8737,
  "Emma</w>": 8738,
  "36": 8739,
  "\u00e8me</w>": 8740,
  "ve-": 8741,
  "prochains</w>": 8742,
  "rez</w>": 8743,
  "thor": 8744,
  "tragic</w>": 8745,
  "loves</w>": 8746,
  "faux</w>": 8747,
  "Walter</w>": 8748,
  "Organization</w>": 8749,
  "gle</w>": 8750,
  "it\u00e9s</w>": 8751,
  "amp</w>": 8752,
  "suits</w>": 8753,
  "\u00e8s</w>": 8754,
  "dy": 8755,
  "Nicole</w>": 8756,
  "vingtaine</w>": 8757,
  "m\u00e9decin</w>": 8758,
  "MA</w>": 8759,
  "scenario</w>": 8760,
  "rend</w>": 8761,
  "Hunter</w>": 8762,
  "Johnny</w>": 8763,
  "\u00e9cran</w>": 8764,
  "scope</w>": 8765,
  "Girl</w>": 8766,
  "aki</w>": 8767,
  "fic": 8768,
  "Lucas</w>": 8769,
  "pole</w>": 8770,
  "d\u00e9cisions</w>": 8771,
  "Organisation</w>": 8772,
  "3D</w>": 8773,
  "te-": 8774,
  "Manning</w>": 8775,
  "realized</w>": 8776,
  "syn": 8777,
  "eck</w>": 8778,
  "Pourtant</w>": 8779,
  "edition</w>": 8780,
  "hell</w>": 8781,
  "paint</w>": 8782,
  "cheese</w>": 8783,
  "1986</w>": 8784,
  "secrets</w>": 8785,
  "achievement</w>": 8786,
  "realize</w>": 8787,
  "Sor": 8788,
  "demonstrated</w>": 8789,
  "consideration</w>": 8790,
  "businessman</w>": 8791,
  "shocking</w>": 8792,
  "n\u00e9anmoins</w>": 8793,
  "permettra</w>": 8794,
  "Bad": 8795,
  "thr": 8796,
  "bread</w>": 8797,
  "strain</w>": 8798,
  "Cohen</w>": 8799,
  "\u00e9lectricit\u00e9</w>": 8800,
  "sectors</w>": 8801,
  "Kremlin</w>": 8802,
  "\u00e9chec</w>": 8803,
  "overhaul</w>": 8804,
  "situ\u00e9</w>": 8805,
  "senators</w>": 8806,
  "confirmation</w>": 8807,
  "pul": 8808,
  "fragile</w>": 8809,
  "contacts</w>": 8810,
  "Bennett</w>": 8811,
  "Fri": 8812,
  "Racing</w>": 8813,
  "ranking</w>": 8814,
  "visage</w>": 8815,
  "capit": 8816,
  "dealt</w>": 8817,
  "sle": 8818,
  "rebelles</w>": 8819,
  "Tampa</w>": 8820,
  "logement</w>": 8821,
  "accurate</w>": 8822,
  "LE": 8823,
  "Investors</w>": 8824,
  "subsequent</w>": 8825,
  "17-": 8826,
  "touched</w>": 8827,
  "robust</w>": 8828,
  "lifting</w>": 8829,
  "ishing</w>": 8830,
  "dispositif</w>": 8831,
  "oni</w>": 8832,
  "ums</w>": 8833,
  "eaux</w>": 8834,
  "ounce</w>": 8835,
  "dancing</w>": 8836,
  "r\u00e9s</w>": 8837,
  "ouest</w>": 8838,
  "nurse</w>": 8839,
  "Hai": 8840,
  "aves</w>": 8841,
  "describing</w>": 8842,
  "cuisine</w>": 8843,
  "ual</w>": 8844,
  "photograph</w>": 8845,
  "34": 8846,
  "s\u00e9lection</w>": 8847,
  "PE": 8848,
  "attendu</w>": 8849,
  "criminals</w>": 8850,
  "venues</w>": 8851,
  "teurs</w>": 8852,
  "Culture</w>": 8853,
  "mener</w>": 8854,
  "Am\u00e9ricains</w>": 8855,
  "globe</w>": 8856,
  "by-": 8857,
  "Berlusconi</w>": 8858,
  "eight-": 8859,
  "lit": 8860,
  "confusion</w>": 8861,
  "procureur</w>": 8862,
  "opener</w>": 8863,
  "Communications</w>": 8864,
  "Sl": 8865,
  "Ferrari</w>": 8866,
  "lois</w>": 8867,
  "lovely</w>": 8868,
  "Mount</w>": 8869,
  "Fla</w>": 8870,
  "influential</w>": 8871,
  "16-": 8872,
  "couleurs</w>": 8873,
  "quar": 8874,
  "consistently</w>": 8875,
  "hunting</w>": 8876,
  "smartphones</w>": 8877,
  "cra": 8878,
  "ware</w>": 8879,
  "..</w>": 8880,
  "Woman</w>": 8881,
  "cru": 8882,
  "til": 8883,
  "exc": 8884,
  "teammates</w>": 8885,
  "Neu": 8886,
  "Everything</w>": 8887,
  "ay-": 8888,
  "S\u00e9nat</w>": 8889,
  "gars</w>": 8890,
  "Tiger</w>": 8891,
  "occupied</w>": 8892,
  "diverse</w>": 8893,
  "durable</w>": 8894,
  "wheel</w>": 8895,
  "hon": 8896,
  "Unlike</w>": 8897,
  "laugh</w>": 8898,
  "shelter</w>": 8899,
  "mus\u00e9e</w>": 8900,
  "pri": 8901,
  "lev": 8902,
  "triple</w>": 8903,
  "volumes</w>": 8904,
  "fe</w>": 8905,
  "Boris</w>": 8906,
  "loaded</w>": 8907,
  "avi": 8908,
  "negotiate</w>": 8909,
  "esse</w>": 8910,
  "considerable</w>": 8911,
  "uns</w>": 8912,
  "ker": 8913,
  "unity</w>": 8914,
  "alling</w>": 8915,
  "lab</w>": 8916,
  "confi\u00e9</w>": 8917,
  "format</w>": 8918,
  "objects</w>": 8919,
  "assess</w>": 8920,
  "repr\u00e9sentant</w>": 8921,
  "taxe</w>": 8922,
  "ols</w>": 8923,
  "Rachel</w>": 8924,
  "pressing</w>": 8925,
  "teens</w>": 8926,
  "Winter</w>": 8927,
  "submitted</w>": 8928,
  "PIB</w>": 8929,
  "files</w>": 8930,
  "Fran": 8931,
  "inal</w>": 8932,
  "PSG</w>": 8933,
  "1984</w>": 8934,
  "principle</w>": 8935,
  "ashes</w>": 8936,
  "200,000</w>": 8937,
  "ss</w>": 8938,
  "Murdoch</w>": 8939,
  "urge</w>": 8940,
  "Forces</w>": 8941,
  "gar</w>": 8942,
  "aying</w>": 8943,
  "ec</w>": 8944,
  "proximit\u00e9</w>": 8945,
  "ry": 8946,
  "Mis": 8947,
  "eller</w>": 8948,
  "climbed</w>": 8949,
  "Li</w>": 8950,
  "Beno\u00eet</w>": 8951,
  "inner</w>": 8952,
  "Colombia</w>": 8953,
  "meets</w>": 8954,
  "competitors</w>": 8955,
  "dle</w>": 8956,
  "organise</w>": 8957,
  "alli": 8958,
  "suggestion</w>": 8959,
  "depth</w>": 8960,
  "qualifying</w>": 8961,
  "Bay": 8962,
  "lic</w>": 8963,
  "movements</w>": 8964,
  "concours</w>": 8965,
  "valued</w>": 8966,
  "conclusions</w>": 8967,
  "gather</w>": 8968,
  "Nearly</w>": 8969,
  "traders</w>": 8970,
  "merger</w>": 8971,
  "unfair</w>": 8972,
  "Ale": 8973,
  "license</w>": 8974,
  "Was</w>": 8975,
  "touche</w>": 8976,
  "Res": 8977,
  "respected</w>": 8978,
  "speci": 8979,
  "salaire</w>": 8980,
  "r\u00e9e</w>": 8981,
  "fre": 8982,
  "aines</w>": 8983,
  "Wenger</w>": 8984,
  "underground</w>": 8985,
  "recul</w>": 8986,
  "istic</w>": 8987,
  "importantes</w>": 8988,
  "Jews</w>": 8989,
  "teeth</w>": 8990,
  "trigger</w>": 8991,
  "gged</w>": 8992,
  "Tunisi": 8993,
  "essentiel</w>": 8994,
  "mandate</w>": 8995,
  "catastrophe</w>": 8996,
  "physically</w>": 8997,
  "Pascal</w>": 8998,
  "UR": 8999,
  "rev": 9000,
  "Through</w>": 9001,
  "sued</w>": 9002,
  "cinqui\u00e8me</w>": 9003,
  "Dur": 9004,
  "Sophie</w>": 9005,
  "WA</w>": 9006,
  "engag\u00e9</w>": 9007,
  "Richmond</w>": 9008,
  "Stur": 9009,
  "Jesus</w>": 9010,
  "tougher</w>": 9011,
  "immune</w>": 9012,
  "invitation</w>": 9013,
  "Ashley</w>": 9014,
  "vely</w>": 9015,
  "spectacular</w>": 9016,
  "tional</w>": 9017,
  "islamique</w>": 9018,
  "Thousands</w>": 9019,
  "1979</w>": 9020,
  "transferred</w>": 9021,
  "ust</w>": 9022,
  "Brady</w>": 9023,
  "Federation</w>": 9024,
  "Fred</w>": 9025,
  "belt</w>": 9026,
  "reads</w>": 9027,
  "Bangladesh</w>": 9028,
  "inmates</w>": 9029,
  "Bayern</w>": 9030,
  "ging</w>": 9031,
  "ple": 9032,
  "climat</w>": 9033,
  "op</w>": 9034,
  "aviation</w>": 9035,
  "part": 9036,
  "accept\u00e9</w>": 9037,
  "predict</w>": 9038,
  "Mandela</w>": 9039,
  "Dav": 9040,
  "jeunesse</w>": 9041,
  "Arena</w>": 9042,
  "burst</w>": 9043,
  "priv\u00e9e</w>": 9044,
  "handled</w>": 9045,
  "isolated</w>": 9046,
  "visa</w>": 9047,
  "underlying</w>": 9048,
  "NE": 9049,
  "principles</w>": 9050,
  "atif</w>": 9051,
  "closest</w>": 9052,
  "Todd</w>": 9053,
  "loc": 9054,
  "developers</w>": 9055,
  "lignes</w>": 9056,
  "resume</w>": 9057,
  "Investment</w>": 9058,
  "parks</w>": 9059,
  "pies</w>": 9060,
  "recognise</w>": 9061,
  "Transport</w>": 9062,
  "filming</w>": 9063,
  "murdered</w>": 9064,
  "emo": 9065,
  "Bus": 9066,
  "sum</w>": 9067,
  "super-": 9068,
  "m\u00e9moire</w>": 9069,
  "Wor": 9070,
  "reward</w>": 9071,
  "Bishop</w>": 9072,
  "Princess</w>": 9073,
  "legitimate</w>": 9074,
  "Intelligence</w>": 9075,
  "Caribbean</w>": 9076,
  "ball": 9077,
  "r\u00eave</w>": 9078,
  "vol": 9079,
  "frequent</w>": 9080,
  "sc\u00e9nario</w>": 9081,
  "wars</w>": 9082,
  "stu": 9083,
  "celebrities</w>": 9084,
  "Rubio</w>": 9085,
  "comm": 9086,
  "choc</w>": 9087,
  "Ir": 9088,
  "Canadiens</w>": 9089,
  "left-": 9090,
  "travelled</w>": 9091,
  "tured</w>": 9092,
  "Mercedes</w>": 9093,
  "ough</w>": 9094,
  "warns</w>": 9095,
  "top": 9096,
  "virtual</w>": 9097,
  "Markets</w>": 9098,
  "bat": 9099,
  "Scientists</w>": 9100,
  "offset</w>": 9101,
  "execution</w>": 9102,
  "g\u00e9n\u00e9ration</w>": 9103,
  "Should</w>": 9104,
  "examine</w>": 9105,
  "d\u00e9claration</w>": 9106,
  "concentration</w>": 9107,
  "Mack": 9108,
  "ch\u00e9</w>": 9109,
  "ji</w>": 9110,
  "propositions</w>": 9111,
  "rom": 9112,
  "lesson</w>": 9113,
  "Orlando</w>": 9114,
  "neighbors</w>": 9115,
  "ter-": 9116,
  "dig": 9117,
  "gear</w>": 9118,
  "dou": 9119,
  "attorneys</w>": 9120,
  "gym</w>": 9121,
  "demonstrate</w>": 9122,
  "Louise</w>": 9123,
  "port\u00e9e</w>": 9124,
  "regret</w>": 9125,
  "illegally</w>": 9126,
  "Ward</w>": 9127,
  "LONDON</w>": 9128,
  "zo</w>": 9129,
  "pure</w>": 9130,
  "recalls</w>": 9131,
  "pricing</w>": 9132,
  "collectif</w>": 9133,
  "stopping</w>": 9134,
  "anne</w>": 9135,
  "clairement</w>": 9136,
  "ov": 9137,
  "conservateur</w>": 9138,
  "benchmark</w>": 9139,
  "bitter</w>": 9140,
  "cab": 9141,
  "imposer</w>": 9142,
  "SEC</w>": 9143,
  "PO": 9144,
  "Gh": 9145,
  "editing</w>": 9146,
  "painted</w>": 9147,
  "talented</w>": 9148,
  "remise</w>": 9149,
  "Ky": 9150,
  "ch-": 9151,
  "rey</w>": 9152,
  "ael</w>": 9153,
  "n-": 9154,
  "aliser</w>": 9155,
  "adaptation</w>": 9156,
  "retire</w>": 9157,
  "tical</w>": 9158,
  "pieds</w>": 9159,
  "ensuring</w>": 9160,
  "mauvaise</w>": 9161,
  "RI": 9162,
  "profiter</w>": 9163,
  "holders</w>": 9164,
  "vigueur</w>": 9165,
  "1.3</w>": 9166,
  "maisons</w>": 9167,
  "celebrating</w>": 9168,
  "stem</w>": 9169,
  "Samedi</w>": 9170,
  "Gen.</w>": 9171,
  "Argentine</w>": 9172,
  "jets</w>": 9173,
  "jazz</w>": 9174,
  "appreciate</w>": 9175,
  "Finances</w>": 9176,
  "sp\u00e9cialiste</w>": 9177,
  "oner</w>": 9178,
  "poli": 9179,
  "acker</w>": 9180,
  "hang</w>": 9181,
  "ander</w>": 9182,
  "hacking</w>": 9183,
  "cat\u00e9gorie</w>": 9184,
  "lane</w>": 9185,
  "33": 9186,
  "arme</w>": 9187,
  "suspicious</w>": 9188,
  "Bailey</w>": 9189,
  "Royaume-Uni</w>": 9190,
  "vessel</w>": 9191,
  "cm</w>": 9192,
  "for-": 9193,
  "ot": 9194,
  "van": 9195,
  "balle</w>": 9196,
  "climb</w>": 9197,
  "extr\u00eame</w>": 9198,
  "strongest</w>": 9199,
  "1970</w>": 9200,
  "CN": 9201,
  "midnight</w>": 9202,
  "enqu\u00eateurs</w>": 9203,
  "Reagan</w>": 9204,
  "engineer</w>": 9205,
  "radic": 9206,
  "samples</w>": 9207,
  "loud</w>": 9208,
  "excessive</w>": 9209,
  "TH": 9210,
  "obtain</w>": 9211,
  "d\u00e9couverte</w>": 9212,
  "assists</w>": 9213,
  "Cole</w>": 9214,
  "Trudeau</w>": 9215,
  "cyber": 9216,
  "Shane</w>": 9217,
  "Work</w>": 9218,
  "Angels</w>": 9219,
  "element</w>": 9220,
  "negotiating</w>": 9221,
  "lancement</w>": 9222,
  "alo": 9223,
  "treating</w>": 9224,
  "d\u00e9couvert</w>": 9225,
  "maintenir</w>": 9226,
  "recevoir</w>": 9227,
  "finger</w>": 9228,
  "bathroom</w>": 9229,
  "legally</w>": 9230,
  "chanson</w>": 9231,
  ".co.uk</w>": 9232,
  "Louisiana</w>": 9233,
  "offence</w>": 9234,
  "erreur</w>": 9235,
  "messe</w>": 9236,
  "ly-": 9237,
  "delegates</w>": 9238,
  "Raymond</w>": 9239,
  "watchdog</w>": 9240,
  "shaped</w>": 9241,
  "Mrs.</w>": 9242,
  "agir</w>": 9243,
  "aks</w>": 9244,
  "bold</w>": 9245,
  "fore": 9246,
  "olympique</w>": 9247,
  "locals</w>": 9248,
  "Alexandre</w>": 9249,
  "assi": 9250,
  "oring</w>": 9251,
  "Sandy</w>": 9252,
  "muscle</w>": 9253,
  "duties</w>": 9254,
  "vice-pr\u00e9sident</w>": 9255,
  "Bak": 9256,
  "feeding</w>": 9257,
  "gy": 9258,
  "Being</w>": 9259,
  "depending</w>": 9260,
  "d\u00e9tails</w>": 9261,
  "Julia</w>": 9262,
  "examined</w>": 9263,
  "acc": 9264,
  "creates</w>": 9265,
  "Windows</w>": 9266,
  "mm</w>": 9267,
  "foule</w>": 9268,
  "vainqueur</w>": 9269,
  "Cash</w>": 9270,
  "anymore</w>": 9271,
  "ax": 9272,
  "Chrysler</w>": 9273,
  "Way</w>": 9274,
  "History</w>": 9275,
  "37": 9276,
  "Bryant</w>": 9277,
  "bra": 9278,
  "Peace</w>": 9279,
  "dish</w>": 9280,
  "pr\u00e9paration</w>": 9281,
  "perception</w>": 9282,
  "connections</w>": 9283,
  "implications</w>": 9284,
  "teach</w>": 9285,
  "conventional</w>": 9286,
  "plan\u00e8te</w>": 9287,
  "Field</w>": 9288,
  "semi-": 9289,
  "fastest</w>": 9290,
  "mates</w>": 9291,
  "answered</w>": 9292,
  "narrative</w>": 9293,
  "graves</w>": 9294,
  "battu</w>": 9295,
  "Around</w>": 9296,
  "eager</w>": 9297,
  "forum</w>": 9298,
  "sophisticated</w>": 9299,
  "Age</w>": 9300,
  "Fair</w>": 9301,
  "Malcolm</w>": 9302,
  "unacceptable</w>": 9303,
  "cook</w>": 9304,
  "onal</w>": 9305,
  "voices</w>": 9306,
  "acking</w>": 9307,
  "cocaine</w>": 9308,
  "chip</w>": 9309,
  "rejoindre</w>": 9310,
  "ben": 9311,
  "sup\u00e9rieur</w>": 9312,
  "airports</w>": 9313,
  "vit</w>": 9314,
  "Ronaldo</w>": 9315,
  "peers</w>": 9316,
  "recognised</w>": 9317,
  "classified</w>": 9318,
  "voc": 9319,
  "fame</w>": 9320,
  "preparation</w>": 9321,
  "bol": 9322,
  "hum": 9323,
  "soul</w>": 9324,
  "discover</w>": 9325,
  "140</w>": 9326,
  "18.": 9327,
  "Saint</w>": 9328,
  "divisions</w>": 9329,
  "essence</w>": 9330,
  "streaming</w>": 9331,
  "poser</w>": 9332,
  "fusion</w>": 9333,
  "vendre</w>": 9334,
  "ails</w>": 9335,
  "apology</w>": 9336,
  "wound</w>": 9337,
  "judicial</w>": 9338,
  "soutenu</w>": 9339,
  "retard</w>": 9340,
  "2nd</w>": 9341,
  "nomm\u00e9</w>": 9342,
  "travaill\u00e9</w>": 9343,
  "Chase</w>": 9344,
  "deli": 9345,
  "wal": 9346,
  "circle</w>": 9347,
  "12,": 9348,
  "Mac</w>": 9349,
  "disputed</w>": 9350,
  "goalkeeper</w>": 9351,
  "grand": 9352,
  "Franklin</w>": 9353,
  "destroy</w>": 9354,
  "rep": 9355,
  "Chaque</w>": 9356,
  "s\u00e9rieux</w>": 9357,
  "vocal</w>": 9358,
  "d\u00e9mocratie</w>": 9359,
  "youngest</w>": 9360,
  "Cab": 9361,
  "explosive</w>": 9362,
  "500,000</w>": 9363,
  "Money</w>": 9364,
  "Does</w>": 9365,
  "mere</w>": 9366,
  "rage</w>": 9367,
  "confrontation</w>": 9368,
  "cake</w>": 9369,
  "liens</w>": 9370,
  "ential</w>": 9371,
  "tiques</w>": 9372,
  "Drug</w>": 9373,
  "loyal</w>": 9374,
  "go\u00fbt</w>": 9375,
  "symbol</w>": 9376,
  "isation</w>": 9377,
  "Dy": 9378,
  "antly</w>": 9379,
  "Dennis</w>": 9380,
  "frozen</w>": 9381,
  "coun": 9382,
  "29": 9383,
  "bizarre</w>": 9384,
  "satisfied</w>": 9385,
  "sorts</w>": 9386,
  "supermarket</w>": 9387,
  "compound</w>": 9388,
  "Metro</w>": 9389,
  "copies</w>": 9390,
  "concerts</w>": 9391,
  "hiding</w>": 9392,
  "secteurs</w>": 9393,
  "pilots</w>": 9394,
  "err": 9395,
  "aining</w>": 9396,
  "profession</w>": 9397,
  "Over": 9398,
  "commis</w>": 9399,
  "observed</w>": 9400,
  "full-": 9401,
  "Xavier</w>": 9402,
  "Jets</w>": 9403,
  "Stanford</w>": 9404,
  "acheter</w>": 9405,
  "select</w>": 9406,
  "FT</w>": 9407,
  "instruments</w>": 9408,
  "channels</w>": 9409,
  "ex\u00e9cutif</w>": 9410,
  "cigarettes</w>": 9411,
  "Sachs</w>": 9412,
  "ajouter</w>": 9413,
  "remembered</w>": 9414,
  "fonctions</w>": 9415,
  "capitaine</w>": 9416,
  "object</w>": 9417,
  "Ak": 9418,
  "fermeture</w>": 9419,
  "ceiling</w>": 9420,
  "experiment</w>": 9421,
  "emerge</w>": 9422,
  "forth</w>": 9423,
  "strip</w>": 9424,
  "infected</w>": 9425,
  "sponsored</w>": 9426,
  "Lan": 9427,
  "capabilities</w>": 9428,
  "musulmans</w>": 9429,
  "19.": 9430,
  "regulator</w>": 9431,
  "jacket</w>": 9432,
  "Chavez</w>": 9433,
[...]
