{
  "<s>": 0,
  "</s>": 1,
  "<pad>": 2,
  "<unk>": 3,
  "<special0>": 4,
  "<special1>": 5,
  "<special2>": 6,
  "<special3>": 7,
  "<special4>": 8,
  "<special5>": 9,
  "<special6>": 10,
  "<special7>": 11,
  "<special8>": 12,
  "<special9>": 13,
  ",</w>": 14,
  ".</w>": 15,
  "de</w>": 16,
  "\"</w>": 17,
  "la</w>": 18,
  "en</w>": 19,
  "der</w>": 20,
  ")</w>": 21,
  "(</w>": 22,
  "a</w>": 23,
  "die</w>": 24,
  "und</w>": 25,
  "el</w>": 26,
  "\u0432</w>": 27,
  "in</w>": 28,
  "le</w>": 29,
  "des</w>": 30,
  "y</w>": 31,
  "et</w>": 32,
  "\uff0c</w>": 33,
  "\u0438</w>": 34,
  "l'</w>": 35,
  "un</w>": 36,
  "que</w>": 37,
  "-</w>": 38,
  "les</w>": 39,
  "von</w>": 40,
  "er</w>": 41,
  ":</w>": 42,
  "se</w>": 43,
  "\u043d\u0430</w>": 44,
  "es</w>": 45,
  "\u7684</w>": 46,
  "est</w>": 47,
  "du</w>": 48,
  "d'</w>": 49,
  "den</w>": 50,
  "\u3002</w>": 51,
  "im</w>": 52,
  "los</w>": 53,
  "del</w>": 54,
  "das</w>": 55,
  "il</w>": 56,
  "mit</w>": 57,
  "une</w>": 58,
  "an</w>": 59,
  "-": 60,
  "dans</w>": 61,
  "wurde</w>": 62,
  "ist</w>": 63,
  "als</w>": 64,
  "dem</w>": 65,
  "con</w>": 66,
  "por</w>": 67,
  "\u0441</w>": 68,
  "au</w>": 69,
  "su</w>": 70,
  "par</w>": 71,
  "las</w>": 72,
  "una</w>": 73,
  "zu</w>": 74,
  "ein</w>": 75,
  "auf</w>": 76,
  "'</w>": 77,
  "\u060c</w>": 78,
  "fur</w>": 79,
  "o</w>": 80,
  "eine</w>": 81,
  "al</w>": 82,
  "\u0412</w>": 83,
  "re": 84,
  "pour</w>": 85,
  "son</w>": 86,
  "\u0641\u064a</w>": 87,
  "sich</w>": 88,
  ";</w>": 89,
  "war</w>": 90,
  "ver": 91,
  "er": 92,
  "am</w>": 93,
  "nach</w>": 94,
  "te</w>": 95,
  "qui</w>": 96,
  "\u3001</w>": 97,
  "sur</w>": 98,
  "\u0433\u043e\u0434\u0430</w>": 99,
  "s</w>": 100,
  "aus</w>": 101,
  "auch</w>": 102,
  "in": 103,
  "/</w>": 104,
  "como</w>": 105,
  "en": 106,
  "para</w>": 107,
  "s": 108,
  "sie</w>": 109,
  "bei</w>": 110,
  "ten</w>": 111,
  "bis</w>": 112,
  "an": 113,
  "t</w>": 114,
  "\u5728</w>": 115,
  "ge": 116,
  "\u0645\u0646</w>": 117,
  "\u043f\u043e</w>": 118,
  "\u043e\u0442</w>": 119,
  "de": 120,
  "elle</w>": 121,
  "fue</w>": 122,
  "avec</w>": 123,
  "%</w>": 124,
  "as</w>": 125,
  "e</w>": 126,
  "ar</w>": 127,
  "al": 128,
  "ou</w>": 129,
  "be": 130,
  "\u0433\u043e\u0434\u0443</w>": 131,
  "ado</w>": 132,
  "\u0435</w>": 133,
  "os</w>": 134,
  "\u662f</w>": 135,
  "ab": 136,
  "\u043a</w>": 137,
  "ve</w>": 138,
  "\u043d\u0435</w>": 139,
  "sa</w>": 140,
  "ne</w>": 141,
  "zum</w>": 142,
  "co</w>": 143,
  "ar": 144,
  "va</w>": 145,
  "einer</w>": 146,
  "the</w>": 147,
  "1</w>": 148,
  "t": 149,
  "2</w>": 150,
  "plus</w>": 151,
  "\uff09</w>": 152,
  "no</w>": 153,
  "\uff08</w>": 154,
  "ce</w>": 155,
  "on</w>": 156,
  "um</w>": 157,
  "mot</w>": 158,
  "entre</w>": 159,
  "durch</w>": 160,
  "aux</w>": 161,
  "da</w>": 162,
  "ung</w>": 163,
  "e": 164,
  "o": 165,
  "nam</w>": 166,
  "sont</w>": 167,
  "\u0438\u0437</w>": 168,
  "\u03c4\u03bf\u03c5</w>": 169,
  "\u0437\u0430</w>": 170,
  "n": 171,
  "mas</w>": 172,
  "\u03ba\u03b1\u03b9</w>": 173,
  "so</w>": 174,
  "trong</w>": 175,
  "ses</w>": 176,
  "ch": 177,
  "3</w>": 178,
  "ein": 179,
  "ischen</w>": 180,
  "ete</w>": 181,
  "werden</w>": 182,
  "einem</w>": 183,
  "z": 184,
  "sch": 185,
  "cua</w>": 186,
  "sind</w>": 187,
  "nicht</w>": 188,
  "aus": 189,
  "ada</w>": 190,
  "\u0430</w>": 191,
  "es": 192,
  "s'</w>": 193,
  "ent</w>": 194,
  "\u0431\u044b\u043b</w>": 195,
  "zur</w>": 196,
  "wird</w>": 197,
  "\u0111uoc</w>": 198,
  "\u0443</w>": 199,
  "g": 200,
  "el": 201,
  "ant</w>": 202,
  "uber</w>": 203,
  "r": 204,
  "lo</w>": 205,
  "d": 206,
  "\u043d\u043e\u0438</w>": 207,
  "ent": 208,
  "einen</w>": 209,
  "di": 210,
  "acion</w>": 211,
  "qu'</w>": 212,
  "p": 213,
  "vor": 214,
  "4</w>": 215,
  "con": 216,
  "i": 217,
  "or": 218,
  "\u043d\u0435": 219,
  "ia</w>": 220,
  "ation</w>": 221,
  "ro": 222,
  "i</w>": 223,
  "is": 224,
  "ta</w>": 225,
  "m</w>": 226,
  "ie</w>": 227,
  "f": 228,
  "sus</w>": 229,
  "oder</w>": 230,
  "loai</w>": 231,
  "c": 232,
  "co": 233,
  "un": 234,
  "\u0447\u0442\u043e</w>": 235,
  "\u0915</w>": 236,
  "\u043d\u043e</w>": 237,
  "l": 238,
  "le": 239,
  "wurden</w>": 240,
  "\u043d\u044b\u0445</w>": 241,
  "\u548c</w>": 242,
  "st": 243,
  "on": 244,
  "lo": 245,
  "d</w>": 246,
  "k": 247,
  "ische</w>": 248,
  "5</w>": 249,
  "comme</w>": 250,
  "se": 251,
  "per": 252,
  "as": 253,
  "\u03c4\u03b7\u03c2</w>": 254,
  "\u043b\u0430</w>": 255,
  "\u043f\u043e": 256,
  "\u03c4\u03bf</w>": 257,
  "\u4eba</w>": 258,
  "unter</w>": 259,
  "\u0434\u043e</w>": 260,
  "ter</w>": 261,
  "ano</w>": 262,
  "cette</w>": 263,
  "mar": 264,
  "esta</w>": 265,
  "\u043b\u0438</w>": 266,
  "b": 267,
  "m": 268,
  "\u043d\u043e\u0433\u043e</w>": 269,
  "\u043d\u044b\u0438</w>": 270,
  "n</w>": 271,
  "\u0443": 272,
  "\u043d\u0430": 273,
  "at": 274,
  "dass</w>": 275,
  "ac": 276,
  "\u0434\u043b\u044f</w>": 277,
  "z</w>": 278,
  "\u0437\u0430": 279,
  "deux</w>": 280,
  "\u0435\u0433\u043e</w>": 281,
  "is</w>": 282,
  "\u4e86</w>": 283,
  "us</w>": 284,
  "\u043b</w>": 285,
  "10</w>": 286,
  "era</w>": 287,
  "ados</w>": 288,
  "jahr</w>": 289,
  "6</w>": 290,
  "par": 291,
  "auf": 292,
  "ho</w>": 293,
  "of</w>": 294,
  "v": 295,
  "it": 296,
  "\u043d\u044b\u0435</w>": 297,
  "\u0441\u043a\u043e\u0438</w>": 298,
  "ee</w>": 299,
  "\u0939</w>": 300,
  "\u0441\u043a\u043e\u0433\u043e</w>": 301,
  "tes</w>": 302,
  "\u043a\u0430\u043a</w>": 303,
  "am": 304,
  "wie</w>": 305,
  "seine</w>": 306,
  "\u4e00</w>": 307,
  "u": 308,
  "\u043a\u0430</w>": 309,
  "ite</w>": 310,
  "pas</w>": 311,
  "mais</w>": 312,
  "\u043e\u043d</w>": 313,
  "\u0964</w>": 314,
  "l</w>": 315,
  "\u6709</w>": 316,
  "a": 317,
  "\u0639\u0644\u0649</w>": 318,
  "su": 319,
  "\u0442</w>": 320,
  "sein</w>": 321,
  "to</w>": 322,
  "im": 323,
  "vor</w>": 324,
  "man</w>": 325,
  "\u043a\u0438</w>": 326,
  "2010</w>": 327,
  "ont</w>": 328,
  "car": 329,
  "j": 330,
  "nay</w>": 331,
  "\u043e</w>": 332,
  "il": 333,
  "ag": 334,
  "et": 335,
  "em": 336,
  "\u043f\u0440\u0438": 337,
  "um": 338,
  "vi": 339,
  "mo": 340,
  "\u043f\u0440\u043e": 341,
  "y": 342,
  "ya</w>": 343,
  "\u0434\u0430</w>": 344,
  "ungen</w>": 345,
  "ur": 346,
  "dos</w>": 347,
  "h": 348,
  "cac</w>": 349,
  "ol": 350,
  "7</w>": 351,
  "uber": 352,
  "8</w>": 353,
  "\u092e</w>": 354,
  "\u0441\u0435</w>": 355,
  "ab</w>": 356,
  "\u0441": 357,
  "este</w>": 358,
  "ne": 359,
  "bo": 360,
  "b</w>": 361,
  "pre": 362,
  "po": 363,
  "ales</w>": 364,
  "vom</w>": 365,
  "mon": 366,
  "km</w>": 367,
  "ando</w>": 368,
  "tambien</w>": 369,
  "ri": 370,
  "apres</w>": 371,
  "nur</w>": 372,
  "\u043d\u044b\u043c</w>": 373,
  "ti": 374,
  "to": 375,
  "ber": 376,
  "qu": 377,
  "anos</w>": 378,
  "\u043d\u0430\u044f</w>": 379,
  "\u044b</w>": 380,
  "do</w>": 381,
  "ul": 382,
  "ad": 383,
  "si</w>": 384,
  "ha</w>": 385,
  "\u0441\u043a\u0438\u0438</w>": 386,
  "\u4e2d</w>": 387,
  "zeit</w>": 388,
  "te": 389,
  "tu</w>": 390,
  "seit</w>": 391,
  "ter": 392,
  "c</w>": 393,
  "\u0441\u0430</w>": 394,
  "fait</w>": 395,
  "her": 396,
  "seiner</w>": 397,
  "so": 398,
  "u</w>": 399,
  "hatte</w>": 400,
  "20</w>": 401,
  "noch</w>": 402,
  "\u0627\u0646</w>": 403,
  "ica</w>": 404,
  "\u0410": 405,
  "sowie</w>": 406,
  "\u0434\u043e": 407,
  "des": 408,
  "hat</w>": 409,
  "w": 410,
  "ser</w>": 411,
  "ap": 412,
  "sen": 413,
  "\u043d\u043e\u043c</w>": 414,
  "bir</w>": 415,
  "\u0432": 416,
  "bi": 417,
  "bar": 418,
  "ale</w>": 419,
  "\u043c</w>": 420,
  "\u043b\u0438": 421,
  "g</w>": 422,
  "pro": 423,
  "unter": 424,
  "2011</w>": 425,
  "\u03b7</w>": 426,
  "\u03c4\u03b7\u03bd</w>": 427,
  "gen": 428,
  "aber</w>": 429,
  "15</w>": 430,
  "ile</w>": 431,
  "jahre</w>": 432,
  "age</w>": 433,
  "san</w>": 434,
  "\u044f</w>": 435,
  "n'</w>": 436,
  "\u0e43\u0e19</w>": 437,
  "est": 438,
  "stadt</w>": 439,
  "9</w>": 440,
  "diese</w>": 441,
  "ischer</w>": 442,
  "tres</w>": 443,
  "12</w>": 444,
  "ko": 445,
  "\u0432\u044b": 446,
  "\u043a\u043e": 447,
  "au": 448,
  "\u043d\u043e\u0435</w>": 449,
  "\u0434": 450,
  "\u0438": 451,
  "zwei</w>": 452,
  "ces</w>": 453,
  "ern</w>": 454,
  "\u0e17</w>": 455,
  "\u0628": 456,
  "\u0440\u0435": 457,
  "it</w>": 458,
  "ger": 459,
  "ic": 460,
  "dieser</w>": 461,
  "\u0938</w>": 462,
  "\u0440\u043e": 463,
  "*</w>": 464,
  "lichen</w>": 465,
  "ende</w>": 466,
  "ico</w>": 467,
  "ca</w>": 468,
  "\u0442\u0430</w>": 469,
  "no": 470,
  "\u4e3a</w>": 471,
  "2009</w>": 472,
  "\u043d\u0438": 473,
  "\u0627\u0644\u0649</w>": 474,
  "ir": 475,
  "ers</w>": 476,
  "at</w>": 477,
  "2008</w>": 478,
  "ten": 479,
  "ine</w>": 480,
  "tr": 481,
  "zwischen</w>": 482,
  "k</w>": 483,
  "adas</w>": 484,
  "us": 485,
  "\u0421": 486,
  "waren</w>": 487,
  "2012</w>": 488,
  "_</w>": 489,
  "\u043b\u0435": 490,
  "\u043e": 491,
  "ma": 492,
  "\u0441\u043e": 493,
  "\u300b</w>": 494,
  "\u300a</w>": 495,
  "\u03bf</w>": 496,
  "\u043f\u0435\u0440\u0435": 497,
  "ex": 498,
  "me</w>": 499,
  "br": 500,
  "\u043b\u044c": 501,
  "\u03b1\u03c0\u03bf</w>": 502,
  "bo</w>": 503,
  "\u043d\u043e": 504,
  "2007</w>": 505,
  "ville</w>": 506,
  "gu": 507,
  "inter": 508,
  "ante</w>": 509,
  "ungs": 510,
  "\u043d</w>": 511,
  "cho</w>": 512,
  "eines</w>": 513,
  "ique</w>": 514,
  "\u0442\u0430\u043a\u0436\u0435</w>": 515,
  "si": 516,
  "ement</w>": 517,
  "io</w>": 518,
  "ts</w>": 519,
  "liche</w>": 520,
  "sp": 521,
  "x": 522,
  "cor": 523,
  "2006</w>": 524,
  "ien</w>": 525,
  "leur</w>": 526,
  "30</w>": 527,
  "bien</w>": 528,
  "mer": 529,
  "and</w>": 530,
  "\u0438\u043b\u0438</w>": 531,
  "man": 532,
  "\u041e": 533,
  "com": 534,
  "2014</w>": 535,
  "\u043a": 536,
  "\u0440\u0438": 537,
  "2013</w>": 538,
  "ans</w>": 539,
  "serie</w>": 540,
  "li": 541,
  "me": 542,
  "ser": 543,
  "\u0111au</w>": 544,
  "etait</w>": 545,
  "he": 546,
  "ra</w>": 547,
  "f</w>": 548,
  "\u043a\u0430": 549,
  "ente</w>": 550,
  "region</w>": 551,
  "ir</w>": 552,
  "2015</w>": 553,
  "pero</w>": 554,
  "cu": 555,
  "der": 556,
  "th": 557,
  "ina</w>": 558,
  "quan</w>": 559,
  "nguoi</w>": 560,
  "do": 561,
  "\u0433.</w>": 562,
  "\u043f\u0440\u0438</w>": 563,
  "\u03bc\u03b5</w>": 564,
  "\u0431\u044b\u043b\u0438</w>": 565,
  "ig": 566,
  "\u0111a</w>": 567,
  "tien</w>": 568,
  "\u0648</w>": 569,
  "album</w>": 570,
  "\u0432\u0430": 571,
  "18</w>": 572,
  "\u043a\u0435</w>": 573,
  "ait</w>": 574,
  "desde</w>": 575,
  "ils</w>": 576,
  "bau": 577,
  "mor": 578,
  "jahren</w>": 579,
  "lu": 580,
  "\u0431\u044b\u043b\u0430</w>": 581,
  "\u4ed6</w>": 582,
  "ersten</w>": 583,
  "isch</w>": 584,
  "h</w>": 585,
  "dan</w>": 586,
  "16</w>": 587,
  "\u0432\u043e</w>": 588,
  "or</w>": 589,
  "\u0e41\u0e25\u0e30</w>": 590,
  "v</w>": 591,
  "11</w>": 592,
  "4": 593,
  "lich</w>": 594,
  "\u0442": 595,
  "etre</w>": 596,
  "\u0644": 597,
  "sen</w>": 598,
  "om": 599,
  "\u043c": 600,
  "\u4e0a</w>": 601,
  "hasta</w>": 602,
  "\u043b\u043e": 603,
  "film</w>": 604,
  "res</w>": 605,
  "den": 606,
  "lui</w>": 607,
  "5": 608,
  "\u0442\u0438": 609,
  "ven": 610,
  "antes</w>": 611,
  "na</w>": 612,
  "hoc</w>": 613,
  "\u88ab</w>": 614,
  "ise</w>": 615,
  "aba</w>": 616,
  "formula</w>": 617,
  "2004</w>": 618,
  "\u0448": 619,
  "general</w>": 620,
  "2000</w>": 621,
  "ere</w>": 622,
  "ainsi</w>": 623,
  "\u0440\u0430": 624,
  "14</w>": 625,
  "fer": 626,
  "\u0431\u044b\u043b\u043e</w>": 627,
  "durante</w>": 628,
  "\u0432\u0440\u0435\u043c\u044f</w>": 629,
  "r</w>": 630,
  "\u044e</w>": 631,
  "pen": 632,
  "fut</w>": 633,
  "saison</w>": 634,
  "aron</w>": 635,
  "]</w>": 636,
  "ci": 637,
  "ha": 638,
  "gegen</w>": 639,
  "ma</w>": 640,
  "dont</w>": 641,
  "ler</w>": 642,
  "\u0111o</w>": 643,
  "ec": 644,
  "parte</w>": 645,
  "\uff1a</w>": 646,
  "voi</w>": 647,
  "\u0421</w>": 648,
  "[</w>": 649,
  "cal": 650,
  "ho": 651,
  "re</w>": 652,
  "\u0430": 653,
  "alors</w>": 654,
  "ak": 655,
  "meme</w>": 656,
  "2005</w>": 657,
  "mai</w>": 658,
  "13</w>": 659,
  "\u0432\u0435": 660,
  "sin</w>": 661,
  "sous</w>": 662,
  "op": 663,
  "2016</w>": 664,
  "hoa</w>": 665,
  "donde</w>": 666,
  "ations</w>": 667,
  "6": 668,
  "ke</w>": 669,
  "mal": 670,
  "ana</w>": 671,
  "ii</w>": 672,
  "\u0442\u043e\u043c</w>": 673,
  "25</w>": 674,
  "pe": 675,
  "\u0436\u0435</w>": 676,
  "\u043c\u043e": 677,
  "lors</w>": 678,
  "\u043d\u0438\u0438</w>": 679,
  "sal": 680,
  "\u0441\u043a\u043e\u043c</w>": 681,
  "be</w>": 682,
  "jedoch</w>": 683,
  "x</w>": 684,
  "\u0644\u0644": 685,
  "\u092a</w>": 686,
  "che</w>": 687,
  "\u0440</w>": 688,
  "du": 689,
  "7": 690,
  "sobre</w>": 691,
  "nombre</w>": 692,
  "land": 693,
  "c'</w>": 694,
  "\u4ee5</w>": 695,
  "aussi</w>": 696,
  "p</w>": 697,
  "\u0433</w>": 698,
  "dis": 699,
  "ge</w>": 700,
  "premier</w>": 701,
  "17</w>": 702,
  "ert</w>": 703,
  "\u300c</w>": 704,
  "\u300d</w>": 705,
  "\u043e\u0442": 706,
  "ben</w>": 707,
  "\u0423": 708,
  "e-": 709,
  "teil</w>": 710,
  "men": 711,
  "fr": 712,
  "\u043c\u0430": 713,
  "\u0441\u0438": 714,
  "land</w>": 715,
  "\u0648\u0627\u0644": 716,
  "\u0441\u043a\u0430\u044f</w>": 717,
  "\u0434\u0438": 718,
  "...</w>": 719,
  "egalement</w>": 720,
  "nen</w>": 721,
  ".": 722,
  "bal": 723,
  "\u0440\u0430\u0437": 724,
  "\u043b\u043e</w>": 725,
  "france</w>": 726,
  "\u0418": 727,
  "ige</w>": 728,
  "\u0e40\u0e1b\u0e19</w>": 729,
  "ober": 730,
  "\u00b2</w>": 731,
  "wahrend</w>": 732,
  "\u0431": 733,
  "thanh</w>": 734,
  "\u0434</w>": 735,
  "\u0436": 736,
  "\u043d\u0443\u044e</w>": 737,
  "\u0e02\u0e2d\u0e07</w>": 738,
  "bu": 739,
  "mo</w>": 740,
  "\u0432\u0438": 741,
  "\u044d": 742,
  "go": 743,
  "\u043d\u0438\u044f</w>": 744,
  "\u0433": 745,
  "\u0432\u043e": 746,
  "van</w>": 747,
  "premiere</w>": 748,
  "aciones</w>": 749,
  "\u0442\u043e</w>": 750,
  "ier</w>": 751,
  "cung</w>": 752,
  "cre": 753,
  "9": 754,
  "paris</w>": 755,
  "tor": 756,
  "ins</w>": 757,
  "\u0433\u043e": 758,
  "\u041d\u0430</w>": 759,
  "ou": 760,
  "os": 761,
  "kon": 762,
  "etwa</w>": 763,
  "\u043d\u0438</w>": 764,
  "autres</w>": 765,
  "berg</w>": 766,
  "\u0434\u0435": 767,
  "\u5927": 768,
  "gel": 769,
  "gi": 770,
  "club</w>": 771,
  "ciudad</w>": 772,
  "nhung</w>": 773,
  "ren": 774,
  "8": 775,
  "aires</w>": 776,
  "mat": 777,
  "\u5927</w>": 778,
  "bel": 779,
  "14": 780,
  "pl": 781,
  "\u5e74</w>": 782,
  "\u03bd\u03b1</w>": 783,
  "mi": 784,
  "\u4e5f</w>": 785,
  "\u800c</w>": 786,
  "saint-": 787,
  "nom</w>": 788,
  "\u70ba": 789,
  "\u043f": 790,
  "drei</w>": 791,
  "sol": 792,
  "id": 793,
  "\u0437": 794,
  "\u043c\u0438": 795,
  "aire</w>": 796,
  "depuis</w>": 797,
  "ik": 798,
  "\u0441\u0435": 799,
  "ach": 800,
  "\u201d</w>": 801,
  "\u0442\u043e": 802,
  "\u0432\u0430</w>": 803,
  "gr": 804,
  "iert</w>": 805,
  "spater</w>": 806,
  "dort</w>": 807,
  "\u201c</w>": 808,
  "\u0435\u0442</w>": 809,
  "tur": 810,
  "\u043a\u0443</w>": 811,
  "15": 812,
  "\u0441\u043a\u0438\u0445</w>": 813,
  "\u0442\u0430": 814,
  "gar": 815,
  "ste</w>": 816,
  "\u03c4\u03c9\u03bd</w>": 817,
  "ner</w>": 818,
  "19</w>": 819,
  "\u043b": 820,
  "nach": 821,
  "\u0915\u0940</w>": 822,
  "beim</w>": 823,
  "pu": 824,
  "despues</w>": 825,
  "wieder</w>": 826,
  "\u0413": 827,
  "></w>": 828,
  "tu": 829,
  "24</w>": 830,
  "ihre</w>": 831,
  "ques</w>": 832,
  "ant": 833,
  "\u0431\u0430": 834,
  "\u0442\u0435": 835,
  "\u03c4\u03bf\u03bd</w>": 836,
  "16": 837,
  "\u0e21</w>": 838,
  "vo": 839,
  "partie</w>": 840,
  "mann</w>": 841,
  "\u043d\u044b</w>": 842,
  "thang</w>": 843,
  "13": 844,
  "val": 845,
  "hu": 846,
  "puis</w>": 847,
  "ca": 848,
  "ban</w>": 849,
  "2017</w>": 850,
  "deutschen</w>": 851,
  "bas": 852,
  "2001</w>": 853,
  "\u0431\u0435": 854,
  "pr": 855,
  "ton</w>": 856,
  "\u064a": 857,
  "tar": 858,
  "can": 859,
  "\u06d4</w>": 860,
  "21</w>": 861,
  "\u042d": 862,
  "\u041f": 863,
  "gemeinde</w>": 864,
  "3": 865,
  "col": 866,
  "ben": 867,
  "ens</w>": 868,
  "av": 869,
  "\u043d\u044b\u043c\u0438</w>": 870,
  "\u4e0d</w>": 871,
  "2002</w>": 872,
  "\u03c0\u03bf\u03c5</w>": 873,
  "thuc</w>": 874,
  "zu": 875,
  "\u7531</w>": 876,
  "\u043f\u043e\u0441\u043b\u0435</w>": 877,
  "\u0445": 878,
  "\u0440\u0430</w>": 879,
  "vao</w>": 880,
  "\u043c\u0443</w>": 881,
  "mehr</w>": 882,
  "seinen</w>": 883,
  "\u043a\u043e\u0432</w>": 884,
  "\u0442\u0435</w>": 885,
  "tion</w>": 886,
  "igen</w>": 887,
  "tai</w>": 888,
  "seinem</w>": 889,
  "ees</w>": 890,
  "cuando</w>": 891,
  "100</w>": 892,
  "iz": 893,
  "primera</w>": 894,
  "ste": 895,
  "for": 896,
  "2003</w>": 897,
  "fin</w>": 898,
  "ru": 899,
  "\u043b\u044c</w>": 900,
  "ong</w>": 901,
  "kar": 902,
  "dr": 903,
  "a-": 904,
  "sten</w>": 905,
  "\u043b\u0441\u044f</w>": 906,
  "heute</w>": 907,
  "\u043f\u043e\u0434</w>": 908,
  "\u043a\u0443": 909,
  "<</w>": 910,
  "sa": 911,
  "\u043f\u0430": 912,
  "khoa</w>": 913,
  "hal": 914,
  "22</w>": 915,
  "\u041f\u043e</w>": 916,
  "pas": 917,
  "and": 918,
  "bereits</w>": 919,
  "\u0441\u0430": 920,
  "\u0440\u043e\u0432</w>": 921,
  "ion</w>": 922,
  "kirche</w>": 923,
  "\u0440\u0443": 924,
  "lin": 925,
  "mit": 926,
  "\u0412": 927,
  "liegt</w>": 928,
  "\u043c\u0430</w>": 929,
  "dar": 930,
  "\u0444": 931,
  "dia</w>": 932,
  "trois</w>": 933,
  "lan": 934,
  "ch</w>": 935,
  "chi</w>": 936,
  "vi</w>": 937,
  "har": 938,
  "wo</w>": 939,
  "ons</w>": 940,
  "\u0111ong</w>": 941,
  "\u043b\u0430": 942,
  "\u53ca</w>": 943,
  "\u041a": 944,
  "\u0433\u0430": 945,
  "konnte</w>": 946,
  "\u043c\u0435": 947,
  "kann</w>": 948,
  "art</w>": 949,
  "!</w>": 950,
  "=</w>": 951,
  "han</w>": 952,
  "\u0639\u0627\u0645</w>": 953,
  "min": 954,
  "cong</w>": 955,
  "s-": 956,
  "ung": 957,
  "1999</w>": 958,
  "\u0434\u0430": 959,
  "\u0431\u043e": 960,
  "sur": 961,
  "\u044f": 962,
  "\u0442\u044b</w>": 963,
  "af": 964,
  "annees</w>": 965,
  "ese</w>": 966,
  "di</w>": 967,
  "len</w>": 968,
  "new</w>": 969,
  "\u7b49</w>": 970,
  "vers</w>": 971,
  "ido</w>": 972,
  "grand</w>": 973,
  "ler": 974,
  "23</w>": 975,
  "plusieurs</w>": 976,
  "entes</w>": 977,
  "ra": 978,
  "az": 979,
  "eg": 980,
  "0</w>": 981,
  "haus</w>": 982,
  "&</w>": 983,
  "\u70ba</w>": 984,
  "\u03c3\u03b5</w>": 985,
  "tre": 986,
  "peut</w>": 987,
  "sar": 988,
  "ing": 989,
  "por": 990,
  "\u0435": 991,
  "erste</w>": 992,
  "\u0643": 993,
  "burg</w>": 994,
  "\u043b\u0438\u0441\u044c</w>": 995,
  "\u043c\u0438</w>": 996,
  "gran</w>": 997,
  "\u0442\u044c</w>": 998,
  "\u043d\u0438\u0435</w>": 999,
  "jusqu'</w>": 1000,
  "ierte</w>": 1001,
  "\u0440\u043e\u043c</w>": 1002,
  "len": 1003,
  "\u0438\u0445</w>": 1004,
  "\u4e8e</w>": 1005,
  "bu</w>": 1006,
  "san": 1007,
  "sel": 1008,
  "\u0447": 1009,
  "\u03c3\u03c4\u03b7\u03bd</w>": 1010,
  "ie": 1011,
  "platz</w>": 1012,
  "1.</w>": 1013,
  "\u044e\u0442</w>": 1014,
  "t-": 1015,
  "ky</w>": 1016,
  "bor": 1017,
  "\u0434\u0435</w>": 1018,
  "tete</w>": 1019,
  "str": 1020,
  "\u0111oi</w>": 1021,
  "\u5230</w>": 1022,
  "\u0440": 1023,
  "\u0914\u0930</w>": 1024,
  "groupe</w>": 1025,
  "la": 1026,
  "\u0445</w>": 1027,
  "\u043d": 1028,
  "26</w>": 1029,
  "ang": 1030,
  "partir</w>": 1031,
  "stra\u00dfe</w>": 1032,
  "ihm</w>": 1033,
  "fin": 1034,
  "pol": 1035,
  "thu</w>": 1036,
  "\u0435\u0435</w>": 1037,
  "pal": 1038,
  "50</w>": 1039,
  "sor": 1040,
  "vol": 1041,
  "commune</w>": 1042,
  "tiene</w>": 1043,
  "\u0648": 1044,
  "ange": 1045,
  "tinh</w>": 1046,
  "28</w>": 1047,
  "ju": 1048,
  "\u0111e</w>": 1049,
  "khi</w>": 1050,
  "\u041f\u043e": 1051,
  "ken": 1052,
  "enden</w>": 1053,
  "\u0438\u0442\u044c</w>": 1054,
  "\u0441\u0443": 1055,
  "sub": 1056,
  "cer": 1057,
  "\u2020</w>": 1058,
  "ts": 1059,
  "war": 1060,
  "nes</w>": 1061,
  "\u043b\u0430\u0441\u044c</w>": 1062,
  "12": 1063,
  "stand</w>": 1064,
  "\u03b3\u03b9\u03b1</w>": 1065,
  "fre": 1066,
  "avant</w>": 1067,
  "contre</w>": 1068,
  "dann</w>": 1069,
  "uno</w>": 1070,
  "\u0414": 1071,
  "ier": 1072,
  "\u0915\u093e</w>": 1073,
  "1990</w>": 1074,
  "ist": 1075,
  "char": 1076,
  "kam</w>": 1077,
  "ino</w>": 1078,
  "eran</w>": 1079,
  "ed": 1080,
  "asi</w>": 1081,
  "10": 1082,
  "bi</w>": 1083,
  "rec": 1084,
  "bre": 1085,
  "\u0627\u0644\u062a\u064a</w>": 1086,
  "alle</w>": 1087,
  "khong</w>": 1088,
  "bur": 1089,
  "\u0438\u043d": 1090,
  "\u043b\u0435\u0442</w>": 1091,
  "kr": 1092,
  "ites</w>": 1093,
  "francais</w>": 1094,
  "habia</w>": 1095,
  "dung</w>": 1096,
  "gal": 1097,
  "\u03c4\u03b7</w>": 1098,
  "\u540d</w>": 1099,
  "ton": 1100,
  "\u041a\u043e": 1101,
  "sin": 1102,
  "\u03c4\u03b1</w>": 1103,
  "vat</w>": 1104,
  "\u0447\u0435": 1105,
  "st</w>": 1106,
  "\u043f\u043e\u0434": 1107,
  "primer</w>": 1108,
  "ihr</w>": 1109,
  "\u0438\u0437": 1110,
  "\u041c\u0430": 1111,
  "gia</w>": 1112,
  "\u043e\u0431\u043b\u0430\u0441\u0442\u0438</w>": 1113,
  "\u03c3\u03c4\u03bf</w>": 1114,
  "ba": 1115,
  "\u65bc</w>": 1116,
  "\u041a\u0430": 1117,
  "\u0422": 1118,
  "we": 1119,
  "erte</w>": 1120,
  "mel": 1121,
  "able</w>": 1122,
  "1998</w>": 1123,
  "haben</w>": 1124,
  "\u0627\u0644\u0645": 1125,
  "\u0411": 1126,
  "ges": 1127,
  "\u043a\u043c</w>": 1128,
  "ngay</w>": 1129,
  "ants</w>": 1130,
  "\u06c1\u06d2</w>": 1131,
  "ba</w>": 1132,
  "icos</w>": 1133,
  "sau</w>": 1134,
  "fueron</w>": 1135,
  "vier</w>": 1136,
  "27</w>": 1137,
  "gen</w>": 1138,
  "aria</w>": 1139,
  "wal": 1140,
  "\u0434\u0443": 1141,
  "pan": 1142,
  "\u0645\u0639</w>": 1143,
  "fal": 1144,
  "hor": 1145,
  "ut": 1146,
  "hi": 1147,
  "\u0433\u0434\u0435</w>": 1148,
  "tout</w>": 1149,
  "bl": 1150,
  "ken</w>": 1151,
  "\u0433\u0438": 1152,
  "bau</w>": 1153,
  "\u5730</w>": 1154,
  "cion</w>": 1155,
  "tan</w>": 1156,
  "tos</w>": 1157,
  "gebiet</w>": 1158,
  "spiel": 1159,
  "ur</w>": 1160,
  "\u043a\u043e\u0438</w>": 1161,
  "hol": 1162,
  "\u0442\u043e\u0432</w>": 1163,
  "chen</w>": 1164,
  "\u0436\u0438": 1165,
  "\u0627\u0648</w>": 1166,
  "otros</w>": 1167,
  "thuoc</w>": 1168,
  "\u0641": 1169,
  "40</w>": 1170,
  "ku": 1171,
  "august</w>": 1172,
  "pi": 1173,
  "dabei</w>": 1174,
  "solo</w>": 1175,
  "trans": 1176,
  "guerre</w>": 1177,
  "tal": 1178,
  "\u043b\u0435</w>": 1179,
  "\u0441\u0438</w>": 1180,
  "pat": 1181,
  "wer": 1182,
  "hin": 1183,
  "ve": 1184,
  "reg": 1185,
  "\u043a\u043e\u0442\u043e\u0440\u044b\u0438</w>": 1186,
  "elles</w>": 1187,
  "ot": 1188,
  "jo": 1189,
  "\u0111en</w>": 1190,
  "one</w>": 1191,
  "\u0446\u0438\u0438</w>": 1192,
  "\u81f3</w>": 1193,
  "2": 1194,
  "division</w>": 1195,
  "\u043e\u0431": 1196,
  "\u4e00": 1197,
  "gab</w>": 1198,
  "place</w>": 1199,
  "\u0433\u0430</w>": 1200,
  "dio</w>": 1201,
  "\u03b5\u03b9\u03bd\u03b1\u03b9</w>": 1202,
  "marz</w>": 1203,
  "tour</w>": 1204,
  "\u0647\u0648</w>": 1205,
  "januar</w>": 1206,
  "dan": 1207,
  "dor": 1208,
  "nor": 1209,
  "\u0433\u043e</w>": 1210,
  "fo": 1211,
  "\u0639\u0646</w>": 1212,
  "ies</w>": 1213,
  "mu": 1214,
  "thi</w>": 1215,
  "mas": 1216,
  "ah": 1217,
  "w</w>": 1218,
  "damit</w>": 1219,
  "29</w>": 1220,
  "ihrer</w>": 1221,
  "estado</w>": 1222,
  "poblacion</w>": 1223,
  "em</w>": 1224,
  "\u043e\u043d\u0430</w>": 1225,
  "grande</w>": 1226,
  "oc": 1227,
  "licher</w>": 1228,
  "ph": 1229,
  "\u0e44\u0e14</w>": 1230,
  "tet</w>": 1231,
  "\u0430\u043d": 1232,
  "mal</w>": 1233,
  "\u044c": 1234,
  "kur": 1235,
  "oktober</w>": 1236,
  "\u0441\u043e</w>": 1237,
  "\u0435\u0442\u0441\u044f</w>": 1238,
  "cual</w>": 1239,
  "1945</w>": 1240,
  "\u0441\u043a\u0438\u0435</w>": 1241,
  "mes</w>": 1242,
  "\u041f\u043e\u0441\u043b\u0435</w>": 1243,
  "icas</w>": 1244,
  "\u043f\u0438": 1245,
  "ias</w>": 1246,
  "berlin</w>": 1247,
  "\u044d\u0442\u043e</w>": 1248,
  "liste</w>": 1249,
  "anderen</w>": 1250,
  "\u043b\u044f": 1251,
  "\u043d\u043e\u0432</w>": 1252,
  "end</w>": 1253,
  "if": 1254,
  "rio</w>": 1255,
  "\u0645\u06cc\u06ba</w>": 1256,
  "schaft</w>": 1257,
  "\u00b0</w>": 1258,
  "ihn</w>": 1259,
  "cas": 1260,
  "\u043f\u0435": 1261,
  "nord</w>": 1262,
  "haupt": 1263,
  "tras</w>": 1264,
  "ev": 1265,
  "sans</w>": 1266,
  "\u044c</w>": 1267,
  "ador</w>": 1268,
  "\uff1b</w>": 1269,
  "del": 1270,
  "za</w>": 1271,
  "phan</w>": 1272,
  "\u0446\u0435": 1273,
  "fois</w>": 1274,
  "1997</w>": 1275,
  "\u4f46</w>": 1276,
  "\u041c": 1277,
  "forma</w>": 1278,
  "1996</w>": 1279,
  "version</w>": 1280,
  "\u0432\u043e\u0438</w>": 1281,
  "\u062a": 1282,
  "dessen</w>": 1283,
  "zweiten</w>": 1284,
  "sud": 1285,
  "\u51fa</w>": 1286,
  "ni</w>": 1287,
  "nacional</w>": 1288,
  "september</w>": 1289,
  "cr": 1290,
  "selon</w>": 1291,
  "\u0442\u043e\u0433\u043e</w>": 1292,
  "john</w>": 1293,
  "ing</w>": 1294,
  "april</w>": 1295,
  "universitat</w>": 1296,
  "mer</w>": 1297,
  "mismo</w>": 1298,
  "kan": 1299,
  "juni</w>": 1300,
  "1992</w>": 1301,
  "ost": 1302,
  "\u0441\u0442\u0432\u0430</w>": 1303,
  "\u0441\u043a\u043e\u0435</w>": 1304,
  "ek": 1305,
  "\u0e01\u0e32\u0e23</w>": 1306,
  "mort</w>": 1307,
  "\u0441\u0442\u0430\u043b</w>": 1308,
  "ue</w>": 1309,
  "\u06a9\u06d2</w>": 1310,
  "\u0433\u043e\u0434</w>": 1311,
  "\u03bf\u03b9</w>": 1312,
  "\u4e0b</w>": 1313,
  "\u043a\u0438": 1314,
  "\u4e4b</w>": 1315,
  "avait</w>": 1316,
  "mag": 1317,
  "juli</w>": 1318,
  "sud</w>": 1319,
  "mitglied</w>": 1320,
  "ian</w>": 1321,
  "monde</w>": 1322,
  "1994</w>": 1323,
  "bar</w>": 1324,
  "\u0447\u0438": 1325,
  "avoir</w>": 1326,
  "\u0441\u0442": 1327,
  "\u4e2d": 1328,
  "\u0915\u094b</w>": 1329,
  "puede</w>": 1330,
  "durch": 1331,
  "ausge": 1332,
  "pa": 1333,
  "york</w>": 1334,
  "weitere</w>": 1335,
  "deutschland</w>": 1336,
  "neu": 1337,
  "\u5176</w>": 1338,
  "tor</w>": 1339,
  "ban": 1340,
  "son": 1341,
  "31</w>": 1342,
  "1995</w>": 1343,
  "\u0431\u043e\u043b\u0435\u0435</w>": 1344,
  "1991</w>": 1345,
  "\u90e8</w>": 1346,
  "tan": 1347,
  "\u043d\u043e\u0441\u0442\u0438</w>": 1348,
  "gibt</w>": 1349,
  "konnen</w>": 1350,
  "ff": 1351,
  "\u0447\u0435\u0441\u043a\u043e\u0438</w>": 1352,
  "bach</w>": 1353,
  "don": 1354,
  "annee</w>": 1355,
  "erhielt</w>": 1356,
  "amente</w>": 1357,
  "vez</w>": 1358,
  "debut</w>": 1359,
  "\u0447\u0435\u043b\u043e\u0432\u0435\u043a</w>": 1360,
  "\u5dde</w>": 1361,
  "vie</w>": 1362,
  "\u0441\u043a\u0438\u043c</w>": 1363,
  "ara</w>": 1364,
  "\u4e00\u4e2a</w>": 1365,
  "namen</w>": 1366,
  "ger</w>": 1367,
  "encuentra</w>": 1368,
  "famille</w>": 1369,
  "dezember</w>": 1370,
  "pays</w>": 1371,
  "men</w>": 1372,
  "beiden</w>": 1373,
  "diesem</w>": 1374,
  "ze": 1375,
  "ka</w>": 1376,
  "dorf</w>": 1377,
  "forme</w>": 1378,
  "hier</w>": 1379,
  "\u0431\u0438": 1380,
  "lan</w>": 1381,
  "neben</w>": 1382,
  "\u043d\u0438\u044e</w>": 1383,
  "\u044f\u0432\u043b\u044f\u0435\u0442\u0441\u044f</w>": 1384,
  "equipe</w>": 1385,
  "met": 1386,
  "xa</w>": 1387,
  "idad</w>": 1388,
  "ort</w>": 1389,
  "ob": 1390,
  "gro\u00df": 1391,
  "1980</w>": 1392,
  "\u0442\u0430\u043a</w>": 1393,
  "bat": 1394,
  "pendant</w>": 1395,
  "je</w>": 1396,
  "bil": 1397,
  "mil": 1398,
  "res": 1399,
  "stadt": 1400,
  "lang": 1401,
  "ette</w>": 1402,
  "\u0441\u0442\u0438": 1403,
  "ga</w>": 1404,
  "schul": 1405,
  "mun": 1406,
  "lar": 1407,
  "ech": 1408,
  "\u0420\u043e\u0441\u0441\u0438\u0438</w>": 1409,
  "\u0432\u0435\u0440": 1410,
  "gesch": 1411,
  "ario</w>": 1412,
  "\u043d\u043e\u0441\u0442\u044c</w>": 1413,
  "muy</w>": 1414,
  "\u0645\u0627</w>": 1415,
  "rom": 1416,
  "tom": 1417,
  "ide</w>": 1418,
  "november</w>": 1419,
  "\u0448\u0435": 1420,
  "notamment</w>": 1421,
  "temps</w>": 1422,
  "\u0415": 1423,
  "maria</w>": 1424,
  "1993</w>": 1425,
  "werk</w>": 1426,
  "\u0643\u0627\u0646</w>": 1427,
  "hai</w>": 1428,
  "familia</w>": 1429,
  "gruppe</w>": 1430,
  "\u043d\u043e-": 1431,
  "\u043b\u043e\u0441\u044c</w>": 1432,
  "suite</w>": 1433,
  "\u0441\u0442\u043e": 1434,
  "olarak</w>": 1435,
  "sab": 1436,
  "wasser": 1437,
  "tung</w>": 1438,
  "ule</w>": 1439,
  "trung</w>": 1440,
  "\u0441\u0442\u0432\u043e</w>": 1441,
  "ero</w>": 1442,
  "\u0420": 1443,
  "\u041d\u0430": 1444,
  "tant</w>": 1445,
  "kal": 1446,
  "lieu</w>": 1447,
  "fe": 1448,
  "ster": 1449,
  "ents</w>": 1450,
  "\u043b\u044f</w>": 1451,
  "ines</w>": 1452,
  "far": 1453,
  "\u044b": 1454,
  "ich": 1455,
  "he</w>": 1456,
  "etat</w>": 1457,
  "ademas</w>": 1458,
  "eren</w>": 1459,
  "ich</w>": 1460,
  "\u064a</w>": 1461,
  "ate</w>": 1462,
  "\u0445\u043e": 1463,
  "\u0445\u0430": 1464,
  "\u041b": 1465,
  "\u00b7": 1466,
  "\u0647\u064a</w>": 1467,
  "\u043d\u0438\u043a</w>": 1468,
  "kor": 1469,
  "\u092a\u0930</w>": 1470,
  "arse</w>": 1471,
  "nord": 1472,
  "gest": 1473,
  "\u0647</w>": 1474,
  "chinh</w>": 1475,
  "dre": 1476,
  "kom": 1477,
  "\u0647": 1478,
  "ata</w>": 1479,
  "\u0446\u044b</w>": 1480,
  "mes": 1481,
  "see</w>": 1482,
  "lon</w>": 1483,
  "\u0432\u0441\u0435</w>": 1484,
  "\u7528</w>": 1485,
  "zunachst</w>": 1486,
  "\u591a</w>": 1487,
  "cap": 1488,
  "ta": 1489,
  "1970</w>": 1490,
  "zusammen</w>": 1491,
  "\u043a\u043e</w>": 1492,
  "schule</w>": 1493,
  "ley</w>": 1494,
  "quoc</w>": 1495,
  "\u0428": 1496,
  "liga</w>": 1497,
  "\u03c4\u03bf\u03c5\u03c2</w>": 1498,
  "2018</w>": 1499,
  "aunque</w>": 1500,
  "jahrhundert</w>": 1501,
  "ura</w>": 1502,
  "plan": 1503,
  "\u0437\u0438": 1504,
  "cours</w>": 1505,
  "fi": 1506,
  "leurs</w>": 1507,
  "stein</w>": 1508,
  "union</w>": 1509,
  "ene</w>": 1510,
  "nhan</w>": 1511,
  "\u092f</w>": 1512,
  "\u06a9\u06cc</w>": 1513,
  "1989</w>": 1514,
  "ik</w>": 1515,
  "segun</w>": 1516,
  "ce": 1517,
  "name</w>": 1518,
  "ay": 1519,
  "\u043f\u0443": 1520,
  "lam</w>": 1521,
  "national</w>": 1522,
  "non</w>": 1523,
  "armee</w>": 1524,
  "chung</w>": 1525,
  "ja</w>": 1526,
  "ida</w>": 1527,
  "sion</w>": 1528,
  "ure</w>": 1529,
  "the": 1530,
  "erst</w>": 1531,
  "song</w>": 1532,
  "0": 1533,
  "ck": 1534,
  "\u043d\u0438\u0445</w>": 1535,
  "\u043c\u044b</w>": 1536,
  "\u6240</w>": 1537,
  "\u6b21</w>": 1538,
  "dies</w>": 1539,
  "\u4e0e</w>": 1540,
  "iques</w>": 1541,
  "rat</w>": 1542,
  "\u043f\u0440\u0435": 1543,
  "ro</w>": 1544,
  "deren</w>": 1545,
  "ka": 1546,
  "en-": 1547,
  "tren</w>": 1548,
  "\u90fd</w>": 1549,
  "nieder": 1550,
  "ios</w>": 1551,
  "ini</w>": 1552,
  "ella</w>": 1553,
  "bes": 1554,
  "bundes": 1555,
  "grupo</w>": 1556,
  "cada</w>": 1557,
  "\u043c\u0443": 1558,
  "faire</w>": 1559,
  "kat": 1560,
  "\u0647\u0627</w>": 1561,
  "autre</w>": 1562,
  "\u0e19</w>": 1563,
  "\u0435\u0438</w>": 1564,
  "\u0397</w>": 1565,
  "hel": 1566,
  "sou": 1567,
  "lugar</w>": 1568,
  "municipio</w>": 1569,
  "\u0648\u062a": 1570,
  "eur</w>": 1571,
  "\u0442\u043e\u043b\u044c\u043a\u043e</w>": 1572,
  "nhu</w>": 1573,
  "tous</w>": 1574,
  "\u0447\u0430": 1575,
  "roi</w>": 1576,
  "dec": 1577,
  "super": 1578,
  "cas</w>": 1579,
  "anh</w>": 1580,
  "\u0440\u0430\u0441": 1581,
  "sehr</w>": 1582,
  "det</w>": 1583,
  "estados</w>": 1584,
  "bang</w>": 1585,
  "\u0627\u0644\u062a": 1586,
  "\u4eba\u53e3</w>": 1587,
  "\u0441\u0442\u0430": 1588,
  "\u0446": 1589,
  "fel": 1590,
  "zuruck</w>": 1591,
  "\u0436\u0435": 1592,
  "\u0437\u043e": 1593,
  "sido</w>": 1594,
  "bekannt</w>": 1595,
  "base</w>": 1596,
  "\u090f\u0915</w>": 1597,
  "statt</w>": 1598,
  "ke": 1599,
  "noi</w>": 1600,
  "siglo</w>": 1601,
  "\u043c\u0435\u0436\u0434\u0443</w>": 1602,
  "tour": 1603,
  "tat": 1604,
  "\u043a\u043e\u043d": 1605,
  "\u540e</w>": 1606,
  "\u0648\u064a": 1607,
  "ai</w>": 1608,
  "\u0434\u044b</w>": 1609,
  "fest": 1610,
  "mayor</w>": 1611,
  "o-": 1612,
  "nahm</w>": 1613,
  "\u062d": 1614,
  "titre</w>": 1615,
  "sem": 1616,
  "total</w>": 1617,
  "familie</w>": 1618,
  "ly</w>": 1619,
  "februar</w>": 1620,
  "\u044e": 1621,
  "\u5b50</w>": 1622,
  "\u0e2a</w>": 1623,
  "sam": 1624,
  "hay</w>": 1625,
  "west": 1626,
  "nhat</w>": 1627,
  "go</w>": 1628,
  "60</w>": 1629,
  "ep": 1630,
  "\u0448\u0438": 1631,
  "hoch": 1632,
  "gro\u00dfe</w>": 1633,
  "ras": 1634,
  "wil": 1635,
  "deutsche</w>": 1636,
  "ber</w>": 1637,
  "a.</w>": 1638,
  "rat": 1639,
  "finale</w>": 1640,
  "sau": 1641,
  "\u0437</w>": 1642,
  "ieren</w>": 1643,
  "guerra</w>": 1644,
  "\u0417\u0430": 1645,
  "contra</w>": 1646,
  "\u0433\u0435": 1647,
  "\u041d\u0435": 1648,
  "\u0441\u043e\u0441\u0442\u0430\u0432</w>": 1649,
  "geschichte</w>": 1650,
  "\u8005</w>": 1651,
  "grund": 1652,
  "mac": 1653,
  "\u0435\u043c</w>": 1654,
  "ones</w>": 1655,
  "\u8207": 1656,
  "0,": 1657,
  "\u65af</w>": 1658,
  "junto</w>": 1659,
  "nha</w>": 1660,
  "\u4f4d</w>": 1661,
  "situe</w>": 1662,
  "ihren</w>": 1663,
  "na": 1664,
  "tel": 1665,
  "\u043a\u043e\u043c</w>": 1666,
  "\u6210</w>": 1667,
  "ast": 1668,
  "\u0421\u0435": 1669,
  "ion": 1670,
  "encore</w>": 1671,
  "ebenfalls</w>": 1672,
  "\u0421\u0430": 1673,
  "\u0447\u0435\u0441\u043a\u043e\u0433\u043e</w>": 1674,
  "\u0433\u043e\u0440\u043e\u0434\u0430</w>": 1675,
  "aient</w>": 1676,
  "zen</w>": 1677,
  "\u043f\u043e\u043b": 1678,
  "che": 1679,
  "cher</w>": 1680,
  "\u0447\u0435\u0441\u043a\u0438\u0445</w>": 1681,
  "rer</w>": 1682,
  "\u4e2d\u56fd</w>": 1683,
  "gem": 1684,
  "\u063a": 1685,
  "steht</w>": 1686,
  "\u043a\u043e\u0442\u043e\u0440\u044b\u0435</w>": 1687,
  "\u5bb6</w>": 1688,
  "cro": 1689,
  "equipo</w>": 1690,
  "wegen</w>": 1691,
  "ista</w>": 1692,
  "\u0424": 1693,
  "keine</w>": 1694,
  "sohn</w>": 1695,
  "1960</w>": 1696,
  "1988</w>": 1697,
  "fu": 1698,
  "band</w>": 1699,
  "var": 1700,
  "denen</w>": 1701,
  "ell": 1702,
  "teur</w>": 1703,
  "don</w>": 1704,
  "\u897f": 1705,
  "ice</w>": 1706,
  "200</w>": 1707,
  "1944</w>": 1708,
  "sil": 1709,
  "\u03a4\u03bf</w>": 1710,
  "peu</w>": 1711,
  "ingen</w>": 1712,
  "cel": 1713,
  "\u0421\u043e": 1714,
  "\u4efb</w>": 1715,
  "trat</w>": 1716,
  "todo</w>": 1717,
  "\u0928</w>": 1718,
  "partido</w>": 1719,
  "ire</w>": 1720,
  "\u0432\u0430\u043b</w>": 1721,
  "lai</w>": 1722,
  "tiempo</w>": 1723,
  "ages</w>": 1724,
  "\u0433\u0443": 1725,
  "ita</w>": 1726,
  "ds</w>": 1727,
  "seite</w>": 1728,
  "\u0425": 1729,
  "\u0432\u044b\u0445</w>": 1730,
  "devient</w>": 1731,
  "og": 1732,
  "\u043d\u0438\u043a\u0430</w>": 1733,
  "bao</w>": 1734,
  "pon": 1735,
  "tro</w>": 1736,
  "nueva</w>": 1737,
  "cat": 1738,
  "was</w>": 1739,
  "gre": 1740,
  "\u0628\u064a\u0646</w>": 1741,
  "rang</w>": 1742,
  "dieses</w>": 1743,
  "vil": 1744,
  "\u064a\u0629</w>": 1745,
  "\u6700</w>": 1746,
  "\u043d\u0438\u043a\u043e\u0432</w>": 1747,
  "befindet</w>": 1748,
  "wa</w>": 1749,
  "lie": 1750,
  "mittel": 1751,
  "gener": 1752,
  "dien</w>": 1753,
  "paul</w>": 1754,
  "ki": 1755,
  "eau</w>": 1756,
  "bajo</w>": 1757,
  "\u064a\u0646</w>": 1758,
  "ciones</w>": 1759,
  "ic</w>": 1760,
  "fil": 1761,
  "nouveau</w>": 1762,
  "aban</w>": 1763,
  "\u043a\u0430\u0442\u043e</w>": 1764,
  "quatre</w>": 1765,
  "ze</w>": 1766,
  "bro": 1767,
  "schon</w>": 1768,
  "\u0628\u0639\u062f</w>": 1769,
  "li</w>": 1770,
  "final</w>": 1771,
  "q": 1772,
  "\u0434\u0443</w>": 1773,
  "pel": 1774,
  "\u0421\u0421\u0421\u0420</w>": 1775,
  "\u4e0d": 1776,
  "je": 1777,
  "\u0440\u0435</w>": 1778,
  "\u043f\u0440\u0435\u0437</w>": 1779,
  "allem</w>": 1780,
  "\u0627\u0648\u0631</w>": 1781,
  "\u0432\u043e\u0438\u043d\u044b</w>": 1782,
  "\u0435\u043d": 1783,
  "\u043b\u0435\u043d\u0438\u044f</w>": 1784,
  "les": 1785,
  "ner": 1786,
  "\u0627\u062a</w>": 1787,
  "soit</w>": 1788,
  "moi</w>": 1789,
  "quien</w>": 1790,
  "zeit": 1791,
  "\u039f</w>": 1792,
  "cin": 1793,
  "ille</w>": 1794,
  "international</w>": 1795,
  "\u041d": 1796,
  "+</w>": 1797,
  "begann</w>": 1798,
  "\u0440\u044b</w>": 1799,
  "usa</w>": 1800,
  "ker": 1801,
  "1-": 1802,
  "adores</w>": 1803,
  "1986</w>": 1804,
  "ver</w>": 1805,
  "ern": 1806,
  "mientras</w>": 1807,
  "b.</w>": 1808,
  "iste</w>": 1809,
  "bereich</w>": 1810,
  "lang</w>": 1811,
  "1987</w>": 1812,
  "eglise</w>": 1813,
  "flo": 1814,
  "lat": 1815,
  "\u5f8c</w>": 1816,
  "\u5e02</w>": 1817,
  "\u044d\u0442\u043e\u0433\u043e</w>": 1818,
  "nachdem</w>": 1819,
  "lon": 1820,
  "stein": 1821,
  "let": 1822,
  "bon": 1823,
  "qua</w>": 1824,
  "zen": 1825,
  "pe</w>": 1826,
  "einige</w>": 1827,
  "otras</w>": 1828,
  "departement</w>": 1829,
  "ig</w>": 1830,
  "unidos</w>": 1831,
  "lange</w>": 1832,
  "\u043e\u043d\u0438</w>": 1833,
  "are</w>": 1834,
  "lam": 1835,
  "1975</w>": 1836,
  "\u65af": 1837,
  "cur": 1838,
  "\u0431\u0443": 1839,
  "nee</w>": 1840,
  "berg": 1841,
  "wor": 1842,
  "\u8207</w>": 1843,
  "\u0441\u043a\u0443\u044e</w>": 1844,
  "form</w>": 1845,
  "ologie</w>": 1846,
  "neuen</w>": 1847,
  "hien</w>": 1848,
  "\u0446\u0430</w>": 1849,
  "cam": 1850,
  "\u044d\u0442\u043e\u043c</w>": 1851,
  "\u0440\u0435\u043a\u0438</w>": 1852,
  "lau": 1853,
  "wo": 1854,
  "worden</w>": 1855,
  "iii</w>": 1856,
  "|</w>": 1857,
  "\u65b0</w>": 1858,
  "nuevo</w>": 1859,
  "\u062f": 1860,
  "landes": 1861,
  "fen": 1862,
  "lig": 1863,
  "hacia</w>": 1864,
  "\u0440\u0438</w>": 1865,
  "use</w>": 1866,
  "tal</w>": 1867,
  "1985</w>": 1868,
  "all": 1869,
  "\u0410.</w>": 1870,
  "teil": 1871,
  "universidad</w>": 1872,
  "thoi</w>": 1873,
  "gor": 1874,
  "village</w>": 1875,
  "eurs</w>": 1876,
  "\u0e23</w>": 1877,
  "\u6216</w>": 1878,
  "\u0441\u043a\u0430</w>": 1879,
  "\u0430\u0442\u044c</w>": 1880,
  "\u6703": 1881,
  "cu</w>": 1882,
  "\u0442\u0443": 1883,
  "\u043d\u0435\u0433\u043e</w>": 1884,
  "ann": 1885,
  "vo</w>": 1886,
  "gro\u00dfen</w>": 1887,
  "ub": 1888,
  "gobierno</w>": 1889,
  "1984</w>": 1890,
  "fun": 1891,
  "id</w>": 1892,
  "embargo</w>": 1893,
  "medi": 1894,
  "\u043e\u043a\u043e\u043b\u043e</w>": 1895,
  "bzw.</w>": 1896,
  "leben</w>": 1897,
  "?</w>": 1898,
  "\u0434\u0438</w>": 1899,
  "ging</w>": 1900,
  "car</w>": 1901,
  "francaise</w>": 1902,
  "mis</w>": 1903,
  "rich": 1904,
  "neue</w>": 1905,
  "eux</w>": 1906,
  "ram": 1907,
  "\u043d\u0435\u0438</w>": 1908,
  "alen</w>": 1909,
  "oper": 1910,
  "pere</w>": 1911,
  "long</w>": 1912,
  "deutscher</w>": 1913,
  "bol": 1914,
  "principal</w>": 1915,
  "situee</w>": 1916,
  "\u0448\u0430": 1917,
  "dam": 1918,
  "lit": 1919,
  "1941</w>": 1920,
  "norte</w>": 1921,
  "\u0441\u0442\u0438</w>": 1922,
  "kunst": 1923,
  "\u0438\u043c</w>": 1924,
  "jean</w>": 1925,
  "isme</w>": 1926,
  "indi": 1927,
  "sh": 1928,
  "jose</w>": 1929,
  "ito</w>": 1930,
  "selbst</w>": 1931,
  "\u03c9\u03bd</w>": 1932,
  "ierten</w>": 1933,
  "d-": 1934,
  "\u0440\u0430\u043d": 1935,
  "enen</w>": 1936,
  "\u0431\u044b": 1937,
  "\u062c": 1938,
  "\u0935</w>": 1939,
  "feld</w>": 1940,
  "ye</w>": 1941,
  "cia</w>": 1942,
  "500</w>": 1943,
  "titel</w>": 1944,
  "1": 1945,
  "\u0432\u0430\u0442\u044c</w>": 1946,
  "anderem</w>": 1947,
  "juan</w>": 1948,
  "espana</w>": 1949,
  "bat</w>": 1950,
  "kol": 1951,
  "mol": 1952,
  "estos</w>": 1953,
  "chu</w>": 1954,
  "quelques</w>": 1955,
  "al-": 1956,
  "centre</w>": 1957,
  "histoire</w>": 1958,
  "\u0442\u0438</w>": 1959,
  "todos</w>": 1960,
  "\u043b\u0435\u043d\u0438\u0435</w>": 1961,
  "er-": 1962,
  "\u0644\u0627</w>": 1963,
  "spiel</w>": 1964,
  "\u0646": 1965,
  "personen</w>": 1966,
  "zer": 1967,
  "45</w>": 1968,
  "\u06a9\u0627</w>": 1969,
  "spielte</w>": 1970,
  "80</w>": 1971,
  "cou": 1972,
  "natur": 1973,
  "anti": 1974,
  "\u0634": 1975,
  "theo</w>": 1976,
  "donc</w>": 1977,
  "han": 1978,
  "1972</w>": 1979,
  "\u043d\u043e\u043c\u0443</w>": 1980,
  "fils</w>": 1981,
  "ance</w>": 1982,
  "\u0440\u0430\u0438\u043e\u043d\u0430</w>": 1983,
  "\u5fb7": 1984,
  "durant</w>": 1985,
  "1982</w>": 1986,
  "ki</w>": 1987,
  "ac</w>": 1988,
  "gebaude</w>": 1989,
  "\u041f\u0440\u043e": 1990,
  "\u043c\u0435</w>": 1991,
  "\u0432\u0430\u0435\u0442</w>": 1992,
  "ti</w>": 1993,
  "chien</w>": 1994,
  "\u6027</w>": 1995,
  "\u0639\u062f\u062f</w>": 1996,
  "grandes</w>": 1997,
  "1950</w>": 1998,
  "pais</w>": 1999,
  "\u0421\u0428\u0410</w>": 2000,
  "moins</w>": 2001,
  "\u0645": 2002,
  "\u4e09</w>": 2003,
  "\u043b\u043e\u0432</w>": 2004,
  "els</w>": 2005,
  "vien</w>": 2006,
  "\u524d</w>": 2007,
  "can</w>": 2008,
  "siendo</w>": 2009,
  "tab": 2010,
  "fuhrte</w>": 2011,
  "ohne</w>": 2012,
  "erung</w>": 2013,
  "\u041a</w>": 2014,
  "idae</w>": 2015,
  "\u0446\u0438\u044e</w>": 2016,
  "mat</w>": 2017,
  "\u0431\u044b</w>": 2018,
  "\u041c\u0438": 2019,
  "ili": 2020,
  "schloss</w>": 2021,
  "\u0628\u0646</w>": 2022,
  "ento</w>": 2023,
  "\u03b7\u03c4\u03b1\u03bd</w>": 2024,
  "fon": 2025,
  "nuoc</w>": 2026,
  "1983</w>": 2027,
  "alt": 2028,
  "\u0627\u0633</w>": 2029,
  "rey</w>": 2030,
  "\u043b\u0443": 2031,
  "vu</w>": 2032,
  "erin</w>": 2033,
  "bet": 2034,
  "2-": 2035,
  "gehorte</w>": 2036,
  "truong</w>": 2037,
  "\u6642</w>": 2038,
  "\u514b": 2039,
  "\u0434\u043e\u0432</w>": 2040,
  "ismo</w>": 2041,
  "historia</w>": 2042,
  "35</w>": 2043,
  "las": 2044,
  "reich": 2045,
  "reste</w>": 2046,
  "ierung</w>": 2047,
  "\u4e2a</w>": 2048,
  "\u0441\u0442</w>": 2049,
  "numero</w>": 2050,
  "star": 2051,
  "1974</w>": 2052,
  "90</w>": 2053,
  "via</w>": 2054,
  "estaba</w>": 2055,
  "\u043c\u0435\u043d": 2056,
  "\u0441\u043a\u0430": 2057,
  "ach</w>": 2058,
  "\u043b\u043e\u043c</w>": 2059,
  "erstmals</w>": 2060,
  "allerdings</w>": 2061,
  "1943</w>": 2062,
  "gol": 2063,
  "1979</w>": 2064,
  "cour": 2065,
  "\u043f\u0440\u0435\u0434": 2066,
  "dur": 2067,
  "1968</w>": 2068,
  "nat": 2069,
  "vida</w>": 2070,
  "fer</w>": 2071,
  "\u5c31</w>": 2072,
  "ak</w>": 2073,
  "iles</w>": 2074,
  "luego</w>": 2075,
  "gewann</w>": 2076,
  "\u0647\u0630\u0647</w>": 2077,
  "\u751f</w>": 2078,
  "europa</w>": 2079,
  "heim</w>": 2080,
  "\u041f\u0440\u0438": 2081,
  "immer</w>": 2082,
  "1940</w>": 2083,
  "70</w>": 2084,
  "politique</w>": 2085,
  "wen": 2086,
  "\u0411\u0430": 2087,
  "personas</w>": 2088,
  "1976</w>": 2089,
  "hohe</w>": 2090,
  "\u041b\u0438": 2091,
  "\u044e\u0442\u0441\u044f</w>": 2092,
  "\u043f\u0440\u043e\u0442\u0438\u0432</w>": 2093,
  "zo": 2094,
  "\u041b\u0435": 2095,
  "\u0411\u043e": 2096,
  "\u0e1b</w>": 2097,
  "1978</w>": 2098,
  "\u0433\u043e\u0434\u0430\u0445</w>": 2099,
  "1973</w>": 2100,
  "etats-unis</w>": 2101,
  "nouvelle</w>": 2102,
  "iv</w>": 2103,
  "1981</w>": 2104,
  "tanto</w>": 2105,
  "bri": 2106,
  "lar</w>": 2107,
  "\u0627\u0644\u062d": 2108,
  "fas": 2109,
  "trouve</w>": 2110,
  "ches</w>": 2111,
  "jo</w>": 2112,
  "\u03c9\u03c2</w>": 2113,
  "ges</w>": 2114,
  "bou": 2115,
  "fa": 2116,
  "ona</w>": 2117,
  "ellen</w>": 2118,
  "\u6b64</w>": 2119,
  "\u041a\u0443": 2120,
  "\u0440\u044b": 2121,
  "louis</w>": 2122,
  "luc</w>": 2123,
  "fc</w>": 2124,
  "cet</w>": 2125,
  "nun</w>": 2126,
  "\u0639": 2127,
  "bezeichnet</w>": 2128,
  "\u0434\u043e\u043c</w>": 2129,
  "\u062a</w>": 2130,
  "ly": 2131,
  "\u0430\u0440": 2132,
  "fe</w>": 2133,
  "ang</w>": 2134,
  "ide": 2135,
  "\u0441\u043e\u0441\u0442\u0430\u0432\u0435</w>": 2136,
  "loi</w>": 2137,
  "ment</w>": 2138,
  "ea</w>": 2139,
  "ay</w>": 2140,
  "\u0627\u0644\u0630\u064a</w>": 2141,
  "algunos</w>": 2142,
  "\u0414\u0435": 2143,
  "\u0446\u0438\u044f</w>": 2144,
  "\u62c9": 2145,
  "trag": 2146,
  "fort</w>": 2147,
  "vit": 2148,
  "\u0447\u0430\u0441\u0442\u0438</w>": 2149,
  "uso</w>": 2150,
  "idos</w>": 2151,
  "form": 2152,
  "viet</w>": 2153,
  "sera</w>": 2154,
  "\u533a</w>": 2155,
  "cen": 2156,
  "thuong</w>": 2157,
  "1939</w>": 2158,
  "io": 2159,
  "part</w>": 2160,
  "wenn</w>": 2161,
  "\u516c": 2162,
  "\u9053</w>": 2163,
  "spielen</w>": 2164,
  "\u56e0</w>": 2165,
  "ran": 2166,
  "\u53ef\u4ee5</w>": 2167,
  "ni": 2168,
  "\u884c</w>": 2169,
  "\u66fe</w>": 2170,
  "tard</w>": 2171,
  "\u043d\u0438\u0435\u043c</w>": 2172,
  "\u5e76</w>": 2173,
  "cha</w>": 2174,
  "bus": 2175,
  "\u570b": 2176,
  "olan</w>": 2177,
  "\u0440\u0438\u0438</w>": 2178,
  "\u0441\u0442\u0432\u0435</w>": 2179,
  "ard</w>": 2180,
  "thong</w>": 2181,
  "\u0643\u0627\u0646\u062a</w>": 2182,
  "au\u00dferdem</w>": 2183,
  "segunda</w>": 2184,
  "uc": 2185,
  "2.</w>": 2186,
  "\u0e42\u0e14\u0e22</w>": 2187,
  "\u0444\u0438": 2188,
  "enten</w>": 2189,
  "\u0924</w>": 2190,
  "her</w>": 2191,
  "\u5340</w>": 2192,
  "ane</w>": 2193,
  "\u0642": 2194,
  "ad</w>": 2195,
  "\u0444\u0430": 2196,
  "unternehmen</w>": 2197,
  "\u044c\u044f</w>": 2198,
  "\u043c\u0430\u044f</w>": 2199,
  "martin</w>": 2200,
  "kas": 2201,
  "hatten</w>": 2202,
  "phat</w>": 2203,
  "icin</w>": 2204,
  "j</w>": 2205,
  "5-": 2206,
  "esa</w>": 2207,
  "ums</w>": 2208,
  "hoi</w>": 2209,
  "ateur</w>": 2210,
  "hen</w>": 2211,
  "\u65b0": 2212,
  "tem": 2213,
  "mis": 2214,
  "inc": 2215,
  "hen": 2216,
  "19.</w>": 2217,
  "lage</w>": 2218,
  "fach": 2219,
  "nationale</w>": 2220,
  "ien": 2221,
  "1942</w>": 2222,
  "charles</w>": 2223,
  "ster</w>": 2224,
  "\u5357": 2225,
  "\u0632": 2226,
  "grab": 2227,
  "robert</w>": 2228,
  "\u0441\u0442\u0440\u0430": 2229,
  "\u0420\u0435": 2230,
  "3-": 2231,
  "\u0420\u0430": 2232,
  "1977</w>": 2233,
  "vis": 2234,
  "\u043b\u0435\u0438</w>": 2235,
  "mad": 2236,
  "jahrhunderts</w>": 2237,
  "universite</w>": 2238,
  "\u738b</w>": 2239,
  "\u03b9\u03b1</w>": 2240,
  "amt</w>": 2241,
  "\u0433\u0438</w>": 2242,
  "ensemble</w>": 2243,
  "aufgrund</w>": 2244,
  "\u4eba": 2245,
  "pierre</w>": 2246,
  "ensuite</w>": 2247,
  "\u0435\u0449\u0435</w>": 2248,
  "ama</w>": 2249,
  "\u0441\u0442\u0435": 2250,
  "sta</w>": 2251,
  "mieu</w>": 2252,
  "mus": 2253,
  "ligne</w>": 2254,
  "kt</w>": 2255,
  "\u0432\u044b\u0435</w>": 2256,
  "1971</w>": 2257,
  "\u0447\u0435\u0441\u043a\u0438\u0438</w>": 2258,
  "liber": 2259,
  "4-": 2260,
  "\u5c71</w>": 2261,
  "\u041e\u043d</w>": 2262,
  "pin": 2263,
  "\u043b\u0435\u043d</w>": 2264,
  "da": 2265,
  "\u0430\u0442": 2266,
  "\u5411</w>": 2267,
  "br</w>": 2268,
  "fahr": 2269,
  "presente</w>": 2270,
  "funf</w>": 2271,
  "lag": 2272,
  "tions</w>": 2273,
  "prix</w>": 2274,
  "eta</w>": 2275,
  "gehort</w>": 2276,
  "\u0627\u0644\u0639": 2277,
  "eres</w>": 2278,
  "1969</w>": 2279,
  "wieder": 2280,
  "hang</w>": 2281,
  "einge": 2282,
  "arbeitete</w>": 2283,
  "verein</w>": 2284,
  "\u0420\u043e": 2285,
  "dom": 2286,
  "santa</w>": 2287,
  "\u7279": 2288,
  "consider": 2289,
  "mar</w>": 2290,
  "iv": 2291,
  "heit</w>": 2292,
  "danach</w>": 2293,
  "importante</w>": 2294,
  "hon</w>": 2295,
  "\u043d\u0443": 2296,
  "\u0441\u043a\u0438</w>": 2297,
  "\u0436\u0430": 2298,
  "bahn</w>": 2299,
  "0-": 2300,
  "som": 2301,
  "\u043a\u043e\u0433\u0434\u0430</w>": 2302,
  "nhieu</w>": 2303,
  "1967</w>": 2304,
  "\u0111inh</w>": 2305,
  "\u043a\u043e\u0442\u043e\u0440\u044b\u0445</w>": 2306,
  "\u0417": 2307,
  "\u043d\u0438\u043a\u0438</w>": 2308,
  "mars</w>": 2309,
  "\u4f5c</w>": 2310,
  "\u043b\u044e": 2311,
  "tig</w>": 2312,
  "\u0441\u044b</w>": 2313,
  "debido</w>": 2314,
  "andere</w>": 2315,
  "sei</w>": 2316,
  "julio</w>": 2317,
  "societe</w>": 2318,
  "habitantes</w>": 2319,
  "\u0433\u0440\u0430": 2320,
  "prim": 2321,
  "tuvo</w>": 2322,
  "its</w>": 2323,
  "\u5c14": 2324,
  "ain</w>": 2325,
  "\u0438\u0442": 2326,
  "bre</w>": 2327,
  "\u0645</w>": 2328,
  "\u7ad9</w>": 2329,
  "encia</w>": 2330,
  "tri</w>": 2331,
  "gan": 2332,
  "nomme</w>": 2333,
  "\u0637": 2334,
  "\u0440\u0435\u043d": 2335,
  "\u00df": 2336,
  "trabajo</w>": 2337,
  "canh</w>": 2338,
  "tenia</w>": 2339,
  "film": 2340,
  "\u0434\u0432\u0430</w>": 2341,
  "ares</w>": 2342,
  "\u0436\u0435\u043d": 2343,
  "population</w>": 2344,
  "plan</w>": 2345,
  "\u0431</w>": 2346,
  "tuong</w>": 2347,
  "gesellschaft</w>": 2348,
  "fand</w>": 2349,
  "\u0447\u0435</w>": 2350,
  "epoque</w>": 2351,
  "cm</w>": 2352,
  "end": 2353,
  "tas</w>": 2354,
  "\u03b7\u03c2</w>": 2355,
  "ecole</w>": 2356,
  "rap": 2357,
  "\u0432\u043e\u0437": 2358,
  "\u042f": 2359,
  "\u0422\u0430": 2360,
  "\u0442\u0435\u0440\u0440\u0438\u0442\u043e\u0440\u0438\u0438</w>": 2361,
  "ell</w>": 2362,
  "\u0411\u0435": 2363,
  "\u0446\u0435\u0432</w>": 2364,
  "rad": 2365,
  "isches</w>": 2366,
  "\u53bf</w>": 2367,
  "pres</w>": 2368,
  "wohn": 2369,
  "\u0131n</w>": 2370,
  "\u0627\u064a": 2371,
  "\u0410\u0440": 2372,
  "fall</w>": 2373,
  "sat": 2374,
  "\u0628\u064a": 2375,
  "\u0432\u0430\u044f</w>": 2376,
  "\u03bf\u03c5</w>": 2377,
  "\u0e01</w>": 2378,
  "dar</w>": 2379,
  "mundo</w>": 2380,
  "stelle</w>": 2381,
  "\u0421\u0438": 2382,
  "ture</w>": 2383,
  "lis": 2384,
  "iger</w>": 2385,
  "ip": 2386,
  "\u65e5\u672c</w>": 2387,
  "1930</w>": 2388,
  "viele</w>": 2389,
  "\u0421\u0443": 2390,
  "if</w>": 2391,
  "contr": 2392,
  "\u0442\u0443</w>": 2393,
  "ena</w>": 2394,
  "meister</w>": 2395,
  "1965</w>": 2396,
  "\u5206</w>": 2397,
  "\u043a\u0430\u043c\u0438</w>": 2398,
  "\u0444\u0435": 2399,
  "32</w>": 2400,
  "17": 2401,
  "1964</w>": 2402,
  "\u0627\u0646": 2403,
  "chen": 2404,
  "pri": 2405,
  "esto</w>": 2406,
  "\u0633\u06d2</w>": 2407,
  "\u03bf\u03c2</w>": 2408,
  "\u7684": 2409,
  "\u0443\u0436\u0435</w>": 2410,
  "\u0e27\u0e32</w>": 2411,
  "kun": 2412,
  "ruck": 2413,
  "park</w>": 2414,
  "temporada</w>": 2415,
  "\u0635": 2416,
  "cul": 2417,
  "dernier</w>": 2418,
  "mur": 2419,
  "tigen</w>": 2420,
  "\u0427": 2421,
  "\u0633": 2422,
  "centro</w>": 2423,
  "\u03c3\u03c4\u03b7</w>": 2424,
  "sondern</w>": 2425,
  "\u041c\u043e": 2426,
  "peter</w>": 2427,
  "ck</w>": 2428,
  "face</w>": 2429,
  "eo</w>": 2430,
  "ora</w>": 2431,
  "\u0647\u0630\u0627</w>": 2432,
  "meter</w>": 2433,
  "juin</w>": 2434,
  "lad": 2435,
  "1.": 2436,
  "porte</w>": 2437,
  "\u043c\u0430\u043d": 2438,
  "ali": 2439,
  "\u043d\u0430\u0434</w>": 2440,
  "auto": 2441,
  "iens</w>": 2442,
  "zwe": 2443,
  "000</w>": 2444,
  "ef": 2445,
  "stre": 2446,
  "\u4f1a</w>": 2447,
  "sitz</w>": 2448,
  "parti</w>": 2449,
  "etant</w>": 2450,
  "bin": 2451,
  "st.</w>": 2452,
  "recht</w>": 2453,
  "\u5c71": 2454,
  "all</w>": 2455,
  "exist": 2456,
  "\u0447\u0442\u043e\u0431\u044b</w>": 2457,
  "lehr": 2458,
  "cote</w>": 2459,
  "\u062d\u064a\u062b</w>": 2460,
  "dazu</w>": 2461,
  "dou": 2462,
  "1938</w>": 2463,
  "systeme</w>": 2464,
  "tel</w>": 2465,
  "1966</w>": 2466,
  "\u0413\u043e": 2467,
  "i-": 2468,
  "\u0446\u0438": 2469,
  "hand": 2470,
  "lim": 2471,
  "\u043b\u044c\u043d\u043e\u0438</w>": 2472,
  "\u0440\u0430\u0438\u043e\u043d\u0435</w>": 2473,
  "welt": 2474,
  "flu": 2475,
  "\u03c4\u03b9\u03c2</w>": 2476,
  "central</w>": 2477,
  "leg": 2478,
  "tique</w>": 2479,
  "cependant</w>": 2480,
  "ok": 2481,
  "1920</w>": 2482,
  "musik": 2483,
  "post": 2484,
  "mayo</w>": 2485,
  "stat": 2486,
  "\u0437\u043d\u0430": 2487,
  "\u65f6</w>": 2488,
  "\u7b2c\u4e00</w>": 2489,
  "arios</w>": 2490,
  "\u0644\u064a": 2491,
  "adi": 2492,
  "\u65bc": 2493,
  "real</w>": 2494,
  "1946</w>": 2495,
  "\u0440\u044f": 2496,
  "festival</w>": 2497,
  "tran</w>": 2498,
  "hy": 2499,
  "sim": 2500,
  "\u0627\u0644\u0633": 2501,
  "neu</w>": 2502,
  "\u6cd5</w>": 2503,
  "tag": 2504,
  "presidente</w>": 2505,
  "bul": 2506,
  "\u4e26": 2507,
  "provincia</w>": 2508,
  "insgesamt</w>": 2509,
  "\u9ad8": 2510,
  "1,": 2511,
  "ga": 2512,
  "ables</w>": 2513,
  "cao</w>": 2514,
  "ft</w>": 2515,
  "deuxieme</w>": 2516,
  "1963</w>": 2517,
  "ayant</w>": 2518,
  "\u043e\u0440": 2519,
  "pap": 2520,
  "\u0442\u043e\u0438</w>": 2521,
  "almente</w>": 2522,
  "donne</w>": 2523,
  "cab": 2524,
  "mehrere</w>": 2525,
  "\u5165</w>": 2526,
  "etaient</w>": 2527,
  "tre</w>": 2528,
  "\u043a\u0435": 2529,
  "\u0627\u0631": 2530,
  "\u7279</w>": 2531,
  "1962</w>": 2532,
  "\u043d\u0435\u0441\u043a\u043e\u043b\u044c\u043a\u043e</w>": 2533,
  "\u043a\u043e\u0438\u0442\u043e</w>": 2534,
  "seines</w>": 2535,
  "tar</w>": 2536,
  "ty": 2537,
  "ker</w>": 2538,
  "isch-": 2539,
  "c.</w>": 2540,
  "teurs</w>": 2541,
  "\u043d\u0430\u0442\u0430</w>": 2542,
  "dat": 2543,
  "mc": 2544,
  "varios</w>": 2545,
  "entonces</w>": 2546,
  "\u043b\u044b</w>": 2547,
  "\u0627</w>": 2548,
  "cuenta</w>": 2549,
  "\u0441\u0432\u043e\u0438</w>": 2550,
  "ises</w>": 2551,
  "vel": 2552,
  "\u0432\u0435\u043a\u0430</w>": 2553,
  "david</w>": 2554,
  "ron": 2555,
  "hil": 2556,
  "\u0432\u043e\u0433\u043e</w>": 2557,
  "rund</w>": 2558,
  "friedrich</w>": 2559,
  "\u0447\u0435\u0441\u043a\u0438\u0435</w>": 2560,
  "hanh</w>": 2561,
  "weiteren</w>": 2562,
  "\u6703</w>": 2563,
  "comp": 2564,
  "\u0413\u0430": 2565,
  "\u043c\u0438\u0440\u0430</w>": 2566,
  "\u0648\u0645": 2567,
  "president</w>": 2568,
  "65</w>": 2569,
  "blo": 2570,
  "\u0442\u0430\u043d": 2571,
  "\u042e": 2572,
  "chaque</w>": 2573,
  "\u043e\u0441": 2574,
  "i.</w>": 2575,
  "pres": 2576,
  "passe</w>": 2577,
  "\u03bc\u03b9\u03b1</w>": 2578,
  "point</w>": 2579,
  "ps</w>": 2580,
  "yer</w>": 2581,
  "\u53ef</w>": 2582,
  "person": 2583,
  "homme</w>": 2584,
  "\u0412.</w>": 2585,
  "\u0447\u0435\u0440\u0435\u0437</w>": 2586,
  "iten</w>": 2587,
  "pp": 2588,
  "nombreux</w>": 2589,
  "tran": 2590,
  "\u043f</w>": 2591,
  "\u9999\u6e2f</w>": 2592,
  "kre": 2593,
  "rech": 2594,
  "estas</w>": 2595,
  "chez</w>": 2596,
  "\u0627\u0645": 2597,
  "europe</w>": 2598,
  "\u529b</w>": 2599,
  "win": 2600,
  "nar": 2601,
  "zusammen": 2602,
  "fac": 2603,
  "spieler</w>": 2604,
  "vier": 2605,
  "television</w>": 2606,
  "\u0926</w>": 2607,
  "weg</w>": 2608,
  "\u0435\u0432</w>": 2609,
  "eu": 2610,
  "fle": 2611,
  "tag</w>": 2612,
  "haus": 2613,
  "diesen</w>": 2614,
  "cher": 2615,
  "1948</w>": 2616,
  "bay</w>": 2617,
  "\u0441\u0435\u043b\u043e</w>": 2618,
  "folge</w>": 2619,
  "nis</w>": 2620,
  "\u062e": 2621,
  "gro": 2622,
  "\u80fd</w>": 2623,
  "isch": 2624,
  "cuatro</w>": 2625,
  "environ</w>": 2626,
  "\u0433\u043e\u0434\u044b</w>": 2627,
  "th</w>": 2628,
  "service</w>": 2629,
  "sig": 2630,
  "dol": 2631,
  "1956</w>": 2632,
  "graf": 2633,
  "zudem</w>": 2634,
  "1933</w>": 2635,
  "2.": 2636,
  "mannschaft</w>": 2637,
  "\u043a\u043e\u0442\u043e\u0440\u043e\u0438</w>": 2638,
  "menschen</w>": 2639,
  "celle</w>": 2640,
  "fen</w>": 2641,
  "\u0627\u0644\u0642": 2642,
  "\u0441\u043a\u043e": 2643,
  "ham": 2644,
  "\u044f\u043d\u0432\u0430\u0440\u044f</w>": 2645,
  "bac</w>": 2646,
  "\u0433\u043e\u0434\u0438\u043d\u0430</w>": 2647,
  "wol": 2648,
  "\u043d\u044f": 2649,
  "1958</w>": 2650,
  "\u0630\u0644\u0643</w>": 2651,
  "acht</w>": 2652,
  "nis": 2653,
  "eron</w>": 2654,
  "\u043c\u0435\u0441\u0442\u043e</w>": 2655,
  "mexico</w>": 2656,
  "minh</w>": 2657,
  "origine</w>": 2658,
  "\u041f\u0430": 2659,
  "\u0434\u0435\u043a\u0430\u0431\u0440\u044f</w>": 2660,
  "dro": 2661,
  "besteht</w>": 2662,
  "ae</w>": 2663,
  "1918</w>": 2664,
  "1961</w>": 2665,
  "\u043b\u0435\u043d": 2666,
  "\u041c\u0435": 2667,
  "iones</w>": 2668,
  "8-": 2669,
  "\u5b89": 2670,
  "hum": 2671,
  "eng": 2672,
  "periode</w>": 2673,
  "\u0432\u0430\u043d\u0438\u044f</w>": 2674,
  "wel": 2675,
  "kilometer</w>": 2676,
  "kommen</w>": 2677,
  "site</w>": 2678,
  "sel</w>": 2679,
  "\u0e01\u0e1a</w>": 2680,
  "\u723e": 2681,
  "ancien</w>": 2682,
  "stellen</w>": 2683,
  "\u0447\u0430\u0441\u0442\u044c</w>": 2684,
  "banda</w>": 2685,
  "6-": 2686,
  "afin</w>": 2687,
  "vater</w>": 2688,
  "\u043f\u043e\u043b\u0443\u0447\u0438\u043b</w>": 2689,
  "dit</w>": 2690,
  "33</w>": 2691,
  "richtung</w>": 2692,
  "\u9ad8</w>": 2693,
  "ath": 2694,
  "buch</w>": 2695,
  "tin</w>": 2696,
  "cio</w>": 2697,
  "stellung</w>": 2698,
  "ree</w>": 2699,
  "ence</w>": 2700,
  "\u0433\u043e\u0440": 2701,
  "system</w>": 2702,
  "net</w>": 2703,
  "eros</w>": 2704,
  "\u6d77": 2705,
  "\u0930</w>": 2706,
  "schlie\u00dflich</w>": 2707,
  "septembre</w>": 2708,
  "burger": 2709,
  "que": 2710,
  "\u591a": 2711,
  "rock</w>": 2712,
  "lien</w>": 2713,
  "pho</w>": 2714,
  "v.</w>": 2715,
  "america</w>": 2716,
  "\u963f": 2717,
  "\u0447\u0435\u0440": 2718,
  "tay</w>": 2719,
  "ib": 2720,
  "stan": 2721,
  "studierte</w>": 2722,
  "johann</w>": 2723,
  "yo": 2724,
  "binh</w>": 2725,
  "nahe</w>": 2726,
  "\u0441\u043e\u0432</w>": 2727,
  "\u043c\u043e\u0436\u0435\u0442</w>": 2728,
  "\u5f8c": 2729,
  "gouvernement</w>": 2730,
  "letzten</w>": 2731,
  "\u03b5\u03c2</w>": 2732,
  "pf": 2733,
  "\u0627\u0644\u062c": 2734,
  "\u0648\u0646</w>": 2735,
  "3.</w>": 2736,
  "fuhrt</w>": 2737,
  "otro</w>": 2738,
  "genannt</w>": 2739,
  "\u5fb7</w>": 2740,
  "casa</w>": 2741,
  "iers</w>": 2742,
  "radio</w>": 2743,
  "\u0641\u064a": 2744,
  "\u7c73</w>": 2745,
  "\u4e0a": 2746,
  "\u0e08\u0e30</w>": 2747,
  "sistema</w>": 2748,
  "ihrem</w>": 2749,
  "juillet</w>": 2750,
  "y\u0131l\u0131nda</w>": 2751,
  "my</w>": 2752,
  "\u043f\u043e\u043b\u0443": 2753,
  "lich": 2754,
  "fri": 2755,
  "1936</w>": 2756,
  "cree</w>": 2757,
  "dun": 2758,
  "\u514b</w>": 2759,
  "nu": 2760,
  "\u044c\u0435</w>": 2761,
  "\u0430\u0432\u0433\u0443\u0441\u0442\u0430</w>": 2762,
  "stellt</w>": 2763,
  "tin": 2764,
  "entr": 2765,
  "din": 2766,
  "\u0414\u043e": 2767,
  "\u043b\u044c\u043d\u044b\u0438</w>": 2768,
  "\u0438\u044e\u043b\u044f</w>": 2769,
  "\u0629</w>": 2770,
  "inst": 2771,
  "\u043e\u0434\u0438\u043d</w>": 2772,
  "1959</w>": 2773,
  "\u0431\u0430</w>": 2774,
  "geben</w>": 2775,
  "ux</w>": 2776,
  "y-": 2777,
  "sto": 2778,
  "\u2116</w>": 2779,
  "mois</w>": 2780,
  "rum": 2781,
  "kel": 2782,
  "\u0435\u043c\u0443</w>": 2783,
  "compte</w>": 2784,
  "ats</w>": 2785,
  "khac</w>": 2786,
  "ato</w>": 2787,
  "phap</w>": 2788,
  "chef</w>": 2789,
  "cht</w>": 2790,
  "sha": 2791,
  "cy": 2792,
  "\u0432\u0430\u043b\u0438</w>": 2793,
  "\u4f7f\u7528</w>": 2794,
  "frau</w>": 2795,
  "eu</w>": 2796,
  "enta</w>": 2797,
  "position</w>": 2798,
  "gegen": 2799,
  "orden</w>": 2800,
  "weiter</w>": 2801,
  "\u0447\u0438</w>": 2802,
  "z.</w>": 2803,
  "\u5929": 2804,
  "ima</w>": 2805,
  "mm</w>": 2806,
  "\u0438\u0441": 2807,
  "michael</w>": 2808,
  "sollte</w>": 2809,
  "radi": 2810,
  "\u0441\u0435\u043d\u0442\u044f\u0431\u0440\u044f</w>": 2811,
  "certains</w>": 2812,
  "\u8def</w>": 2813,
  "\u0445\u0430</w>": 2814,
  "\u041c\u0430\u0440": 2815,
  "\u043a\u043e\u0442\u043e\u0440\u0430\u044f</w>": 2816,
  "\u6642": 2817,
  "viec</w>": 2818,
  "\u091f</w>": 2819,
  "\u043d\u0430\u0441\u0435\u043b\u0435\u043d\u0438\u044f</w>": 2820,
  "habitants</w>": 2821,
  "75</w>": 2822,
  "\u0633\u0646\u0629</w>": 2823,
  "ris": 2824,
  "dev": 2825,
  "\u0111at</w>": 2826,
  "\u5c06</w>": 2827,
  "gut</w>": 2828,
  "roman</w>": 2829,
  "enne</w>": 2830,
  "agua</w>": 2831,
  "ko</w>": 2832,
  "souvent</w>": 2833,
  "octubre</w>": 2834,
  "ros</w>": 2835,
  "\u0441\u0432\u043e\u0435\u0438</w>": 2836,
  "2,": 2837,
  "ationen</w>": 2838,
  "tee</w>": 2839,
  "\u0446</w>": 2840,
  "pil": 2841,
  "zona</w>": 2842,
  "observ": 2843,
  "stellte</w>": 2844,
  "raum</w>": 2845,
  "jour</w>": 2846,
  "permet</w>": 2847,
  "pueden</w>": 2848,
  "per</w>": 2849,
  "\u062a\u0645</w>": 2850,
  "folgenden</w>": 2851,
  "\u516c\u53f8</w>": 2852,
  "dir</w>": 2853,
  "cho": 2854,
  "\u043c\u0430\u0440\u0442\u0430</w>": 2855,
  "\u9762</w>": 2856,
  "\u5bf9</w>": 2857,
  "up": 2858,
  "\u0447\u0435\u043c</w>": 2859,
  "mann": 2860,
  "mut": 2861,
  "aj": 2862,
  "\u0633\u064a": 2863,
  "\u5df2</w>": 2864,
  "ais</w>": 2865,
  "tod</w>": 2866,
  "werke</w>": 2867,
  "\u043e\u043a\u0442\u044f\u0431\u0440\u044f</w>": 2868,
  "ed</w>": 2869,
  "obra</w>": 2870,
  "\u0631\u064a": 2871,
  "espece</w>": 2872,
  "1957</w>": 2873,
  "amiento</w>": 2874,
  "300</w>": 2875,
  "\u5176\u4e2d</w>": 2876,
  "pelicula</w>": 2877,
  "20.</w>": 2878,
  "hom": 2879,
  "septiembre</w>": 2880,
  "janvier</w>": 2881,
  "kin": 2882,
  "isation</w>": 2883,
  "us-": 2884,
  "1949</w>": 2885,
  "\u0e2d</w>": 2886,
  "\u044c\u044e</w>": 2887,
  "tam": 2888,
  "met</w>": 2889,
  "\u0631": 2890,
  "ouest</w>": 2891,
  "\u0438\u044e\u043d\u044f</w>": 2892,
  "octobre</w>": 2893,
  "\u0648\u0627": 2894,
  "eten</w>": 2895,
  "ira</w>": 2896,
  "futbol</w>": 2897,
  "of": 2898,
  "$</w>": 2899,
  "thomas</w>": 2900,
  "marzo</w>": 2901,
  "\u5206": 2902,
  "\u5316</w>": 2903,
  "\u0441\u0442\u0432\u043e\u043c</w>": 2904,
  "aine</w>": 2905,
  "1947</w>": 2906,
  "\u52a0": 2907,
  "\u0433\u043b\u0430": 2908,
  "fir": 2909,
  "anfang</w>": 2910,
  "wan": 2911,
  "enero</w>": 2912,
  "finanz": 2913,
  "betrieb</w>": 2914,
  "\u0441\u043a": 2915,
  "ot</w>": 2916,
  "urs</w>": 2917,
  "video</w>": 2918,
  "\u0426": 2919,
  "xe</w>": 2920,
  "\u043d\u0438\u0442\u0435</w>": 2921,
  "\u062f\u064a": 2922,
  "\u043d\u0438\u043a\u043e\u043c</w>": 2923,
  "\u0448</w>": 2924,
  "64</w>": 2925,
  "\u0445\u0438": 2926,
  "\u4ee5\u53ca</w>": 2927,
  "madrid</w>": 2928,
  "vir": 2929,
  "1954</w>": 2930,
  "junio</w>": 2931,
  "ements</w>": 2932,
  "\u5c14</w>": 2933,
  "\u0430\u043b\u044c": 2934,
  "\u0434\u0440\u0443\u0433\u0438\u0445</w>": 2935,
  "\u653f\u5e9c</w>": 2936,
  "\u0e0b\u0e07</w>": 2937,
  "m.</w>": 2938,
  "\u5c0d": 2939,
  "joseph</w>": 2940,
  "\u5317": 2941,
  "\u4e09": 2942,
  "\u5df4": 2943,
  "1952</w>": 2944,
  "cau</w>": 2945,
  "\u0627\u0644\u0643": 2946,
  "gegrundet</w>": 2947,
  "net": 2948,
  "36</w>": 2949,
  "tak": 2950,
  "illa</w>": 2951,
  "\u043a\u0430\u0440": 2952,
  "ello</w>": 2953,
  "\u570b</w>": 2954,
  "jeu</w>": 2955,
  "station</w>": 2956,
  "\u0417\u0430</w>": 2957,
  "soll</w>": 2958,
  "kreis</w>": 2959,
  "cant": 2960,
  "\u5e73\u65b9\u516c\u91cc</w>": 2961,
  "represent": 2962,
  "toi</w>": 2963,
  "niveau</w>": 2964,
  "1937</w>": 2965,
  "blieb</w>": 2966,
  "\u0425\u0430": 2967,
  "\u0441\u043b\u043e": 2968,
  "grace</w>": 2969,
  "\u0643\u0645\u0627</w>": 2970,
  "od": 2971,
  "\u0436</w>": 2972,
  "pa</w>": 2973,
  "comte</w>": 2974,
  "giao</w>": 2975,
  "organ": 2976,
  "\u041f\u0440\u0435\u0437</w>": 2977,
  "wahl": 2978,
  "joue</w>": 2979,
  "sang</w>": 2980,
  "ty</w>": 2981,
  "lab": 2982,
  "18.</w>": 2983,
  "\u5ea6</w>": 2984,
  "abge": 2985,
  "\u0647\u0645</w>": 2986,
  "\u0e08\u0e32\u0e01</w>": 2987,
  "huyen</w>": 2988,
  "celui</w>": 2989,
  "\u0430\u043f\u0440\u0435\u043b\u044f</w>": 2990,
  "university</w>": 2991,
  "\u6c34": 2992,
  "\u0437\u0430\u0442\u0435\u043c</w>": 2993,
  "\u0412\u0435": 2994,
  "arch": 2995,
  "ellos</w>": 2996,
  "ust": 2997,
  "\u0433\u0440\u0443\u043f\u043f\u044b</w>": 2998,
  "\u043b\u0438\u043d": 2999,
  "lor": 3000,
  "championnat</w>": 3001,
  "william</w>": 3002,
  "34</w>": 3003,
  "phong</w>": 3004,
  "eme</w>": 3005,
  "hr": 3006,
  "ford</w>": 3007,
  "\u5730": 3008,
  "\u51fa": 3009,
  "dig": 3010,
  "cinq</w>": 3011,
  "\u53c8</w>": 3012,
  "football</w>": 3013,
  "abril</w>": 3014,
  "paso</w>": 3015,
  "\u8d77</w>": 3016,
  "karl</w>": 3017,
  "1955</w>": 3018,
  "coupe</w>": 3019,
  "ag</w>": 3020,
  "agosto</w>": 3021,
  "mitte</w>": 3022,
  "\u0412\u0430": 3023,
  "sy": 3024,
  "ao</w>": 3025,
  "zug</w>": 3026,
  "diciembre</w>": 3027,
  "decembre</w>": 3028,
  "especie</w>": 3029,
  "gleich": 3030,
  "\u0627\u0648": 3031,
  "tive</w>": 3032,
  "aout</w>": 3033,
  "\u0443\u0447\u0430\u0441\u0442\u0438\u0435</w>": 3034,
  "rue</w>": 3035,
  "fol": 3036,
  "\u5f97</w>": 3037,
  "\u0649</w>": 3038,
  "7-": 3039,
  "\u043b\u0435\u0442": 3040,
  "rag": 3041,
  "unos</w>": 3042,
  "action</w>": 3043,
  "ius</w>": 3044,
  "lagen</w>": 3045,
  "0.": 3046,
  "1919</w>": 3047,
  "tri": 3048,
  "cap</w>": 3049,
  "\u0447</w>": 3050,
  "inger</w>": 3051,
  "aten</w>": 3052,
  "giai</w>": 3053,
  "conseil</w>": 3054,
  "tro": 3055,
  "ues</w>": 3056,
  "u-": 3057,
  "mundial</w>": 3058,
  "burger</w>": 3059,
  "avril</w>": 3060,
  "wobei</w>": 3061,
  "enti": 3062,
  "ut</w>": 3063,
  "\u7701</w>": 3064,
  "rem": 3065,
  "\u0441\u0442\u0430</w>": 3066,
  "wur": 3067,
  "\u0432\u044b</w>": 3068,
  "sup": 3069,
  "bus</w>": 3070,
  "edad</w>": 3071,
  "erst": 3072,
  "\u4e3b": 3073,
  "termin": 3074,
  "doch</w>": 3075,
  "\u8fd9</w>": 3076,
  "sit": 3077,
  "tatig</w>": 3078,
  "\u65e5</w>": 3079,
  "1953</w>": 3080,
  "bes</w>": 3081,
  "ci</w>": 3082,
  "teile</w>": 3083,
  "organisation</w>": 3084,
  "\u03b9\u03b1\u03c2</w>": 3085,
  "speci": 3086,
  "erfolgte</w>": 3087,
  "present": 3088,
  "\u5b9a</w>": 3089,
  "\u5229": 3090,
  "\u0416": 3091,
  "organis": 3092,
  "aufge": 3093,
  "\u043d\u0430\u0445\u043e\u0434\u0438\u0442\u0441\u044f</w>": 3094,
  "regierung</w>": 3095,
  "sac": 3096,
  "jur": 3097,
  "tong</w>": 3098,
  "jou": 3099,
  "\u0e43\u0e2b</w>": 3100,
  "autor": 3101,
  "existe</w>": 3102,
  "\u043d\u043e\u0432": 3103,
  "arbeiten</w>": 3104,
  "\u043d\u0435\u0435</w>": 3105,
  "\u0442\u0440\u0438</w>": 3106,
  "\u5c0f</w>": 3107,
  "\u0432\u043c\u0435\u0441\u0442\u0435</w>": 3108,
  "alter</w>": 3109,
  "caso</w>": 3110,
  "tochter</w>": 3111,
  "arbeit</w>": 3112,
  "ol</w>": 3113,
  "\u4f7f</w>": 3114,
  "alten</w>": 3115,
  "cad": 3116,
  "linie</w>": 3117,
  "ther": 3118,
  "\u0432\u044b\u043c</w>": 3119,
  "ai": 3120,
  "\u0441\u0442\u0440\u043e": 3121,
  "\u6709": 3122,
  "\u041f\u0440\u0438</w>": 3123,
  "rest": 3124,
  "\u4e4b": 3125,
  "\u7b2c": 3126,
  "\u0627\u0628": 3127,
  "viol": 3128,
  "appar": 3129,
  "\u91cc": 3130,
  "wach": 3131,
  "ov": 3132,
  "segundo</w>": 3133,
  "glo": 3134,
  "\u0436\u0435\u043d\u0438\u0435</w>": 3135,
  "prom": 3136,
  "doit</w>": 3137,
  "james</w>": 3138,
  "get": 3139,
  "\u041b\u0430": 3140,
  "allen</w>": 3141,
  "\u0440\u043e\u0434": 3142,
  "20": 3143,
  "frag": 3144,
  "hof</w>": 3145,
  "38</w>": 3146,
  "\u043f\u043e\u043b\u043e": 3147,
  "\u043d\u0435\u043d\u0438\u044f</w>": 3148,
  "\u041a\u0438": 3149,
  "tern</w>": 3150,
  "ations": 3151,
  "phu</w>": 3152,
  "remporte</w>": 3153,
  "\u79d1</w>": 3154,
  "dent</w>": 3155,
  "ros": 3156,
  "toujours</w>": 3157,
  "\u0440\u043e\u0432": 3158,
  "musste</w>": 3159,
  "\u6587": 3160,
  "weise</w>": 3161,
  "\u0631\u0648": 3162,
  "inas</w>": 3163,
  "\u03b1</w>": 3164,
  "inos</w>": 3165,
  "anz": 3166,
  "bt</w>": 3167,
  "hizo</w>": 3168,
  "kl": 3169,
  "tiert</w>": 3170,
  "\u0438\u043c\u0435": 3171,
  "\u884c": 3172,
  "\u0440\u0438\u044f</w>": 3173,
  "\u5c0f": 3174,
  "gang</w>": 3175,
  "match</w>": 3176,
  "\u0443\u0440": 3177,
  "chateau</w>": 3178,
  "1934</w>": 3179,
  "domin": 3180,
  "\u043e\u0434\u043d\u0430\u043a\u043e</w>": 3181,
  "\u0434\u0435\u043d": 3182,
  "noviembre</w>": 3183,
  "\u043e\u0431\u0449\u0435": 3184,
  "censo</w>": 3185,
  "team</w>": 3186,
  "\u0111ai</w>": 3187,
  "phai</w>": 3188,
  "\u0449\u0435": 3189,
  "\u041e\u0434\u043d\u0430\u043a\u043e</w>": 3190,
  "\u4e3b\u8981</w>": 3191,
  "\u0648\u0642\u062f</w>": 3192,
  "\u043d\u043e\u044f\u0431\u0440\u044f</w>": 3193,
  "ium</w>": 3194,
  "ore</w>": 3195,
  "\u043a\u0430\u0445</w>": 3196,
  "vin": 3197,
  "tige</w>": 3198,
  "marie</w>": 3199,
  "nen": 3200,
  "wasser</w>": 3201,
  "\u03b5\u03bd\u03b1</w>": 3202,
  "communes</w>": 3203,
  "ski</w>": 3204,
  "defen": 3205,
  "etes</w>": 3206,
  "\u0432\u0430\u0435\u0442\u0441\u044f</w>": 3207,
  "hui</w>": 3208,
  "lie\u00df</w>": 3209,
  "de-": 3210,
  "es-": 3211,
  "americain</w>": 3212,
  "spiele</w>": 3213,
  "tipo</w>": 3214,
  "sinh</w>": 3215,
  "dentro</w>": 3216,
  "\u0645\u062a": 3217,
  "\u041a\u0430\u0440": 3218,
  "\u043a\u0430\u0447\u0435\u0441\u0442\u0432\u0435</w>": 3219,
  "estan</w>": 3220,
  "ordre</w>": 3221,
  "\u5305\u62ec</w>": 3222,
  "welt</w>": 3223,
  "membre</w>": 3224,
  "gue</w>": 3225,
  "novembre</w>": 3226,
  "staaten</w>": 3227,
  "schw": 3228,
  "zuruck": 3229,
  "poco</w>": 3230,
  "partei</w>": 3231,
  "\u044e\u0449\u0438\u0438</w>": 3232,
  "1935</w>": 3233,
  "erten</w>": 3234,
  "vari": 3235,
  "\u062f</w>": 3236,
  "participe</w>": 3237,
  "\u9577</w>": 3238,
  "city</w>": 3239,
  "sechs</w>": 3240,
  "3,": 3241,
  "finden</w>": 3242,
  "poly": 3243,
  "nah": 3244,
  "pet": 3245,
  "\u0627\u0633": 3246,
  "seconde</w>": 3247,
  "\u57ce</w>": 3248,
  "lap</w>": 3249,
  "\u0441\u043a\u043e\u043c\u0443</w>": 3250,
  "\u0411\u0443": 3251,
  "traves</w>": 3252,
  "world</w>": 3253,
  "48</w>": 3254,
  "corps</w>": 3255,
  "\u0432\u0435</w>": 3256,
  "carlos</w>": 3257,
  "cancion</w>": 3258,
  "college</w>": 3259,
  "sum": 3260,
  "effet</w>": 3261,
  "\u043a\u043e\u0442\u043e\u0440\u043e\u0433\u043e</w>": 3262,
  "\u0436\u0435\u043d\u0438\u044f</w>": 3263,
  "\u03c3\u03c4\u03b9\u03c2</w>": 3264,
  "\u0642\u0628\u0644</w>": 3265,
  "4.</w>": 3266,
  "air</w>": 3267,
  "\u0633</w>": 3268,
  "for</w>": 3269,
  "itat</w>": 3270,
  "association</w>": 3271,
  "\u0440\u0430\u0438\u043e\u043d</w>": 3272,
  "tarde</w>": 3273,
  "\u043b\u0443</w>": 3274,
  "wald</w>": 3275,
  "\u5229</w>": 3276,
  "parmi</w>": 3277,
  "zone</w>": 3278,
  "insbesondere</w>": 3279,
  "entwicklung</w>": 3280,
  "\"": 3281,
  "krieg</w>": 3282,
  "ves</w>": 3283,
  "\u0431\u0435\u0437</w>": 3284,
  "prend</w>": 3285,
  "konig</w>": 3286,
  "kurz</w>": 3287,
  "zog</w>": 3288,
  "tieu</w>": 3289,
  "ua</w>": 3290,
  "luong</w>": 3291,
  "carriere</w>": 3292,
  "endo</w>": 3293,
  "flor": 3294,
  "toutes</w>": 3295,
  "\u0e44\u0e1b</w>": 3296,
  "gemeinden</w>": 3297,
  "dre</w>": 3298,
  "\u03bf\u03c5\u03c2</w>": 3299,
  "\u0628</w>": 3300,
  "rolle</w>": 3301,
  "tam</w>": 3302,
  "\u0441\u0440\u0435\u0434\u0438</w>": 3303,
  "ud": 3304,
  "yo</w>": 3305,
  "tion": 3306,
  "canada</w>": 3307,
  "gan</w>": 3308,
  "\u0430\u043a": 3309,
  "sport": 3310,
  "\u5979</w>": 3311,
  "vung</w>": 3312,
  "wechselte</w>": 3313,
  "42</w>": 3314,
  "\u0432\u0441\u0435\u0445</w>": 3315,
  "\u043f\u0435\u0440": 3316,
  "u.</w>": 3317,
  "taraf\u0131ndan</w>": 3318,
  "oro</w>": 3319,
  "\u043e\u0431\u0440\u0430": 3320,
  "\u79d1": 3321,
  "integr": 3322,
  "staats": 3323,
  "stor": 3324,
  "\u897f</w>": 3325,
  "tes": 3326,
  "\u0433\u043e\u0440\u043e\u0434</w>": 3327,
  "francisco</w>": 3328,
  "\u0627\u0644\u0641": 3329,
  "anschlie\u00dfend</w>": 3330,
  "van": 3331,
  "rein": 3332,
  "\u043e\u0442\u043a\u0440\u044b": 3333,
  "\u043b\u044c\u043d\u043e\u0433\u043e</w>": 3334,
  "\u5361": 3335,
  "\u0444\u0435\u0432\u0440\u0430\u043b\u044f</w>": 3336,
  "1929</w>": 3337,
  "\u9996</w>": 3338,
  "ham</w>": 3339,
  "soci": 3340,
  "volks": 3341,
  "otra</w>": 3342,
  "1951</w>": 3343,
  "15.</w>": 3344,
  "\u0e1e.\u0e28.</w>": 3345,
  "inde</w>": 3346,
  "\u0441\u043a</w>": 3347,
  "\u0627\u06cc\u06a9</w>": 3348,
  "membres</w>": 3349,
  "\u044f\u0442</w>": 3350,
  "sis</w>": 3351,
  "george</w>": 3352,
  "\u0441\u043e\u043c</w>": 3353,
  "\u0111ao</w>": 3354,
  "wa": 3355,
  "kultur": 3356,
  "museum</w>": 3357,
  "\u0641</w>": 3358,
  "\u0420\u0443": 3359,
  "ele": 3360,
  "einwohner</w>": 3361,
  "sand": 3362,
  "geo": 3363,
  "ienne</w>": 3364,
  "jung": 3365,
  "kommt</w>": 3366,
  "\u6cd5": 3367,
  "\u0627\u0644\u0628": 3368,
  "muchos</w>": 3369,
  "konnten</w>": 3370,
  "habit": 3371,
  "\u0441\u043e\u0441\u0442\u0430\u0432\u043b\u044f\u0435\u0442</w>": 3372,
  "\u041f\u0435": 3373,
  "haber</w>": 3374,
  "bio": 3375,
  "\u0643</w>": 3376,
  "toute</w>": 3377,
  "dias</w>": 3378,
  "dic": 3379,
  "national": 3380,
  "lag</w>": 3381,
  "\u043a\u0430\u043d": 3382,
  "conocido</w>": 3383,
  "\u91cc</w>": 3384,
  "than</w>": 3385,
  "meist</w>": 3386,
  "role</w>": 3387,
  "centr": 3388,
  "musik</w>": 3389,
  "boi</w>": 3390,
  "welche</w>": 3391,
  "exemple</w>": 3392,
  "musica</w>": 3393,
  "\u672c": 3394,
  "kreuz": 3395,
  "\u03b5\u03b9</w>": 3396,
  "\u5357</w>": 3397,
  "\u0631\u0629</w>": 3398,
  "\u0442\u0440\u0435": 3399,
  "\u0418.</w>": 3400,
  "maison</w>": 3401,
  "\u0433\u043e\u0440\u043e\u0434\u0435</w>": 3402,
  "\u043d\u0435\u043c</w>": 3403,
  "gewahlt</w>": 3404,
  "\u4f4d\u65bc</w>": 3405,
  "\u4e8b</w>": 3406,
  "ivo</w>": 3407,
  "ih": 3408,
  "ces": 3409,
  "wilhelm</w>": 3410,
  "\u6587</w>": 3411,
  "jeweils</w>": 3412,
  "sonra</w>": 3413,
  "\u0412\u0438": 3414,
  "tierra</w>": 3415,
  "\u99ac": 3416,
  "largo</w>": 3417,
  "route</w>": 3418,
  "\u0422\u043e": 3419,
  "fast</w>": 3420,
  "kle": 3421,
  "etudes</w>": 3422,
  "ubernahm</w>": 3423,
  "\u0907\u0938</w>": 3424,
  "christ": 3425,
  "utilise</w>": 3426,
  "\u65e5": 3427,
  "mont": 3428,
  "dido</w>": 3429,
  "ase</w>": 3430,
  "schafts": 3431,
  "fuhrung</w>": 3432,
  "erreichte</w>": 3433,
  "zi": 3434,
  "publico</w>": 3435,
  "commence</w>": 3436,
  "\u0645\u064a": 3437,
  "internacional</w>": 3438,
  "estadounidense</w>": 3439,
  "zuge</w>": 3440,
  "hop</w>": 3441,
  "\u0627\u062f": 3442,
  "iglesia</w>": 3443,
  "argentina</w>": 3444,
  "siege</w>": 3445,
  "\u91d1": 3446,
  "400</w>": 3447,
  "arten</w>": 3448,
  "\u671f</w>": 3449,
  "espanol</w>": 3450,
  "febrero</w>": 3451,
  "44</w>": 3452,
  "ling</w>": 3453,
  "bour": 3454,
  "desarrollo</w>": 3455,
  "premiers</w>": 3456,
  "\u043b\u044c\u043d\u044b\u0445</w>": 3457,
  "\u043d\u0438\u043c</w>": 3458,
  "\u5e03": 3459,
  "lem": 3460,
  "projet</w>": 3461,
  "\u0438\u043c": 3462,
  "enz</w>": 3463,
  "medio</w>": 3464,
  "alis": 3465,
  "\u0414\u0430": 3466,
  "\u0642</w>": 3467,
  "\u03b9\u03ba\u03b7</w>": 3468,
  "lebens": 3469,
  "wit": 3470,
  "\u043d\u0430\u043c\u0438</w>": 3471,
  "publie</w>": 3472,
  "\u043a\u043e\u043c": 3473,
  "\u041b\u0443": 3474,
  "erhalten</w>": 3475,
  "\u0644\u0647</w>": 3476,
  "\u043b\u0438\u0447": 3477,
  "capital</w>": 3478,
  "tho</w>": 3479,
  "nam": 3480,
  "tham</w>": 3481,
  "aujourd'</w>": 3482,
  "institut</w>": 3483,
  "thay</w>": 3484,
  "\u043f\u043b\u0430": 3485,
  "sho": 3486,
  "\u751f": 3487,
  "estudio</w>": 3488,
  "verwendet</w>": 3489,
  "55</w>": 3490,
  "16.</w>": 3491,
  "1914</w>": 3492,
  "etc.</w>": 3493,
  "troisieme</w>": 3494,
  "\u5916": 3495,
  "\u0648\u0641\u064a</w>": 3496,
  "ez</w>": 3497,
  "rac": 3498,
  "\u66f4</w>": 3499,
  "\u0915\u093f\u092f\u093e</w>": 3500,
  "\u00df</w>": 3501,
  "kap": 3502,
  "tra": 3503,
  "oft</w>": 3504,
  "aje</w>": 3505,
  "agu": 3506,
  "nin</w>": 3507,
  "gast": 3508,
  "\u0627\u0621</w>": 3509,
  "pour": 3510,
  "\u043d\u0430\u0437\u0432\u0430\u043d\u0438\u0435</w>": 3511,
  "setzte</w>": 3512,
  "\u0646\u0633\u0645\u0629</w>": 3513,
  "\u0430\u0440\u043c\u0438\u0438</w>": 3514,
  "17.</w>": 3515,
  "lauf": 3516,
  "colon": 3517,
  "\u043a\u0438\u0438</w>": 3518,
  "52</w>": 3519,
  "\u0434\u0432\u0443\u0445</w>": 3520,
  "1928</w>": 3521,
  "off": 3522,
  "italien</w>": 3523,
  "37</w>": 3524,
  "9-": 3525,
  "ven</w>": 3526,
  "\u0627\u0644\u0634": 3527,
  "til": 3528,
  "\u044f\u043c\u0438</w>": 3529,
  "pro</w>": 3530,
  "\u0442\u0440\u0438": 3531,
  "fs</w>": 3532,
  "construction</w>": 3533,
  "bild": 3534,
  "\u0627\u0644\u0646": 3535,
  "kriegs": 3536,
  "d.</w>": 3537,
  "mark</w>": 3538,
  "\u0e25</w>": 3539,
  "puesto</w>": 3540,
  "\u0441\u0432\u043e\u044e</w>": 3541,
  "voir</w>": 3542,
  "ron</w>": 3543,
  "ms</w>": 3544,
  "siguiente</w>": 3545,
  "s.</w>": 3546,
  "pul": 3547,
  "fl": 3548,
  "league</w>": 3549,
  "1932</w>": 3550,
  "quer": 3551,
  "39</w>": 3552,
  "\u0437\u0435": 3553,
  "emp": 3554,
  "\u5929</w>": 3555,
  "\u044d\u043d": 3556,
  "\u6771": 3557,
  "but</w>": 3558,
  "ellement</w>": 3559,
  "peuvent</w>": 3560,
  "\u0440\u0430\u0431\u043e\u0442\u0430\u043b</w>": 3561,
  "strecke</w>": 3562,
  "\u0431\u044b\u0442\u044c</w>": 3563,
  "\u0441\u0435\u0431\u044f</w>": 3564,
  "1917</w>": 3565,
  "innerhalb</w>": 3566,
  "prozent</w>": 3567,
  "\u0648\u0628": 3568,
  "darauf</w>": 3569,
  "\u043d\u0430\u0447\u0430\u043b\u0435</w>": 3570,
  "realise</w>": 3571,
  "inten": 3572,
  "pes": 3573,
  "gio</w>": 3574,
  "jours</w>": 3575,
  "separ": 3576,
  "ilk</w>": 3577,
  "\u0423</w>": 3578,
  "fran": 3579,
  "tra</w>": 3580,
  "\u0422\u0435": 3581,
  "\u0432\u044b\u0438</w>": 3582,
  "\u044d\u0442\u043e\u0438</w>": 3583,
  "\u9577": 3584,
  "\u0441\u0442\u044c</w>": 3585,
  "\u0434\u0430\u043d\u043d\u044b\u043c</w>": 3586,
  "alter": 3587,
  "\u0644</w>": 3588,
  "tienen</w>": 3589,
  "\u0442\u0430\u043c</w>": 3590,
  "sag": 3591,
  "\u0627\u0644</w>": 3592,
  "\u957f</w>": 3593,
  "\u0153uvre</w>": 3594,
  "\u0446\u0438\u0435\u0438</w>": 3595,
  "antonio</w>": 3596,
  "ble": 3597,
  "\u0636": 3598,
  "heim": 3599,
  "aqu": 3600,
  "territoire</w>": 3601,
  "\u0447\u0438\u0441\u043b\u0435</w>": 3602,
  "frente</w>": 3603,
  "siehe</w>": 3604,
  "\u0111oan</w>": 3605,
  "oz": 3606,
  "\u500b": 3607,
  "gang": 3608,
  "rit": 3609,
  "klasse</w>": 3610,
  "flache</w>": 3611,
  "edi": 3612,
  "richard</w>": 3613,
  "records</w>": 3614,
  "principales</w>": 3615,
  "\u0442\u0440\u0430": 3616,
  "red</w>": 3617,
  "jeux</w>": 3618,
  "\u0438\u0442\u0441\u044f</w>": 3619,
  "sk": 3620,
  "norden</w>": 3621,
  "kam": 3622,
  "bruder</w>": 3623,
  "khu</w>": 3624,
  "arbeit": 3625,
  "cer</w>": 3626,
  "by</w>": 3627,
  "\u0430\u043b": 3628,
  "zentrum</w>": 3629,
  "nguyen</w>": 3630,
  "heinrich</w>": 3631,
  "\u067e\u0631</w>": 3632,
  "voll": 3633,
  "\u0648\u0627\u0644\u0645": 3634,
  "\u0435\u0441\u0442\u044c</w>": 3635,
  "idi": 3636,
  "dienst</w>": 3637,
  "jeune</w>": 3638,
  "port</w>": 3639,
  "\u7403</w>": 3640,
  "hinh</w>": 3641,
  "my": 3642,
  "rol": 3643,
  "\u043f\u0430</w>": 3644,
  "\u0648\u0644": 3645,
  "4,": 3646,
  "carrera</w>": 3647,
  "direc": 3648,
  "hijo</w>": 3649,
  "cuoc</w>": 3650,
  "\u0432\u0440\u0435\u043c\u0435\u043d\u0438</w>": 3651,
  "chuyen</w>": 3652,
  "verschiedenen</w>": 3653,
  "ment": 3654,
  "poste</w>": 3655,
  "mi</w>": 3656,
  "beginn</w>": 3657,
  "\u0432\u0430\u043d": 3658,
  "\u043c\u043e\u043c</w>": 3659,
  "type</w>": 3660,
  "\u062b": 3661,
  "droit</w>": 3662,
  "ions</w>": 3663,
  "\u0435\u0440": 3664,
  "\u0642\u062f</w>": 3665,
  "mejor</w>": 3666,
  "47</w>": 3667,
  "1924</w>": 3668,
  "\u0432\u0440\u0430": 3669,
  "lac": 3670,
  "\u5f0f</w>": 3671,
  "autor</w>": 3672,
  "enz": 3673,
  "\u062d\u062a\u0649</w>": 3674,
  "zer</w>": 3675,
  "x-": 3676,
  "aceae</w>": 3677,
  "flug": 3678,
  "\u0412\u043e": 3679,
  "eb": 3680,
  "z-": 3681,
  "entstand</w>": 3682,
  "\u0432\u043e\u0434": 3683,
  "bir": 3684,
  "fevrier</w>": 3685,
  "hon": 3686,
  "\u043c\u043e\u0436\u043d\u043e</w>": 3687,
  "\u0433\u0435</w>": 3688,
  "lin</w>": 3689,
  "internationale</w>": 3690,
  "rechts": 3691,
  "uf": 3692,
  "besonders</w>": 3693,
  "deja</w>": 3694,
  "\u0627\u0644": 3695,
  "\u0449": 3696,
  "nit": 3697,
  "mul": 3698,
  "luis</w>": 3699,
  "gas": 3700,
  "kinder</w>": 3701,
  "\u660e</w>": 3702,
  "phia</w>": 3703,
  "beide</w>": 3704,
  "japon</w>": 3705,
  "cit": 3706,
  "nie</w>": 3707,
  "hace</w>": 3708,
  "\u0432\u0441\u0435\u0433\u043e</w>": 3709,
  "tich</w>": 3710,
  "\u0648\u0631": 3711,
  "\u043c\u043d\u043e\u0433\u043e</w>": 3712,
  "\u0131</w>": 3713,
  "\u0437\u0443": 3714,
  "media</w>": 3715,
  "rahmen</w>": 3716,
  "\u062a\u0647</w>": 3717,
  "\u0432\u0430\u043b\u0430</w>": 3718,
  "klein": 3719,
  "\u044f\u0445</w>": 3720,
  "musique</w>": 3721,
  "\u6797</w>": 3722,
  "mir": 3723,
  "5.</w>": 3724,
  "production</w>": 3725,
  "alo": 3726,
  "\u4e24</w>": 3727,
  "besch": 3728,
  "province</w>": 3729,
  "ii.</w>": 3730,
  "vertrag</w>": 3731,
  "epoca</w>": 3732,
  "\u0431\u0435\u0440": 3733,
  "bestand</w>": 3734,
  "algunas</w>": 3735,
  "amb": 3736,
  "varias</w>": 3737,
  "\u0436\u0438\u0437\u043d\u0438</w>": 3738,
  "selben</w>": 3739,
  "pic": 3740,
  "bit": 3741,
  "\u62c9</w>": 3742,
  "muerte</w>": 3743,
  "\u519b</w>": 3744,
  "\u0431\u0440\u0430": 3745,
  "folgender</w>": 3746,
  "chan": 3747,
  "spor": 3748,
  "\u0e21\u0e32</w>": 3749,
  "ere": 3750,
  "1931</w>": 3751,
  "superficie</w>": 3752,
  "app": 3753,
  "\u0925\u093e</w>": 3754,
  "gilt</w>": 3755,
  "plat": 3756,
  "social</w>": 3757,
  "lac</w>": 3758,
  "xx</w>": 3759,
  "six</w>": 3760,
  "\u0433\u0440\u0435": 3761,
  "\u0440\u0430\u043c\u0438</w>": 3762,
  "main</w>": 3763,
  "obras</w>": 3764,
  "\u043a\u0440\u0430": 3765,
  "..</w>": 3766,
  "\u0441\u0432\u043e\u0435\u0433\u043e</w>": 3767,
  "ais": 3768,
  "\u043d\u043e\u0441\u0442\u044c\u044e</w>": 3769,
  "hausen</w>": 3770,
  "connu</w>": 3771,
  "\u0438\u0441\u043a\u043e\u0433\u043e</w>": 3772,
  "46</w>": 3773,
  "1926</w>": 3774,
  "\u4e0b": 3775,
  "diger</w>": 3776,
  "\u5c40</w>": 3777,
  "recht": 3778,
  "\u043e\u043d": 3779,
  "eter</w>": 3780,
  "davon</w>": 3781,
  "cach</w>": 3782,
  "\u092d\u0940</w>": 3783,
  "villa</w>": 3784,
  "\u03b9\u03ba\u03bf</w>": 3785,
  "\u0432\u043e\u043c</w>": 3786,
  "werk": 3787,
  "tang</w>": 3788,
  "nombreuses</w>": 3789,
  "kul": 3790,
  "pueblo</w>": 3791,
  "re-": 3792,
  "arte</w>": 3793,
  "\u0410\u043d": 3794,
  "graphie</w>": 3795,
  "\u683c": 3796,
  "sul": 3797,
  "sprache</w>": 3798,
  "ks</w>": 3799,
  "\u8ecd": 3800,
  "istes</w>": 3801,
  "defin": 3802,
  "\u03c3": 3803,
  "41</w>": 3804,
  "xix</w>": 3805,
  "wien</w>": 3806,
  "bon</w>": 3807,
  "communaute</w>": 3808,
  "china</w>": 3809,
  "ade</w>": 3810,
  "prote": 3811,
  "6.</w>": 3812,
  "\u0447\u043d\u043e\u0438</w>": 3813,
  "\u4ee3</w>": 3814,
  "aller</w>": 3815,
  "\u0441\u0442\u0430\u043b\u0430</w>": 3816,
  "ls</w>": 3817,
  "sous-": 3818,
  "lassen</w>": 3819,
  "fur": 3820,
  "formation</w>": 3821,
  "munchen</w>": 3822,
  "\u578b</w>": 3823,
  "wahl</w>": 3824,
  "\u0111em</w>": 3825,
  "1925</w>": 3826,
  "erschien</w>": 3827,
  "nung</w>": 3828,
  "\u0627\u0644\u0645\u062a\u062d\u062f\u0629</w>": 3829,
  "sehen</w>": 3830,
  "ides</w>": 3831,
  "padre</w>": 3832,
  "poder</w>": 3833,
  "\u0432\u0430\u043d\u0438\u0435</w>": 3834,
  "decide</w>": 3835,
  "\u5b83</w>": 3836,
  "ani</w>": 3837,
  "zt</w>": 3838,
  "ah</w>": 3839,
  "also</w>": 3840,
  "buch": 3841,
  "\u041e</w>": 3842,
  "weil</w>": 3843,
  "xuat</w>": 3844,
  "eno</w>": 3845,
  "\u5c3c": 3846,
  "daher</w>": 3847,
  "om</w>": 3848,
  "lado</w>": 3849,
  "\u0646</w>": 3850,
  "amp": 3851,
  "damals</w>": 3852,
  "gir": 3853,
  "ek</w>": 3854,
  "ade": 3855,
  "\u0438\u0441\u043a\u043e\u0438</w>": 3856,
  "mente</w>": 3857,
  "grun": 3858,
  "\u03bf\u03c4\u03b9</w>": 3859,
  "points</w>": 3860,
  "comenzo</w>": 3861,
  "mondiale</w>": 3862,
  "\u043f\u0435\u0440\u0438\u043e\u0434</w>": 3863,
  "errichtet</w>": 3864,
  "14.</w>": 3865,
  "\u6cb3</w>": 3866,
  "kirchen": 3867,
  "13.</w>": 3868,
  "\u03a3": 3869,
  "ala</w>": 3870,
  "daha</w>": 3871,
  "\u0442\u0435\u043b\u0435": 3872,
  "\u0447\u0435\u043b\u043e\u0432\u0435\u043a\u0430</w>": 3873,
  "gran": 3874,
  "\u0432\u0438\u0447</w>": 3875,
  "\u8be5</w>": 3876,
  "43</w>": 3877,
  "1922</w>": 3878,
  "\u6751</w>": 3879,
  "1927</w>": 3880,
  "\u0111ang</w>": 3881,
  "public</w>": 3882,
  "\u767c</w>": 3883,
  "cerca</w>": 3884,
  "ei</w>": 3885,
  "\u0627\u0644\u062e": 3886,
  "stark</w>": 3887,
  "\u540c</w>": 3888,
  "\u0645\u0648": 3889,
  "\u0433\u043e\u0434\u043e\u0432</w>": 3890,
  "einsatz</w>": 3891,
  "\u0627\u0644\u0635": 3892,
  "\u0e40\u0e21\u0e2d</w>": 3893,
  "preis</w>": 3894,
  "titulo</w>": 3895,
  "mise</w>": 3896,
  "suden</w>": 3897,
  "\u5b78": 3898,
  "tt": 3899,
  "\u91cf</w>": 3900,
  "biet</w>": 3901,
  "\u0111iem</w>": 3902,
  "localidad</w>": 3903,
  "osten</w>": 3904,
  "\u65b9</w>": 3905,
  "\u0443\u043d": 3906,
  "enfants</w>": 3907,
  "\u0440\u0430\u0437</w>": 3908,
  "mau": 3909,
  "tener</w>": 3910,
  "\u0631</w>": 3911,
  "momento</w>": 3912,
  "\u043f\u0440\u0430\u0432": 3913,
  "\u0915\u0930</w>": 3914,
  "sol</w>": 3915,
  "dal": 3916,
  "\u042d\u0442\u043e</w>": 3917,
  "succes</w>": 3918,
  "\u9019": 3919,
  "hommes</w>": 3920,
  "\u0627\u064a</w>": 3921,
  "\u0442\u0435\u0440": 3922,
  "ismus</w>": 3923,
  "1921</w>": 3924,
  "classe</w>": 3925,
  "\u043a\u043e\u0432": 3926,
  "\u043b\u044c\u043d\u044b\u0435</w>": 3927,
  "leich": 3928,
  "nom": 3929,
  "ejercito</w>": 3930,
  "genero</w>": 3931,
  "ologia</w>": 3932,
  "travail</w>": 3933,
  "zweite</w>": 3934,
  "\u062e\u0644\u0627\u0644</w>": 3935,
  "erneut</w>": 3936,
  "1923</w>": 3937,
  "sk</w>": 3938,
  "ole</w>": 3939,
  "kauf": 3940,
  "ander": 3941,
  "lee</w>": 3942,
  "\u56fd</w>": 3943,
  "ug": 3944,
  "\u03c3\u03c4\u03bf\u03bd</w>": 3945,
  "ix</w>": 3946,
  "\u81ea": 3947,
  "stad": 3948,
  "bru": 3949,
  "\u0932\u093f\u090f</w>": 3950,
  "frankreich</w>": 3951,
  "esp": 3952,
  "\u041c.</w>": 3953,
  "\u043d\u0438\u044f\u0445</w>": 3954,
  "zahl</w>": 3955,
  "ric": 3956,
  "rau": 3957,
  "provinz</w>": 3958,
  "\u043c\u043e\u0438</w>": 3959,
  "ici": 3960,
  "kn": 3961,
  "alite</w>": 3962,
  "\u0414\u0438": 3963,
  "apar": 3964,
  "gam": 3965,
  "\u53f7</w>": 3966,
  "\u672c</w>": 3967,
  "personnes</w>": 3968,
  "schlag": 3969,
  "date</w>": 3970,
  "gon": 3971,
  "canton</w>": 3972,
  "\u81ea</w>": 3973,
  "formes</w>": 3974,
  "francois</w>": 3975,
  "slo": 3976,
  "\u043a\u043e\u043d\u0446\u0435</w>": 3977,
  "\u0440\u043e</w>": 3978,
  "nos</w>": 3979,
  "\u0412\u044b": 3980,
  "ny</w>": 3981,
  "00</w>": 3982,
  "\u0447\u043d\u044b\u0445</w>": 3983,
  "finales</w>": 3984,
  "ender</w>": 3985,
  "terre</w>": 3986,
  "\u0643\u0644</w>": 3987,
  "\u5143</w>": 3988,
  "iter</w>": 3989,
  "\u0441\u0442\u043e\u0432</w>": 3990,
  "\u044e\u0449\u0438\u0445</w>": 3991,
  "misma</w>": 3992,
  "seul</w>": 3993,
  "\u064a\u0627</w>": 3994,
  "constitu": 3995,
  "bourg</w>": 3996,
  "c-": 3997,
  "\u79cd</w>": 3998,
  "jean-": 3999,
  "vic": 4000,
  "zel": 4001,
  "fort": 4002,
  "lar\u0131</w>": 4003,
  "chua</w>": 4004,
  "theatre</w>": 4005,
  "hans</w>": 4006,
  "\u0410</w>": 4007,
  "\u0432\u0430\u043d</w>": 4008,
  "bezirk</w>": 4009,
  "truoc</w>": 4010,
  "copa</w>": 4011,
  "royal</w>": 4012,
  "wagen</w>": 4013,
  "ailleurs</w>": 4014,
  "imiento</w>": 4015,
  "red": 4016,
  "ele</w>": 4017,
  "londres</w>": 4018,
  "\u7269</w>": 4019,
  "eingesetzt</w>": 4020,
  "furent</w>": 4021,
  "beispiel</w>": 4022,
  "part": 4023,
  "\u0438\u043c\u0435\u0435\u0442</w>": 4024,
  "stell": 4025,
  "1912</w>": 4026,
  "trinh</w>": 4027,
  "\u043f\u043b\u043e": 4028,
  "jen": 4029,
  "eller</w>": 4030,
  "\u5168": 4031,
  "liegen</w>": 4032,
  "uch": 4033,
  "actualmente</w>": 4034,
  "gioi</w>": 4035,
  "\u0645\u0646": 4036,
  "mand": 4037,
  "ultimo</w>": 4038,
  "force</w>": 4039,
  "\u5ea7</w>": 4040,
  "eth": 4041,
  "56</w>": 4042,
  "\u0420\u0438": 4043,
  "libre</w>": 4044,
  "schle": 4045,
  "\u6d77</w>": 4046,
  "b-": 4047,
  "nas": 4048,
  "\u0448\u0430</w>": 4049,
  "saint</w>": 4050,
  "\u53f0</w>": 4051,
  "\u0632</w>": 4052,
  "bevolkerung</w>": 4053,
  "frequ": 4054,
  "weltkrieg</w>": 4055,
  "millionen</w>": 4056,
  "mont</w>": 4057,
  "regi": 4058,
  "\u043f\u0430\u0440": 4059,
  "\u8ecd</w>": 4060,
  "12.</w>": 4061,
  "original</w>": 4062,
  "\u0440\u043e\u0434</w>": 4063,
  "condado</w>": 4064,
  "london</w>": 4065,
  "rapport</w>": 4066,
  "95</w>": 4067,
  "\u0448\u0435\u0438</w>": 4068,
  "\u0449\u0430": 4069,
  "republique</w>": 4070,
  "ets</w>": 4071,
  "landes</w>": 4072,
  "dant</w>": 4073,
  "jahres</w>": 4074,
  "histor": 4075,
  "1900</w>": 4076,
  "termino</w>": 4077,
  "\u0627\u0633\u062a": 4078,
  "\u062b\u0645</w>": 4079,
  "sowohl</w>": 4080,
  "has": 4081,
  "q</w>": 4082,
  "istas</w>": 4083,
  "\u0431\u043e\u0440": 4084,
  "cela</w>": 4085,
  "8.</w>": 4086,
  "\u043b\u044b": 4087,
  "bahnhof</w>": 4088,
  "zahlreiche</w>": 4089,
  "\u5916</w>": 4090,
  "spr": 4091,
  "\u53ea</w>": 4092,
  "\u041c\u0443": 4093,
  "\u043e\u0442\u0434\u0435": 4094,
  "weit</w>": 4095,
  "eaux</w>": 4096,
  "ola</w>": 4097,
  "republica</w>": 4098,
  "menos</w>": 4099,
  "\u8981</w>": 4100,
  "\u91d1</w>": 4101,
  "\u624b</w>": 4102,
  "rencontre</w>": 4103,
  "importantes</w>": 4104,
  "zug": 4105,
  "andose</w>": 4106,
  "linea</w>": 4107,
  "\u0935\u0930</w>": 4108,
  "iken</w>": 4109,
  "films</w>": 4110,
  "iki</w>": 4111,
  "sort</w>": 4112,
  "professor</w>": 4113,
  "anglais</w>": 4114,
  "gestellt</w>": 4115,
  "ences</w>": 4116,
  "\u0430\u0442\u0435\u043b\u044c": 4117,
  "\u0441\u0443</w>": 4118,
  "rel": 4119,
  "ick": 4120,
  "isla</w>": 4121,
  "\u540c": 4122,
  "eigenen</w>": 4123,
  "chem": 4124,
  "alli": 4125,
  "nang</w>": 4126,
  "campeonato</w>": 4127,
  "bert</w>": 4128,
  "\u0438\u0441\u0442\u043e\u0440\u0438\u0438</w>": 4129,
  "findet</w>": 4130,
  "schaften</w>": 4131,
  "\u4e8c</w>": 4132,
  "gun": 4133,
  "cup</w>": 4134,
  "\u5b50": 4135,
  "\u0432\u0448\u0438\u0438</w>": 4136,
  "dest": 4137,
  "mach": 4138,
  "pay": 4139,
  "ny": 4140,
  "kamp": 4141,
  "\u043b\u0430\u043d": 4142,
  "ket</w>": 4143,
  "\u0648\u0647\u0648</w>": 4144,
  "\u0432\u0435\u043d": 4145,
  "\u0442\u0430\u0445</w>": 4146,
  "lerin</w>": 4147,
  "85</w>": 4148,
  "ez": 4149,
  "ri</w>": 4150,
  "berger</w>": 4151,
  "diente</w>": 4152,
  "kurz": 4153,
  "\u0627\u0631</w>": 4154,
  "ensis</w>": 4155,
  "diri": 4156,
  "hn": 4157,
  "periodo</w>": 4158,
  "ation": 4159,
  "\u0442\u0435\u043c</w>": 4160,
  "ses": 4161,
  "zehn</w>": 4162,
  "depen": 4163,
  "juego</w>": 4164,
  "\u063a\u064a\u0631</w>": 4165,
  "posteriormente</w>": 4166,
  "\u0440\u0430\u0431\u043e\u0442\u044b</w>": 4167,
  "joueur</w>": 4168,
  "petit</w>": 4169,
  "\u5236</w>": 4170,
  "tun": 4171,
  "\u0441\u044b": 4172,
  "\u092f\u0939</w>": 4173,
  "anim": 4174,
  "gues</w>": 4175,
  "\u043f\u0440\u0430": 4176,
  "\u043f\u043b\u0435": 4177,
  "anischen</w>": 4178,
  "uz": 4179,
  "dil": 4180,
  "schutz": 4181,
  "bag": 4182,
  "\u043a\u0438\u0435</w>": 4183,
  "edition</w>": 4184,
  "\u043c\u0435\u0440": 4185,
  "\u0447\u0435\u0433\u043e</w>": 4186,
  "osterreich</w>": 4187,
  "bank</w>": 4188,
  "58</w>": 4189,
  "\u041d\u0438": 4190,
  "sach": 4191,
  "\u043c\u043e\u0432</w>": 4192,
  "franzosischen</w>": 4193,
  "escuela</w>": 4194,
  "\u0447\u043d\u043e</w>": 4195,
  "todas</w>": 4196,
  "reich</w>": 4197,
  "\u0644\u0645</w>": 4198,
  "\u0442\u0430\u043c\u0438</w>": 4199,
  "mission</w>": 4200,
  "grund</w>": 4201,
  "62</w>": 4202,
  "\u0442\u0438\u044f</w>": 4203,
  "\u56db</w>": 4204,
  "1910</w>": 4205,
  "director</w>": 4206,
  "costa</w>": 4207,
  "7.</w>": 4208,
  "\u540d": 4209,
  "\u0412\u043e</w>": 4210,
  "gegenuber</w>": 4211,
  "cl": 4212,
  "conserv": 4213,
  "\u5176\u4ed6</w>": 4214,
  "pouvoir</w>": 4215,
  "\u044d\u0442\u043e\u0442</w>": 4216,
  "hecho</w>": 4217,
  "\u03b5\u03bd": 4218,
  "\u041d\u043e": 4219,
  "blu": 4220,
  "chau</w>": 4221,
  "\u0422\u0430\u043a\u0436\u0435</w>": 4222,
  "creation</w>": 4223,
  "folgte</w>": 4224,
  "stehen</w>": 4225,
  "\u092f\u093e</w>": 4226,
  "area</w>": 4227,
  "hem": 4228,
  "\u0448\u0438\u0445</w>": 4229,
  "\u062d</w>": 4230,
  "n\u0131n</w>": 4231,
  "halten</w>": 4232,
  "\u0644\u0648": 4233,
  "posit": 4234,
  "heil": 4235,
  "\u0433\u0443</w>": 4236,
  "fille</w>": 4237,
  "darunter</w>": 4238,
  "tieng</w>": 4239,
  "\u5c07": 4240,
  "encias</w>": 4241,
  "mayoria</w>": 4242,
  "\u0444\u043e": 4243,
  "\u0e14</w>": 4244,
  "ey": 4245,
  "dern</w>": 4246,
  "gemeinsam</w>": 4247,
  "verein": 4248,
  "m-": 4249,
  "distrito</w>": 4250,
  "got": 4251,
  "\u0430\u0432\u0442\u043e": 4252,
  "leri</w>": 4253,
  "leitung</w>": 4254,
  "single</w>": 4255,
  "starb</w>": 4256,
  "\u062d\u0633\u0628</w>": 4257,
  "may</w>": 4258,
  "gut": 4259,
  "bun": 4260,
  "\u043f\u0435\u0440\u0432\u044b\u0438</w>": 4261,
  "entre": 4262,
  "tus</w>": 4263,
  "diferentes</w>": 4264,
  "developpement</w>": 4265,
  "ila</w>": 4266,
  "49</w>": 4267,
  "revolution</w>": 4268,
  "genommen</w>": 4269,
  "fallen</w>": 4270,
  "bai</w>": 4271,
  "\u0441\u0442\u0430\u0440": 4272,
  "vas": 4273,
  "\u4e16\u754c</w>": 4274,
  "tier": 4275,
  "landkreis</w>": 4276,
  "\u0646\u0633\u0628\u0629</w>": 4277,
  "programa</w>": 4278,
  "18": 4279,
  "\u03b9</w>": 4280,
  "\u043e\u0431\u043e": 4281,
  "po</w>": 4282,
  "\u7b2c\u4e8c</w>": 4283,
  "agit</w>": 4284,
  "westen</w>": 4285,
  "din</w>": 4286,
  "\u03c3\u03c4\u03b1</w>": 4287,
  "\u5b78</w>": 4288,
  "chuc</w>": 4289,
  "canal</w>": 4290,
  "9.</w>": 4291,
  "osa</w>": 4292,
  "religi": 4293,
  "clo": 4294,
  "fern": 4295,
  "kh": 4296,
  "llamado</w>": 4297,
  "\u6210": 4298,
  "bom": 4299,
  "\u0438\u043d</w>": 4300,
  "sions</w>": 4301,
  "produccion</w>": 4302,
  "\u041f\u0435\u0440": 4303,
  "19": 4304,
  "gas</w>": 4305,
  "\u0111ieu</w>": 4306,
  "\u0648\u0646": 4307,
  "parti": 4308,
  "\u4ea6</w>": 4309,
  "\u0434\u0435\u043d</w>": 4310,
  "isten</w>": 4311,
  "style</w>": 4312,
  "\u0444</w>": 4313,
  "\u0438\u0437-\u0437\u0430</w>": 4314,
  "reihe</w>": 4315,
  "hinter": 4316,
  "schrieb</w>": 4317,
  "mitglieder</w>": 4318,
  "ecrit</w>": 4319,
  "laquelle</w>": 4320,
  "schutz</w>": 4321,
  "\u00b7</w>": 4322,
  "\u043c\u044b": 4323,
  "\u4e9e": 4324,
  "femme</w>": 4325,
  "quement</w>": 4326,
  "\u5e73": 4327,
  "sport</w>": 4328,
  "\u0444\u043e\u0440": 4329,
  "\u0e40\u0e02\u0e32</w>": 4330,
  "\u0434\u0435\u0440\u0435\u0432\u043d\u044f</w>": 4331,
  "ersch": 4332,
  "zo</w>": 4333,
  "lung</w>": 4334,
  "cast": 4335,
  "ieron</w>": 4336,
  "\u6ce2": 4337,
  "grenze</w>": 4338,
  "\u4e00\u500b": 4339,
  "\u0441\u0442\u0432</w>": 4340,
  "\u043c\u0430\u043d</w>": 4341,
  "\u0447\u0435\u0441\u043a\u0430\u044f</w>": 4342,
  "\u0e2d\u0e22</w>": 4343,
  "principale</w>": 4344,
  "prasident</w>": 4345,
  "leon</w>": 4346,
  "54</w>": 4347,
  "1913</w>": 4348,
  "\u03b1\u03bd": 4349,
  "\u0435\u0432": 4350,
  "geht</w>": 4351,
  "\u0438\u043c\u0435\u043d\u0438</w>": 4352,
  "erz": 4353,
  "trat": 4354,
  "\u8a72": 4355,
  "mutter</w>": 4356,
  "chile</w>": 4357,
  "pad": 4358,
  "gri": 4359,
  "heutigen</w>": 4360,
  "\u674e</w>": 4361,
  "\u0443\u0447\u0435": 4362,
  "51</w>": 4363,
  "ande</w>": 4364,
  "\u7e23</w>": 4365,
  "\u5730\u533a</w>": 4366,
  "insel</w>": 4367,
  "p-": 4368,
  "\u5b89</w>": 4369,
  "ubicado</w>": 4370,
  "\u0442\u043e\u0432\u0430</w>": 4371,
  "manera</w>": 4372,
  "realis": 4373,
  "\u0441\u0432\u044f\u0437\u0438</w>": 4374,
  "bois</w>": 4375,
  "medaille</w>": 4376,
  "\u7ebf</w>": 4377,
  "eti": 4378,
  "\u0440\u0438\u043d": 4379,
  "57</w>": 4380,
  "raison</w>": 4381,
  "63</w>": 4382,
  "\u03b4\u03b5\u03bd</w>": 4383,
  "west</w>": 4384,
  "\u58eb</w>": 4385,
  "militar</w>": 4386,
  "mus</w>": 4387,
  "einzel": 4388,
  "bs</w>": 4389,
  "bung</w>": 4390,
  "hes": 4391,
  "3.": 4392,
  "53</w>": 4393,
  "\u041a\u043e\u043d": 4394,
  "sam</w>": 4395,
  "hoang</w>": 4396,
  "\u0645\u062b\u0644</w>": 4397,
  "tic": 4398,
  "hotel</w>": 4399,
  "\u0440\u0443</w>": 4400,
  "firma</w>": 4401,
  "satz</w>": 4402,
  "lorsque</w>": 4403,
  "\u0418</w>": 4404,
  "tit": 4405,
  "anas</w>": 4406,
  "ful": 4407,
  "continu": 4408,
  "fahrt</w>": 4409,
  "nivel</w>": 4410,
  "schwer": 4411,
  "wir": 4412,
  "cambio</w>": 4413,
  "ores</w>": 4414,
  "5,": 4415,
  "\u0432\u0438</w>": 4416,
  "estudios</w>": 4417,
  "\u0441\u0442\u0432\u0443</w>": 4418,
  "gebaut</w>": 4419,
  "gruppen</w>": 4420,
  "sich": 4421,
  "finalmente</w>": 4422,
  "burg": 4423,
  "\u03b9\u03ba\u03b1</w>": 4424,
  "\u6765</w>": 4425,
  "\u0627\u0639": 4426,
  "\u0434\u0432\u0435</w>": 4427,
  "\u9662</w>": 4428,
  "ehemaligen</w>": 4429,
  "devant</w>": 4430,
  "cent": 4431,
  "ff</w>": 4432,
  "karriere</w>": 4433,
  "fro": 4434,
  "beispielsweise</w>": 4435,
  "verschiedene</w>": 4436,
  "determin": 4437,
  "kreis": 4438,
  "\u062c\u0648</w>": 4439,
  "livre</w>": 4440,
  "tent": 4441,
  "\u0414\u0443": 4442,
  "county</w>": 4443,
  "\u4f86": 4444,
  "kamen</w>": 4445,
  "\u5668</w>": 4446,
  "\u043f\u0440\u043e\u0438\u0437\u0432\u043e\u0434": 4447,
  "quand</w>": 4448,
  "ache</w>": 4449,
  "feh": 4450,
  "\u524d": 4451,
  "\u0644\u0629</w>": 4452,
  "buenos</w>": 4453,
  "\u0639</w>": 4454,
  "10.</w>": 4455,
  "mark": 4456,
  "eff": 4457,
  "\u0447\u0435\u043d": 4458,
  "zuvor</w>": 4459,
  "ca.</w>": 4460,
  "muss</w>": 4461,
  "\u0627\u0646\u0647</w>": 4462,
  "actu": 4463,
  "second</w>": 4464,
  "\u064a\u0631</w>": 4465,
  "jugend": 4466,
  "leiter</w>": 4467,
  "jacques</w>": 4468,
  "ministre</w>": 4469,
  "\u0434\u0435\u0440": 4470,
  "\u0413\u0443": 4471,
  "construccion</w>": 4472,
  "mere</w>": 4473,
  "sun": 4474,
  "\u043d\u0438\u0446\u0430</w>": 4475,
  "paises</w>": 4476,
  "\u0422\u0443": 4477,
  "pom": 4478,
  "orts": 4479,
  "hin</w>": 4480,
  "bad</w>": 4481,
  "victoria</w>": 4482,
  "danh</w>": 4483,
  "f-": 4484,
  "quant</w>": 4485,
  "chi": 4486,
  "kirch": 4487,
  "\u9547</w>": 4488,
  "beaucoup</w>": 4489,
  "alto</w>": 4490,
  "chin": 4491,
  "primeros</w>": 4492,
  "angeles</w>": 4493,
  "\u043d\u0438\u044f\u043c\u0438</w>": 4494,
  "tele": 4495,
  "cali": 4496,
  "\u041f\u0438": 4497,
  "82</w>": 4498,
  "music</w>": 4499,
  "tsch": 4500,
  "\u7dda</w>": 4501,
  "\u767c": 4502,
  "86</w>": 4503,
  "tap</w>": 4504,
  "ali</w>": 4505,
  "metros</w>": 4506,
  "ilen</w>": 4507,
  "eis": 4508,
  "\u6c34</w>": 4509,
  "1905</w>": 4510,
  "tol": 4511,
  "\u5927\u5b66</w>": 4512,
  "\u043e\u0431\u0440\u0430\u0437\u043e\u043c</w>": 4513,
  "allemagne</w>": 4514,
  "ateurs</w>": 4515,
  "schiff</w>": 4516,
  "\u043e\u0431</w>": 4517,
  "habe</w>": 4518,
  "\u0441\u044a": 4519,
  "francia</w>": 4520,
  "imo</w>": 4521,
  "\u0627\u0645</w>": 4522,
  "bild</w>": 4523,
  "\u0433\u043e\u0432</w>": 4524,
  "idas</w>": 4525,
  "\u7f8e\u56fd</w>": 4526,
  "refer": 4527,
  "ey</w>": 4528,
  "cargo</w>": 4529,
  "ja": 4530,
  "gom</w>": 4531,
  "\u041d\u0430\u0441\u0435\u043b\u0435\u043d\u0438\u0435</w>": 4532,
  "\u539f": 4533,
  "tir": 4534,
  "aun</w>": 4535,
  "musical</w>": 4536,
  "deci": 4537,
  "\u0431\u0440\u043e": 4538,
  "\u043e\u0441\u0442\u0430": 4539,
  "ator": 4540,
  "\u0627\u0644\u0631": 4541,
  "hung</w>": 4542,
  "sprach": 4543,
  "\u041f\u0440\u0435": 4544,
  "fic": 4545,
  "11.</w>": 4546,
  "verband</w>": 4547,
  "\u0432\u044b\u0441\u043e": 4548,
  "vio</w>": 4549,
  "tao</w>": 4550,
  "gul": 4551,
  "dach": 4552,
  "uk": 4553,
  "\u043a\u0440\u044b": 4554,
  "derniere</w>": 4555,
  "\u5373</w>": 4556,
  "cum": 4557,
  "ejemplo</w>": 4558,
  "\u0645\u0629</w>": 4559,
  "\u043a\u043e\u0440": 4560,
  "ple": 4561,
  "\u043b\u0438\u0448\u044c</w>": 4562,
  "\u041d.</w>": 4563,
  "74</w>": 4564,
  "ex</w>": 4565,
  "ela</w>": 4566,
  "schie": 4567,
  "\u0440\u043e\u0438</w>": 4568,
  "program": 4569,
  "charge</w>": 4570,
  "\u062a\u062d": 4571,
  "\u0448\u0438\u0438</w>": 4572,
  "isa</w>": 4573,
  "\u0e04\u0e2d</w>": 4574,
  "sex": 4575,
  "\u0434\u044b": 4576,
  "\u043f\u0440\u0438\u0437\u043d\u0430": 4577,
  "quin": 4578,
  "\u0441\u0442\u0430\u043b\u0438</w>": 4579,
  "\u043f\u043e\u0440": 4580,
  "once</w>": 4581,
  "\u795e": 4582,
  "machte</w>": 4583,
  "onen</w>": 4584,
  "\u6230": 4585,
  "\u0432\u0442\u043e\u0440\u043e\u0438</w>": 4586,
  "sak": 4587,
  "frei": 4588,
  "\u0648\u0633": 4589,
  "\u91cd": 4590,
  "studium</w>": 4591,
  "hof": 4592,
  "ange</w>": 4593,
  "pur": 4594,
  "zahlen</w>": 4595,
  "reino</w>": 4596,
  "\u5e74": 4597,
  "\u4ece</w>": 4598,
  "\u043d\u0435\u043d\u0438\u0435</w>": 4599,
  "\u0111ay</w>": 4600,
  "yan": 4601,
  "ika</w>": 4602,
  "punto</w>": 4603,
  "\u0425\u043e": 4604,
  "\u044e\u0449\u0438\u0435</w>": 4605,
  "ancienne</w>": 4606,
  "\u0628\u0631": 4607,
  "manuel</w>": 4608,
  "identi": 4609,
  "\u6bd4</w>": 4610,
  "daruber</w>": 4611,
  "center</w>": 4612,
  "\u0644\u0627": 4613,
  "fus": 4614,
  "\u043a\u0440\u0435": 4615,
  "wander": 4616,
  "\u0e22\u0e07</w>": 4617,
  "terme</w>": 4618,
  "\u0441\u043e\u0431\u043e\u0438</w>": 4619,
  "frauen</w>": 4620,
  "\u0442\u0441\u044f</w>": 4621,
  "vent": 4622,
  "\u0447\u0430</w>": 4623,
  "\u723e</w>": 4624,
  "72</w>": 4625,
  "marque</w>": 4626,
  "24": 4627,
  "\u5982</w>": 4628,
  "series</w>": 4629,
  "toda</w>": 4630,
  "\u062a\u0634": 4631,
  "zin": 4632,
  "\u0438\u0442\u0435\u043b\u044c": 4633,
  "\u0448\u0435\u043d": 4634,
  "day</w>": 4635,
  "ursprunglich</w>": 4636,
  "thai</w>": 4637,
  "ison</w>": 4638,
  "\u0438\u0442\u0435</w>": 4639,
  "ingles</w>": 4640,
  "individu": 4641,
  "chan</w>": 4642,
  "alidad</w>": 4643,
  "\u044d\u043a\u043e\u043d\u043e\u043c\u0438": 4644,
  "field</w>": 4645,
  "cinco</w>": 4646,
  "leit": 4647,
  "\u0434\u0440\u0443\u0433\u0438\u0435</w>": 4648,
  "bach": 4649,
  "luft": 4650,
  "gian</w>": 4651,
  "bildet</w>": 4652,
  "pedro</w>": 4653,
  "vient</w>": 4654,
  "universit": 4655,
  "\u044d\u043a": 4656,
  "illes</w>": 4657,
  "posicion</w>": 4658,
  "68</w>": 4659,
  "haut</w>": 4660,
  "\u0441\u043a\u0438\u043c\u0438</w>": 4661,
  "arts</w>": 4662,
  "\u0639\u0629</w>": 4663,
  "7,": 4664,
  "reichs": 4665,
  "cuales</w>": 4666,
  "apo": 4667,
  "somit</w>": 4668,
  "stur": 4669,
  "ain": 4670,
  "direction</w>": 4671,
  "tas": 4672,
  "entos</w>": 4673,
  "stieg</w>": 4674,
  "\u064a\u0646": 4675,
  "tac</w>": 4676,
  "\u0438\u043c\u0430</w>": 4677,
  "politica</w>": 4678,
  "tragen</w>": 4679,
  "tau</w>": 4680,
  "hir": 4681,
  "tiep</w>": 4682,
  "zwar</w>": 4683,
  "\u043b\u0435\u043d\u0438\u0438</w>": 4684,
  "financi": 4685,
  "\u5317</w>": 4686,
  "ov</w>": 4687,
  "\u0441\u0432\u043e\u0438\u0445</w>": 4688,
  "sing": 4689,
  "ates</w>": 4690,
  "uni": 4691,
  "public": 4692,
  "\u0142": 4693,
  "\u7d93": 4694,
  "compagnie</w>": 4695,
  "general": 4696,
  "h.</w>": 4697,
  "iker</w>": 4698,
  "erie</w>": 4699,
  "\u0414\u043b\u044f</w>": 4700,
  "ys</w>": 4701,
  "ye": 4702,
  "juegos</w>": 4703,
  "demi-": 4704,
  "bataille</w>": 4705,
  "teilweise</w>": 4706,
  "\u5efa</w>": 4707,
  "\u52a0</w>": 4708,
  "tau": 4709,
  "feld": 4710,
  "parfois</w>": 4711,
  "\u0110ai</w>": 4712,
  "port": 4713,
  "\u062f\u064a</w>": 4714,
  "\u0410\u043b\u044c": 4715,
  "veces</w>": 4716,
  "compose</w>": 4717,
  "folgende</w>": 4718,
  "tionen</w>": 4719,
  "enes</w>": 4720,
  "runde</w>": 4721,
  "franz</w>": 4722,
  "150</w>": 4723,
  "tradition": 4724,
  "star</w>": 4725,
  "pac": 4726,
  "73</w>": 4727,
  "compar": 4728,
  "sieben</w>": 4729,
  "\u043b\u043e\u0432": 4730,
  "93</w>": 4731,
  "grundete</w>": 4732,
  "\u0447\u043d\u044b\u0438</w>": 4733,
  "1000</w>": 4734,
  "lers</w>": 4735,
  "reun": 4736,
  "goi</w>": 4737,
  "genre</w>": 4738,
  "bedeutung</w>": 4739,
  "87</w>": 4740,
  "bahn": 4741,
  "aur": 4742,
  "\u539f</w>": 4743,
  "\u043d\u044f</w>": 4744,
  "\u0441\u043a\u043e-": 4745,
  "\u0415\u0433\u043e</w>": 4746,
  "\u0413\u0435": 4747,
  "veroffentlicht</w>": 4748,
  "sch</w>": 4749,
  "\u0438\u0441\u043a\u0438\u0438</w>": 4750,
  "\u96c6</w>": 4751,
  "\u043e\u043f\u0440\u0435\u0434\u0435": 4752,
  "\u0441\u0442\u0430\u043d": 4753,
  "jar": 4754,
  "\u0441\u043b\u0430": 4755,
  "zw": 4756,
  "\u0432\u0438\u0434</w>": 4757,
  "motor</w>": 4758,
  "cau": 4759,
  "local</w>": 4760,
  "industri": 4761,
  "\u0628\u0629</w>": 4762,
  "jan": 4763,
  "\u0445\u043e\u0434\u0435</w>": 4764,
  "gemein": 4765,
  "\u043d\u0430\u0447\u0430\u043b\u0430</w>": 4766,
  "mak": 4767,
  "gab": 4768,
  "stra\u00dfen": 4769,
  "\u683c</w>": 4770,
  "militar": 4771,
  "promo": 4772,
  "retour</w>": 4773,
  "\u0633\u062a": 4774,
  "mac</w>": 4775,
  "milieu</w>": 4776,
  "\u0e2b\u0e23\u0e2d</w>": 4777,
  "\u90e8\u5206</w>": 4778,
  "\u0627\u064a\u0636\u0627</w>": 4779,
  "bos": 4780,
  "\u043e\u0447\u0435\u043d\u044c</w>": 4781,
  "produit</w>": 4782,
  "\u0442\u043e\u0447": 4783,
  "\u0442\u0435\u043d": 4784,
  "\u041e\u0442": 4785,
  "\u81ea\u5df1</w>": 4786,
  "ngoai</w>": 4787,
  "washington</w>": 4788,
  "zah": 4789,
  "hacer</w>": 4790,
  "\u666e": 4791,
  "wirtschafts": 4792,
  "quyen</w>": 4793,
  "cic": 4794,
  "trang</w>": 4795,
  "tv</w>": 4796,
  "kir": 4797,
  "\u5bb6": 4798,
  "\u0438\u0442\u0430</w>": 4799,
  "\u043e\u0434\u043d\u043e\u0438</w>": 4800,
  "school</w>": 4801,
  "absol": 4802,
  "bezeichnung</w>": 4803,
  "gesetzt</w>": 4804,
  "riviere</w>": 4805,
  "\u76f8": 4806,
  "\u041a\u0435": 4807,
  "resi": 4808,
  "casi</w>": 4809,
  "origin": 4810,
  "6,": 4811,
  "ry": 4812,
  "ains</w>": 4813,
  "moglich</w>": 4814,
  "ures</w>": 4815,
  "\u043b\u044c\u043d\u043e</w>": 4816,
  "neten</w>": 4817,
  "tir</w>": 4818,
  "\u0437\u0435\u043c": 4819,
  "\u0421.</w>": 4820,
  "travaux</w>": 4821,
  "schen</w>": 4822,
  "llego</w>": 4823,
  "christian</w>": 4824,
  "gleichen</w>": 4825,
  "vie": 4826,
  "bildung</w>": 4827,
  "l-": 4828,
  "\u5408": 4829,
  "innen": 4830,
  "\u043a\u043e\u043c\u043f\u0430\u043d\u0438\u0438</w>": 4831,
  "\u5b98</w>": 4832,
  "\u0111ia</w>": 4833,
  "quali": 4834,
  "tlich</w>": 4835,
  "gehoren</w>": 4836,
  "\u0440\u0435\u0437\u0443\u043b\u044c\u0442\u0430\u0442\u0435</w>": 4837,
  "\u0446\u0435</w>": 4838,
  "\u062a\u0631": 4839,
  "\u0430\u0442\u0438": 4840,
  "\u03b9\u03ba\u03b7\u03c2</w>": 4841,
  "duong</w>": 4842,
  "\u9a6c": 4843,
  "ord": 4844,
  "84</w>": 4845,
  "1915</w>": 4846,
  "\u7f8e\u570b</w>": 4847,
  "aines</w>": 4848,
  "zeigt</w>": 4849,
  "99</w>": 4850,
  "sieg": 4851,
  "quartier</w>": 4852,
  "1911</w>": 4853,
  "actual</w>": 4854,
  "98</w>": 4855,
  "iendo</w>": 4856,
  "handelt</w>": 4857,
  "\u043b\u0438\u044f</w>": 4858,
  "elimin": 4859,
  "\u0648\u0627\u0642\u0639</w>": 4860,
  "\u0628\u0644\u063a</w>": 4861,
  "xi": 4862,
  "fuhren</w>": 4863,
  "\u0423\u043a\u0440\u0430\u0438\u043d\u044b</w>": 4864,
  "neben": 4865,
  "ligue</w>": 4866,
  "krit": 4867,
  "\u500b</w>": 4868,
  "lasst</w>": 4869,
  "\u044f\u043c</w>": 4870,
  "setzung</w>": 4871,
  "haufig</w>": 4872,
  "\u043a\u043e\u0442\u043e\u0440\u043e\u043c</w>": 4873,
  "conven": 4874,
  "\u043a\u0440\u0443": 4875,
  "court</w>": 4876,
  "\u041e\u0440": 4877,
  "\u043b\u0438\u0438</w>": 4878,
  "\u0639\u0634\u0631</w>": 4879,
  "\u0648\u0642": 4880,
  "produc": 4881,
  "sus": 4882,
  "77</w>": 4883,
  "edit": 4884,
  "rot": 4885,
  "\u0e0b</w>": 4886,
  "\u0447\u0443": 4887,
  "inclu": 4888,
  "\u4f4d\u4e8e</w>": 4889,
  "76</w>": 4890,
  "estacion</w>": 4891,
  "empire</w>": 4892,
  "millones</w>": 4893,
  "96</w>": 4894,
  "tras": 4895,
  "gie</w>": 4896,
  "\u0446\u0435\u043d": 4897,
  "vet": 4898,
  "iere</w>": 4899,
  "71</w>": 4900,
  "stuck</w>": 4901,
  "81</w>": 4902,
  "phe</w>": 4903,
  "\u0627\u0645\u0627</w>": 4904,
  "\u4e2d\u5fc3</w>": 4905,
  "\u5c0d</w>": 4906,
  "buom</w>": 4907,
  "61</w>": 4908,
  "94</w>": 4909,
  "jer": 4910,
  "jan</w>": 4911,
  "shi": 4912,
  "kinh</w>": 4913,
  "pesar</w>": 4914,
  "mp": 4915,
  "termine</w>": 4916,
  "\u4e1c": 4917,
  "elektr": 4918,
  "\u0e15</w>": 4919,
  "by": 4920,
  "\u043b\u044c\u043d\u0430\u044f</w>": 4921,
  "liches</w>": 4922,
  "transpor": 4923,
  "\u5834</w>": 4924,
  "\u5167": 4925,
  "premio</w>": 4926,
  "cualquier</w>": 4927,
  "kleinen</w>": 4928,
  "seulement</w>": 4929,
  "600</w>": 4930,
  "out</w>": 4931,
  "\u0435\u043c": 4932,
  "\u0628\u0639\u0636</w>": 4933,
  "wehr": 4934,
  "municipal</w>": 4935,
  "\u043e\u0431\u0440\u0430\u0437": 4936,
  "stes</w>": 4937,
  "\u0441\u0442\u0430\u0432": 4938,
  "gericht</w>": 4939,
  "ma\u00df": 4940,
  "\u03b1": 4941,
  "cos</w>": 4942,
  "tier</w>": 4943,
  "und": 4944,
  "proyecto</w>": 4945,
  "rou": 4946,
  "nov": 4947,
  "arbeits": 4948,
  "recon": 4949,
  "desp": 4950,
  "bra</w>": 4951,
  "\u0e1e\u0e23\u0e30</w>": 4952,
  "produktion</w>": 4953,
  "qui": 4954,
  "iz</w>": 4955,
  "verkehr</w>": 4956,
  "\u4f53</w>": 4957,
  "pos": 4958,
  "conocida</w>": 4959,
  "arri": 4960,
  "\u0432\u0430\u044e\u0442</w>": 4961,
  "\u0432\u0441\u0442\u0440\u0435": 4962,
  "\u4f86</w>": 4963,
  "66</w>": 4964,
  "meisten</w>": 4965,
  "\u0440\u043e\u043b\u044c</w>": 4966,
  "\u6bb5</w>": 4967,
  "\u0436\u0430</w>": 4968,
  "\u958b": 4969,
  "dus</w>": 4970,
  "\u6d3e</w>": 4971,
  "bay": 4972,
  "aster": 4973,
  "huong</w>": 4974,
  "journal</w>": 4975,
  "partidos</w>": 4976,
  "\u5728": 4977,
  "iser</w>": 4978,
  "dich": 4979,
  "\u062a\u064a": 4980,
  "verwaltungs": 4981,
  "libro</w>": 4982,
  "sommer</w>": 4983,
  "\u043e\u0434\u043d\u0438\u043c</w>": 4984,
  "zy": 4985,
  "\u0441\u043a\u0430\u0442\u0430</w>": 4986,
  "\u0639\u0628\u062f</w>": 4987,
  "muc</w>": 4988,
  "\u0441\u043b\u0435\u0434</w>": 4989,
  "tum": 4990,
  "\u0627\u062a": 4991,
  "\u52d5": 4992,
  "theater</w>": 4993,
  "\u0440\u0430\u0445</w>": 4994,
  "blan": 4995,
  "\u7acb</w>": 4996,
  "\u56fd": 4997,
  "\u0627\u0644\u0627\u0646": 4998,
  "\u0430\u0442\u043e": 4999,
  "lu</w>": 5000,
  "ap</w>": 5001,
  "geboren</w>": 5002,
  "1908</w>": 5003,
  "sea</w>": 5004,
  "idades</w>": 5005,
  "88</w>": 5006,
  "\u0443\u0442": 5007,
  "marche</w>": 5008,
  "iva</w>": 5009,
  "\u0442\u0440\u043e": 5010,
  "halb": 5011,
  "ihnen</w>": 5012,
  "ign": 5013,
  "you</w>": 5014,
  "\u044c\u044f": 5015,
  "\u043d\u0443</w>": 5016,
  "\u5176": 5017,
  "fron": 5018,
  "stam": 5019,
  "\u041b\u043e": 5020,
  "bas</w>": 5021,
  "punkt</w>": 5022,
  "\u0447\u0435\u043d</w>": 5023,
  "\u043d\u0430\u0445</w>": 5024,
  "\u0441\u0435\u043b\u044c\u0441\u043a\u043e\u0433\u043e</w>": 5025,
  "descen": 5026,
  "kleine</w>": 5027,
  "recherche</w>": 5028,
  "korper": 5029,
  "\u0432\u0430\u0440": 5030,
  "\u043f\u0435\u0440\u0435\u043f\u0438\u0441\u0438</w>": 5031,
  "\u5b57</w>": 5032,
  "abord</w>": 5033,
  "iche</w>": 5034,
  "\u0111uong</w>": 5035,
  "\u0645\u062f\u064a\u0646\u0629</w>": 5036,
  "\u4fdd": 5037,
  "\u0442\u0438\u0438</w>": 5038,
  "78</w>": 5039,
  "\u062a\u062d\u062a</w>": 5040,
  "\u0447\u043d\u043e\u0433\u043e</w>": 5041,
  "\u0917</w>": 5042,
  "\u5f88</w>": 5043,
  "30.</w>": 5044,
  "ari": 5045,
  "ania</w>": 5046,
  "\u6307</w>": 5047,
  "\u0445\u043e\u0434": 5048,
  "\u0432\u043e\u0435</w>": 5049,
  "einander</w>": 5050,
  "\u0915\u093f</w>": 5051,
  "bis": 5052,
  "cadre</w>": 5053,
  "aer": 5054,
  "\u0449\u0435\u043d": 5055,
  "\u0917\u092f\u093e</w>": 5056,
  "tores</w>": 5057,
  "\u6b63": 5058,
  "american</w>": 5059,
  "\u0422\u0438": 5060,
  "miembros</w>": 5061,
  "ular</w>": 5062,
  "sav": 5063,
  "toan</w>": 5064,
  "\u0441\u0442\u0440\u0435": 5065,
  "besuchte</w>": 5066,
  "\u0627\u0628</w>": 5067,
  "popular</w>": 5068,
  "\uff0c": 5069,
  "eto</w>": 5070,
  "frere</w>": 5071,
  "atique</w>": 5072,
  "fuhrer</w>": 5073,
  "\u0441\u0442\u044b</w>": 5074,
  "oides</w>": 5075,
  "\u0442\u0435\u0447\u0435\u043d\u0438\u0435</w>": 5076,
  "arbeitet</w>": 5077,
  "\u03b1\u03bb\u03bb\u03b1</w>": 5078,
  "dee</w>": 5079,
  "\u0111i</w>": 5080,
  "siguientes</w>": 5081,
  "\u043a\u0438\u0445</w>": 5082,
  "\u0441\u043f\u043e\u0441\u043e\u0431": 5083,
  "certaines</w>": 5084,
  "disco</w>": 5085,
  "\u592b</w>": 5086,
  "\u661f</w>": 5087,
  "\u6c11</w>": 5088,
  "\u0627\u0641": 5089,
  "fahren</w>": 5090,
  "campo</w>": 5091,
  "itz</w>": 5092,
  "italie</w>": 5093,
  "\u0110o</w>": 5094,
  "elev": 5095,
  "\u9ad4</w>": 5096,
  "\u062a\u0639\u062f\u0627\u062f</w>": 5097,
  "mang</w>": 5098,
  "elu</w>": 5099,
  "xi</w>": 5100,
  "zar": 5101,
  "\u044f\u0432\u043b\u044f\u044e\u0442\u0441\u044f</w>": 5102,
  "\u5973</w>": 5103,
  "69</w>": 5104,
  "\u5167</w>": 5105,
  "militaire</w>": 5106,
  "estim": 5107,
  "59</w>": 5108,
  "\u03b1\u03bd</w>": 5109,
  "\u044e\u0449\u0435\u0438</w>": 5110,
  "ambos</w>": 5111,
  "ins": 5112,
  "district</w>": 5113,
  "georg</w>": 5114,
  "flus": 5115,
  "\u041d\u043e</w>": 5116,
  "lev": 5117,
  "\u0438\u0442\u043e": 5118,
  "motor": 5119,
  "habian</w>": 5120,
  "\u043e\u0442\u043c\u0435": 5121,
  "invest": 5122,
  "situation</w>": 5123,
  "mouvement</w>": 5124,
  "dien": 5125,
  "\u4e16</w>": 5126,
  "\u043d\u0430\u0438": 5127,
  "sec": 5128,
  "\u6c11": 5129,
  "scene</w>": 5130,
  "alte</w>": 5131,
  "aide</w>": 5132,
  "phuong</w>": 5133,
  "eria</w>": 5134,
  "gn": 5135,
  "oblig": 5136,
  "\u5340": 5137,
  "nt</w>": 5138,
  "carl</w>": 5139,
  "illo</w>": 5140,
  "\u043d\u0430\u0437\u043d\u0430\u0447\u0435\u043d</w>": 5141,
  "on-": 5142,
  "rab": 5143,
  "capit": 5144,
  "grav": 5145,
  "grundung</w>": 5146,
  "sein": 5147,
  "\u7406</w>": 5148,
  "nic": 5149,
  "\u0444\u043e\u043d</w>": 5150,
  "minister</w>": 5151,
  "sky</w>": 5152,
  "\u043f\u0430\u0440\u0442\u0438\u0438</w>": 5153,
  "internationalen</w>": 5154,
  "wirk": 5155,
  "hoac</w>": 5156,
  "espanola</w>": 5157,
  "signe</w>": 5158,
  "\u0432\u0430\u0442</w>": 5159,
  "adop": 5160,
  "equ": 5161,
  "sion": 5162,
  "surtout</w>": 5163,
  "\u56db": 5164,
  "\u0438\u0441\u0442\u043e\u0440\u0438": 5165,
  "cai</w>": 5166,
  "kab": 5167,
  "langen</w>": 5168,
  "verbindung</w>": 5169,
  "97</w>": 5170,
  "dreh": 5171,
  "our</w>": 5172,
  "deten</w>": 5173,
  "\u043d\u0430\u043f\u0440\u0438\u043c\u0435\u0440</w>": 5174,
  "\u0447\u0435\u0441\u043a\u0438</w>": 5175,
  "arias</w>": 5176,
  "dafur</w>": 5177,
  "\u0431\u043e\u043b\u044c": 5178,
  "\u5185</w>": 5179,
  "\u0631\u0627": 5180,
  "1907</w>": 5181,
  "font</w>": 5182,
  "nahmen</w>": 5183,
  "comite</w>": 5184,
  "\u06a9\u0648</w>": 5185,
  "\u0646\u06d2</w>": 5186,
  "\u0627\u0644\u062f": 5187,
  "multi": 5188,
  "\u0435\u0440\u0430</w>": 5189,
  "cd</w>": 5190,
  "mam": 5191,
  "\u0433\u0433.</w>": 5192,
  "ann</w>": 5193,
  "chanson</w>": 5194,
  "\u0e04\u0e19</w>": 5195,
  "selbst": 5196,
  "92</w>": 5197,
  "duc</w>": 5198,
  "\u0110ong</w>": 5199,
  "stri": 5200,
  "house</w>": 5201,
  "\u03b9\u03bf</w>": 5202,
  "\u0648\u0643\u0627\u0646</w>": 5203,
  "trieu</w>": 5204,
  "\u0627\u062f</w>": 5205,
  "\u7f8e": 5206,
  "le-": 5207,
  "1916</w>": 5208,
  "alan</w>": 5209,
  "taus": 5210,
  "67</w>": 5211,
  "besitz</w>": 5212,
  "finalement</w>": 5213,
  "teatro</w>": 5214,
  "\u0441\u0432\u044f": 5215,
  "\u00dfen</w>": 5216,
  "henri</w>": 5217,
  "staat": 5218,
  "\u4e8c": 5219,
  "\u7576": 5220,
  "ator</w>": 5221,
  "\u0925</w>": 5222,
  "\u7ea7</w>": 5223,
  "\u039f\u03b9</w>": 5224,
  "\u0434\u0435\u043d\u044c</w>": 5225,
  "lic": 5226,
  "igt</w>": 5227,
  "we</w>": 5228,
  "mediante</w>": 5229,
  "ehe</w>": 5230,
  "dienst": 5231,
  "let</w>": 5232,
  "especies</w>": 5233,
  "ss</w>": 5234,
  "gesamt": 5235,
  "stand": 5236,
  "marine</w>": 5237,
  "\u0646\u064a": 5238,
  "au\u00df": 5239,
  "ekt</w>": 5240,
  "91</w>": 5241,
  "malgre</w>": 5242,
  "oeste</w>": 5243,
  "\u0e43\u0e0a</w>": 5244,
  "tim</w>": 5245,
  "\u0637</w>": 5246,
  "\u0441\u0430\u043c\u043e": 5247,
  "fernseh": 5248,
  "\u0441\u0435\u043d": 5249,
  "gare</w>": 5250,
  "sept</w>": 5251,
  "erster</w>": 5252,
  "color</w>": 5253,
  "79</w>": 5254,
  "tif</w>": 5255,
  "weiter": 5256,
  "1906</w>": 5257,
  "\u0645\u062d\u0645\u062f</w>": 5258,
  "\u0391": 5259,
  "\u0433\u0435\u043d": 5260,
  "musee</w>": 5261,
  "\u0434\u0430\u043d": 5262,
  "departamento</w>": 5263,
  "12\u6708</w>": 5264,
  "gil": 5265,
  "schwe": 5266,
  "\u043a\u0442\u043e": 5267,
  "aya</w>": 5268,
  "\u043f\u0440\u0435\u0434\u0441\u0442\u0430\u0432": 5269,
  "albert</w>": 5270,
  "ng": 5271,
  "\u0420\u043e\u0441\u0441\u0438\u0438\u0441\u043a\u043e\u0438</w>": 5272,
  "\u0648\u062c": 5273,
  "exito</w>": 5274,
  "etwas</w>": 5275,
  "particulier</w>": 5276,
  "\u0630": 5277,
  "\u0434\u0430\u0436\u0435</w>": 5278,
  "hohen</w>": 5279,
  "\u6708</w>": 5280,
  "\u0448\u0438\u0435</w>": 5281,
  "reseau</w>": 5282,
  "directeur</w>": 5283,
  "\u0e41\u0e15</w>": 5284,
  "theorie</w>": 5285,
  "schaf": 5286,
  "\u043d\u0435\u043d": 5287,
  "21.</w>": 5288,
  "produ": 5289,
  "mon</w>": 5290,
  "zogen</w>": 5291,
  "\u5c07</w>": 5292,
  "convirtio</w>": 5293,
  "kloster</w>": 5294,
  "\u0431\u0435\u0440\u0435": 5295,
  "material</w>": 5296,
  "hombres</w>": 5297,
  "\u043e\u0440\u0433\u0430\u043d\u0438\u0437\u0430\u0446\u0438\u0438</w>": 5298,
  "regul": 5299,
  "jun": 5300,
  "german": 5301,
  "\u0441\u0442\u0440\u0430\u043d\u044b</w>": 5302,
  "versch": 5303,
  "chron": 5304,
  "verwaltung</w>": 5305,
  "gelang</w>": 5306,
  "\u03bf": 5307,
  "\u6797": 5308,
  "\u65cf</w>": 5309,
  "\u56e0\u6b64</w>": 5310,
  "\u0627\u0643\u062b\u0631</w>": 5311,
  "tis": 5312,
  "\u53ef\u80fd</w>": 5313,
  "verfahren</w>": 5314,
  "ebenso</w>": 5315,
  "mujeres</w>": 5316,
  "oph": 5317,
  "entaire</w>": 5318,
  "alrededor</w>": 5319,
  "\u0448\u0435\u043d\u0438\u044f</w>": 5320,
  "cause</w>": 5321,
  "\u0432\u0438\u043d": 5322,
  "\u044f\u043d": 5323,
  "\u0428\u0430": 5324,
  "hinaus</w>": 5325,
  "25.</w>": 5326,
  "ener": 5327,
  "\u4e8b": 5328,
  "esper": 5329,
  "\u0411\u0438": 5330,
  "henry</w>": 5331,
  "aliz": 5332,
  "\u8272</w>": 5333,
  "fis": 5334,
  "\u0433\u0440\u0430\u0444\u0438": 5335,
  "cok</w>": 5336,
  "mem": 5337,
  "\u0645\u0639": 5338,
  "a.": 5339,
  "fonde</w>": 5340,
  "turm</w>": 5341,
  "ett</w>": 5342,
  "\u5de5\u4f5c</w>": 5343,
  "800</w>": 5344,
  "190": 5345,
  "\u0446\u0435\u043d\u0442\u0440</w>": 5346,
  "\u7f85": 5347,
  "acuerdo</w>": 5348,
  "yen</w>": 5349,
  "macht</w>": 5350,
  "sens</w>": 5351,
  "\u0631\u064a\u0629</w>": 5352,
  "demande</w>": 5353,
  "\u9032</w>": 5354,
  "ausbildung</w>": 5355,
  "\u0418\u043d": 5356,
  "letzte</w>": 5357,
  "posee</w>": 5358,
  "\u0442\u043e\u0440": 5359,
  "00": 5360,
  "brau": 5361,
  "gemeinde": 5362,
  "\u4eca</w>": 5363,
  "befinden</w>": 5364,
  "eigene</w>": 5365,
  "\u0441\u043e\u043d</w>": 5366,
  "8,": 5367,
  "\u043c\u0435\u0441\u0442": 5368,
  "ziel</w>": 5369,
  "daniel</w>": 5370,
  "sper": 5371,
  "sung</w>": 5372,
  "cus</w>": 5373,
  "\u0441\u0438\u043b</w>": 5374,
  "caracter": 5375,
  "grands</w>": 5376,
  "\u5409": 5377,
  "\u526f</w>": 5378,
  "origen</w>": 5379,
  "anne</w>": 5380,
  "bac": 5381,
  "\u0438\u0442\u044c\u0441\u044f</w>": 5382,
  "densidad</w>": 5383,
  "\u0627\u0644\u0637": 5384,
  "ental</w>": 5385,
  "interpre": 5386,
  "ats": 5387,
  "\u0648\u0647\u064a</w>": 5388,
  "g-": 5389,
  "lichkeit</w>": 5390,
  "objet</w>": 5391,
  "ense</w>": 5392,
  "khoang</w>": 5393,
  "holz": 5394,
  "bischof</w>": 5395,
  "metal</w>": 5396,
  "\u043c\u0430\u0440": 5397,
  "puntos</w>": 5398,
  "politiker</w>": 5399,
  "brucke</w>": 5400,
  "voit</w>": 5401,
  "\u041b\u044e": 5402,
  "\u03b9": 5403,
  "standen</w>": 5404,
  "hau</w>": 5405,
  "euro</w>": 5406,
  "te-": 5407,
  "\u0435\u0432\u0438\u0447</w>": 5408,
  "\u043c\u043e\u0440": 5409,
  "nes": 5410,
  "\u4ee5": 5411,
  "allemand</w>": 5412,
  "way</w>": 5413,
  "sta": 5414,
  "genutzt</w>": 5415,
  "cir": 5416,
  "micro": 5417,
  "ludwig</w>": 5418,
  "ute</w>": 5419,
  "schweiz</w>": 5420,
  "tum</w>": 5421,
  "\u0414\u0436\u0435": 5422,
  "up</w>": 5423,
  "industrie</w>": 5424,
  "britannique</w>": 5425,
  "\u0436\u0435\u043d\u0438\u0438</w>": 5426,
  "michel</w>": 5427,
  "\u54c8": 5428,
  "dieron</w>": 5429,
  "\u660e": 5430,
  "icion</w>": 5431,
  "miembro</w>": 5432,
  "obtient</w>": 5433,
  "kein</w>": 5434,
  "ort": 5435,
  "differents</w>": 5436,
  "\u043d\u0438\u0437": 5437,
  "tandis</w>": 5438,
  "\u043f\u043e\u0441\u0435\u043b\u0435\u043d\u0438\u044f</w>": 5439,
  "tritt</w>": 5440,
  "\u0648\u0631</w>": 5441,
  "\u53e4": 5442,
  "j.</w>": 5443,
  "\u7814\u7a76</w>": 5444,
  "\u0446\u0438</w>": 5445,
  "ras</w>": 5446,
  "89</w>": 5447,
  "engag": 5448,
  "elections</w>": 5449,
  "\u043a\u044a\u043c</w>": 5450,
  "80": 5451,
  "\u0930": 5452,
  "\u0e04.\u0e28.</w>": 5453,
  "\u043c\u044f": 5454,
  "programme</w>": 5455,
  "gi</w>": 5456,
  "lauf</w>": 5457,
  "\u6bd4": 5458,
  "sorti</w>": 5459,
  "\u0e01\u0e32\u0e23": 5460,
  "kapit": 5461,
  "autour</w>": 5462,
  "\u0433\u043e\u0440\u043e\u0434": 5463,
  "millions</w>": 5464,
  "haup": 5465,
  "\u0627\u0646\u064a</w>": 5466,
  "\u03bf\u03c5\u03bd</w>": 5467,
  "\u0434\u0435\u0442": 5468,
  "ceux</w>": 5469,
  "\u4e4b\u4e00</w>": 5470,
  "\u0443\u0447": 5471,
  "interes": 5472,
  "bruch</w>": 5473,
  "profes": 5474,
  "top</w>": 5475,
  "annonce</w>": 5476,
  "alli</w>": 5477,
  "alle": 5478,
  "\u0441\u043c\u0435\u0440\u0442\u0438</w>": 5479,
  "stil</w>": 5480,
  "astero": 5481,
  "moment</w>": 5482,
  "internet</w>": 5483,
  "prepar": 5484,
  "\u79f0</w>": 5485,
  "08</w>": 5486,
  "eigen": 5487,
  "\u0432\u0443": 5488,
  "redu": 5489,
  "petite</w>": 5490,
  "estilo</w>": 5491,
  "vard\u0131r</w>": 5492,
  "mau</w>": 5493,
  "americaine</w>": 5494,
  "weiterhin</w>": 5495,
  "\u043f\u0435\u0440\u0435\u0434\u0430": 5496,
  "au\u00dfen": 5497,
  "el-": 5498,
  "\u0430\u0432": 5499,
  "zweit": 5500,
  "\u6559": 5501,
  "anna</w>": 5502,
  "seur</w>": 5503,
  "\u043e\u0431\u043b\u0430\u0441\u0442\u044c</w>": 5504,
  "\u0441-": 5505,
  "ici</w>": 5506,
  "\u043a\u043b\u0438": 5507,
  "equipes</w>": 5508,
  "rus": 5509,
  "gehen</w>": 5510,
  "test": 5511,
  "\u53ef": 5512,
  "aurait</w>": 5513,
  "nhien</w>": 5514,
  "\u0441\u0435\u0440": 5515,
  "gram": 5516,
  "tis</w>": 5517,
  "\u043c\u043d\u043e\u0433\u043e": 5518,
  "polit": 5519,
  "limit": 5520,
  "\u0433\u0430\u043d": 5521,
  "quer</w>": 5522,
  "parc</w>": 5523,
  "dad</w>": 5524,
  "decada</w>": 5525,
  "\u043a\u0430\u044f</w>": 5526,
  "\u0432\u0443\u044e</w>": 5527,
  "auteur</w>": 5528,
  "hang": 5529,
  "5.": 5530,
  "lec": 5531,
  "platz": 5532,
  "vereinigten</w>": 5533,
  "direkt</w>": 5534,
  "\u0432\u0435\u0442": 5535,
  "cion": 5536,
  "wald": 5537,
  "\u6578</w>": 5538,
  "\u5169": 5539,
  "isee</w>": 5540,
  "ht</w>": 5541,
  "bron": 5542,
  "\u0411\u0435\u0440": 5543,
  "nav": 5544,
  "\u0111anh</w>": 5545,
  "\u062f\u0629</w>": 5546,
  "\u0436\u0438</w>": 5547,
  "1909</w>": 5548,
  "restaur": 5549,
  "cken</w>": 5550,
  "phil": 5551,
  "vue</w>": 5552,
  "zeichen</w>": 5553,
  "rennen</w>": 5554,
  "fuera</w>": 5555,
  "ami</w>": 5556,
  "einigen</w>": 5557,
  "lav": 5558,
  "tig": 5559,
  "\u0447\u0435\u0441\u043a\u043e\u0435</w>": 5560,
  "\u6e05": 5561,
  "nu</w>": 5562,
  "line</w>": 5563,
  "otto</w>": 5564,
  "rhein": 5565,
  "eln</w>": 5566,
  "\u0644\u0647\u0627</w>": 5567,
  "\u0441\u043e\u0432\u0435\u0442": 5568,
  "offen": 5569,
  "entstanden</w>": 5570,
  "\u97f3</w>": 5571,
  "\u043a\u0430\u043c</w>": 5572,
  "tage</w>": 5573,
  "civil</w>": 5574,
  "\u0648\u0627\u0644\u062a": 5575,
  "gene</w>": 5576,
  "halt</w>": 5577,
  "hauser</w>": 5578,
  "1904</w>": 5579,
  "nho</w>": 5580,
  "\u043d\u044f\u044f</w>": 5581,
  "onia</w>": 5582,
  "trau": 5583,
  "schrift</w>": 5584,
  "dadurch</w>": 5585,
  "\u0447\u0430\u0441\u0442": 5586,
  "pir": 5587,
  "gano</w>": 5588,
  "\u0440\u0430\u0431\u043e": 5589,
  "\u0442\u044f": 5590,
  "\u904e": 5591,
  "bald</w>": 5592,
  "tur</w>": 5593,
  "\u043d\u0430\u0447\u0430\u043b</w>": 5594,
  "quebec</w>": 5595,
  "anlage</w>": 5596,
  "\u043e\u043a\u0440\u0443\u0433\u0430</w>": 5597,
  "\u043d\u0430\u0437\u044b\u0432\u0430": 5598,
  "hamburg</w>": 5599,
  "01</w>": 5600,
  "compania</w>": 5601,
  "\u043d\u043e\u0441": 5602,
  "tels</w>": 5603,
  "strom": 5604,
  "kinder": 5605,
  "victoire</w>": 5606,
  "\u043a\u0438\u043c</w>": 5607,
  "23": 5608,
  "\u043d\u0435\u043d\u0438\u0438</w>": 5609,
  "enn": 5610,
  "\u062a\u0647\u0627</w>": 5611,
  "fili": 5612,
  "\u00d7</w>": 5613,
  "\u0444\u0438\u043b\u044c\u043c</w>": 5614,
  "\u0437\u044b</w>": 5615,
  "\u0627\u0643": 5616,
  "\u043b\u0435\u043d\u044b</w>": 5617,
  "beau": 5618,
  "\u0e44\u0e21</w>": 5619,
  "\u043d\u043e\u0432\u0430</w>": 5620,
  "phim</w>": 5621,
  "\u7121": 5622,
  "cine</w>": 5623,
  "show</w>": 5624,
  "\u0437\u0430\u043a\u043b\u044e": 5625,
  "\u039d": 5626,
  "nem": 5627,
  "reci": 5628,
  "\u0442\u0438\u0432": 5629,
  "\u6a5f</w>": 5630,
  "weis": 5631,
  "obwohl</w>": 5632,
  "\u0421\u0442\u0430": 5633,
  "bad": 5634,
  "jor": 5635,
  "maler</w>": 5636,
  "adora</w>": 5637,
  "\u03b5\u03b9\u03c7\u03b5</w>": 5638,
  "winter": 5639,
  "lus": 5640,
  "max</w>": 5641,
  "studi": 5642,
  "puerto</w>": 5643,
  "esse</w>": 5644,
  "enter": 5645,
  "syn": 5646,
  "\u0432\u0435\u043b\u0438": 5647,
  "ren</w>": 5648,
  "\u0433\u0440\u0443": 5649,
  "\u043f\u043e-": 5650,
  "hoy</w>": 5651,
  "\u0646\u0629</w>": 5652,
  "oso</w>": 5653,
  "relat": 5654,
  "cabo</w>": 5655,
  "\u0410\u043b": 5656,
  "\u0627\u0644\u063a": 5657,
  "\u7c73": 5658,
  "\u0440\u0430\u0432": 5659,
  "4.": 5660,
  "proto": 5661,
  "kg</w>": 5662,
  "/": 5663,
  "seg": 5664,
  "\u8eca</w>": 5665,
  "influ": 5666,
  "orte</w>": 5667,
  "ry</w>": 5668,
  "\u0627\u062d": 5669,
  "estuvo</w>": 5670,
  "icamente</w>": 5671,
  "\u091c</w>": 5672,
  "united</w>": 5673,
  "deutlich</w>": 5674,
  "9\u6708</w>": 5675,
  "\u0645\u062d": 5676,
  "ules</w>": 5677,
  "stamm": 5678,
  "erreicht</w>": 5679,
  "ula</w>": 5680,
  "schriften</w>": 5681,
  "\u0430\u043d\u0442\u0438": 5682,
  "\u03c0\u03c1\u03bf": 5683,
  "\u0444\u0430</w>": 5684,
  "kunst</w>": 5685,
  "barcelona</w>": 5686,
  "enten": 5687,
  "\u4e0d\u540c</w>": 5688,
  "incluso</w>": 5689,
  "geist": 5690,
  "tex": 5691,
  "four": 5692,
  "\u0442\u0438\u043d": 5693,
  "techn": 5694,
  "particip": 5695,
  "\u043c\u043e\u0433\u0443\u0442</w>": 5696,
  "ative</w>": 5697,
  "\u76ee</w>": 5698,
  "eri</w>": 5699,
  "diver": 5700,
  "vielen</w>": 5701,
  "tura</w>": 5702,
  "hieu</w>": 5703,
  "appele</w>": 5704,
  "\u03b5\u03c7\u03b5\u03b9</w>": 5705,
  "rund": 5706,
  "oficial</w>": 5707,
  "eur": 5708,
  "\u043f\u0438\u0441": 5709,
  "plupart</w>": 5710,
  "22.</w>": 5711,
  "presi": 5712,
  "phase</w>": 5713,
  "sudlich</w>": 5714,
  "geschafts": 5715,
  "tierte</w>": 5716,
  "pag": 5717,
  "femmes</w>": 5718,
  "dy": 5719,
  "\u0441\u0442\u0430\u043d\u0446\u0438\u0438</w>": 5720,
  "lie</w>": 5721,
  "nehmen</w>": 5722,
  "\u7ef4": 5723,
  "suivante</w>": 5724,
  "hielt</w>": 5725,
  "\u0921</w>": 5726,
  "diplom": 5727,
  "log": 5728,
  "visit": 5729,
  "05</w>": 5730,
  "\u043a\u0438\u043d\u043e": 5731,
  "\u043c\u0430\u0442": 5732,
  "\u0441\u043e\u0431\u0441\u0442\u0432\u0435\u043d": 5733,
  "issent</w>": 5734,
  "\u0633\u0643\u0627\u0646\u0647\u0627</w>": 5735,
  "\u043b\u0435\u0433": 5736,
  "seule</w>": 5737,
  "ouv": 5738,
  "\u043f\u0435\u0440\u0435\u0434</w>": 5739,
  "\u03b4\u03b9\u03b1": 5740,
  "ehren": 5741,
  "\u0627\u0642": 5742,
  "langue</w>": 5743,
  "studio</w>": 5744,
  "ure": 5745,
  "\u0427\u0435\u0440": 5746,
  "betr": 5747,
  "hinter</w>": 5748,
  "\u043b\u044c\u043d\u043e\u0435</w>": 5749,
  "sech": 5750,
  "sao</w>": 5751,
  "\u7f8e</w>": 5752,
  "\u043f\u043e\u0441\u0435": 5753,
  "fonction</w>": 5754,
  "\u0930\u092a</w>": 5755,
  "\u0627\u0644\u0648\u0644\u0627\u064a\u0627\u062a</w>": 5756,
  "halle</w>": 5757,
  "7\u6708</w>": 5758,
  "ial</w>": 5759,
  "\u6b63</w>": 5760,
  "rin": 5761,
  "nutz": 5762,
  "igkeit</w>": 5763,
  "herrschaft</w>": 5764,
  "\u8eca": 5765,
  "dritten</w>": 5766,
  "servicio</w>": 5767,
  "especi": 5768,
  "kehrte</w>": 5769,
  "teten</w>": 5770,
  "\u0441\u043a\u0435</w>": 5771,
  "\u062c</w>": 5772,
  "ften</w>": 5773,
  "nie": 5774,
  "\u043d\u0430\u0446\u0438\u043e\u043d\u0430": 5775,
  "ari</w>": 5776,
  "ologique</w>": 5777,
  "\u043f\u043e\u043b\u0438\u0442\u0438": 5778,
  "kung</w>": 5779,
  "\u0440\u0430\u0437\u0434\u0435": 5780,
  "ois</w>": 5781,
  "epouse</w>": 5782,
  "wissenschaften</w>": 5783,
  "pit": 5784,
  "\u0441\u043c\u0435": 5785,
  "\u573a</w>": 5786,
  "\u0418\u0437": 5787,
  "au-": 5788,
  "pren": 5789,
  "los": 5790,
  "wiesen</w>": 5791,
  "seria</w>": 5792,
  "sozi": 5793,
  "adap": 5794,
  "\u865f</w>": 5795,
  "extre": 5796,
  "\u0442\u0440\u0443": 5797,
  "\u0447\u043d\u044b\u0435</w>": 5798,
  "aufgenommen</w>": 5799,
  "sozial": 5800,
  "8\u6708</w>": 5801,
  "weisen</w>": 5802,
  "sieg</w>": 5803,
  "\u0436\u0438\u043b</w>": 5804,
  "accion</w>": 5805,
  "\u624d</w>": 5806,
  "khoi</w>": 5807,
  "premieres</w>": 5808,
  "amen": 5809,
  "ret": 5810,
  "monte</w>": 5811,
  "\u043d\u043e\u0442\u043e</w>": 5812,
  "suivant</w>": 5813,
  "formen</w>": 5814,
  "plac": 5815,
  "\u53bb</w>": 5816,
  "10\u6708</w>": 5817,
  "\u5b9a": 5818,
  "jac": 5819,
  "gee</w>": 5820,
  "uses</w>": 5821,
  "\u6240": 5822,
  "hohen": 5823,
  "semble</w>": 5824,
  "tranh</w>": 5825,
  "\u0441\u043b\u0435": 5826,
  "\u6210\u7acb</w>": 5827,
  "enfin</w>": 5828,
  "out": 5829,
  "cam</w>": 5830,
  "fuhr": 5831,
  "wes": 5832,
  "\u0430\u0432\u0438\u0430": 5833,
  "et-": 5834,
  "gau": 5835,
  "toutefois</w>": 5836,
  "akademie</w>": 5837,
  "kel</w>": 5838,
  "\u0441\u043e\u0431": 5839,
  "ei": 5840,
  "\u0441\u043e\u0437\u0434\u0430": 5841,
  "operation</w>": 5842,
  "\u0432\u043e\u0438": 5843,
  "\u062a\u0642": 5844,
  "iler</w>": 5845,
  "dr.</w>": 5846,
  "nees</w>": 5847,
  "n-": 5848,
  "\u0441\u043d\u0438": 5849,
  "bot": 5850,
  "weit": 5851,
  "retrouve</w>": 5852,
  "sent</w>": 5853,
  "24.</w>": 5854,
  "bah": 5855,
  "\u0438\u0442\u0430": 5856,
  "pier": 5857,
  "principalement</w>": 5858,
  "gleichzeitig</w>": 5859,
  "gold": 5860,
  "\u5149</w>": 5861,
  "vest": 5862,
  "\u03bf\u03c5": 5863,
  "28.</w>": 5864,
  "gs</w>": 5865,
  "\u5b66</w>": 5866,
  "grenz": 5867,
  "sees</w>": 5868,
  "lista</w>": 5869,
  "hockey</w>": 5870,
  "\u74e6": 5871,
  "\u0644\u064a</w>": 5872,
  "cent</w>": 5873,
  "\u044d\u0442\u0438\u0445</w>": 5874,
  "encuentran</w>": 5875,
  "torneo</w>": 5876,
  "\u03ba\u03b1\u03c4\u03b1</w>": 5877,
  "gibi</w>": 5878,
  "dete</w>": 5879,
  "europaischen</w>": 5880,
  "ultima</w>": 5881,
  "druck": 5882,
  "\u043a\u043e\u0440\u043e": 5883,
  "tat</w>": 5884,
  "aca</w>": 5885,
  "83</w>": 5886,
  "\u091c\u094b</w>": 5887,
  "evangel": 5888,
  "mien</w>": 5889,
  "batalla</w>": 5890,
  "\u4ee3\u8868</w>": 5891,
  "muchas</w>": 5892,
  "gefuhrt</w>": 5893,
  "esi</w>": 5894,
  "cha": 5895,
  "iges</w>": 5896,
  "\u0424\u0438": 5897,
  "celebr": 5898,
  "fan": 5899,
  "time</w>": 5900,
  "frances</w>": 5901,
  "veroffentlichte</w>": 5902,
  "\u043b\u044c\u043d\u044b\u043c</w>": 5903,
  "\u0110uc</w>": 5904,
  "nation": 5905,
  "fluss</w>": 5906,
  "ivos</w>": 5907,
  "sicht</w>": 5908,
  "begriff</w>": 5909,
  "zeiten</w>": 5910,
  "aga</w>": 5911,
  "front</w>": 5912,
  "cil": 5913,
  "\u0440\u043e\u0434\u0430</w>": 5914,
  "\u8457</w>": 5915,
  "territorio</w>": 5916,
  "\u043a\u043e\u043c\u0430\u043d\u0434\u044b</w>": 5917,
  "\u043f\u043e\u0447\u0442\u0438</w>": 5918,
  "\u03b9\u03bf\u03c5</w>": 5919,
  "instrum": 5920,
  "\u0432\u044f": 5921,
  "\u77f3</w>": 5922,
  "gh": 5923,
  "berliner</w>": 5924,
  "buyuk</w>": 5925,
  "jamais</w>": 5926,
  "\u0431\u0443\u0434\u0435\u0442</w>": 5927,
  "\u043a\u0440\u043e": 5928,
  "nordlich</w>": 5929,
  "\u043f\u0435\u0440\u0432\u043e\u0438</w>": 5930,
  "domaine</w>": 5931,
  "feder": 5932,
  "konig": 5933,
  "\u0639\u0627\u0645\u0627</w>": 5934,
  "santiago</w>": 5935,
  "\u0441\u0438\u0441\u0442\u0435\u043c\u044b</w>": 5936,
  "\u4e2d\u570b</w>": 5937,
  "\u041f\u0443": 5938,
  "\u0443\u0434\u0430": 5939,
  "erfolg</w>": 5940,
  "\u0937</w>": 5941,
  "\u043b\u043b\u0438": 5942,
  "situ": 5943,
  "\u0441\u0442\u043e\u0440\u043e\u043d\u044b</w>": 5944,
  "dt</w>": 5945,
  "opera</w>": 5946,
  "\u0628\u064a</w>": 5947,
  "anne": 5948,
  "\u043e\u0441\u043d\u043e\u0432": 5949,
  "\u0440\u043e\u0432\u0430\u043d\u0438\u044f</w>": 5950,
  "\u062a\u0646": 5951,
  "\u0441\u0435\u043b\u0430</w>": 5952,
  "\u0446\u0435\u043d\u0442\u0440\u0430</w>": 5953,
  "hr</w>": 5954,
  "mesure</w>": 5955,
  "\u0447\u0435\u0441\u043a\u0438\u043c</w>": 5956,
  "23.</w>": 5957,
  "bel</w>": 5958,
  "thien</w>": 5959,
  "seurs</w>": 5960,
  "\u6d1b": 5961,
  "sociedad</w>": 5962,
  "\u043d\u0430\u0434": 5963,
  "andre</w>": 5964,
  "\u7f57": 5965,
  "obten": 5966,
  "contribu": 5967,
  "ati</w>": 5968,
  "chat</w>": 5969,
  "\u043a\u043b\u0443\u0431</w>": 5970,
  "\u0435\u0442": 5971,
  "\u0440\u043e\u043d": 5972,
  "\u043b\u0435\u043c</w>": 5973,
  "alexander</w>": 5974,
  "\u7e3d": 5975,
  "nomin": 5976,
  "kien</w>": 5977,
  "\u0448\u0435\u0433\u043e</w>": 5978,
  "tient</w>": 5979,
  "dem": 5980,
  "gauche</w>": 5981,
  "\u0440\u0430\u043b\u044c": 5982,
  "\u0434\u0440\u0430": 5983,
  "\u0424\u0435": 5984,
  "mettre</w>": 5985,
  "\u7387</w>": 5986,
  "\u0627\u0644\u0644\u0647</w>": 5987,
  "derecho</w>": 5988,
  "\u0432\u043e\u0441": 5989,
  "\u0431\u0430\u043d": 5990,
  "\u0435\u0432\u0430</w>": 5991,
  "enthalt</w>": 5992,
  "\u0627\u062e": 5993,
  "siempre</w>": 5994,
  "cour</w>": 5995,
  "tado</w>": 5996,
  "cli": 5997,
  "\u0440\u043e\u0434\u0438\u043b\u0441\u044f</w>": 5998,
  "ive</w>": 5999,
  "alta</w>": 6000,
  "possede</w>": 6001,
  "\u041a\u0440\u043e\u043c\u0435</w>": 6002,
  "cs</w>": 6003,
  "\u901a</w>": 6004,
  "direktor</w>": 6005,
  "\u043a\u043e\u0432\u0430</w>": 6006,
  "\u6d41": 6007,
  "ters</w>": 6008,
  "inicio</w>": 6009,
  "\u0448\u0438\u043c</w>": 6010,
  "meisterschaft</w>": 6011,
  "suisse</w>": 6012,
  "explo": 6013,
  "erei</w>": 6014,
  "\u4e94": 6015,
  "\u57fa": 6016,
  "equipos</w>": 6017,
  "\u0446\u0435\u043d\u0442": 6018,
  "recibio</w>": 6019,
  "construit</w>": 6020,
  "lt</w>": 6021,
  "porque</w>": 6022,
  "decor": 6023,
  "\u0631\u064a</w>": 6024,
  "nac": 6025,
  "e.</w>": 6026,
  "\u0646\u064a</w>": 6027,
  "celui-ci</w>": 6028,
  "truyen</w>": 6029,
  "tief": 6030,
  "\u53d7</w>": 6031,
  "imp": 6032,
  "1\u6708</w>": 6033,
  "\u0432\u0448\u0438\u0445</w>": 6034,
  "clar": 6035,
  "ob</w>": 6036,
  "cuerpo</w>": 6037,
  "ss": 6038,
  "teilen</w>": 6039,
  "ieres</w>": 6040,
  "nous</w>": 6041,
  "\u043f\u043b\u043e\u0449\u0430\u0434\u044c</w>": 6042,
  "spat": 6043,
  "\u043c\u0435\u043d\u0435\u0435</w>": 6044,
  "italia</w>": 6045,
  "\u0432\u0430\u043b\u0441\u044f</w>": 6046,
  "\u0441\u0438\u043d": 6047,
  "\u0432\u0441\u043a\u043e\u0433\u043e</w>": 6048,
  "\u0448\u0435</w>": 6049,
  "wand": 6050,
  "\u4e07</w>": 6051,
  "\u0646\u0627</w>": 6052,
  "\u0e27</w>": 6053,
  "\u0430\u0442\u044c\u0441\u044f</w>": 6054,
  "\u0627\u0648\u0644</w>": 6055,
  "lequel</w>": 6056,
  "\u0449\u0435</w>": 6057,
  "stammt</w>": 6058,
  "differentes</w>": 6059,
  "sor</w>": 6060,
  "fest</w>": 6061,
  "\u0431\u0438</w>": 6062,
  "daraufhin</w>": 6063,
  "\u56de": 6064,
  "nhac</w>": 6065,
  "\u5408</w>": 6066,
  "1903</w>": 6067,
  "\u0927</w>": 6068,
  "\u0e02\u0e19</w>": 6069,
  "\u0938": 6070,
  "administrat": 6071,
  "voie</w>": 6072,
  "\u0442\u0435\u043b\u044c": 6073,
  "equip": 6074,
  "\u0437\u0430\u043d": 6075,
  "bern": 6076,
  "mt</w>": 6077,
  "\u0384</w>": 6078,
  "ano": 6079,
  "vuong</w>": 6080,
  "trainer</w>": 6081,
  "gro\u00dfte</w>": 6082,
  "ater</w>": 6083,
  "weniger</w>": 6084,
  "entales</w>": 6085,
  "26.</w>": 6086,
  "tem</w>": 6087,
  "\u0449\u0438": 6088,
  "wi": 6089,
  "forschung</w>": 6090,
  "grupos</w>": 6091,
  "sino</w>": 6092,
  "wert</w>": 6093,
  "gestion</w>": 6094,
  "\u043b\u043e\u0438</w>": 6095,
  "denkmal": 6096,
  "espagne</w>": 6097,
  "legte</w>": 6098,
  "yeu</w>": 6099,
  "nouvelles</w>": 6100,
  "considere</w>": 6101,
  "9,": 6102,
  "sdorf</w>": 6103,
  "cla": 6104,
  "\u0430\u0442\u0430": 6105,
  "6.": 6106,
  "ace</w>": 6107,
  "\u0443\u043d\u0438\u0432\u0435\u0440\u0441\u0438\u0442\u0435\u0442\u0430</w>": 6108,
  "gren": 6109,
  "privat": 6110,
  "27.</w>": 6111,
  "nan": 6112,
  "\u0153uvres</w>": 6113,
  "\u041e\u0431": 6114,
  "walter</w>": 6115,
  "\u56fd\u5bb6</w>": 6116,
  "superior</w>": 6117,
  "roman": 6118,
  "\u0441\u0442\u043e\u043c</w>": 6119,
  "\u0627\u0644\u0627</w>": 6120,
  "baren</w>": 6121,
  "\u0427\u0435": 6122,
  "\u00ba</w>": 6123,
  "movimiento</w>": 6124,
  "mehr": 6125,
  "\u0441\u044c</w>": 6126,
  "sche": 6127,
  "\u516c\u91cc</w>": 6128,
  "article</w>": 6129,
  "raf": 6130,
  "igte</w>": 6131,
  "wein": 6132,
  "kim</w>": 6133,
  "auff": 6134,
  "chr.</w>": 6135,
  "constitue</w>": 6136,
  "gleich</w>": 6137,
  "canciones</w>": 6138,
  "\u0446\u0435\u0440\u043a\u0432\u0438</w>": 6139,
  "will</w>": 6140,
  "\u044d\u0442\u0430": 6141,
  "angel": 6142,
  "wahlen</w>": 6143,
  "tent</w>": 6144,
  "trai</w>": 6145,
  "\u53e3</w>": 6146,
  "relacion</w>": 6147,
  "groupes</w>": 6148,
  "\u91cd</w>": 6149,
  "\u5c5e</w>": 6150,
  "alemania</w>": 6151,
  "dy</w>": 6152,
  "py": 6153,
  "erwahnt</w>": 6154,
  "proche</w>": 6155,
  "river</w>": 6156,
  "pes</w>": 6157,
  "\u628a</w>": 6158,
  "bewegung</w>": 6159,
  "mucho</w>": 6160,
  "king</w>": 6161,
  "truppen</w>": 6162,
  "\u0648\u0627</w>": 6163,
  "eras</w>": 6164,
  "forces</w>": 6165,
  "vuc</w>": 6166,
  "\u96fb": 6167,
  "tot</w>": 6168,
  "tuyen</w>": 6169,
  "enth": 6170,
  "3\u6708</w>": 6171,
  "indepen": 6172,
  "inin</w>": 6173,
  "\u0444\u0438\u0437\u0438": 6174,
  "\u5c3c</w>": 6175,
  "proceso</w>": 6176,
  "\u0432\u0430\u043b\u0438\u0441\u044c</w>": 6177,
  "\u0449\u0438\u0438</w>": 6178,
  "sat</w>": 6179,
  "nete</w>": 6180,
  "\u0430\u0442\u0430</w>": 6181,
  "tho": 6182,
  "formacion</w>": 6183,
  "wahr": 6184,
  "mehreren</w>": 6185,
  "mos</w>": 6186,
  "patri": 6187,
  "\u6a5f": 6188,
  "mua</w>": 6189,
  "wei\u00df": 6190,
  "dado</w>": 6191,
  "\u0424\u0440\u0430\u043d\u0446\u0438\u0438</w>": 6192,
  "\u4e94</w>": 6193,
  "\u9054": 6194,
  "johannes</w>": 6195,
  "tungs": 6196,
  "ende": 6197,
  "6\u6708</w>": 6198,
  "\u4f0a": 6199,
  "\u8868\u793a</w>": 6200,
  "rep": 6201,
  "\u0438\u043d\u044b</w>": 6202,
  "\u0627\u0644\u0645\u0646": 6203,
  "\u03bc": 6204,
  "papel</w>": 6205,
  "energie</w>": 6206,
  "ware</w>": 6207,
  "male</w>": 6208,
  "\u4e00\u4e9b</w>": 6209,
  "pris</w>": 6210,
  "\u0411\u0430\u0440": 6211,
  "fertig": 6212,
  "hur": 6213,
  "avaient</w>": 6214,
  "cias</w>": 6215,
  "fa</w>": 6216,
  "arab": 6217,
  "nicolas</w>": 6218,
  "lebte</w>": 6219,
  "\u044e\u0449\u0438\u043c</w>": 6220,
  "\u8cfd</w>": 6221,
  "prof": 6222,
  "tuy</w>": 6223,
  "angleterre</w>": 6224,
  "fau": 6225,
  "federation</w>": 6226,
  "brachte</w>": 6227,
  "prendre</w>": 6228,
  "hilfe</w>": 6229,
  "schon": 6230,
  "simple</w>": 6231,
  "pun": 6232,
  "tales</w>": 6233,
  "regional</w>": 6234,
  "absolvierte</w>": 6235,
  "edicion</w>": 6236,
  "\u5175</w>": 6237,
  "olympischen</w>": 6238,
  "\u0432\u044b\u043c\u0438</w>": 6239,
  "direk": 6240,
  "\u8fd8</w>": 6241,
  "hall</w>": 6242,
  "5\u6708</w>": 6243,
  "\u0438\u0442\u0435\u043b\u0435\u043c</w>": 6244,
  "\u0421\u0435\u0440": 6245,
  "\u0440\u043e\u0432\u0430\u0442\u044c</w>": 6246,
  "\u091c\u093e\u0924\u093e</w>": 6247,
  "maniere</w>": 6248,
  "\u0447\u0435\u043d\u0438\u0435</w>": 6249,
  "diendo</w>": 6250,
  "\u03b9\u03ba\u03bf\u03c5</w>": 6251,
  "\u043e\u0431\u0440\u0430\u0437\u043e\u0432\u0430\u043d\u0438\u044f</w>": 6252,
  "best": 6253,
  "1902</w>": 6254,
  "\u0431\u0435</w>": 6255,
  "museo</w>": 6256,
  "stie": 6257,
  "\u041f.</w>": 6258,
  "important</w>": 6259,
  "\u0648\u0643\u0627\u0646\u062a</w>": 6260,
  "ax": 6261,
  "\u092e": 6262,
  "zel</w>": 6263,
  "\u0939\u0940</w>": 6264,
  "\u0447\u0435\u0438</w>": 6265,
  "07</w>": 6266,
  "especes</w>": 6267,
  "latin</w>": 6268,
  "culture</w>": 6269,
  "hard</w>": 6270,
  "\u0432\u043f\u0435\u0440\u0432\u044b\u0435</w>": 6271,
  "\u043b\u0438\u0431\u043e</w>": 6272,
  "vorsitzender</w>": 6273,
  "texte</w>": 6274,
  "idee</w>": 6275,
  "band": 6276,
  "neg": 6277,
  "aren</w>": 6278,
  "cite</w>": 6279,
  "denk": 6280,
  "\u03ba": 6281,
  "\u738b": 6282,
  "dente</w>": 6283,
  "osos</w>": 6284,
  "\u624b": 6285,
  "love</w>": 6286,
  "\u0432\u043e\u0441\u0442\u043e": 6287,
  "\u03b5\u03bd\u03c9</w>": 6288,
  "republik</w>": 6289,
  "\u0438\u0442\u0435\u043b\u044f</w>": 6290,
  "roma</w>": 6291,
  "\u0e14\u0e27\u0e22</w>": 6292,
  "\u03bc\u03b1</w>": 6293,
  "\u0448\u0438</w>": 6294,
  "control</w>": 6295,
  "eler</w>": 6296,
  "medios</w>": 6297,
  "sciences</w>": 6298,
  "\u0432\u0437": 6299,
  "nacio</w>": 6300,
  "\u043c\u0435\u0442": 6301,
  "pham</w>": 6302,
  "\u0627\u0634": 6303,
  "29.</w>": 6304,
  "\u0434\u0430\u0440": 6305,
  "eil": 6306,
  "gur": 6307,
  "orient": 6308,
  "gle": 6309,
  "\u9593": 6310,
  "bande</w>": 6311,
  "\u0441\u043a\u0438\u044f</w>": 6312,
  "heimat": 6313,
  "ernst</w>": 6314,
  "ganz</w>": 6315,
  "dau": 6316,
  "\u0437\u043e\u0432</w>": 6317,
  "folgt</w>": 6318,
  "\u03b4\u03c5\u03bf</w>": 6319,
  "provo": 6320,
  "\u0449\u0435\u043d\u0438\u044f</w>": 6321,
  "entwickelte</w>": 6322,
  "\u043e\u0431\u044b": 6323,
  "4\u6708</w>": 6324,
  "\u03c4\u03b5\u03c2</w>": 6325,
  "kampf</w>": 6326,
  "debe</w>": 6327,
  "\u0431\u043e\u0438</w>": 6328,
  "\u0628\u0647\u0627</w>": 6329,
  "\u653f\u6cbb</w>": 6330,
  "eso</w>": 6331,
  "250</w>": 6332,
  "nachbar": 6333,
  "\u5341</w>": 6334,
  "klar": 6335,
  "\u03bd": 6336,
  "\u5f62</w>": 6337,
  "rome</w>": 6338,
  "tiere</w>": 6339,
  "emer": 6340,
  "uy": 6341,
  "\u5404</w>": 6342,
  "gebau": 6343,
  "issant</w>": 6344,
  "prag": 6345,
  "but": 6346,
  "double</w>": 6347,
  "bauten</w>": 6348,
  "chau": 6349,
  "\u0643\u0631\u0629</w>": 6350,
  "permit": 6351,
  "\u06c1\u06cc\u06ba</w>": 6352,
  "markt</w>": 6353,
  "llamada</w>": 6354,
  "\u0433\u0440\u043e": 6355,
  "\u4ea4": 6356,
  "setzt</w>": 6357,
  "neces": 6358,
  "\u092f": 6359,
  "stal": 6360,
  "wie": 6361,
  "\u7acb": 6362,
  "entreprise</w>": 6363,
  "min</w>": 6364,
  "exten": 6365,
  "\u0628\u0647</w>": 6366,
  "due</w>": 6367,
  "lis</w>": 6368,
  "\u0440\u0435\u043a\u0430</w>": 6369,
  "\u03b5</w>": 6370,
  "comunidad</w>": 6371,
  "philosophie</w>": 6372,
  "\u0442\u043e\u0442</w>": 6373,
  "tuc</w>": 6374,
  "kno": 6375,
  "collec": 6376,
  "gro\u00dften</w>": 6377,
  "az</w>": 6378,
  "\u062a\u0645": 6379,
  "\u0436\u0434\u0430": 6380,
  "\u0449\u0438\u0445</w>": 6381,
  "la-": 6382,
  "punkte</w>": 6383,
  "metr": 6384,
  "\u653f": 6385,
  "frage</w>": 6386,
  "\u0431\u0435\u0440\u0435\u0433\u0443</w>": 6387,
  "\u0432\u0441\u0435": 6388,
  "unden</w>": 6389,
  "cuu</w>": 6390,
  "kop": 6391,
  "chor": 6392,
  "\u0642\u0629</w>": 6393,
  "glau": 6394,
  "\u0434\u043d\u0435\u0438</w>": 6395,
  "\u4e3b</w>": 6396,
  "plaza</w>": 6397,
  "\u5e9c</w>": 6398,
  "edificio</w>": 6399,
  "favor": 6400,
  "empresa</w>": 6401,
  "consul": 6402,
  "\u0634</w>": 6403,
  "\u041a\u043e\u0440": 6404,
  "\u0441\u0442\u0432\u0435\u043d\u043d\u043e\u0438</w>": 6405,
  "\u5a01": 6406,
  "\u0433\u0440\u0443\u043f\u043f\u0430</w>": 6407,
  "\u5e02\u9547</w>": 6408,
  "ernannt</w>": 6409,
  "\u0153": 6410,
  "activite</w>": 6411,
  "sede</w>": 6412,
  "services</w>": 6413,
  "\u0446\u0430\u043c\u0438</w>": 6414,
  "\u03a4": 6415,
  "\u0641\u0631": 6416,
  "lander</w>": 6417,
  "\u9054</w>": 6418,
  "presse</w>": 6419,
  "\u043a\u043e\u0433\u043e</w>": 6420,
  "sant</w>": 6421,
  "\u5f00": 6422,
  "israel</w>": 6423,
  "gewesen</w>": 6424,
  "stoff": 6425,
  "kirchen</w>": 6426,
  "\u0441\u0431\u043e\u0440\u043d\u043e\u0438</w>": 6427,
  "\u0414\u043e</w>": 6428,
  "\u03a0": 6429,
  "england</w>": 6430,
  "\u597d</w>": 6431,
  "irs</w>": 6432,
  "trou": 6433,
  "gro\u00dfer</w>": 6434,
  "nachfolger</w>": 6435,
  "\u0438\u0437\u0434\u0430": 6436,
  "\u0435\u0441\u043b\u0438</w>": 6437,
  "presence</w>": 6438,
  "\u5de5": 6439,
  "chicago</w>": 6440,
  "\u7247</w>": 6441,
  "\u5171</w>": 6442,
  "1901</w>": 6443,
  "elt</w>": 6444,
  "fuerzas</w>": 6445,
  "\u064a\u0644</w>": 6446,
  "\u044b\u0445</w>": 6447,
  "bio</w>": 6448,
  "\u0433\u043e\u043c</w>": 6449,
  "camp": 6450,
  "\u6578": 6451,
  "doppel": 6452,
  "benannt</w>": 6453,
  "\u0645\u0631": 6454,
  "funktion</w>": 6455,
  "rejoint</w>": 6456,
  "\u0442\u044c\u0441\u044f</w>": 6457,
  "nement</w>": 6458,
  "amerika</w>": 6459,
  "cee</w>": 6460,
  "setzen</w>": 6461,
  "\u0e27\u0e19\u0e17</w>": 6462,
  "bere": 6463,
  "\u0434\u0438\u0438</w>": 6464,
  "zeitung</w>": 6465,
  "\u0443\u0447\u0430\u0441\u0442": 6466,
  "kapelle</w>": 6467,
  "principalmente</w>": 6468,
  "direccion</w>": 6469,
  "0.000</w>": 6470,
  "madre</w>": 6471,
  "dai</w>": 6472,
  "is-": 6473,
  "\u0441\u0442\u0443": 6474,
  "tac": 6475,
  "programm</w>": 6476,
  "prince</w>": 6477,
  "dix</w>": 6478,
  "vertreter</w>": 6479,
  "\u0441\u0435\u043c\u044c\u0435</w>": 6480,
  "\u092b</w>": 6481,
  "att": 6482,
  "\u8a9e</w>": 6483,
  "\u0648\u0645\u0646</w>": 6484,
  "\u6bcf</w>": 6485,
  "\u064a\u0627\u062a</w>": 6486,
  "04</w>": 6487,
  "regiment</w>": 6488,
  "\u0436\u0435\u043d</w>": 6489,
  "limite</w>": 6490,
  "wah": 6491,
  "\u0438\u0441\u043f\u043e\u043b": 6492,
  "\u5f00\u59cb</w>": 6493,
  "\u53d1": 6494,
  "ato": 6495,
  "vision</w>": 6496,
  "\u043d\u0435\u0442</w>": 6497,
  "garten</w>": 6498,
  "\u0e16\u0e01</w>": 6499,
  "fiel</w>": 6500,
  "halfte</w>": 6501,
  "\u0440\u044f\u0434</w>": 6502,
  "\u0440\u0430\u0437\u043c\u0435": 6503,
  "\u043e\u0434\u043d\u043e\u0433\u043e</w>": 6504,
  "jahrigen</w>": 6505,
  "mig": 6506,
  "\u0432\u0445\u043e\u0434\u0438\u0442</w>": 6507,
  "champion</w>": 6508,
  "pie": 6509,
  "\u0648\u0643": 6510,
  "tiva</w>": 6511,
  "\u9053": 6512,
  "\u0441\u0430\u043c</w>": 6513,
  "wenig</w>": 6514,
  "verkehr": 6515,
  "\u0440\u0443\u0441": 6516,
  "istischen</w>": 6517,
  "\u0432\u0430\u0442\u044c\u0441\u044f</w>": 6518,
  "categoria</w>": 6519,
  "\u0441\u043e\u0441\u0442\u043e\u044f": 6520,
  "dencia</w>": 6521,
  "meses</w>": 6522,
  "verheiratet</w>": 6523,
  "fu\u00dfball": 6524,
  "distribu": 6525,
  "\u0433\u0438\u0438</w>": 6526,
  "hier": 6527,
  "jesus</w>": 6528,
  "\u0433\u0443\u0431\u0435\u0440\u043d\u0438\u0438</w>": 6529,
  "\u043d\u0438\u0446\u044b</w>": 6530,
  "120</w>": 6531,
  "lehrer</w>": 6532,
  "uc</w>": 6533,
  "boden</w>": 6534,
  "capitale</w>": 6535,
  "may": 6536,
  "jon</w>": 6537,
  "\u0e19\u0e19</w>": 6538,
  "bayern</w>": 6539,
  "guer": 6540,
  "\u0441\u043a\u043e</w>": 6541,
  "federal</w>": 6542,
  "matchs</w>": 6543,
  "\u043d\u0438\u043a\u0430\u043c\u0438</w>": 6544,
  "gente</w>": 6545,
  "\u901a": 6546,
  "welches</w>": 6547,
  "\u0627\u0644\u0645\u0639": 6548,
  "7.": 6549,
  "differ": 6550,
  "\u043c\u043c</w>": 6551,
  "\u96f7": 6552,
  "\u0433\u043e\u0432\u043e": 6553,
  "\u0430\u043a\u0442\u0438\u0432": 6554,
  "\u0e08\u0e07</w>": 6555,
  "acep": 6556,
  "06</w>": 6557,
  "\u0111on</w>": 6558,
  "avi": 6559,
  "\u062a\u0642\u0639</w>": 6560,
  "\u59d4</w>": 6561,
  "\u0438\u0433\u0440\u044b</w>": 6562,
  "\u0438\u0442\u0435\u043b\u044c</w>": 6563,
  "\u0441\u0435\u0437\u043e\u043d\u0430</w>": 6564,
  "ale": 6565,
  "ray": 6566,
  "propre</w>": 6567,
  "\u0643\u064a": 6568,
  "g.</w>": 6569,
  "tien": 6570,
  "portugal</w>": 6571,
  "iden</w>": 6572,
  "generalement</w>": 6573,
  "\u03c4\u03b9\u03ba\u03b7</w>": 6574,
  "\u0e46</w>": 6575,
  "amerikanischen</w>": 6576,
  "\u0443\u0437": 6577,
  "\u0433\u043e\u043d": 6578,
  "\u043c\u0435\u0442\u0440\u043e\u0432</w>": 6579,
  "\u0436\u0435\u043d\u0449\u0438\u043d</w>": 6580,
  "conjunto</w>": 6581,
  "\u0432\u0430\u0436": 6582,
  "\u0432\u044b\u043f\u043e\u043b": 6583,
  "\u0449\u0435\u043d\u0438\u0435</w>": 6584,
  "vac": 6585,
  "seis</w>": 6586,
  "travers</w>": 6587,
  "och": 6588,
  "f.</w>": 6589,
  "\u043f\u043e\u0432\u0435": 6590,
  "windows</w>": 6591,
  "arrondissement</w>": 6592,
  "dist": 6593,
  "\u0641\u064a\u0647\u0627</w>": 6594,
  "recoit</w>": 6595,
  "organizacion</w>": 6596,
  "\u0440\u0435\u0438": 6597,
  "ordnung</w>": 6598,
  "model": 6599,
  "mee</w>": 6600,
  "ow</w>": 6601,
  "jeunes</w>": 6602,
  "cis": 6603,
  "resultats</w>": 6604,
  "professeur</w>": 6605,
  "\u0435\u0434\u0438": 6606,
  "\u58eb": 6607,
  "hay": 6608,
  "iel": 6609,
  "politischen</w>": 6610,
  "isse</w>": 6611,
  "propio</w>": 6612,
  "\u043a\u0440\u0430\u044f</w>": 6613,
  "\u0627\u0647": 6614,
  "\u5f9e": 6615,
  "reference</w>": 6616,
  "tragt</w>": 6617,
  "\u043b\u0438\u043d\u0438\u0438</w>": 6618,
  "\u0434\u0436": 6619,
  "tou": 6620,
  "\u0645\u0646\u0647\u0627</w>": 6621,
  "31.</w>": 6622,
  "\u043d\u0430\u0443\u043a</w>": 6623,
  "chev": 6624,
  "\u0438\u043b</w>": 6625,
  "valle</w>": 6626,
  "\u0627\u062c": 6627,
  "einwohnern</w>": 6628,
  "huit</w>": 6629,
  "\u062a\u0639": 6630,
  "primero</w>": 6631,
  "nag": 6632,
  "leipzig</w>": 6633,
  "\u6c0f</w>": 6634,
  "esch": 6635,
  "zeich": 6636,
  "seit": 6637,
  "\u03b2": 6638,
  "arg": 6639,
  "pras": 6640,
  "divis": 6641,
  "ics</w>": 6642,
  "sir": 6643,
  "axe</w>": 6644,
  "\u7cfb</w>": 6645,
  "\u53cd": 6646,
  "\u0438-": 6647,
  "super</w>": 6648,
  "big</w>": 6649,
  "kultur</w>": 6650,
  "\u0441\u0432\u043e\u0435</w>": 6651,
  "invit": 6652,
  "rechte</w>": 6653,
  "occasion</w>": 6654,
  "\u0436\u0438\u0442\u0435\u043b\u0435\u0438</w>": 6655,
  "unas</w>": 6656,
  "\u0432\u043e\u043b": 6657,
  "\u0441\u043f\u0430": 6658,
  "\u5de5</w>": 6659,
  "\u0445\u0443": 6660,
  "\u064a\u062f</w>": 6661,
  "02</w>": 6662,
  "fte</w>": 6663,
  "\u03b5\u03ba": 6664,
  "\u66f2</w>": 6665,
  "gesetz": 6666,
  "california</w>": 6667,
  "\u0432\u0430\u043d\u0435</w>": 6668,
  "\u0431\u0443</w>": 6669,
  "entwickelt</w>": 6670,
  "\u043a\u043e\u0442\u043e\u0440\u043e\u0435</w>": 6671,
  "ades</w>": 6672,
  "11\u6708</w>": 6673,
  "dient</w>": 6674,
  "\u0447\u0430\u0441\u0442\u043e</w>": 6675,
  "disput": 6676,
  "aden</w>": 6677,
  "\u754c</w>": 6678,
  "comple": 6679,
  "photo": 6680,
  "ulo</w>": 6681,
  "dri": 6682,
  "vul": 6683,
  "graf</w>": 6684,
  "oma</w>": 6685,
  "\u043f\u043e\u043b\u044c": 6686,
  "mando</w>": 6687,
  "30": 6688,
  "in-": 6689,
  "\u043c\u0435\u043d</w>": 6690,
  "\u0446\u043e": 6691,
  "\u0421\u043e\u0433\u043b\u0430\u0441\u043d\u043e</w>": 6692,
  "trotz</w>": 6693,
  "asia</w>": 6694,
  "gesetz</w>": 6695,
  "\u0631\u0627</w>": 6696,
  "cuoi</w>": 6697,
  "steig": 6698,
  "\u6211</w>": 6699,
  "dice</w>": 6700,
  "vec": 6701,
  "hochschule</w>": 6702,
  "\u82f1</w>": 6703,
  "ubicada</w>": 6704,
  "nh": 6705,
  "#</w>": 6706,
  "laut</w>": 6707,
  "kes": 6708,
  "\u0627\u0644\u064a": 6709,
  "\u0420\u0435\u0441\u043f\u0443\u0431\u043b\u0438\u043a\u0438</w>": 6710,
  "\u043f\u0440\u043e\u0434\u0430": 6711,
  "\u043d\u0438\u044f\u043c</w>": 6712,
  "witz</w>": 6713,
  "\u043e\u0434": 6714,
  "schulen</w>": 6715,
  "kaiser</w>": 6716,
  "franzosische</w>": 6717,
  "\u043d\u0430\u0441\u0442\u043e\u044f\u0449\u0435\u0435</w>": 6718,
  "publi": 6719,
  "moyenne</w>": 6720,
  "\u03bf\u03c0\u03bf\u03b9\u03b1</w>": 6721,
  "kus": 6722,
  "tom</w>": 6723,
  "1890</w>": 6724,
  "britischen</w>": 6725,
  "besie": 6726,
  "\u043e\u0431\u0440\u0430\u0437\u043e": 6727,
  "co-": 6728,
  "probleme</w>": 6729,
  "\u0e0a</w>": 6730,
  "\u0435\u043d\u043e</w>": 6731,
  "25": 6732,
  "schen": 6733,
  "moderne</w>": 6734,
  "lediglich</w>": 6735,
  "black</w>": 6736,
  "ires</w>": 6737,
  "xviii</w>": 6738,
  "span": 6739,
  "\u0430\u043d</w>": 6740,
  "live</w>": 6741,
  "\u0441\u043d\u044f": 6742,
  "yu": 6743,
  "\u039c": 6744,
  "afrique</w>": 6745,
  "tischen</w>": 6746,
  "spar": 6747,
  "control": 6748,
  "moder": 6749,
  "set": 6750,
  "elo": 6751,
  "\u0915\u093e\u0930</w>": 6752,
  "nimmt</w>": 6753,
  "miguel</w>": 6754,
  "\u064a\u0645\u0643\u0646</w>": 6755,
  "cinema</w>": 6756,
  "eleve</w>": 6757,
  "\u0432\u044a\u0432</w>": 6758,
  "\u0434\u0430\u043c\u0438</w>": 6759,
  "familienname</w>": 6760,
  "\u0438\u0442\u0435\u043b\u0435\u0438</w>": 6761,
  "sante</w>": 6762,
  "\u043b\u0435\u043d\u0430</w>": 6763,
  "realizo</w>": 6764,
  "umfasst</w>": 6765,
  "1870</w>": 6766,
  "phuc</w>": 6767,
  "\u0e17\u0e32\u0e07</w>": 6768,
  "ball</w>": 6769,
  "politik</w>": 6770,
  "ox": 6771,
  "\u968a</w>": 6772,
  "azo</w>": 6773,
  "benen</w>": 6774,
  "\u7dad": 6775,
  "\u0627\u0644\u0645\u062d": 6776,
  "unde</w>": 6777,
  "fie": 6778,
  "caus": 6779,
  "\u039a": 6780,
  "company</w>": 6781,
  "1898</w>": 6782,
  "kaiser": 6783,
  "lern</w>": 6784,
  "thiet</w>": 6785,
  "fanden</w>": 6786,
  "lied</w>": 6787,
  "\u76f8</w>": 6788,
  "aras\u0131nda</w>": 6789,
  "as\u0131</w>": 6790,
  "\u7535": 6791,
  "\u0421\u043e\u0432\u0435\u0442\u0430</w>": 6792,
  "\u767d": 6793,
  "\u0e41\u0e2b\u0e07</w>": 6794,
  "that</w>": 6795,
  "afric": 6796,
  "was": 6797,
  "\u610f</w>": 6798,
  "kommen": 6799,
  "\u6c5f</w>": 6800,
  "rouge</w>": 6801,
  "metern</w>": 6802,
  "\u0442\u0438\u043f\u0430</w>": 6803,
  "dispar": 6804,
  "legislat": 6805,
  "\u044a": 6806,
  "klas": 6807,
  "jazz</w>": 6808,
  "\u6210\u4e3a</w>": 6809,
  "obtuvo</w>": 6810,
  "instituto</w>": 6811,
  "\u043a\u0430\u0442\u0430</w>": 6812,
  "chal": 6813,
  "\u0441\u043f\u0438": 6814,
  "cri": 6815,
  "\u0437\u0435\u0440": 6816,
  "\u862d": 6817,
  "lance</w>": 6818,
  "1897</w>": 6819,
  "travaille</w>": 6820,
  "\u043d\u0435\u0438": 6821,
  "sign": 6822,
  "\u044d\u043b\u0435\u043a\u0442\u0440\u043e": 6823,
  "unique</w>": 6824,
  "\u0440\u043e\u0432\u0430\u043d</w>": 6825,
  "orden": 6826,
  "\u6b63\u5f0f</w>": 6827,
  "frank</w>": 6828,
  "\u043c\u043e\u043c\u0435\u043d\u0442</w>": 6829,
  "deten": 6830,
  "\u0447\u0435\u0441\u043a\u043e\u043c</w>": 6831,
  "\u0441\u0442\u0432\u043e": 6832,
  "\u0434\u0438\u0430": 6833,
  "mecan": 6834,
  "\u043b\u043e\u0433\u0438": 6835,
  "fu\u00df": 6836,
  "ji</w>": 6837,
  "\u0437\u0435</w>": 6838,
  "smith</w>": 6839,
  "laz": 6840,
  "natural</w>": 6841,
  "vers": 6842,
  "label</w>": 6843,
  "kraft</w>": 6844,
  "\u548c": 6845,
  "combat": 6846,
  "\u0442\u0440\u0435\u0445</w>": 6847,
  "rapidement</w>": 6848,
  "principe</w>": 6849,
  "gerich": 6850,
  "wider": 6851,
  "\u0432\u044b\u043f\u0443": 6852,
  "\u0648\u0644</w>": 6853,
  "projekt</w>": 6854,
  "hit": 6855,
  "einmal</w>": 6856,
  "estaban</w>": 6857,
  "wesen</w>": 6858,
  "s.": 6859,
  "\u0939\u094b</w>": 6860,
  "\u0441\u0435\u043b\u044c": 6861,
  "\u6771</w>": 6862,
  "\u0432\u0430\u043d\u0430</w>": 6863,
  "gar</w>": 6864,
  "deut": 6865,
  "\u8fdb\u884c</w>": 6866,
  "sto</w>": 6867,
  "\u0424\u0440\u0430\u043d": 6868,
  "\u0432\u0438\u0434": 6869,
  "1899</w>": 6870,
  "semin": 6871,
  "ihres</w>": 6872,
  "\u041d\u043e\u0432\u043e": 6873,
  "aro</w>": 6874,
  "e.": 6875,
  "\u043d\u0430\u043c</w>": 6876,
  "pont</w>": 6877,
  "\u043b\u0435\u043d\u0438\u0435\u043c</w>": 6878,
  "ack": 6879,
  "\u0441\u0441\u0438": 6880,
  "\u957f": 6881,
  "l.</w>": 6882,
  "cruz</w>": 6883,
  "\u0432\u043d\u043e\u0432\u044c</w>": 6884,
  "\u6c99": 6885,
  "\u7406": 6886,
  "entree</w>": 6887,
  "\u03b8\u03b1</w>": 6888,
  "bran": 6889,
  "\u5361</w>": 6890,
  "dirige</w>": 6891,
  "\u0441\u0435\u0440\u0438\u0438</w>": 6892,
  "\u961f</w>": 6893,
  "tradition</w>": 6894,
  "\u0e01\u0e19</w>": 6895,
  "spielt</w>": 6896,
  "\u044f\u0432\u043b\u044f": 6897,
  "isi</w>": 6898,
  "sogar</w>": 6899,
  "\u63d0\u4f9b</w>": 6900,
  "elecciones</w>": 6901,
  "bab": 6902,
  "evolu": 6903,
  "metres</w>": 6904,
  "\u0432\u0441\u043a\u0438\u0438</w>": 6905,
  "\u8def": 6906,
  "\u6539</w>": 6907,
  "\u0628\u0644": 6908,
  "fuhrten</w>": 6909,
  "dance</w>": 6910,
  "1896</w>": 6911,
  "\u0441\u0441\u043e": 6912,
  "ilo": 6913,
  "resto</w>": 6914,
  "\u53f0\u7063</w>": 6915,
  "\u044e\u0449\u0435\u0433\u043e</w>": 6916,
  "landern</w>": 6917,
  "beruf": 6918,
  "\u9ad4": 6919,
  "k-": 6920,
  "siedlung</w>": 6921,
  "\u0e04</w>": 6922,
  "\u5149": 6923,
  "bisher</w>": 6924,
  "represente</w>": 6925,
  "principios</w>": 6926,
  "\u603b": 6927,
  "frankfurt</w>": 6928,
  "materi": 6929,
  "bot</w>": 6930,
  "meilleur</w>": 6931,
  "gelegt</w>": 6932,
  "droits</w>": 6933,
  "bevor</w>": 6934,
  "\u0448\u0430\u044f</w>": 6935,
  "ria</w>": 6936,
  "hat": 6937,
  "kte</w>": 6938,
  "normal": 6939,
  "ington</w>": 6940,
  "\u044f\u0441\u044c</w>": 6941,
  "\u0437\u0430\u043d\u044f": 6942,
  "moyen</w>": 6943,
  "art": 6944,
  "\u0440\u043e\u0432\u0430\u043b</w>": 6945,
  "\u0442\u043d\u044b\u0445</w>": 6946,
  "graphique</w>": 6947,
  "\u5fc3</w>": 6948,
  "segu": 6949,
  "just": 6950,
  "\u0413\u0435\u0440\u043c\u0430\u043d\u0438\u0438</w>": 6951,
  "\u043a\u043e\u043b\u043e": 6952,
  "gegeben</w>": 6953,
  "philippe</w>": 6954,
  "\u043a\u0442": 6955,
  "ep</w>": 6956,
  "tifs</w>": 6957,
  "veget": 6958,
  "\u0430\u0442\u0435\u043b\u044c</w>": 6959,
  "\u043d\u044b\u043d\u0435</w>": 6960,
  "haf": 6961,
  "schweizer</w>": 6962,
  "eisen": 6963,
  "simon</w>": 6964,
  "gemeinschaft</w>": 6965,
  "deck": 6966,
  "194": 6967,
  "\u03b5": 6968,
  "va": 6969,
  "\u0437\u043d\u0430\u0447\u0438\u0442\u0435\u043b\u044c": 6970,
  "kadar</w>": 6971,
  "pav": 6972,
  "\u0648\u0646\u0633\u0628\u0629</w>": 6973,
  "labor": 6974,
  "heiratete</w>": 6975,
  "creee</w>": 6976,
  "bonne</w>": 6977,
  "mou": 6978,
  "vai</w>": 6979,
  "\u0415\u0432\u0440\u043e\u043f\u044b</w>": 6980,
  "calle</w>": 6981,
  "\u0430\u043b\u044c\u0431\u043e\u043c</w>": 6982,
  "classement</w>": 6983,
  "garde</w>": 6984,
  "\u5ba4</w>": 6985,
  "ziel": 6986,
  "\u0395": 6987,
  "09</w>": 6988,
  "publicado</w>": 6989,
  "\u043f\u043e\u043f\u0443\u043b\u044f\u0440": 6990,
  "recuper": 6991,
  "fres": 6992,
  "ativa</w>": 6993,
  "\u0412\u0435\u0440": 6994,
  "pee</w>": 6995,
  "jas</w>": 6996,
  "republic": 6997,
  "\u5e73</w>": 6998,
  "porter</w>": 6999,
  "nab": 7000,
  "\u043d\u0438\u0447\u0435": 7001,
  "\u0627\u0644\u064a</w>": 7002,
  "\u044e\u0449\u0430\u044f</w>": 7003,
  "folgen</w>": 7004,
  "leben": 7005,
  "rom</w>": 7006,
  "wood</w>": 7007,
  "\u03c7": 7008,
  "vig": 7009,
  "quy</w>": 7010,
  "viv": 7011,
  "bene</w>": 7012,
  "peru</w>": 7013,
  "machen</w>": 7014,
  "\u0432\u043b\u0430\u0441\u0442\u0438</w>": 7015,
  "stade</w>": 7016,
  "politico</w>": 7017,
  "\u0442\u044b": 7018,
  "ortsteil</w>": 7019,
  "\u043d\u043e\u043a</w>": 7020,
  "\u0936</w>": 7021,
  "\u5219</w>": 7022,
  "commun": 7023,
  "clubs</w>": 7024,
  "\u043b\u044f\u0435\u0442</w>": 7025,
  "\u043a\u043e\u0435</w>": 7026,
  "gat": 7027,
  "befand</w>": 7028,
  "\u044d\u0442\u0438</w>": 7029,
  "ancak</w>": 7030,
  "ame</w>": 7031,
  "\u5247</w>": 7032,
  "\u0420\u0430\u0437": 7033,
  "ings</w>": 7034,
  "\u03b3": 7035,
  "erer</w>": 7036,
  "figur": 7037,
  "189": 7038,
  "tours</w>": 7039,
  "1895</w>": 7040,
  "participo</w>": 7041,
  "196": 7042,
  "\u03b9\u03c3": 7043,
  "wirtschaft</w>": 7044,
  "\u043f\u0430\u043d": 7045,
  "\u043d\u043e\u0432\u043e\u0438</w>": 7046,
  "signific": 7047,
  "ns</w>": 7048,
  "\u0111ac</w>": 7049,
  "code</w>": 7050,
  "\u0431\u0440\u0438\u0442\u0430\u043d": 7051,
  "\u4ee4</w>": 7052,
  "deutsch</w>": 7053,
  "troupes</w>": 7054,
  "illas</w>": 7055,
  "\u82b1": 7056,
  "zusatzlich</w>": 7057,
  "sten": 7058,
  "bischof": 7059,
  "bekann": 7060,
  "\u0438\u043c\u044f</w>": 7061,
  "zur": 7062,
  "ehemalige</w>": 7063,
  "\u4f5c\u54c1</w>": 7064,
  "\u0434\u0438\u044f</w>": 7065,
  "\u0628\u0640</w>": 7066,
  "\u03bf\u03c0\u03c9\u03c2</w>": 7067,
  "jugador</w>": 7068,
  "sur-": 7069,
  "gmbh</w>": 7070,
  "\u043c\u0438\u043d": 7071,
  "ast</w>": 7072,
  "\u041a\u0430\u043a</w>": 7073,
  "\u0437\u0430\u043d\u0438\u043c\u0430": 7074,
  "\u03c9": 7075,
  "nghe</w>": 7076,
  "interior</w>": 7077,
  "interieur</w>": 7078,
  "\u0648\u062f": 7079,
  "ori": 7080,
  "chine</w>": 7081,
  "cotes</w>": 7082,
  "jag": 7083,
  "\u0440\u0430\u0431\u043e\u0442": 7084,
  "ume</w>": 7085,
  "condu": 7086,
  "hut": 7087,
  "\u0424\u0435\u0434\u0435\u0440\u0430\u0446\u0438\u0438</w>": 7088,
  "\u0448\u043a\u043e\u043b\u044b</w>": 7089,
  "boh": 7090,
  "web</w>": 7091,
  "lager</w>": 7092,
  "\u043d\u0430\u0437\u0432\u0430": 7093,
  "parque</w>": 7094,
  "perio": 7095,
  "\u5967": 7096,
  "zi</w>": 7097,
  "lara</w>": 7098,
  "human": 7099,
  "\u0440\u0430\u0438": 7100,
  "mujer</w>": 7101,
  "kis": 7102,
  "\u968a": 7103,
  "eh": 7104,
  "phy": 7105,
  "revista</w>": 7106,
  "etti</w>": 7107,
  "sburg</w>": 7108,
  "estable": 7109,
  "ring": 7110,
  "beobach": 7111,
  "paul": 7112,
  "ition</w>": 7113,
  "she": 7114,
  "koln</w>": 7115,
  "hauptstadt</w>": 7116,
  "ome</w>": 7117,
  "auer</w>": 7118,
  "\u0443\u043f\u0440\u0430\u0432\u043b\u0435\u043d\u0438\u044f</w>": 7119,
  "\u5169</w>": 7120,
  "lorsqu'</w>": 7121,
  "ffe</w>": 7122,
  "kunstler": 7123,
  "aco</w>": 7124,
  "gouverneur</w>": 7125,
  "islam": 7126,
  "\u043e\u0431\u044a\u0435\u0434\u0438": 7127,
  "uten</w>": 7128,
  "sas": 7129,
  "druck</w>": 7130,
  "\u043f\u044b</w>": 7131,
  "chas": 7132,
  "tia</w>": 7133,
  "\u0440\u0435\u0438</w>": 7134,
  "\u0648\u062d": 7135,
  "\u0433\u0430\u0440": 7136,
  "raum": 7137,
  "phi</w>": 7138,
  "pop</w>": 7139,
  "\u043f\u0440\u0438\u043d\u044f": 7140,
  "\u03b1\u03c3": 7141,
  "trin": 7142,
  "jam": 7143,
  "herr": 7144,
  "hombre</w>": 7145,
  "\u0445\u043e\u0442\u044f</w>": 7146,
  "\u592a": 7147,
  "brun": 7148,
  "\u0427\u0430": 7149,
  "\u4f2f": 7150,
  "nisse</w>": 7151,
  "\u5c6c</w>": 7152,
  "open</w>": 7153,
  "truc</w>": 7154,
  "\u0441\u0435\u043b\u0435</w>": 7155,
  "damaligen</w>": 7156,
  "2009\u5e74</w>": 7157,
  "competition</w>": 7158,
  "\u03c6": 7159,
  "\u043b\u044f\u0435\u0442\u0441\u044f</w>": 7160,
  "\u2022</w>": 7161,
  "\u0434\u0430\u0445</w>": 7162,
  "10-": 7163,
  "seleccion</w>": 7164,
  "\u043d\u0430\u0441\u0435\u043b\u0435\u043d\u0438\u0435</w>": 7165,
  "\u7531\u65bc</w>": 7166,
  "\u03b1\u03c0\u03bf": 7167,
  "verlang": 7168,
  "erd": 7169,
  "\u043b\u0435\u043d\u043e</w>": 7170,
  "\u6559</w>": 7171,
  "antiguo</w>": 7172,
  "bare</w>": 7173,
  "\u6587\u5316</w>": 7174,
  "\u043a\u043b\u0430\u0441\u0441\u0438": 7175,
  "repar": 7176,
  "erreichen</w>": 7177,
  "cultura</w>": 7178,
  "zie": 7179,
  "git": 7180,
  "source</w>": 7181,
  "lanz": 7182,
  "\u0627\u0644\u0639\u0627\u0644\u0645</w>": 7183,
  "\u5b97</w>": 7184,
  "\u8cfd": 7185,
  "schif": 7186,
  "\u0627\u0644\u0632": 7187,
  "sche</w>": 7188,
  "chat": 7189,
  "\u0924\u0930</w>": 7190,
  "ives</w>": 7191,
  "\u0436\u0434\u0435\u043d\u0438\u0435</w>": 7192,
  "beru": 7193,
  "\u03c4\u03b9\u03ba\u03bf</w>": 7194,
  "alis</w>": 7195,
  "\u0433\u0440\u0430\u0434</w>": 7196,
  "\u0447\u0435\u0442\u0432\u0435\u0440": 7197,
  "quitte</w>": 7198,
  "wohl</w>": 7199,
  "fernando</w>": 7200,
  "igung</w>": 7201,
  "zuf": 7202,
  "\u0627\u0644\u0647": 7203,
  "incluyendo</w>": 7204,
  "\u0442\u044b\u0438</w>": 7205,
  "\u5e02": 7206,
  "\u76ee\u524d</w>": 7207,
  "essen</w>": 7208,
  "bs": 7209,
  "\u0432\u0430\u043d\u0438\u0438</w>": 7210,
  "fah": 7211,
  "digt</w>": 7212,
  "\u0935": 7213,
  "nghia</w>": 7214,
  "honneur</w>": 7215,
  "hi</w>": 7216,
  "einzige</w>": 7217,
  "marco</w>": 7218,
  "sco": 7219,
  "\u50cf</w>": 7220,
  "ical</w>": 7221,
  "\u0442\u044f\u0436\u0435": 7222,
  "\u63d0</w>": 7223,
  "\u043c\u043d\u043e\u0433\u0438\u0445</w>": 7224,
  "ener</w>": 7225,
  "utz": 7226,
  "\u0430\u0442\u043e\u0432</w>": 7227,
  "rang": 7228,
  "yn": 7229,
  "\u5b63</w>": 7230,
  "\u57ce\u5e02</w>": 7231,
  "\u03b9\u03ba\u03b5\u03c2</w>": 7232,
  "teilung</w>": 7233,
  "igual</w>": 7234,
  "tions": 7235,
  "\u0447\u0435\u0441\u0442\u044c</w>": 7236,
  "\u0438\u0442\u0438</w>": 7237,
  "sait</w>": 7238,
  "\u0639\u0644\u064a</w>": 7239,
  "nap": 7240,
  "\u0627\u0631\u0629</w>": 7241,
  "\u03b5\u03c5": 7242,
  "leicht</w>": 7243,
  "plata</w>": 7244,
  "besitzt</w>": 7245,
  "regel</w>": 7246,
  "zeitschrift</w>": 7247,
  "fit</w>": 7248,
  "\u062a\u0641": 7249,
  "brit": 7250,
  "igu": 7251,
  "\u043e\u043a\u043e\u043d\u0447\u0438\u043b</w>": 7252,
  "chap": 7253,
  "\u0447\u0430\u0441\u0442\u043d\u043e\u0441\u0442\u0438</w>": 7254,
  "\u0434\u0440\u0443": 7255,
  "mussen</w>": 7256,
  "\u0436\u0435\u043d\u0430</w>": 7257,
  "fuerza</w>": 7258,
  "\u0e40\u0e1e\u0e2d</w>": 7259,
  "kanton</w>": 7260,
  "\u4eba\u6c11</w>": 7261,
  "\u043f\u0440\u0430\u0432\u043e": 7262,
  "sal</w>": 7263,
  "\u0447\u0438\u0441\u043b\u043e</w>": 7264,
  "vua</w>": 7265,
  "vin</w>": 7266,
  "major</w>": 7267,
  "\u0445\u0443\u0434\u043e\u0436\u0435": 7268,
  "\u0440\u0430\u0431\u043e\u0442\u0430": 7269,
  "burgermeister</w>": 7270,
  "ary</w>": 7271,
  "villes</w>": 7272,
  "religion</w>": 7273,
  "\u798f": 7274,
  "\u7dda": 7275,
  "combin": 7276,
  "heit": 7277,
  "\u043d\u0430\u0438\u0431\u043e\u043b\u0435\u0435</w>": 7278,
  "combat</w>": 7279,
  "\u0410\u043b\u0435\u043a\u0441\u0430\u043d\u0434\u0440</w>": 7280,
  "700</w>": 7281,
  "\u0e22</w>": 7282,
  "decision</w>": 7283,
  "estar</w>": 7284,
  "\u5247": 7285,
  "\u041c\u043e\u0441\u043a\u0432\u0435</w>": 7286,
  "palais</w>": 7287,
  "\u7530</w>": 7288,
  "eig": 7289,
  "60": 7290,
  "oti": 7291,
  "\u0442\u0438\u043b</w>": 7292,
  "traite</w>": 7293,
  "pues</w>": 7294,
  "\u0909\u0924</w>": 7295,
  "\u043e\u0444\u0438\u0446\u0438\u0430\u043b\u044c": 7296,
  "koh": 7297,
  "\u0433\u043e\u043b\u043e": 7298,
  "recor": 7299,
  "wag": 7300,
  "record</w>": 7301,
  "\u0443\u0441\u0442\u0430\u043d\u043e\u0432": 7302,
  "award</w>": 7303,
  "islas</w>": 7304,
  "maire</w>": 7305,
  "posible</w>": 7306,
  "\u6821</w>": 7307,
  "hauses</w>": 7308,
  "clas": 7309,
  "\u03b1\u03c1": 7310,
  "chaine</w>": 7311,
  "arz": 7312,
  "aliment": 7313,
  "eri": 7314,
  "\u6230</w>": 7315,
  "\u043f\u043b\u0430\u0442": 7316,
  "trop": 7317,
  "\u0431\u0440\u0438": 7318,
  "llegar</w>": 7319,
  "naire</w>": 7320,
  "bong</w>": 7321,
  "8.": 7322,
  "tees</w>": 7323,
  "chim": 7324,
  "dra</w>": 7325,
  "\u4e16": 7326,
  "wissenschaft</w>": 7327,
  "sexu": 7328,
  "\u043f\u043e\u0434\u0430": 7329,
  "affaires</w>": 7330,
  "unico</w>": 7331,
  "\u043d\u043e\u0441\u0442\u0435\u0438</w>": 7332,
  "xvi</w>": 7333,
  "\u043d\u0430\u043f\u0440\u0430\u0432": 7334,
  "perman": 7335,
  "\u0432\u0430\u0442": 7336,
  "\u0441\u043f\u0435\u0446\u0438\u0430\u043b\u044c": 7337,
  "\u585e": 7338,
  "\u0412\u0445\u043e\u0434\u0438\u0442</w>": 7339,
  "lui-meme</w>": 7340,
  "nier</w>": 7341,
  "bord</w>": 7342,
  "\u82f1": 7343,
  "correspon": 7344,
  "\u673a</w>": 7345,
  "\u043a\u043e-": 7346,
  "inen</w>": 7347,
  "\u043d\u0430\u0443\u0447": 7348,
  "nombrado</w>": 7349,
  "yer": 7350,
  "serait</w>": 7351,
  "course</w>": 7352,
  "epo": 7353,
  "\u043c\u0430\u0442\u0438": 7354,
  "prise</w>": 7355,
  "\u0111ien</w>": 7356,
  "sw": 7357,
  "chil": 7358,
  "exter": 7359,
  "\u0431\u043e\u043b\u044c\u0448\u0435</w>": 7360,
  "\u043e\u043f": 7361,
  "\u0434\u0438\u0432\u0438\u0437\u0438\u0438</w>": 7362,
  "\u043a\u043b\u0443\u0431\u0430</w>": 7363,
  "\u4e9a": 7364,
  "abschluss</w>": 7365,
  "betragt</w>": 7366,
  "enci": 7367,
  "\u0441\u043e\u0434\u0435\u0440\u0436\u0430": 7368,
  "giam</w>": 7369,
  "uel</w>": 7370,
  "incorpor": 7371,
  "tz": 7372,
  "aparece</w>": 7373,
  "\u0434\u0435\u0442\u0435\u0438</w>": 7374,
  "zentr": 7375,
  "\u0446\u0443</w>": 7376,
  "\u092c": 7377,
  "basis</w>": 7378,
  "\u0445\u043e\u0434</w>": 7379,
  "conten": 7380,
  "minist": 7381,
  "\u0435\u043d\u0438</w>": 7382,
  "commission</w>": 7383,
  "\u041a\u0440\u0438": 7384,
  "za": 7385,
  "gebiete</w>": 7386,
  "weltmeisterschaft</w>": 7387,
  "itud</w>": 7388,
  "uk</w>": 7389,
  "\u6570</w>": 7390,
  "\u043a\u0438\u043d": 7391,
  "\u0447\u0435\u0441\u043a\u0443\u044e</w>": 7392,
  "montre</w>": 7393,
  "dvd</w>": 7394,
  "aucun</w>": 7395,
  "gie": 7396,
  "1880</w>": 7397,
  "acteur</w>": 7398,
  "voix</w>": 7399,
  "\u0432\u0448\u0438\u0435</w>": 7400,
  "\u043a\u043b\u0430": 7401,
  "enas</w>": 7402,
  "\u0627\u0644\u0645\u062f\u064a\u0646\u0629</w>": 7403,
  "\u73fe": 7404,
  "\u0430\u0434\u043c\u0438\u043d\u0438\u0441\u0442\u0440\u0430\u0442\u0438\u0432": 7405,
  "\u041e\u0442</w>": 7406,
  "\u043d\u0435\u0440": 7407,
  "transport</w>": 7408,
  "especialmente</w>": 7409,
  "\u043e\u043a\u0440\u0443": 7410,
  "p.</w>": 7411,
  "alista</w>": 7412,
  "apoyo</w>": 7413,
  "brasil</w>": 7414,
  "set</w>": 7415,
  "lot</w>": 7416,
  "ester</w>": 7417,
  "fruh": 7418,
  "ellas</w>": 7419,
  "liv": 7420,
  "193": 7421,
  "\u0440\u0430\u0437\u043b\u0438\u0447\u043d\u044b\u0445</w>": 7422,
  "\u0441\u0442\u0432\u0435\u043d\u043d\u044b\u0438</w>": 7423,
  "oles</w>": 7424,
  "\u4f46\u662f</w>": 7425,
  "sociales</w>": 7426,
  "cav": 7427,
  "schlacht</w>": 7428,
  "\u0909\u0928</w>": 7429,
  "\u5f35": 7430,
  "tap": 7431,
  "sek": 7432,
  "hun": 7433,
  "jahr": 7434,
  "etude</w>": 7435,
  "hijos</w>": 7436,
  "\u0939\u094b\u0928</w>": 7437,
  "modi": 7438,
  "alt</w>": 7439,
  "astronom": 7440,
  "campagne</w>": 7441,
  "chet</w>": 7442,
  "\u043a\u043e\u043b\u0438\u0447\u0435\u0441\u0442\u0432\u043e</w>": 7443,
  "ski": 7444,
  "straf": 7445,
  "gru": 7446,
  "sortie</w>": 7447,
  "elli</w>": 7448,
  "fotograf": 7449,
  "dieu</w>": 7450,
  "fein": 7451,
  "ichen</w>": 7452,
  "\u0645\u0646\u0637\u0642\u0629</w>": 7453,
  "new": 7454,
  "\u0628\u0639": 7455,
  "mern</w>": 7456,
  "\u6cbb</w>": 7457,
  "\u5185": 7458,
  "\u03b9\u03ba\u03c9\u03bd</w>": 7459,
  "\u0438\u0441\u043f\u043e\u043b\u044c\u0437\u043e": 7460,
  "\u043f\u043e\u0431\u0435": 7461,
  "fusion</w>": 7462,
  "ick</w>": 7463,
  "deutsch": 7464,
  "\u0434\u0435\u0438\u0441\u0442\u0432\u0438\u044f</w>": 7465,
  "modo</w>": 7466,
  "ine": 7467,
  "mant": 7468,
  "spe": 7469,
  "\u043b\u044e\u0434\u0435\u0438</w>": 7470,
  "\u0442\u0443\u0440": 7471,
  "municipalite</w>": 7472,
  "\u5834": 7473,
  "50": 7474,
  "anterior</w>": 7475,
  "ologischen</w>": 7476,
  "flam": 7477,
  "hermano</w>": 7478,
  "ars</w>": 7479,
  "stag</w>": 7480,
  "seiten</w>": 7481,
  "cac": 7482,
  "administration</w>": 7483,
  "gore</w>": 7484,
  "\u6b66": 7485,
  "tema</w>": 7486,
  "kommun": 7487,
  "\u592b": 7488,
  "section</w>": 7489,
  "hydro": 7490,
  "atten": 7491,
  "\u57ce": 7492,
  "consejo</w>": 7493,
  "controle</w>": 7494,
  "hija</w>": 7495,
  "\u4fbf</w>": 7496,
  "forsch": 7497,
  "berech": 7498,
  "well</w>": 7499,
  "\u043a\u0440\u0438": 7500,
  "freien</w>": 7501,
  "weist</w>": 7502,
  "\u8bed</w>": 7503,
  "giua</w>": 7504,
  "ose</w>": 7505,
  "\u0428\u0435": 7506,
  "\u0435\u0437": 7507,
  "ppe</w>": 7508,
  "\u8fbe</w>": 7509,
  "ahn": 7510,
  "apparait</w>": 7511,
  "lap": 7512,
  "arre": 7513,
  "\u064a\u062a": 7514,
  "ostlich</w>": 7515,
  "\u043b\u044c\u043d\u043e\u043c</w>": 7516,
  "ehr": 7517,
  "main": 7518,
  "abandon": 7519,
  "idea</w>": 7520,
  "\u043f\u0440\u0430\u0432\u0430</w>": 7521,
  "\u7a7a": 7522,
  "\u0915\u0930\u0928</w>": 7523,
  "isiert</w>": 7524,
  "ennes</w>": 7525,
  "\u03b1\u03c2</w>": 7526,
  "ific": 7527,
  "wat": 7528,
  "mah": 7529,
  "tungen</w>": 7530,
  "\u958b\u59cb</w>": 7531,
  "\u061b</w>": 7532,
  "possible</w>": 7533,
  "11": 7534,
  "1848</w>": 7535,
  "val</w>": 7536,
  "200": 7537,
  "\u043f\u043e\u043c\u0435": 7538,
  "nde</w>": 7539,
  "mix": 7540,
  "\u0628\u0646": 7541,
  "geschlossen</w>": 7542,
  "declar": 7543,
  "informat": 7544,
  "\u043a\u0430\u0437\u0430": 7545,
  "venezuela</w>": 7546,
  "ds": 7547,
  "pen</w>": 7548,
  "\u0420\u043e\u0434\u0438\u043b\u0441\u044f</w>": 7549,
  "\u0915": 7550,
  "wenige</w>": 7551,
  "gymnasium</w>": 7552,
  "droite</w>": 7553,
  "\u043a\u0443\u043b\u044c\u0442\u0443\u0440\u044b</w>": 7554,
  "fab": 7555,
  "nhiem</w>": 7556,
  "\u5854": 7557,
  "milit": 7558,
  "\u043d\u043e\u0432\u043e": 7559,
  "\u4e1c</w>": 7560,
  "dios</w>": 7561,
  "regierungs": 7562,
  "\u0445\u043e\u0434\u0438\u0442</w>": 7563,
  "vivi": 7564,
  "\u0422\u0430\u043a</w>": 7565,
  "hong</w>": 7566,
  "deshalb</w>": 7567,
  "stellten</w>": 7568,
  "\u57fa</w>": 7569,
  "nowiki</w>": 7570,
  "viert</w>": 7571,
  "\u0628\u0648": 7572,
  "eda</w>": 7573,
  "\u092a": 7574,
  "magn": 7575,
  "cuc</w>": 7576,
  "ej": 7577,
  "embar": 7578,
  "aupres</w>": 7579,
  "atoire</w>": 7580,
  "\u0643\u0645</w>": 7581,
  "celebre</w>": 7582,
  "rose</w>": 7583,
  "sert</w>": 7584,
  "\u043f\u0440\u043e\u0432\u0435": 7585,
  "\u0432\u0440\u0435\u043c\u0435</w>": 7586,
  "blanc</w>": 7587,
  "nghi</w>": 7588,
  "\u63d0": 7589,
  "faisant</w>": 7590,
  "westlich</w>": 7591,
  "bilden</w>": 7592,
  "confir": 7593,
  "afrika</w>": 7594,
  "adel": 7595,
  "passage</w>": 7596,
  "\u043b\u0435\u043d\u0438\u044e</w>": 7597,
  "\u03bb": 7598,
  "bezir": 7599,
  "\u0434\u0440\u043e": 7600,
  "\u6210\u70ba</w>": 7601,
  "pologne</w>": 7602,
  "\u70b9</w>": 7603,
  "stab": 7604,
  "\u63a8": 7605,
  "hus": 7606,
  "\u52d5</w>": 7607,
  "tement</w>": 7608,
  "lebt</w>": 7609,
  "silber": 7610,
  "\u0436\u0435\u043d\u044b</w>": 7611,
  "det": 7612,
  "\u0447\u0430\u0441\u0442</w>": 7613,
  "\u0447\u043d\u0430\u044f</w>": 7614,
  "botan": 7615,
  "bin</w>": 7616,
  "particulierement</w>": 7617,
  "03</w>": 7618,
  "lar\u0131n</w>": 7619,
  "stande</w>": 7620,
  "verbunden</w>": 7621,
  "asist": 7622,
  "oldu</w>": 7623,
  "spateren</w>": 7624,
  "defense</w>": 7625,
  "\u0448\u0443": 7626,
  "izo</w>": 7627,
  "facon</w>": 7628,
  "\u77f3": 7629,
  "dir": 7630,
  "\u0441\u0442\u0435\u043f\u0435\u043d\u0438</w>": 7631,
  "bringen</w>": 7632,
  "\u0418\u0437</w>": 7633,
  "\u0441\u0442\u0430\u043b\u043e</w>": 7634,
  "swe": 7635,
  "propose</w>": 7636,
  "zem": 7637,
  "superieur</w>": 7638,
  "celles</w>": 7639,
  "qued": 7640,
  "technique</w>": 7641,
  "gattung</w>": 7642,
  "hermann</w>": 7643,
  "ity</w>": 7644,
  "\u9996": 7645,
  "rup": 7646,
  "bedeut": 7647,
  "loc": 7648,
  "\u062d\u0629</w>": 7649,
  "fruhen</w>": 7650,
  "texas</w>": 7651,
  "\u043b\u044b\u0445</w>": 7652,
  "atorio</w>": 7653,
  "ahora</w>": 7654,
  "alber": 7655,
  "\u044d</w>": 7656,
  "\u092c</w>": 7657,
  "\u0641\u0627\u0646</w>": 7658,
  "aki</w>": 7659,
  "2011\u5e74</w>": 7660,
  "chemin</w>": 7661,
  "politische</w>": 7662,
  "compet": 7663,
  "hn</w>": 7664,
  "tec": 7665,
  "attaque</w>": 7666,
  "kwa</w>": 7667,
  "crit": 7668,
  "\u60c5</w>": 7669,
  "195": 7670,
  "\u0648\u0635": 7671,
  "format": 7672,
  "vee</w>": 7673,
  "\u0441\u043b\u0443": 7674,
  "gens</w>": 7675,
  "divi": 7676,
  "\u672a</w>": 7677,
  "\u0442\u043e\u043a</w>": 7678,
  "lief</w>": 7679,
  "ngu</w>": 7680,
  "\u0434\u0430\u043b</w>": 7681,
  "\u043e\u0441\u043d\u043e\u0432\u043d\u043e\u043c</w>": 7682,
  "vermutlich</w>": 7683,
  "turk": 7684,
  "tiv": 7685,
  "\u95dc": 7686,
  "sberg</w>": 7687,
  "\u800c": 7688,
  "liefer": 7689,
  "ema</w>": 7690,
  "\u03bf\u03c4\u03b1\u03bd</w>": 7691,
  "faut</w>": 7692,
  "issement</w>": 7693,
  "chong</w>": 7694,
  "\u0627\u0644\u0629</w>": 7695,
  "march": 7696,
  "\u0442\u043d\u043e\u0438</w>": 7697,
  "\u0644\u064a\u0629</w>": 7698,
  "wiener</w>": 7699,
  "jos</w>": 7700,
  "betre": 7701,
  "\u4ee5\u4e0b</w>": 7702,
  "iro</w>": 7703,
  "\u0437\u044b": 7704,
  "stif": 7705,
  "berich": 7706,
  "\u0627\u062d\u062f\u0649</w>": 7707,
  "rado</w>": 7708,
  "terrain</w>": 7709,
  "\u043e\u0431\u0440\u0430\u0437\u043e\u0432\u0430\u043d\u0438\u0435</w>": 7710,
  "historique</w>": 7711,
  "maur": 7712,
  "demon": 7713,
  "\u0627\u062e\u0631\u0649</w>": 7714,
  "onne</w>": 7715,
  "2010\u5e74</w>": 7716,
  "exper": 7717,
  "nghiep</w>": 7718,
  "kit": 7719,
  "elements</w>": 7720,
  "comprend</w>": 7721,
  "\u0627\u062b": 7722,
  "russe</w>": 7723,
  "\u0642\u062f\u0645</w>": 7724,
  "20-": 7725,
  "gel</w>": 7726,
  "\u0441\u043e\u0445\u0440\u0430\u043d\u0438": 7727,
  "\u6253": 7728,
  "yoktur</w>": 7729,
  "portant</w>": 7730,
  "\u0441\u0442\u044c\u044e</w>": 7731,
  "stimmen</w>": 7732,
  "assez</w>": 7733,
  "duoi</w>": 7734,
  "\u0648\u0627\u0644\u062a\u064a</w>": 7735,
  "amts": 7736,
  "flachen</w>": 7737,
  "\u0435\u043d</w>": 7738,
  "academie</w>": 7739,
  "onie</w>": 7740,
  "past": 7741,
  "\u043f\u0440\u043e\u0444\u0435\u0441\u0441\u0438\u043e\u043d\u0430": 7742,
  "pho": 7743,
  "pu</w>": 7744,
  "jon": 7745,
  "gracias</w>": 7746,
  "sommer": 7747,
  "\u043c\u043e\u043d": 7748,
  "eigent": 7749,
  "liqu": 7750,
  "\u0445\u043e\u0440\u043e": 7751,
  "cido</w>": 7752,
  "island</w>": 7753,
  "188": 7754,
  "\u662f": 7755,
  "\u56de</w>": 7756,
  "\u0111oc</w>": 7757,
  "georges</w>": 7758,
  "friedhof</w>": 7759,
  "\u0441\u0435\u043d</w>": 7760,
  "iy": 7761,
  "plant": 7762,
  "\u5143": 7763,
  "graben</w>": 7764,
  "journ": 7765,
  "aktiv</w>": 7766,
  "viel</w>": 7767,
  "\u8001": 7768,
  "\u6848</w>": 7769,
  "\u9ede</w>": 7770,
  "\u63a5": 7771,
  "occidental</w>": 7772,
  "gem</w>": 7773,
  "toc</w>": 7774,
  "\u0449\u0430</w>": 7775,
  "\u044f\u0432": 7776,
  "mannschaften</w>": 7777,
  "magazine</w>": 7778,
  "campeon</w>": 7779,
  "thap</w>": 7780,
  "servicios</w>": 7781,
  "angel</w>": 7782,
  "\u043b\u044c\u043d\u0443\u044e</w>": 7783,
  "oy": 7784,
  "\u062f\u0627</w>": 7785,
  "\u95f4</w>": 7786,
  "\u0641\u064a\u0629</w>": 7787,
  "heraus": 7788,
  "\u062f\u0648\u0646</w>": 7789,
  "\u043d\u0435\u0441\u043a\u043e\u043b\u044c\u043a\u0438\u0445</w>": 7790,
  "\u062a\u062c": 7791,
  "\u0441\u0432\u0435": 7792,
  "educacion</w>": 7793,
  "\u0448\u043a\u0438</w>": 7794,
  "mic": 7795,
  "kopf</w>": 7796,
  "\u0432\u0438\u0438</w>": 7797,
  "1871</w>": 7798,
  "\u7a31</w>": 7799,
  "\u03b8\u03b7\u03ba\u03b5</w>": 7800,
  "not": 7801,
  "ji": 7802,
  "atteint</w>": 7803,
  "dres": 7804,
  "feuer": 7805,
  "sach</w>": 7806,
  "fruher</w>": 7807,
  "\u043b\u0438\u0442": 7808,
  "0-\u0445</w>": 7809,
  "ill": 7810,
  "\u043e\u0440\u0430</w>": 7811,
  "\u0412\u0435\u043b\u0438\u043a\u043e\u0438</w>": 7812,
  "parties</w>": 7813,
  "rier</w>": 7814,
  "\u0448\u043b\u0438</w>": 7815,
  "yi</w>": 7816,
  "sle": 7817,
  "literatur</w>": 7818,
  "ble</w>": 7819,
  "formo</w>": 7820,
  "\u043c\u0438\u0440\u043e\u0432\u043e\u0438</w>": 7821,
  "jeder</w>": 7822,
  "\u043f\u0440\u0438\u043d\u044f\u043b</w>": 7823,
  "tatigkeit</w>": 7824,
  "joven</w>": 7825,
  "\u043c\u0435\u0441\u0442\u0430</w>": 7826,
  "fut": 7827,
  "\u0437\u0434\u0435\u0441\u044c</w>": 7828,
  "\u062a\u0648": 7829,
  "formula_": 7830,
  "osterreichischen</w>": 7831,
  "atus</w>": 7832,
  "exclus": 7833,
  "statt": 7834,
  "espace</w>": 7835,
  "into</w>": 7836,
  "introdu": 7837,
  "1,5</w>": 7838,
  "dich</w>": 7839,
  "\u0645\u0634": 7840,
  "\u4f5c": 7841,
  "gers</w>": 7842,
  "\u653f</w>": 7843,
  "\u043f\u043e\u043f\u0430": 7844,
  "\u0635</w>": 7845,
  "mene</w>": 7846,
  "1889</w>": 7847,
  "\u03b5\u03c4\u03b1\u03b9</w>": 7848,
  "\u0412\u043e\u0441\u0442\u043e": 7849,
  "\u0932": 7850,
  "\u043d\u0430\u0437\u043d\u0430": 7851,
  "oficina</w>": 7852,
  "\u043f\u043e\u043c\u043e": 7853,
  "\u0442\u043e\u043d</w>": 7854,
  "vertre": 7855,
  "trop</w>": 7856,
  "\u0447\u0435\u043c\u043f\u0438\u043e\u043d\u0430\u0442\u0435</w>": 7857,
  "zust": 7858,
  "\u0442\u044b\u0441\u044f\u0447</w>": 7859,
  "fecha</w>": 7860,
  "1885</w>": 7861,
  "\u0628\u0634\u0643\u0644</w>": 7862,
  "kla": 7863,
  "nhau</w>": 7864,
  "chambre</w>": 7865,
  "rak": 7866,
  "\u0441\u0442\u043e\u044f": 7867,
  "claude</w>": 7868,
  "\u043f\u043e\u043b\u0438": 7869,
  "marqu": 7870,
  "trom": 7871,
  "\u0435\u043c\u044b\u0445</w>": 7872,
  "ono</w>": 7873,
  "\u5f20</w>": 7874,
  "depart</w>": 7875,
  "ivas</w>": 7876,
  "\u0448\u0442\u0430": 7877,
  "plu": 7878,
  "politiques</w>": 7879,
  "\u89d2</w>": 7880,
  "\u043e\u0442\u043f\u0440\u0430\u0432": 7881,
  "\u043a\u043e\u043b\u0435": 7882,
  "\u7d04": 7883,
  "inspir": 7884,
  "\u041c\u0430\u043d": 7885,
  "\u5973": 7886,
  "falls</w>": 7887,
  "\u0434\u0435\u043d\u0438\u044f</w>": 7888,
  "sir</w>": 7889,
  "\u041e\u0442\u0435\u0447\u0435\u0441\u0442\u0432\u0435\u043d\u043d\u043e\u0438</w>": 7890,
  "wechsel": 7891,
  "\u53e6</w>": 7892,
  "\u043f\u043e\u0441\u0442\u0430\u0432": 7893,
  "\u0442-": 7894,
  "\u5e2b</w>": 7895,
  "realiz": 7896,
  "yon": 7897,
  "\u0438\u0441\u043a\u0438\u0445</w>": 7898,
  "\u54e1": 7899,
  "\u0645\u0633": 7900,
  "ices</w>": 7901,
  "uo": 7902,
  "bres": 7903,
  "zuletzt</w>": 7904,
  "episode</w>": 7905,
  "logro</w>": 7906,
  "hoat</w>": 7907,
  "\u043a\u043e\u044f\u0442\u043e</w>": 7908,
  "\u0e2d\u0e19</w>": 7909,
  "pou": 7910,
  "\u0442\u043e\u043d": 7911,
  "dav": 7912,
  "\u0441\u0432\u043e\u0438\u043c</w>": 7913,
  "\u8f49": 7914,
  "\u793e</w>": 7915,
  "\u7a0b</w>": 7916,
  "investigacion</w>": 7917,
  "\u0448\u0435\u043d\u0438\u0435</w>": 7918,
  "\u0648\u0641": 7919,
  "tercera</w>": 7920,
  "\u0434\u0438\u043d": 7921,
  "profesional</w>": 7922,
  "mode</w>": 7923,
  "connue</w>": 7924,
  "trien</w>": 7925,
  "daneben</w>": 7926,
  "statist": 7927,
  "\u6240\u6709</w>": 7928,
  "\u0627\u0635": 7929,
  "\u064a\u062a\u0645</w>": 7930,
  "centrale</w>": 7931,
  "\u062a\u0635": 7932,
  "\u0434\u0430\u0435\u0442</w>": 7933,
  "ingen": 7934,
  "yen": 7935,
  "anci": 7936,
  "40": 7937,
  "psych": 7938,
  "steuer": 7939,
  "1860</w>": 7940,
  "\u5bc6\u5ea6</w>": 7941,
  "nationalmannschaft</w>": 7942,
  "\u518d</w>": 7943,
  "xv</w>": 7944,
  "neur": 7945,
  "unido</w>": 7946,
  "initi": 7947,
  "herausge": 7948,
  "\u4e0b\u8f96</w>": 7949,
  "tournee</w>": 7950,
  "\u043b\u0435\u043a": 7951,
  "\u0413\u043e\u0440": 7952,
  "\u5e38</w>": 7953,
  "vallee</w>": 7954,
  "\u5468</w>": 7955,
  "naz": 7956,
  "locales</w>": 7957,
  "nte</w>": 7958,
  "\u0447\u043b\u0435\u043d</w>": 7959,
  "\u0627\u0644\u0627\u0648\u0644</w>": 7960,
  "nant</w>": 7961,
  "mos": 7962,
  "entfernt</w>": 7963,
  "1891</w>": 7964,
  "wuchs</w>": 7965,
  "\u043d\u0438\u043d": 7966,
  "tamente</w>": 7967,
  "llam": 7968,
  "nik": 7969,
  "1893</w>": 7970,
  "\u062a\u0644": 7971,
  "einz": 7972,
  "etr": 7973,
  "gouver": 7974,
  "\u06cc\u06c1</w>": 7975,
  "\u4ed6\u4eec</w>": 7976,
  "\u0932</w>": 7977,
  "kil": 7978,
  "rien</w>": 7979,
  "verlag</w>": 7980,
  "ce-": 7981,
  "thieu</w>": 7982,
  "camp</w>": 7983,
  "\u062b</w>": 7984,
  "\u0928\u0939\u0940</w>": 7985,
  "proce": 7986,
  "gangen</w>": 7987,
  "\u0440\u0443\u0435\u0442</w>": 7988,
  "\u6ca1\u6709</w>": 7989,
  "\u043f\u0440\u043e\u0432\u0435\u043b</w>": 7990,
  "\u0440\u043e\u0434\u0438": 7991,
  "\u0434\u0440\u0435\u0432": 7992,
  "schlos": 7993,
  "\u0440\u0430\u0431\u043e\u0442\u0443</w>": 7994,
  "schne": 7995,
  "dit": 7996,
  "atom": 7997,
  "stern</w>": 7998,
  "\u043f\u0435\u0440\u0432\u043e\u0433\u043e</w>": 7999,
  "\u043b\u0430\u0445</w>": 8000,
  "\u043e\u043a": 8001,
  "\u0413.</w>": 8002,
  "eher</w>": 8003,
  "grunden</w>": 8004,
  "26": 8005,
  "\u5168</w>": 8006,
  "\u0440\u0435\u0434": 8007,
  "quel": 8008,
  "train": 8009,
  "\u0441\u0442\u0432\u0435\u043d": 8010,
  "\u7ea6</w>": 8011,
  "alo</w>": 8012,
  "actividad</w>": 8013,
  "\u043d.</w>": 8014,
  "decir</w>": 8015,
  "istanbul</w>": 8016,
  "ans": 8017,
  "\u7a31": 8018,
  "ling": 8019,
  "nau": 8020,
  "polen</w>": 8021,
  "rock": 8022,
  "\u0443\u043d\u0438\u0447\u0442\u043e": 8023,
  "1892</w>": 8024,
  "\u0441\u043e\u0442\u0440\u0443\u0434": 8025,
  "modelo</w>": 8026,
  "chir": 8027,
  "demo": 8028,
  "teilt</w>": 8029,
  "associ": 8030,
  "informacion</w>": 8031,
  "nig": 8032,
  "\u03b5\u03be": 8033,
  "l\u0131</w>": 8034,
  "ony": 8035,
  "\u865f": 8036,
  "\u0441\u0435\u0431\u0435</w>": 8037,
  "choi</w>": 8038,
  "\u0413\u0440\u0438": 8039,
  "bucher</w>": 8040,
  "nouveaux</w>": 8041,
  "\u0627\u0644\u0639\u062f\u064a\u062f</w>": 8042,
  "ail": 8043,
  "generale</w>": 8044,
  "\u0440\u0435\u043d</w>": 8045,
  "\u0447\u0435\u043c\u043f\u0438\u043e\u043d\u0430\u0442\u0430</w>": 8046,
  "victor</w>": 8047,
  "salle</w>": 8048,
  "\u0432\u044b\u0434\u0435": 8049,
  "argent</w>": 8050,
  "populaire</w>": 8051,
  "encontr": 8052,
  "etas</w>": 8053,
  "filme</w>": 8054,
  "\u5341": 8055,
  "produits</w>": 8056,
  "jack</w>": 8057,
  "revel": 8058,
  "fat": 8059,
  "vierte</w>": 8060,
  "\u0440\u0430\u0441\u043f\u0440\u043e\u0441\u0442\u0440\u0430": 8061,
  "\u0424\u0430": 8062,
  "garcia</w>": 8063,
  "aise</w>": 8064,
  "\u0440\u0443\u043a\u043e\u0432\u043e\u0434": 8065,
  "batiment</w>": 8066,
  "\u043d\u043e\u0432\u044b\u0445</w>": 8067,
  "\u0432\u0435\u043a</w>": 8068,
  "creacion</w>": 8069,
  "royaume</w>": 8070,
  "einzelnen</w>": 8071,
  "personnage</w>": 8072,
  "\u0432\u0430\u043b\u0430\u0441\u044c</w>": 8073,
  "\u0e44\u0e14\u0e23\u0e1a</w>": 8074,
  "2\u6708</w>": 8075,
  "\u092d\u093e\u0930\u0924</w>": 8076,
  "denn</w>": 8077,
  "verkehrs": 8078,
  "fou": 8079,
  "\u043c\u0443\u0436\u0447\u0438\u043d</w>": 8080,
  "itude</w>": 8081,
  "auen</w>": 8082,
  "\u0442\u0430\u043a\u0438\u0445</w>": 8083,
  "situado</w>": 8084,
  "bulgar": 8085,
  "illon</w>": 8086,
  "leistung</w>": 8087,
  "\u53f2</w>": 8088,
  "dungen</w>": 8089,
  "\u0442\u043e\u0440</w>": 8090,
  "\u8a2d</w>": 8091,
  "dor</w>": 8092,
  "187": 8093,
  "haltung</w>": 8094,
  "uy</w>": 8095,
  "forte</w>": 8096,
  "\u092f\u0915</w>": 8097,
  "schil": 8098,
  "\u0430\u0440\u0430</w>": 8099,
  "1894</w>": 8100,
  "imper": 8101,
  "\u0413\u0435\u0440": 8102,
  "hervor": 8103,
  "\u0445\u043e\u0434\u0430</w>": 8104,
  "\u6536": 8105,
  "\u0441\u0442\u0432\u0435\u043d\u043d\u044b\u0445</w>": 8106,
  "\u0447\u0443</w>": 8107,
  "dante</w>": 8108,
  "enos</w>": 8109,
  "personal</w>": 8110,
  "titres</w>": 8111,
  "\u0442\u0435\u0440</w>": 8112,
  "krieg": 8113,
  "state</w>": 8114,
  "recu": 8115,
  "\u041f</w>": 8116,
  "spec": 8117,
  "an-": 8118,
  "impul": 8119,
  "1878</w>": 8120,
  "\u8eab</w>": 8121,
  "publica</w>": 8122,
  "analy": 8123,
  "\u0421\u043e\u044e\u0437\u0430</w>": 8124,
  "them": 8125,
  "schluss</w>": 8126,
  "\u041e\u043d\u0430</w>": 8127,
  "\u76f4": 8128,
  "especial</w>": 8129,
  "activites</w>": 8130,
  "\u0627\u062d\u062f</w>": 8131,
  "taux</w>": 8132,
  "\u0432\u0448\u0438\u0441\u044c</w>": 8133,
  "meister": 8134,
  "iran</w>": 8135,
  "diseno</w>": 8136,
  "ero": 8137,
  "falle</w>": 8138,
  "\u0446\u043a\u0438\u0438</w>": 8139,
  "stiftung</w>": 8140,
  "\u53d6</w>": 8141,
  "ard": 8142,
  "sac</w>": 8143,
  "institu": 8144,
  "kuste</w>": 8145,
  "otor": 8146,
  "viel": 8147,
  "schuler</w>": 8148,
  "\u6d41</w>": 8149,
  "devenu</w>": 8150,
  "\u043c\u043e\u0449": 8151,
  "offentlichen</w>": 8152,
  "jungen</w>": 8153,
  "\u0440\u0430\u043b\u044c\u043d\u043e\u0433\u043e</w>": 8154,
  "bles</w>": 8155,
  "\u043a-": 8156,
  "heures</w>": 8157,
  "ester": 8158,
  "\u041a\u0443\u0440": 8159,
  "inici": 8160,
  "eva</w>": 8161,
  "ausgezeichnet</w>": 8162,
  "\u7d04</w>": 8163,
  "montreal</w>": 8164,
  "chapelle</w>": 8165,
  "gefahr": 8166,
  "atr": 8167,
  "9.": 8168,
  "us-amerikanischer</w>": 8169,
  "japan</w>": 8170,
  "\u043c\u0435\u0441\u0442\u0435</w>": 8171,
  "\u0432\u043e\u0438\u0441\u043a</w>": 8172,
  "\u0432\u0435\u0440\u0441\u0438\u0438</w>": 8173,
  "\u5217": 8174,
  "\u043c\u0435\u0436\u0434\u0443\u043d\u0430\u0440\u043e\u0434": 8175,
  "table</w>": 8176,
  "poser</w>": 8177,
  "flan": 8178,
  "\u03b9\u03b5\u03c2</w>": 8179,
  "manner</w>": 8180,
  "linh</w>": 8181,
  "\u043f\u0440\u043e\u0432\u043e\u0434": 8182,
  "influence</w>": 8183,
  "\u0438\u0434\u0435": 8184,
  "ian": 8185,
  "\u7b2c\u4e09</w>": 8186,
  "outre</w>": 8187,
  "\u0421\u043b\u0435\u0434</w>": 8188,
  "\u767e": 8189,
  "group</w>": 8190,
  "anische</w>": 8191,
  "\u00f8": 8192,
  "\u0421\u0430\u043d": 8193,
  "cuad": 8194,
  "\u7a2e": 8195,
  "pia</w>": 8196,
  "rand": 8197,
  "toren</w>": 8198,
  "\u0111ua</w>": 8199,
  "\u516c</w>": 8200,
  "\u5f9e</w>": 8201,
  "deu": 8202,
  "\u063a</w>": 8203,
  "menor</w>": 8204,
  "methode</w>": 8205,
  "\u0648\u0644\u0643\u0646</w>": 8206,
  "sammlung</w>": 8207,
  "\u0434\u043e\u043c\u0430</w>": 8208,
  "symbol": 8209,
  "\u043c\u0430\u0441": 8210,
  "glas": 8211,
  "\u4e4b\u5f8c</w>": 8212,
  "muestra</w>": 8213,
  "\u043f\u043e\u0447": 8214,
  "datos</w>": 8215,
  "\u5217</w>": 8216,
  "critique</w>": 8217,
  "wollte</w>": 8218,
  "\u0442\u043d\u044b\u0438</w>": 8219,
  "aff": 8220,
  "projek": 8221,
  "ular": 8222,
  "\u043a\u043e\u0435\u0442\u043e</w>": 8223,
  "rub": 8224,
  "wid": 8225,
  "kunstler</w>": 8226,
  "beit": 8227,
  "mel</w>": 8228,
  "rand</w>": 8229,
  "joueurs</w>": 8230,
  "alizacion</w>": 8231,
  "zwischen": 8232,
  "altitude</w>": 8233,
  "utiliz": 8234,
  "\u0e40\u0e21\u0e2d\u0e07</w>": 8235,
  "\u6b7b</w>": 8236,
  "sher": 8237,
  "ciudades</w>": 8238,
  "heiligen</w>": 8239,
  "\u0627\u0644\u0639\u0631\u0628\u064a\u0629</w>": 8240,
  "cler": 8241,
  "\u043a\u0438\u043d</w>": 8242,
  "grafen</w>": 8243,
  "sonder": 8244,
  "ava</w>": 8245,
  "modele</w>": 8246,
  "mitt": 8247,
  "\u043a\u0443\u0440": 8248,
  "large</w>": 8249,
  "electr": 8250,
  "\u0e04\u0e27\u0e32\u0e21": 8251,
  "resultado</w>": 8252,
  "lun": 8253,
  "ie-": 8254,
  "sequ": 8255,
  "dicho</w>": 8256,
  "\u6539": 8257,
  "jefe</w>": 8258,
  "arrive</w>": 8259,
  "mung</w>": 8260,
  "regime</w>": 8261,
  "\u5fc3": 8262,
  "\u0432\u0438\u0434\u0435</w>": 8263,
  "\u7d93</w>": 8264,
  "fik": 8265,
  "\u0434\u0432\u0438": 8266,
  "aler</w>": 8267,
  "\u0447\u0438\u043b</w>": 8268,
  "\u0438\u0433\u0440\u0430": 8269,
  "chte</w>": 8270,
  "trata</w>": 8271,
  "places</w>": 8272,
  "\u0437\u0430\u0442": 8273,
  "mb": 8274,
  "\u043b\u043e\u0433\u0438\u0438</w>": 8275,
  "\u7248</w>": 8276,
  "liter": 8277,
  "construc": 8278,
  "\u0432\u043d\u0435": 8279,
  "donnees</w>": 8280,
  "\u03b4": 8281,
  "\u5f80</w>": 8282,
  "estructura</w>": 8283,
  "abteilung</w>": 8284,
  "wehr</w>": 8285,
  "\u0434\u043e\u043b\u0436\u043d\u043e\u0441\u0442\u044c</w>": 8286,
  "\u4fe1": 8287,
  "\u043f\u0430\u0440\u0430": 8288,
  "beteiligt</w>": 8289,
  "\u043a\u043c.</w>": 8290,
  "familien": 8291,
  "urban": 8292,
  "developpe</w>": 8293,
  "\u9580</w>": 8294,
  "execu": 8295,
  "sent": 8296,
  "senen</w>": 8297,
  "venir</w>": 8298,
  "\u706b": 8299,
  "\u0438\u0441\u043a\u0430\u044f</w>": 8300,
  "\u0438\u0433": 8301,
  "mobil": 8302,
  "\u0394": 8303,
  "sollten</w>": 8304,
  "trav": 8305,
  "harmon": 8306,
  "hl</w>": 8307,
  "encar": 8308,
  "nunca</w>": 8309,
  "ever": 8310,
  "sc</w>": 8311,
  "\u0905": 8312,
  "ager</w>": 8313,
  "\u0431\u043b\u0435": 8314,
  "\u0440\u043e\u0432\u0430": 8315,
  "\u8f66</w>": 8316,
  "kilometres</w>": 8317,
  "\u0441\u0442\u0435\u0440": 8318,
  "hauptsachlich</w>": 8319,
  "evi": 8320,
  "dades</w>": 8321,
  "actions</w>": 8322,
  "bie</w>": 8323,
  "27": 8324,
  "ph</w>": 8325,
  "betriebs": 8326,
  "sah": 8327,
  "meurt</w>": 8328,
  "tlichen</w>": 8329,
  "street</w>": 8330,
  "\u043a\u0443\u043b\u044c\u0442\u0443\u0440": 8331,
  "\u5404": 8332,
  "xay</w>": 8333,
  "habil": 8334,
  "\u5965": 8335,
  "\u044f\u043f\u043e\u043d": 8336,
  "blieben</w>": 8337,
  "organiz": 8338,
  "\u03b5\u03bb": 8339,
  "dorfer</w>": 8340,
  "\u0432\u0441\u043a\u043e\u0438</w>": 8341,
  "typ": 8342,
  "belgique</w>": 8343,
  "katika</w>": 8344,
  "\u5747</w>": 8345,
  "\u0432\u043e\u043b\u043e": 8346,
  "\u0924\u0915</w>": 8347,
  "mik": 8348,
  "gol</w>": 8349,
  "gefunden</w>": 8350,
  "forder": 8351,
  "poliz": 8352,
  "ministro</w>": 8353,
  "chant</w>": 8354,
  "vii</w>": 8355,
  "tivos</w>": 8356,
  "dite</w>": 8357,
  "itali": 8358,
  "hem</w>": 8359,
  "stro": 8360,
  "\u043f\u0440\u043e\u0442\u0438\u0432\u043e": 8361,
  "bombar": 8362,
  "\u0432\u043e\u0434\u0430</w>": 8363,
  "emission</w>": 8364,
  "astr": 8365,
  "regreso</w>": 8366,
  "rach": 8367,
  "alfred</w>": 8368,
  "\u4ecd</w>": 8369,
  "\u043b\u0435\u043d\u043d\u044b\u0445</w>": 8370,
  "\u043b\u043b</w>": 8371,
  "\u0410\u043b\u0435\u043a\u0441\u0430\u043d\u0434": 8372,
  "alistes</w>": 8373,
  "technik</w>": 8374,
  "presion</w>": 8375,
  "antigua</w>": 8376,
  "\u043a\u0440\u0430\u0441": 8377,
  "chuong</w>": 8378,
  "\u0441\u0442\u0432\u0435\u043d\u043d\u043e\u0433\u043e</w>": 8379,
  "\u0928": 8380,
  "cham": 8381,
  "ms": 8382,
  "\u0437\u043e\u043b\u043e": 8383,
  "elo</w>": 8384,
  "ow": 8385,
  "nik</w>": 8386,
  "\u043d\u043e\u0432\u044b\u0438</w>": 8387,
  "28": 8388,
  "ago</w>": 8389,
  "parte": 8390,
  "\u0437\u0430\u0432\u0435\u0440": 8391,
  "\u751f\u6d3b</w>": 8392,
  "\u9664</w>": 8393,
  "\u03b5\u03b9\u03b1</w>": 8394,
  "refle": 8395,
  "espacio</w>": 8396,
  "\u062c\u064a": 8397,
  "folgten</w>": 8398,
  "ors</w>": 8399,
  "arrivee</w>": 8400,
  "medizin": 8401,
  "ran</w>": 8402,
  "esen</w>": 8403,
  "\u6c23": 8404,
  "\u0642\u064a": 8405,
  "osas</w>": 8406,
  "\u0441\u043b\u0443\u0447\u0430\u0435</w>": 8407,
  "ack</w>": 8408,
  "\u0441\u044a\u0441</w>": 8409,
  "\u043c\u043e\u043b\u043e": 8410,
  "pis": 8411,
  "\u03bc\u03b5\u03c4\u03b1</w>": 8412,
  "championnats</w>": 8413,
  "\u043c-": 8414,
  "lus</w>": 8415,
  "\u041f\u043e\u0434": 8416,
  "erb": 8417,
  "tivo</w>": 8418,
  "zeitpunkt</w>": 8419,
  "kant": 8420,
  "\u7528": 8421,
  "inf": 8422,
  "\u4e2d\u592e</w>": 8423,
  "ett": 8424,
  "\u043a\u043e\u0442\u043e\u0440\u044b\u043c</w>": 8425,
  "\u0641\u0629</w>": 8426,
  "satz": 8427,
  "1888</w>": 8428,
  "\u0448\u0438\u0440\u043e": 8429,
  "\u53f2": 8430,
  "mussten</w>": 8431,
  "innen</w>": 8432,
  "schot": 8433,
  "occupe</w>": 8434,
  "\u7ba1\u7406</w>": 8435,
  "boul": 8436,
  "\u043f\u0435\u0441\u043d\u0438</w>": 8437,
  "castillo</w>": 8438,
  "africa</w>": 8439,
  "amos</w>": 8440,
  "\u0434\u0430\u0442\u044c</w>": 8441,
  "\u03b5\u03c3": 8442,
  "arthur</w>": 8443,
  "mittel</w>": 8444,
  "sainte-": 8445,
  "gehor": 8446,
  "existen</w>": 8447,
  "ascen": 8448,
  "zurich</w>": 8449,
  "conver": 8450,
  "\u0436\u0435\u043d\u0438\u0435\u043c</w>": 8451,
  "\u043b\u0438\u043d</w>": 8452,
  "\u0434\u043e\u0438</w>": 8453,
  "tournoi</w>": 8454,
  "maitre</w>": 8455,
  "organise</w>": 8456,
  "\u0627\u0644\u0645\u0645\u0644\u0643\u0629</w>": 8457,
  "entin</w>": 8458,
  "\u0437\u0438</w>": 8459,
  "lands</w>": 8460,
  "afrik": 8461,
  "ill</w>": 8462,
  "neun</w>": 8463,
  "\u0440\u0430\u0441\u0441\u043a\u0430": 8464,
  "\u0447\u0435\u043d\u0438\u044f</w>": 8465,
  "\u03c0": 8466,
  "linien</w>": 8467,
  "\u0434\u0435\u0440\u0435\u0432\u043d\u0438</w>": 8468,
  "\u043f\u0435\u0440\u0432\u044b\u043c</w>": 8469,
  "alement</w>": 8470,
  "planta</w>": 8471,
  "\u0431\u0435\u0437": 8472,
  "bewer": 8473,
  "mascul": 8474,
  "ino": 8475,
  "\u0639\u0645": 8476,
  "ebene</w>": 8477,
  "legen": 8478,
  "page</w>": 8479,
  "num": 8480,
  "lyon</w>": 8481,
  "neh": 8482,
  "forderung</w>": 8483,
  "\u91cd\u8981</w>": 8484,
  "ket": 8485,
  "\u901a\u8fc7</w>": 8486,
  "\u043d\u0430\u0437\u0432\u0430\u043d\u0438\u0435\u043c</w>": 8487,
  "honor</w>": 8488,
  "ient</w>": 8489,
  "iment</w>": 8490,
  "guar": 8491,
  "ister</w>": 8492,
  "betrug</w>": 8493,
  "\u03b8": 8494,
  "reserve</w>": 8495,
  "prol": 8496,
  "var</w>": 8497,
  "\u0448\u0435\u043b</w>": 8498,
  "\u0e2a": 8499,
  "\u5e08</w>": 8500,
  "knapp</w>": 8501,
  "nahme</w>": 8502,
  "\u0930\u093e": 8503,
  "temas</w>": 8504,
  "\u042d\u043d": 8505,
  "kosten</w>": 8506,
  "\u0905\u0928</w>": 8507,
  "ersetzt</w>": 8508,
  "design": 8509,
  "verlor</w>": 8510,
  "aves</w>": 8511,
  "\u0438\u0441\u043a\u043e\u043c</w>": 8512,
  "kin</w>": 8513,
  "fabric": 8514,
  "profesor</w>": 8515,
  "westlichen</w>": 8516,
  "au\u00dfer": 8517,
  "muhle</w>": 8518,
  "generation</w>": 8519,
  "\u0426\u0435\u043d\u0442": 8520,
  "\u0443\u0447\u0430\u0441\u0442\u0432\u043e\u0432\u0430\u043b</w>": 8521,
  "\u0627\u0632": 8522,
  "aleman</w>": 8523,
  "estadio</w>": 8524,
  "\u0648\u062f</w>": 8525,
  "modell</w>": 8526,
  "thor": 8527,
  "rent</w>": 8528,
  "\u044b\u0438</w>": 8529,
  "\u0447\u044c</w>": 8530,
  "\u041c\u0430\u0438": 8531,
  "\u95e8</w>": 8532,
  "economique</w>": 8533,
  "zahlreichen</w>": 8534,
  "\u043a\u0441</w>": 8535,
  "\u6e2f</w>": 8536,
  "inden</w>": 8537,
  "staffel</w>": 8538,
  "\u0440\u0435\u0448\u0435\u043d\u0438\u0435</w>": 8539,
  "\u0411\u0435\u043b\u043e": 8540,
  "\u0647\u0646\u0627\u0643</w>": 8541,
  "ney</w>": 8542,
  "heraus</w>": 8543,
  "\u0440\u0430\u043a": 8544,
  "reichen</w>": 8545,
  "\u0627\u0631\u0627\u062a</w>": 8546,
  "\u03c4\u03b1": 8547,
  "amerique</w>": 8548,
  "aug": 8549,
  "\u0447\u043a\u0430</w>": 8550,
  "\u0444\u0438\u043b\u044c\u043c\u0430</w>": 8551,
  "tha</w>": 8552,
  "\u0627\u0641\u0631\u0627\u062f</w>": 8553,
  "tados</w>": 8554,
  "\u0447\u043a\u0438</w>": 8555,
  "suces": 8556,
  "\u043d\u0430\u0440\u0443": 8557,
  "vent</w>": 8558,
  "principio</w>": 8559,
  "\u0441\u0435\u0437\u043e\u043d\u0435</w>": 8560,
  "last": 8561,
  "weih": 8562,
  "asa</w>": 8563,
  "\u0433\u043e\u0434\u0438\u043d\u0438</w>": 8564,
  "les-": 8565,
  "problemas</w>": 8566,
  "fasst</w>": 8567,
  "\u043f\u043e\u043b\u043d\u043e\u0441\u0442\u044c\u044e</w>": 8568,
  "igne</w>": 8569,
  "sive</w>": 8570,
  "\u0440\u0430\u043d\u0435\u0435</w>": 8571,
  "\u7576</w>": 8572,
  "\u0437\u0430\u043f\u0430": 8573,
  "\u0432\u043e\u0434\u044b</w>": 8574,
  "\u044b\u0435</w>": 8575,
  "tte</w>": 8576,
  "campana</w>": 8577,
  "oni</w>": 8578,
  "turkiye</w>": 8579,
  "\u0647\u064a": 8580,
  "eroffnet</w>": 8581,
  "\u0437\u0438\u0438</w>": 8582,
  "nature</w>": 8583,
  "play": 8584,
  "\u82b1</w>": 8585,
  "hauf": 8586,
  "gewicht</w>": 8587,
  "statte</w>": 8588,
  "jardin</w>": 8589,
  "tigt</w>": 8590,
  "haft</w>": 8591,
  "spek": 8592,
  "\u0935\u093e\u0930\u093e</w>": 8593,
  "gelande</w>": 8594,
  "\u0432\u0430\u044e\u0442\u0441\u044f</w>": 8595,
  "\u0447\u043b\u0435\u043d\u043e\u043c</w>": 8596,
  "10.": 8597,
  "ders</w>": 8598,
  "contempor": 8599,
  "werken</w>": 8600,
  "ocup": 8601,
  "zeug": 8602,
  "cle": 8603,
  "prin": 8604,
  "iana</w>": 8605,
  "situada</w>": 8606,
  "imientos</w>": 8607,
  "gt</w>": 8608,
  "allemande</w>": 8609,
  "pression</w>": 8610,
  "\u0441\u043e\u0432\u0435\u0442\u0430</w>": 8611,
  "gegensatz</w>": 8612,
  "\u0446\u0438\u043e\u043d": 8613,
  "rar": 8614,
  "uhr</w>": 8615,
  "hoan</w>": 8616,
  "bund</w>": 8617,
  "nuevos</w>": 8618,
  "mitarbeiter</w>": 8619,
  "franco": 8620,
  "anciens</w>": 8621,
  "enfrent": 8622,
  "ole": 8623,
  "xiii</w>": 8624,
  "ffen</w>": 8625,
  "\u0413\u0438": 8626,
  "\u5011": 8627,
  "interesse</w>": 8628,
  "\u043c.</w>": 8629,
  "bras</w>": 8630,
  "negoci": 8631,
  "razas</w>": 8632,
  "gabe</w>": 8633,
  "besten</w>": 8634,
  "\u0430\u0434": 8635,
  "bestehen</w>": 8636,
  "devenir</w>": 8637,
  "nent</w>": 8638,
  "hac": 8639,
  "ngc</w>": 8640,
  "vista</w>": 8641,
  "melo": 8642,
  "\u516d</w>": 8643,
  "\u043c\u0430\u0442\u0447\u0435</w>": 8644,
  "\u0446\u043a\u043e\u0433\u043e</w>": 8645,
  "\u7576\u6642</w>": 8646,
  "\u975e</w>": 8647,
  "soldaten</w>": 8648,
  "\u03c4\u03bf": 8649,
  "baja</w>": 8650,
  "tliche</w>": 8651,
  "sculp": 8652,
  "empereur</w>": 8653,
  "\u0645\u062c": 8654,
  "r.</w>": 8655,
  "staat</w>": 8656,
  "auftrag</w>": 8657,
  "destac": 8658,
  "jug": 8659,
  "kron": 8660,
  "bast": 8661,
  "albums</w>": 8662,
  "contre": 8663,
  "proven": 8664,
  "\u043d\u0435\u043d</w>": 8665,
  "sar</w>": 8666,
  "\u9752": 8667,
  "anzahl</w>": 8668,
  "\u0449\u0438\u0435</w>": 8669,
  "eveque</w>": 8670,
  "\u03c4": 8671,
  "actor</w>": 8672,
  "colombia</w>": 8673,
  "appro": 8674,
  "south</w>": 8675,
  "\u03c5\u03c0\u03bf": 8676,
  "\u0924\u0925\u093e</w>": 8677,
  "\u0639\u0646\u062f</w>": 8678,
  "geschrieben</w>": 8679,
  "modific": 8680,
  "cantante</w>": 8681,
  "\u043f\u043e\u043b\u043a\u0430</w>": 8682,
  "celle-ci</w>": 8683,
  "af</w>": 8684,
  "\u0432\u044b\u0448\u0435\u043b</w>": 8685,
  "schlag</w>": 8686,
  "\u8bf4</w>": 8687,
  "ddr</w>": 8688,
  "\u0441\u043f\u0435": 8689,
  "\u0448\u043e": 8690,
  "\u90e1</w>": 8691,
  "nr.</w>": 8692,
  "\u043e\u0434\u043d\u043e": 8693,
  "diversos</w>": 8694,
  "personaje</w>": 8695,
  "ball": 8696,
  "sant": 8697,
  "walt</w>": 8698,
  "soul": 8699,
  "\u043f\u043b\u0430\u043d\u0438": 8700,
  "olog": 8701,
  "geor": 8702,
  "luz</w>": 8703,
  "manifest": 8704,
  "\u0432\u043e\u0437\u0440\u0430\u0441\u0442\u0435</w>": 8705,
  "\u0412\u043e\u0437": 8706,
  "\u0442\u0438\u0435</w>": 8707,
  "llevo</w>": 8708,
  "\u0e2d\u0e01</w>": 8709,
  "tercer</w>": 8710,
  "\u0432\u043b\u0435": 8711,
  "\u0412\u0441\u0435</w>": 8712,
  "maz": 8713,
  "\u0432\u043e\u0438\u043d\u0430</w>": 8714,
  "tarihinde</w>": 8715,
  "ordin": 8716,
  "\u9762": 8717,
  "retir": 8718,
  "frei</w>": 8719,
[...]
