{
  "<s>": 0,
  "</s>": 1,
  "<pad>": 2,
  "<unk>": 3,
  "<special0>": 4,
  "<special1>": 5,
  "<special2>": 6,
  "<special3>": 7,
  "<special4>": 8,
  "<special5>": 9,
  "<special6>": 10,
  "<special7>": 11,
  "<special8>": 12,
  "<special9>": 13,
  "the</w>": 14,
  ",</w>": 15,
  ".</w>": 16,
  "of</w>": 17,
  "and</w>": 18,
  "\"</w>": 19,
  "in</w>": 20,
  "to</w>": 21,
  "a</w>": 22,
  "was</w>": 23,
  "he</w>": 24,
  "i</w>": 25,
  "is</w>": 26,
  "on</w>": 27,
  "as</w>": 28,
  "for</w>": 29,
  "that</w>": 30,
  "with</w>": 31,
  "it</w>": 32,
  "his</w>": 33,
  "'s</w>": 34,
  ")</w>": 35,
  "(</w>": 36,
  "at</w>": 37,
  "by</w>": 38,
  "her</w>": 39,
  "from</w>": 40,
  "she</w>": 41,
  "you</w>": 42,
  "an</w>": 43,
  "had</w>": 44,
  "were</w>": 45,
  "but</w>": 46,
  "be</w>": 47,
  "this</w>": 48,
  "are</w>": 49,
  "'t</w>": 50,
  "?</w>": 51,
  "my</w>": 52,
  "not</w>": 53,
  "or</w>": 54,
  "they</w>": 55,
  "which</w>": 56,
  "one</w>": 57,
  "have</w>": 58,
  "him</w>": 59,
  "me</w>": 60,
  "'</w>": 61,
  "-</w>": 62,
  "also</w>": 63,
  "their</w>": 64,
  "has</w>": 65,
  "first</w>": 66,
  ":</w>": 67,
  "out</w>": 68,
  "all</w>": 69,
  "up</w>": 70,
  "who</w>": 71,
  "been</w>": 72,
  "when</w>": 73,
  "after</w>": 74,
  "its</w>": 75,
  "there</w>": 76,
  "into</w>": 77,
  "would</w>": 78,
  "new</w>": 79,
  "two</w>": 80,
  "time</w>": 81,
  "said</w>": 82,
  "what</w>": 83,
  ";</w>": 84,
  "about</w>": 85,
  "so</w>": 86,
  "then</w>": 87,
  "over</w>": 88,
  "more</w>": 89,
  "other</w>": 90,
  "we</w>": 91,
  "can</w>": 92,
  "no</w>": 93,
  "if</w>": 94,
  "back</w>": 95,
  "like</w>": 96,
  "them</w>": 97,
  "only</w>": 98,
  "do</w>": 99,
  "some</w>": 100,
  "could</w>": 101,
  "just</w>": 102,
  "where</w>": 103,
  "during</w>": 104,
  "before</w>": 105,
  "made</w>": 106,
  "through</w>": 107,
  "than</w>": 108,
  "now</w>": 109,
  "may</w>": 110,
  "years</w>": 111,
  "school</w>": 112,
  "down</w>": 113,
  "most</w>": 114,
  "us</w>": 115,
  "well</w>": 116,
  "between</w>": 117,
  "while</w>": 118,
  "s</w>": 119,
  "'d</w>": 120,
  "%</w>": 121,
  "world</w>": 122,
  "will</w>": 123,
  "later</w>": 124,
  "did</w>": 125,
  "around</w>": 126,
  "-": 127,
  "three</w>": 128,
  "man</w>": 129,
  "city</w>": 130,
  "such</w>": 131,
  "re": 132,
  "being</w>": 133,
  "know</w>": 134,
  "/</w>": 135,
  "under</w>": 136,
  "used</w>": 137,
  "don</w>": 138,
  "against</w>": 139,
  "people</w>": 140,
  "many</w>": 141,
  "your</w>": 142,
  "way</w>": 143,
  "both</w>": 144,
  "1</w>": 145,
  "year</w>": 146,
  "part</w>": 147,
  "these</w>": 148,
  "!</w>": 149,
  "state</w>": 150,
  "head</w>": 151,
  "un": 152,
  "get</w>": 153,
  "until</w>": 154,
  "even</w>": 155,
  "how</w>": 156,
  "o</w>": 157,
  "off</w>": 158,
  "known</w>": 159,
  "didn</w>": 160,
  "second</w>": 161,
  "national</w>": 162,
  "2</w>": 163,
  "university</w>": 164,
  "because</w>": 165,
  "work</w>": 166,
  "still</w>": 167,
  "k": 168,
  "became</w>": 169,
  "since</w>": 170,
  "any</w>": 171,
  "born</w>": 172,
  "team</w>": 173,
  "again</w>": 174,
  "see</w>": 175,
  "united</w>": 176,
  "film</w>": 177,
  "season</w>": 178,
  "go</w>": 179,
  "de</w>": 180,
  "...</w>": 181,
  "house</w>": 182,
  "eyes</w>": 183,
  "family</w>": 184,
  "right</w>": 185,
  "took</w>": 186,
  "name</w>": 187,
  "including</w>": 188,
  "american</w>": 189,
  "war</w>": 190,
  "states</w>": 191,
  "day</w>": 192,
  "however</w>": 193,
  "'m</w>": 194,
  "much</w>": 195,
  "long</w>": 196,
  "each</w>": 197,
  "south</w>": 198,
  "same</w>": 199,
  "o": 200,
  "away</w>": 201,
  "going</w>": 202,
  "found</w>": 203,
  "here</w>": 204,
  "another</w>": 205,
  "life</w>": 206,
  "place</w>": 207,
  "called</w>": 208,
  "won</w>": 209,
  "area</w>": 210,
  "high</w>": 211,
  "d": 212,
  "group</w>": 213,
  "several</w>": 214,
  "left</w>": 215,
  "end</w>": 216,
  "following</w>": 217,
  "home</w>": 218,
  "hand</w>": 219,
  "series</w>": 220,
  "never</w>": 221,
  "3</w>": 222,
  "make</w>": 223,
  "very</w>": 224,
  "north</w>": 225,
  "last</w>": 226,
  "side</w>": 227,
  "album</w>": 228,
  "number</w>": 229,
  "too</w>": 230,
  "take</w>": 231,
  "in": 232,
  "e": 233,
  "began</w>": 234,
  "company</w>": 235,
  "u": 236,
  "played</w>": 237,
  "four</w>": 238,
  "good</w>": 239,
  "music</w>": 240,
  "held</w>": 241,
  "game</w>": 242,
  "own</w>": 243,
  "released</w>": 244,
  "want</w>": 245,
  "ar": 246,
  "al": 247,
  "those</w>": 248,
  "district</w>": 249,
  "town</w>": 250,
  "little</w>": 251,
  "son</w>": 252,
  "use</w>": 253,
  "early</w>": 254,
  "men</w>": 255,
  "age</w>": 256,
  "county</w>": 257,
  "t": 258,
  "face</w>": 259,
  "p": 260,
  "g": 261,
  "think</w>": 262,
  "'re</w>": 263,
  "s": 264,
  "came</w>": 265,
  "line</w>": 266,
  "i": 267,
  "4</w>": 268,
  "an": 269,
  "z": 270,
  "league</w>": 271,
  "y": 272,
  "our</w>": 273,
  "looked</w>": 274,
  "something</w>": 275,
  "small</w>": 276,
  "thought</w>": 277,
  "government</w>": 278,
  "went</w>": 279,
  "along</w>": 280,
  "best</w>": 281,
  "m</w>": 282,
  "de": 283,
  "old</w>": 284,
  "asked</w>": 285,
  "n": 286,
  "er</w>": 287,
  "b": 288,
  "john</w>": 289,
  "t</w>": 290,
  "le": 291,
  "few</w>": 292,
  "set</w>": 293,
  "station</w>": 294,
  "club</w>": 295,
  "'": 296,
  "let</w>": 297,
  "march</w>": 298,
  "west</w>": 299,
  "room</w>": 300,
  "got</w>": 301,
  "come</w>": 302,
  "led</w>": 303,
  "september</w>": 304,
  "m": 305,
  "next</w>": 306,
  "show</w>": 307,
  "c</w>": 308,
  "june</w>": 309,
  "king</w>": 310,
  "water</w>": 311,
  "father</w>": 312,
  "located</w>": 313,
  "en": 314,
  "c": 315,
  "general</w>": 316,
  "air</w>": 317,
  "though</w>": 318,
  "july</w>": 319,
  "january</w>": 320,
  "ro": 321,
  "college</w>": 322,
  "look</w>": 323,
  "di": 324,
  "10</w>": 325,
  "5</w>": 326,
  "october</w>": 327,
  "es</w>": 328,
  "august</w>": 329,
  "church</w>": 330,
  "member</w>": 331,
  "$</w>": 332,
  "public</w>": 333,
  "party</w>": 334,
  "every</w>": 335,
  "body</w>": 336,
  "land</w>": 337,
  "international</w>": 338,
  "u</w>": 339,
  "april</w>": 340,
  "started</w>": 341,
  "d</w>": 342,
  "within</w>": 343,
  "'ll</w>": 344,
  "band</w>": 345,
  "population</w>": 346,
  "former</w>": 347,
  "based</w>": 348,
  "system</w>": 349,
  "river</w>": 350,
  "without</w>": 351,
  "why</w>": 352,
  "building</w>": 353,
  "women</w>": 354,
  "6</w>": 355,
  "named</w>": 356,
  "york</w>": 357,
  "able</w>": 358,
  "once</w>": 359,
  "a": 360,
  "j": 361,
  "song</w>": 362,
  "night</w>": 363,
  "moved</w>": 364,
  "november</w>": 365,
  "2010</w>": 366,
  "al</w>": 367,
  "large</w>": 368,
  "door</w>": 369,
  "k</w>": 370,
  "five</w>": 371,
  "should</w>": 372,
  "december</w>": 373,
  "f": 374,
  "&</w>": 375,
  "wasn</w>": 376,
  "w": 377,
  "need</w>": 378,
  "am</w>": 379,
  "e</w>": 380,
  "east</w>": 381,
  "knew</w>": 382,
  "although</w>": 383,
  "local</w>": 384,
  "turned</w>": 385,
  "death</w>": 386,
  "due</w>": 387,
  "book</w>": 388,
  "built</w>": 389,
  "top</w>": 390,
  "v": 391,
  "great</w>": 392,
  "british</w>": 393,
  "wanted</w>": 394,
  "open</w>": 395,
  "h": 396,
  "times</w>": 397,
  "say</w>": 398,
  "li": 399,
  "black</w>": 400,
  "died</w>": 401,
  "er": 402,
  "children</w>": 403,
  "2011</w>": 404,
  "felt</w>": 405,
  "football</w>": 406,
  "b</w>": 407,
  "love</w>": 408,
  "village</w>": 409,
  "received</w>": 410,
  "en</w>": 411,
  "order</w>": 412,
  "served</w>": 413,
  "ti": 414,
  "service</w>": 415,
  "se": 416,
  "behind</w>": 417,
  "together</w>": 418,
  "white</w>": 419,
  "l</w>": 420,
  "different</w>": 421,
  "road</w>": 422,
  "final</w>": 423,
  "members</w>": 424,
  "himself</w>": 425,
  "century</w>": 426,
  "2012</w>": 427,
  "saw</w>": 428,
  "field</w>": 429,
  "major</w>": 430,
  "main</w>": 431,
  "single</w>": 432,
  "february</w>": 433,
  "having</w>": 434,
  "7</w>": 435,
  "co": 436,
  "point</w>": 437,
  "si": 438,
  "power</w>": 439,
  "mo": 440,
  "games</w>": 441,
  "l": 442,
  "p</w>": 443,
  "ers</w>": 444,
  "voice</w>": 445,
  "ri": 446,
  "president</w>": 447,
  "help</w>": 448,
  "2009</w>": 449,
  "front</w>": 450,
  "put</w>": 451,
  "2008</w>": 452,
  "told</w>": 453,
  "g</w>": 454,
  "hands</w>": 455,
  "--</w>": 456,
  "y</w>": 457,
  "2013</w>": 458,
  "include</w>": 459,
  "third</w>": 460,
  "late</w>": 461,
  "n</w>": 462,
  "el": 463,
  "18</w>": 464,
  "2014</w>": 465,
  "near</w>": 466,
  "ha": 467,
  "across</w>": 468,
  "park</w>": 469,
  "r": 470,
  "ever</w>": 471,
  "at": 472,
  "mar": 473,
  "'ve</w>": 474,
  "species</w>": 475,
  "12</w>": 476,
  "be": 477,
  "play</w>": 478,
  "3": 479,
  "mother</w>": 480,
  "days</w>": 481,
  "really</w>": 482,
  "tell</w>": 483,
  "often</w>": 484,
  "lo": 485,
  "8</w>": 486,
  "published</w>": 487,
  "history</w>": 488,
  "army</w>": 489,
  "20</w>": 490,
  "form</w>": 491,
  "2006</w>": 492,
  "bo": 493,
  "find</w>": 494,
  "gave</w>": 495,
  "ma": 496,
  "street</w>": 497,
  "2015</w>": 498,
  "according</w>": 499,
  "law</w>": 500,
  "2007</w>": 501,
  "enough</w>": 502,
  "ch": 503,
  "ate</w>": 504,
  "among</w>": 505,
  "am": 506,
  "making</w>": 507,
  "country</w>": 508,
  "given</w>": 509,
  "included</w>": 510,
  "as": 511,
  "4": 512,
  "opened</w>": 513,
  "red</w>": 514,
  "light</w>": 515,
  "sure</w>": 516,
  "run</w>": 517,
  "center</w>": 518,
  "might</w>": 519,
  "division</w>": 520,
  "15</w>": 521,
  "young</w>": 522,
  "less</w>": 523,
  "woman</w>": 524,
  "art</w>": 525,
  "la</w>": 526,
  "or": 527,
  "lost</w>": 528,
  "2016</w>": 529,
  "9</w>": 530,
  "office</w>": 531,
  "x</w>": 532,
  "ing</w>": 533,
  "seen</w>": 534,
  "ne": 535,
  "french</w>": 536,
  "must</w>": 537,
  "car": 538,
  "central</w>": 539,
  "court</w>": 540,
  "2": 541,
  "con": 542,
  "couldn</w>": 543,
  "ra": 544,
  "ts</w>": 545,
  "english</w>": 546,
  "almost</w>": 547,
  "million</w>": 548,
  "become</w>": 549,
  "six</w>": 550,
  "business</w>": 551,
  "always</w>": 552,
  "original</w>": 553,
  "car</w>": 554,
  "man": 555,
  "ed</w>": 556,
  "things</w>": 557,
  "ab": 558,
  "community</w>": 559,
  "worked</w>": 560,
  "30</w>": 561,
  "on": 562,
  "st</w>": 563,
  "thing</w>": 564,
  "11</w>": 565,
  "using</w>": 566,
  "nothing</w>": 567,
  "continued</w>": 568,
  "list</w>": 569,
  "bu": 570,
  "career</w>": 571,
  "development</w>": 572,
  "close</w>": 573,
  "better</w>": 574,
  "h</w>": 575,
  "council</w>": 576,
  "anything</w>": 577,
  "cup</w>": 578,
  "ad": 579,
  "london</w>": 580,
  "returned</w>": 581,
  "inside</w>": 582,
  "island</w>": 583,
  "is": 584,
  "others</w>": 585,
  "z</w>": 586,
  "r</w>": 587,
  "u.s.</w>": 588,
  "live</w>": 589,
  "sh": 590,
  "students</w>": 591,
  "give</w>": 592,
  "to": 593,
  "feel</w>": 594,
  "5": 595,
  "german</w>": 596,
  "16": 597,
  "record</w>": 598,
  "ii</w>": 599,
  "control</w>": 600,
  "research</w>": 601,
  "hard</w>": 602,
  "support</w>": 603,
  "force</w>": 604,
  "16</w>": 605,
  "already</w>": 606,
  "board</w>": 607,
  "le</w>": 608,
  "2017</w>": 609,
  "per</w>": 610,
  "established</w>": 611,
  "ation</w>": 612,
  "story</w>": 613,
  "does</w>": 614,
  "far</w>": 615,
  "player</w>": 616,
  "el</w>": 617,
  "14</w>": 618,
  "da</w>": 619,
  "25</w>": 620,
  "fire</w>": 621,
  "married</w>": 622,
  "big</w>": 623,
  "title</w>": 624,
  "go": 625,
  "me": 626,
  "works</w>": 627,
  "level</w>": 628,
  "military</w>": 629,
  "keep</w>": 630,
  "looking</w>": 631,
  "st": 632,
  "education</w>": 633,
  "various</w>": 634,
  "working</w>": 635,
  "x": 636,
  "living</w>": 637,
  "bar": 638,
  "free</w>": 639,
  "ated</w>": 640,
  "soon</w>": 641,
  "region</w>": 642,
  "hall</w>": 643,
  "po": 644,
  "least</w>": 645,
  "period</w>": 646,
  "13</w>": 647,
  "television</w>": 648,
  "total</w>": 649,
  "lu": 650,
  "th": 651,
  "award</w>": 652,
  "done</w>": 653,
  "taken</w>": 654,
  "role</w>": 655,
  "act</w>": 656,
  "human</w>": 657,
  "ru": 658,
  "half</w>": 659,
  "2005</w>": 660,
  "written</w>": 661,
  "short</w>": 662,
  "ted</w>": 663,
  "reached</w>": 664,
  "case</w>": 665,
  "em": 666,
  "ac": 667,
  "la": 668,
  "it": 669,
  "joined</w>": 670,
  "du": 671,
  "ten</w>": 672,
  "par": 673,
  "heart</w>": 674,
  "mind</w>": 675,
  "arms</w>": 676,
  "produced</w>": 677,
  "pe": 678,
  "su": 679,
  "created</w>": 680,
  "important</w>": 681,
  "mi": 682,
  "he": 683,
  "do": 684,
  "further</w>": 685,
  "appeared</w>": 686,
  "17</w>": 687,
  "director</w>": 688,
  "course</w>": 689,
  "wife</w>": 690,
  "so": 691,
  "position</w>": 692,
  "western</w>": 693,
  "ting</w>": 694,
  "full</w>": 695,
  "england</w>": 696,
  "program</w>": 697,
  "political</w>": 698,
  "either</w>": 699,
  "te": 700,
  "v</w>": 701,
  "hair</w>": 702,
  "ground</w>": 703,
  "site</w>": 704,
  "announced</w>": 705,
  "f</w>": 706,
  "ag": 707,
  "instead</w>": 708,
  "words</w>": 709,
  "ly</w>": 710,
  "association</w>": 711,
  "taking</w>": 712,
  "moment</w>": 713,
  "upon</w>": 714,
  "championship</w>": 715,
  "department</w>": 716,
  "summer</w>": 717,
  "followed</w>": 718,
  "bi": 719,
  "round</w>": 720,
  "production</w>": 721,
  "brother</w>": 722,
  "someone</w>": 723,
  "finally</w>": 724,
  "win</w>": 725,
  "union</w>": 726,
  "24</w>": 727,
  "stop</w>": 728,
  "mu": 729,
  "radio</w>": 730,
  "6": 731,
  "yes</w>": 732,
  "ar</w>": 733,
  "james</w>": 734,
  "considered</w>": 735,
  "william</w>": 736,
  "ran</w>": 737,
  "2004</w>": 738,
  "mouth</w>": 739,
  "toward</w>": 740,
  "bed</w>": 741,
  "7": 742,
  "version</w>": 743,
  "society</w>": 744,
  "rock</w>": 745,
  "17": 746,
  "heard</w>": 747,
  "past</w>": 748,
  "maybe</w>": 749,
  "described</w>": 750,
  "dark</w>": 751,
  "royal</w>": 752,
  "e-": 753,
  "wrote</w>": 754,
  "sound</w>": 755,
  "hi": 756,
  "trying</w>": 757,
  "girl</w>": 758,
  "san</w>": 759,
  "social</w>": 760,
  "no": 761,
  "yet</w>": 762,
  "outside</w>": 763,
  "2000</w>": 764,
  "special</w>": 765,
  "police</w>": 766,
  "founded</w>": 767,
  "ton</w>": 768,
  "table</w>": 769,
  "project</w>": 770,
  "class</w>": 771,
  "ko": 772,
  "vi": 773,
  "real</w>": 774,
  "everything</w>": 775,
  "playing</w>": 776,
  "today</w>": 777,
  "ber": 778,
  "leave</w>": 779,
  "battle</w>": 780,
  "9": 781,
  "election</w>": 782,
  "northern</w>": 783,
  "rest</w>": 784,
  "feet</w>": 785,
  "tried</w>": 786,
  "call</w>": 787,
  "sp": 788,
  "lead</w>": 789,
  "services</w>": 790,
  "ship</w>": 791,
  "information</w>": 792,
  "india</w>": 793,
  "21</w>": 794,
  "formed</w>": 795,
  "professional</w>": 796,
  "god</w>": 797,
  "ine</w>": 798,
  "america</w>": 799,
  "tu": 800,
  "im": 801,
  "te</w>": 802,
  "es": 803,
  "blood</w>": 804,
  "move</w>": 805,
  "]</w>": 806,
  "ta": 807,
  "match</w>": 808,
  "space</w>": 809,
  "george</w>": 810,
  "european</w>": 811,
  "france</w>": 812,
  "southern</w>": 813,
  "ni": 814,
  "australia</w>": 815,
  "met</w>": 816,
  "doing</w>": 817,
  "lake</w>": 818,
  "[</w>": 819,
  "common</w>": 820,
  "start</w>": 821,
  "months</w>": 822,
  "100</w>": 823,
  "hit</w>": 824,
  "gu": 825,
  "recorded</w>": 826,
  "language</w>": 827,
  "har": 828,
  "brought</w>": 829,
  "19</w>": 830,
  "design</w>": 831,
  "low</w>": 832,
  "stone</w>": 833,
  "ho": 834,
  "california</w>": 835,
  "st.</w>": 836,
  "above</w>": 837,
  "finished</w>": 838,
  "change</w>": 839,
  "ke": 840,
  "closed</w>": 841,
  "dis": 842,
  "22</w>": 843,
  "cor": 844,
  "sent</w>": 845,
  "pro": 846,
  "coming</w>": 847,
  "daughter</w>": 848,
  "video</w>": 849,
  "similar</w>": 850,
  "floor</w>": 851,
  "needed</w>": 852,
  "return</w>": 853,
  "></w>": 854,
  "event</w>": 855,
  "care</w>": 856,
  "oh</w>": 857,
  "per": 858,
  "release</w>": 859,
  "pre": 860,
  "despite</w>": 861,
  "8": 862,
  "15": 863,
  "present</w>": 864,
  "race</w>": 865,
  "stood</w>": 866,
  "says</w>": 867,
  "um</w>": 868,
  "developed</w>": 869,
  "ka</w>": 870,
  "op": 871,
  "turn</w>": 872,
  "na</w>": 873,
  "ley</w>": 874,
  "green</w>": 875,
  "ous</w>": 876,
  "se</w>": 877,
  "ge": 878,
  "pulled</w>": 879,
  "sea</w>": 880,
  "probably</w>": 881,
  "blue</w>": 882,
  "rather</w>": 883,
  "<</w>": 884,
  "killed</w>": 885,
  "2003</w>": 886,
  "ec": 887,
  "railway</w>": 888,
  "week</w>": 889,
  "person</w>": 890,
  "eventually</w>": 891,
  "ta</w>": 892,
  "currently</w>": 893,
  "points</w>": 894,
  "decided</w>": 895,
  "fact</w>": 896,
  "areas</w>": 897,
  "23</w>": 898,
  "seemed</w>": 899,
  "seven</w>": 900,
  "style</w>": 901,
  "david</w>": 902,
  "average</w>": 903,
  "non-": 904,
  "_</w>": 905,
  "lot</w>": 906,
  "records</w>": 907,
  "word</w>": 908,
  "kind</w>": 909,
  "forces</w>": 910,
  "formula</w>": 911,
  "signed</w>": 912,
  "sc": 913,
  "idea</w>": 914,
  "canada</w>": 915,
  "popular</w>": 916,
  "wall</w>": 917,
  "im</w>": 918,
  "example</w>": 919,
  "training</w>": 920,
  "tv</w>": 921,
  "pi": 922,
  "result</w>": 923,
  "originally</w>": 924,
  "ating</w>": 925,
  "mon": 926,
  "ap": 927,
  "track</w>": 928,
  "minutes</w>": 929,
  "addition</w>": 930,
  "throughout</w>": 931,
  "t-": 932,
  "added</w>": 933,
  "events</w>": 934,
  "science</w>": 935,
  "os</w>": 936,
  "friends</w>": 937,
  "running</w>": 938,
  "elected</w>": 939,
  "minister</w>": 940,
  "money</w>": 941,
  "remained</w>": 942,
  "modern</w>": 943,
  "dead</w>": 944,
  "usually</w>": 945,
  "news</w>": 946,
  "wood</w>": 947,
  "arm</w>": 948,
  "middle</w>": 949,
  "appointed</w>": 950,
  "mean</w>": 951,
  "songs</w>": 952,
  "deep</w>": 953,
  "2002</w>": 954,
  "child</w>": 955,
  "teams</w>": 956,
  "friend</w>": 957,
  "hu": 958,
  "debut</w>": 959,
  "over": 960,
  "bridge</w>": 961,
  "om": 962,
  "current</w>": 963,
  "ol": 964,
  "2001</w>": 965,
  "pu": 966,
  "museum</w>": 967,
  "schools</w>": 968,
  "28</w>": 969,
  "available</w>": 970,
  "type</w>": 971,
  "stage</w>": 972,
  "else</w>": 973,
  "herself</w>": 974,
  "tri": 975,
  "quickly</w>": 976,
  "construction</w>": 977,
  "talk</w>": 978,
  "tour</w>": 979,
  "sometimes</w>": 980,
  "26</w>": 981,
  "health</w>": 982,
  "=</w>": 983,
  "route</w>": 984,
  "27</w>": 985,
  "shot</w>": 986,
  "possible</w>": 987,
  "ds</w>": 988,
  "smile</w>": 989,
  "ak": 990,
  "forward</w>": 991,
  "qu": 992,
  "uk</w>": 993,
  "books</w>": 994,
  "seat</w>": 995,
  "wouldn</w>": 996,
  "sold</w>": 997,
  "strong</w>": 998,
  "private</w>": 999,
  "placed</w>": 1000,
  "der</w>": 1001,
  "myself</w>": 1002,
  "2018</w>": 1003,
  "germany</w>": 1004,
  "gold</w>": 1005,
  "hours</w>": 1006,
  "ant</w>": 1007,
  "ver": 1008,
  "morning</w>": 1009,
  "0</w>": 1010,
  "study</w>": 1011,
  "km</w>": 1012,
  "features</w>": 1013,
  "ma</w>": 1014,
  "ya</w>": 1015,
  "alone</w>": 1016,
  "chief</w>": 1017,
  "indian</w>": 1018,
  "process</w>": 1019,
  "food</w>": 1020,
  "bank</w>": 1021,
  "hadn</w>": 1022,
  "eight</w>": 1023,
  "leading</w>": 1024,
  "getting</w>": 1025,
  "cu": 1026,
  "inter": 1027,
  "bad</w>": 1028,
  "thomas</w>": 1029,
  "sat</w>": 1030,
  "mc": 1031,
  "ans</w>": 1032,
  "australian</w>": 1033,
  "boy</w>": 1034,
  "sa": 1035,
  "towards</w>": 1036,
  "players</w>": 1037,
  "gone</w>": 1038,
  "media</w>": 1039,
  "ter": 1040,
  "attack</w>": 1041,
  "province</w>": 1042,
  "hill</w>": 1043,
  "star</w>": 1044,
  "changed</w>": 1045,
  "bit</w>": 1046,
  "designed</w>": 1047,
  "character</w>": 1048,
  "hold</w>": 1049,
  "kept</w>": 1050,
  "whole</w>": 1051,
  "mor": 1052,
  "range</w>": 1053,
  "try</w>": 1054,
  "coach</w>": 1055,
  "eastern</w>": 1056,
  "paul</w>": 1057,
  "involved</w>": 1058,
  "official</w>": 1059,
  "thus</w>": 1060,
  "sub": 1061,
  "les</w>": 1062,
  "s-": 1063,
  "believe</w>": 1064,
  "term</w>": 1065,
  "her": 1066,
  "committee</w>": 1067,
  "mal": 1068,
  "walked</w>": 1069,
  "centre</w>": 1070,
  "ana</w>": 1071,
  "chi": 1072,
  "festival</w>": 1073,
  "ku": 1074,
  "especially</w>": 1075,
  "sch": 1076,
  "lower</w>": 1077,
  "au": 1078,
  "largest</w>": 1079,
  "lips</w>": 1080,
  "plan</w>": 1081,
  "performed</w>": 1082,
  "d-": 1083,
  "europe</w>": 1084,
  "base</w>": 1085,
  "beginning</w>": 1086,
  "ci": 1087,
  "china</w>": 1088,
  "29</w>": 1089,
  "hear</w>": 1090,
  "rights</w>": 1091,
  "size</w>": 1092,
  "network</w>": 1093,
  "actually</w>": 1094,
  "census</w>": 1095,
  "wide</w>": 1096,
  "michael</w>": 1097,
  "robert</w>": 1098,
  "longer</w>": 1099,
  "hospital</w>": 1100,
  "institute</w>": 1101,
  "brown</w>": 1102,
  "action</w>": 1103,
  "performance</w>": 1104,
  "fight</w>": 1105,
  "section</w>": 1106,
  "arts</w>": 1107,
  "phone</w>": 1108,
  "completed</w>": 1109,
  "passed</w>": 1110,
  "movement</w>": 1111,
  "refer</w>": 1112,
  "leaving</w>": 1113,
  "directed</w>": 1114,
  "fi": 1115,
  "ates</w>": 1116,
  "groups</w>": 1117,
  "1999</w>": 1118,
  "sky</w>": 1119,
  "episode</w>": 1120,
  "ba": 1121,
  "reported</w>": 1122,
  "spent</w>": 1123,
  "fall</w>": 1124,
  "sister</w>": 1125,
  "gi": 1126,
  "ur": 1127,
  "below</w>": 1128,
  "al-": 1129,
  "los</w>": 1130,
  "il": 1131,
  "via</w>": 1132,
  "als</w>": 1133,
  "jo": 1134,
  "ul": 1135,
  "charles</w>": 1136,
  "includes</w>": 1137,
  "female</w>": 1138,
  "mark</w>": 1139,
  "future</w>": 1140,
  "entire</w>": 1141,
  "ad</w>": 1142,
  "doesn</w>": 1143,
  "fine</w>": 1144,
  "washington</w>": 1145,
  "sal": 1146,
  "50</w>": 1147,
  "raised</w>": 1148,
  "stay</w>": 1149,
  "magazine</w>": 1150,
  "writing</w>": 1151,
  "ki": 1152,
  "okay</w>": 1153,
  "featured</w>": 1154,
  "means</w>": 1155,
  "happened</w>": 1156,
  "academy</w>": 1157,
  "q": 1158,
  "der": 1159,
  "et</w>": 1160,
  "ke</w>": 1161,
  "stopped</w>": 1162,
  "nodded</w>": 1163,
  "cut</w>": 1164,
  "onto</w>": 1165,
  "ina</w>": 1166,
  "w</w>": 1167,
  "sir</w>": 1168,
  "ch</w>": 1169,
  "mine</w>": 1170,
  "40</w>": 1171,
  "for": 1172,
  "civil</w>": 1173,
  "key</w>": 1174,
  "parts</w>": 1175,
  "master</w>": 1176,
  "parents</w>": 1177,
  "itself</w>": 1178,
  "sha": 1179,
  "hot</w>": 1180,
  "studies</w>": 1181,
  "lord</w>": 1182,
  "energy</w>": 1183,
  "ia</w>": 1184,
  ".": 1185,
  "federal</w>": 1186,
  "grand</w>": 1187,
  "date</w>": 1188,
  "previous</w>": 1189,
  "competition</w>": 1190,
  "can": 1191,
  "ice</w>": 1192,
  "model</w>": 1193,
  "fourth</w>": 1194,
  "1998</w>": 1195,
  "fell</w>": 1196,
  "henry</w>": 1197,
  "peter</w>": 1198,
  "ic": 1199,
  "saying</w>": 1200,
  "provided</w>": 1201,
  "replaced</w>": 1202,
  "allowed</w>": 1203,
  "av": 1204,
  "moving</w>": 1205,
  "wi": 1206,
  "conference</w>": 1207,
  "earlier</w>": 1208,
  "true</w>": 1209,
  "breath</w>": 1210,
  "market</w>": 1211,
  "kingdom</w>": 1212,
  "bel": 1213,
  "bay</w>": 1214,
  "professor</w>": 1215,
  "independent</w>": 1216,
  "ter</w>": 1217,
  "studio</w>": 1218,
  "awards</w>": 1219,
  "nearly</w>": 1220,
  "whose</w>": 1221,
  "ne</w>": 1222,
  "sk": 1223,
  "ons</w>": 1224,
  "ty</w>": 1225,
  "ended</w>": 1226,
  "skin</w>": 1227,
  "ten": 1228,
  "standing</w>": 1229,
  "mer": 1230,
  "degree</w>": 1231,
  "capital</w>": 1232,
  "ford</w>": 1233,
  "countries</w>": 1234,
  "interest</w>": 1235,
  "kill</w>": 1236,
  "medical</w>": 1237,
  "31</w>": 1238,
  "russian</w>": 1239,
  "coast</w>": 1240,
  "stated</w>": 1241,
  "hell</w>": 1242,
  "deal</w>": 1243,
  "tournament</w>": 1244,
  "matter</w>": 1245,
  "van</w>": 1246,
  "families</w>": 1247,
  "ju": 1248,
  "post</w>": 1249,
  "ks</w>": 1250,
  "campaign</w>": 1251,
  "sa</w>": 1252,
  "ph": 1253,
  "jack</w>": 1254,
  "certain</w>": 1255,
  "shows</w>": 1256,
  "ah</w>": 1257,
  "sports</w>": 1258,
  "fingers</w>": 1259,
  "older</w>": 1260,
  "everyone</w>": 1261,
  "organization</w>": 1262,
  "era</w>": 1263,
  "view</w>": 1264,
  "leader</w>": 1265,
  "awarded</w>": 1266,
  "pa": 1267,
  "lived</w>": 1268,
  "natural</w>": 1269,
  "aircraft</w>": 1270,
  "valley</w>": 1271,
  "1996</w>": 1272,
  "attention</w>": 1273,
  "square</w>": 1274,
  "japanese</w>": 1275,
  "anyone</w>": 1276,
  "opening</w>": 1277,
  "places</w>": 1278,
  "ve": 1279,
  "y-": 1280,
  "re-": 1281,
  "bur": 1282,
  "ask</w>": 1283,
  "canadian</w>": 1284,
  "captain</w>": 1285,
  "na": 1286,
  "kar": 1287,
  "chinese</w>": 1288,
  "chest</w>": 1289,
  "1997</w>": 1290,
  "introduced</w>": 1291,
  "technology</w>": 1292,
  "di</w>": 1293,
  "buildings</w>": 1294,
  "ed": 1295,
  "success</w>": 1296,
  "feeling</w>": 1297,
  "systems</w>": 1298,
  "security</w>": 1299,
  "ir": 1300,
  "entered</w>": 1301,
  "data</w>": 1302,
  "japan</w>": 1303,
  "job</w>": 1304,
  "smiled</w>": 1305,
  "officer</w>": 1306,
  "des</w>": 1307,
  "we": 1308,
  "port</w>": 1309,
  "mary</w>": 1310,
  "makes</w>": 1311,
  "weeks</w>": 1312,
  "films</w>": 1313,
  "provide</w>": 1314,
  "mis": 1315,
  "management</w>": 1316,
  "senior</w>": 1317,
  "staff</w>": 1318,
  "industry</w>": 1319,
  "higher</w>": 1320,
  "forced</w>": 1321,
  "queen</w>": 1322,
  "owned</w>": 1323,
  "meet</w>": 1324,
  "meeting</w>": 1325,
  "test</w>": 1326,
  "th</w>": 1327,
  "reason</w>": 1328,
  "tor": 1329,
  "listed</w>": 1330,
  "historic</w>": 1331,
  "christian</w>": 1332,
  "ago</w>": 1333,
  "successful</w>": 1334,
  "bar</w>": 1335,
  "lines</w>": 1336,
  "active</w>": 1337,
  "mr.</w>": 1338,
  "holding</w>": 1339,
  "die</w>": 1340,
  "rose</w>": 1341,
  "girls</w>": 1342,
  "smith</w>": 1343,
  "heavy</w>": 1344,
  "ay": 1345,
  "ing": 1346,
  "bill</w>": 1347,
  "takes</w>": 1348,
  "ou": 1349,
  "earth</w>": 1350,
  "theatre</w>": 1351,
  "native</w>": 1352,
  "shook</w>": 1353,
  "winning</w>": 1354,
  "approximately</w>": 1355,
  "covered</w>": 1356,
  "1995</w>": 1357,
  "press</w>": 1358,
  "previously</w>": 1359,
  "primary</w>": 1360,
  "id</w>": 1361,
  "husband</w>": 1362,
  "guy</w>": 1363,
  "spanish</w>": 1364,
  "clear</w>": 1365,
  "runs</w>": 1366,
  "den</w>": 1367,
  "cover</w>": 1368,
  "italian</w>": 1369,
  "command</w>": 1370,
  "sense</w>": 1371,
  "glass</w>": 1372,
  "a-": 1373,
  "giving</w>": 1374,
  "1992</w>": 1375,
  "1994</w>": 1376,
  "republic</w>": 1377,
  "regular</w>": 1378,
  "complete</w>": 1379,
  "chapter</w>": 1380,
  "africa</w>": 1381,
  "question</w>": 1382,
  "ca": 1383,
  "personal</w>": 1384,
  "lan": 1385,
  "meant</w>": 1386,
  "scored</w>": 1387,
  "ations</w>": 1388,
  "prior</w>": 1389,
  "ready</w>": 1390,
  "attended</w>": 1391,
  "cold</w>": 1392,
  "immediately</w>": 1393,
  "starting</w>": 1394,
  "related</w>": 1395,
  "br</w>": 1396,
  "channel</w>": 1397,
  "shi": 1398,
  "library</w>": 1399,
  "collection</w>": 1400,
  "whom</w>": 1401,
  "trade</w>": 1402,
  "sun</w>": 1403,
  "units</w>": 1404,
  "caught</w>": 1405,
  "student</w>": 1406,
  "mountain</w>": 1407,
  "cal": 1408,
  "standard</w>": 1409,
  "pal": 1410,
  "ra</w>": 1411,
  "richard</w>": 1412,
  "goal</w>": 1413,
  "operations</w>": 1414,
  "war": 1415,
  "contract</w>": 1416,
  "com": 1417,
  "pan": 1418,
  "unit</w>": 1419,
  "read</w>": 1420,
  "roman</w>": 1421,
  "co-": 1422,
  "gh": 1423,
  "10": 1424,
  "couple</w>": 1425,
  "quite</w>": 1426,
  "thinking</w>": 1427,
  "ca</w>": 1428,
  "texas</w>": 1429,
  "themselves</w>": 1430,
  "bal": 1431,
  "governor</w>": 1432,
  "co</w>": 1433,
  "generally</w>": 1434,
  "ys</w>": 1435,
  "artist</w>": 1436,
  "fu": 1437,
  "economic</w>": 1438,
  "den": 1439,
  "yeah</w>": 1440,
  "gar": 1441,
  "novel</w>": 1442,
  "gun</w>": 1443,
  "slowly</w>": 1444,
  "#</w>": 1445,
  "nine</w>": 1446,
  "ge</w>": 1447,
  "limited</w>": 1448,
  "significant</w>": 1449,
  "shoulder</w>": 1450,
  "managed</w>": 1451,
  "oc": 1452,
  "paris</w>": 1453,
  "j</w>": 1454,
  "ren": 1455,
  "cross</w>": 1456,
  "ps</w>": 1457,
  "fully</w>": 1458,
  "structure</w>": 1459,
  "studied</w>": 1460,
  "championships</w>": 1461,
  "offered</w>": 1462,
  "san": 1463,
  "ran": 1464,
  "property</w>": 1465,
  "regional</w>": 1466,
  "helped</w>": 1467,
  "month</w>": 1468,
  "plays</w>": 1469,
  "foreign</w>": 1470,
  "report</w>": 1471,
  "chair</w>": 1472,
  "1": 1473,
  "plant</w>": 1474,
  "hope</w>": 1475,
  "practice</w>": 1476,
  "ba</w>": 1477,
  "ga": 1478,
  "dance</w>": 1479,
  "out": 1480,
  "mostly</w>": 1481,
  "1993</w>": 1482,
  "ex": 1483,
  "ring</w>": 1484,
  "municipality</w>": 1485,
  "neck</w>": 1486,
  "sorry</w>": 1487,
  "traditional</w>": 1488,
  "*</w>": 1489,
  "1991</w>": 1490,
  "1990</w>": 1491,
  "pain</w>": 1492,
  "ling</w>": 1493,
  "noted</w>": 1494,
  "navy</w>": 1495,
  "forest</w>": 1496,
  "lies</w>": 1497,
  "ban": 1498,
  "wrong</w>": 1499,
  "required</w>": 1500,
  "operation</w>": 1501,
  "commission</w>": 1502,
  "ent": 1503,
  "loss</w>": 1504,
  "ze</w>": 1505,
  "dr.</w>": 1506,
  "ball</w>": 1507,
  "figure</w>": 1508,
  "completely</w>": 1509,
  "va</w>": 1510,
  "relationship</w>": 1511,
  "bring</w>": 1512,
  "ability</w>": 1513,
  "whether</w>": 1514,
  "access</w>": 1515,
  "ly": 1516,
  "dar": 1517,
  "comes</w>": 1518,
  "understand</w>": 1519,
  "defeated</w>": 1520,
  "bri": 1521,
  "tic</w>": 1522,
  "airport</w>": 1523,
  "dropped</w>": 1524,
  "african</w>": 1525,
  "initially</w>": 1526,
  "ard</w>": 1527,
  "walk</w>": 1528,
  "paper</w>": 1529,
  "ben": 1530,
  "eye</w>": 1531,
  "lives</w>": 1532,
  "culture</w>": 1533,
  "ger": 1534,
  "ones</w>": 1535,
  "stand</w>": 1536,
  "location</w>": 1537,
  "foundation</w>": 1538,
  "names</w>": 1539,
  "caused</w>": 1540,
  "catholic</w>": 1541,
  "companies</w>": 1542,
  "ships</w>": 1543,
  "highway</w>": 1544,
  "mission</w>": 1545,
  "ner</w>": 1546,
  "manager</w>": 1547,
  "engine</w>": 1548,
  "length</w>": 1549,
  "talking</w>": 1550,
  "tar": 1551,
  "decision</w>": 1552,
  "represented</w>": 1553,
  "ai": 1554,
  "han": 1555,
  "silver</w>": 1556,
  "ler</w>": 1557,
  "becoming</w>": 1558,
  "medal</w>": 1559,
  "carried</w>": 1560,
  "window</w>": 1561,
  "box</w>": 1562,
  "income</w>": 1563,
  "problem</w>": 1564,
  "ko</w>": 1565,
  "ent</w>": 1566,
  "remember</w>": 1567,
  "arrived</w>": 1568,
  "except</w>": 1569,
  "val": 1570,
  "individual</w>": 1571,
  "pass</w>": 1572,
  "direction</w>": 1573,
  "stars</w>": 1574,
  "drive</w>": 1575,
  "az": 1576,
  "men": 1577,
  "numerous</w>": 1578,
  "movie</w>": 1579,
  "break</w>": 1580,
  "parliament</w>": 1581,
  "assembly</w>": 1582,
  "cre": 1583,
  "ite</w>": 1584,
  "surface</w>": 1585,
  "believed</w>": 1586,
  "sar": 1587,
  "famous</w>": 1588,
  "reach</w>": 1589,
  "commercial</w>": 1590,
  "launched</w>": 1591,
  "step</w>": 1592,
  "annual</w>": 1593,
  "perhaps</w>": 1594,
  "appearance</w>": 1595,
  "ang": 1596,
  "experience</w>": 1597,
  "watch</w>": 1598,
  "lin": 1599,
  "suddenly</w>": 1600,
  "chicago</w>": 1601,
  "fe": 1602,
  "mac": 1603,
  "cast</w>": 1604,
  "on-": 1605,
  "castle</w>": 1606,
  "minute</w>": 1607,
  "additional</w>": 1608,
  "issues</w>": 1609,
  "chance</w>": 1610,
  "ally</w>": 1611,
  "edge</w>": 1612,
  "watched</w>": 1613,
  "sel": 1614,
  "source</w>": 1615,
  "victory</w>": 1616,
  "del": 1617,
  "particularly</w>": 1618,
  "ways</w>": 1619,
  "artists</w>": 1620,
  "ireland</w>": 1621,
  "male</w>": 1622,
  "prince</w>": 1623,
  "fo": 1624,
  "nature</w>": 1625,
  "particular</w>": 1626,
  "1989</w>": 1627,
  "fa": 1628,
  "ness</w>": 1629,
  "train</w>": 1630,
  "legs</w>": 1631,
  "wing</w>": 1632,
  "trust</w>": 1633,
  "writer</w>": 1634,
  "self-": 1635,
  "gen": 1636,
  "lady</w>": 1637,
  "associated</w>": 1638,
  "fort</w>": 1639,
  "miles</w>": 1640,
  "waiting</w>": 1641,
  "ded</w>": 1642,
  "mat": 1643,
  "tree</w>": 1644,
  "evidence</w>": 1645,
  "up": 1646,
  "answer</w>": 1647,
  "hotel</w>": 1648,
  "houses</w>": 1649,
  "super": 1650,
  "ham</w>": 1651,
  "da": 1652,
  "speed</w>": 1653,
  "grew</w>": 1654,
  "14": 1655,
  "beautiful</w>": 1656,
  "ha</w>": 1657,
  "hour</w>": 1658,
  "terms</w>": 1659,
  "foot</w>": 1660,
  "ev": 1661,
  "piece</w>": 1662,
  "simply</w>": 1663,
  "musical</w>": 1664,
  "yo": 1665,
  "camp</w>": 1666,
  "guard</w>": 1667,
  "soviet</w>": 1668,
  "under": 1669,
  "ic</w>": 1670,
  "lee</w>": 1671,
  "issue</w>": 1672,
  "secretary</w>": 1673,
  "hurt</w>": 1674,
  "distance</w>": 1675,
  "1988</w>": 1676,
  "boys</w>": 1677,
  "executive</w>": 1678,
  "rate</w>": 1679,
  "wait</w>": 1680,
  "min": 1681,
  "complex</w>": 1682,
  "changes</w>": 1683,
  "author</w>": 1684,
  "looks</w>": 1685,
  "financial</w>": 1686,
  "baby</w>": 1687,
  "mexico</w>": 1688,
  "ings</w>": 1689,
  "ding</w>": 1690,
  "metal</w>": 1691,
  "ty": 1692,
  "corner</w>": 1693,
  "response</w>": 1694,
  "increased</w>": 1695,
  "miss</w>": 1696,
  "ian</w>": 1697,
  "highest</w>": 1698,
  "subject</w>": 1699,
  "edition</w>": 1700,
  "br": 1701,
  "ce</w>": 1702,
  "religious</w>": 1703,
  "happy</w>": 1704,
  "bus</w>": 1705,
  "youth</w>": 1706,
  "failed</w>": 1707,
  "worth</w>": 1708,
  "empire</w>": 1709,
  "contains</w>": 1710,
  "computer</w>": 1711,
  "isn</w>": 1712,
  "upper</w>": 1713,
  "remains</w>": 1714,
  "dad</w>": 1715,
  "create</w>": 1716,
  "ki</w>": 1717,
  "brothers</w>": 1718,
  "ser": 1719,
  "policy</w>": 1720,
  "majority</w>": 1721,
  "bre": 1722,
  "13": 1723,
  "tracks</w>": 1724,
  "virginia</w>": 1725,
  "italy</w>": 1726,
  "uses</w>": 1727,
  "larger</w>": 1728,
  "pri": 1729,
  "sing</w>": 1730,
  "characters</w>": 1731,
  "ancient</w>": 1732,
  "plans</w>": 1733,
  "serving</w>": 1734,
  "pretty</w>": 1735,
  "material</w>": 1736,
  "review</w>": 1737,
  "likely</w>": 1738,
  "allow</w>": 1739,
  "programs</w>": 1740,
  "zealand</w>": 1741,
  "65</w>": 1742,
  "legal</w>": 1743,
  "ka": 1744,
  "straight</w>": 1745,
  "please</w>": 1746,
  "basketball</w>": 1747,
  "temple</w>": 1748,
  "activities</w>": 1749,
  "cases</w>": 1750,
  "hol": 1751,
  "winter</w>": 1752,
  "shown</w>": 1753,
  "selected</w>": 1754,
  "singer</w>": 1755,
  "nearby</w>": 1756,
  "agreed</w>": 1757,
  "pen": 1758,
  "rural</w>": 1759,
  "subsequently</w>": 1760,
  "directly</w>": 1761,
  "expected</w>": 1762,
  "angeles</w>": 1763,
  "ms</w>": 1764,
  "0.": 1765,
  "1987</w>": 1766,
  "fish</w>": 1767,
  "scene</w>": 1768,
  "effect</w>": 1769,
  "bor": 1770,
  "fast</w>": 1771,
  "problems</w>": 1772,
  "theory</w>": 1773,
  "marriage</w>": 1774,
  "ker</w>": 1775,
  "cultural</w>": 1776,
  "tre": 1777,
  "gra": 1778,
  "historical</w>": 1779,
  "beyond</w>": 1780,
  "sts</w>": 1781,
  "zed</w>": 1782,
  "filled</w>": 1783,
  "fighting</w>": 1784,
  "eu": 1785,
  "ga</w>": 1786,
  "recent</w>": 1787,
  "ville</w>": 1788,
  "administration</w>": 1789,
  "cause</w>": 1790,
  "results</w>": 1791,
  "claimed</w>": 1792,
  "attempt</w>": 1793,
  "retired</w>": 1794,
  "1986</w>": 1795,
  "discovered</w>": 1796,
  "greek</w>": 1797,
  "sitting</w>": 1798,
  "score</w>": 1799,
  "ram": 1800,
  "pl": 1801,
  "feature</w>": 1802,
  "bra": 1803,
  "closer</w>": 1804,
  "notable</w>": 1805,
  "stadium</w>": 1806,
  "operated</w>": 1807,
  "stared</w>": 1808,
  "ster</w>": 1809,
  "pay</w>": 1810,
  "matches</w>": 1811,
  "re</w>": 1812,
  "hel": 1813,
  "mom</w>": 1814,
  "vo": 1815,
  "variety</w>": 1816,
  "cell</w>": 1817,
  "far": 1818,
  "stories</w>": 1819,
  "poor</w>": 1820,
  "sex</w>": 1821,
  "fellow</w>": 1822,
  "martin</w>": 1823,
  "ill</w>": 1824,
  "goals</w>": 1825,
  "lay</w>": 1826,
  "1984</w>": 1827,
  "12": 1828,
  "cost</w>": 1829,
  "rec": 1830,
  "islands</w>": 1831,
  "forms</w>": 1832,
  "exactly</w>": 1833,
  "supported</w>": 1834,
  "1st</w>": 1835,
  "wind</w>": 1836,
  "recording</w>": 1837,
  "touch</w>": 1838,
  "soldiers</w>": 1839,
  "anna</w>": 1840,
  "pennsylvania</w>": 1841,
  "wa": 1842,
  "joseph</w>": 1843,
  "genus</w>": 1844,
  "nu": 1845,
  "meaning</w>": 1846,
  "ali": 1847,
  "color</w>": 1848,
  "1985</w>": 1849,
  "je": 1850,
  "hor": 1851,
  "fer": 1852,
  "remaining</w>": 1853,
  "flight</w>": 1854,
  "60</w>": 1855,
  "justice</w>": 1856,
  "45</w>": 1857,
  "focus</w>": 1858,
  "sam</w>": 1859,
  "broke</w>": 1860,
  "1980</w>": 1861,
  "continue</w>": 1862,
  "earned</w>": 1863,
  "store</w>": 1864,
  "hal": 1865,
  "florida</w>": 1866,
  "win": 1867,
  "hy": 1868,
  "spring</w>": 1869,
  "stations</w>": 1870,
  "ve</w>": 1871,
  "sen": 1872,
  "don": 1873,
  "specific</w>": 1874,
  "ins</w>": 1875,
  "j.</w>": 1876,
  "fear</w>": 1877,
  "headed</w>": 1878,
  "tower</w>": 1879,
  "doctor</w>": 1880,
  "chart</w>": 1881,
  "olympics</w>": 1882,
  "kiss</w>": 1883,
  "status</w>": 1884,
  "ordered</w>": 1885,
  "beach</w>": 1886,
  "safe</w>": 1887,
  "separate</w>": 1888,
  "bishop</w>": 1889,
  "ses</w>": 1890,
  "therefore</w>": 1891,
  "tes</w>": 1892,
  "irish</w>": 1893,
  "gaze</w>": 1894,
  "tions</w>": 1895,
  "referred</w>": 1896,
  "realized</w>": 1897,
  "goes</w>": 1898,
  "slightly</w>": 1899,
  "congress</w>": 1900,
  "join</w>": 1901,
  "peace</w>": 1902,
  "appears</w>": 1903,
  "ator</w>": 1904,
  "tan": 1905,
  "responsible</w>": 1906,
  "overall</w>": 1907,
  "cities</w>": 1908,
  "trees</w>": 1909,
  "s.</w>": 1910,
  "gal": 1911,
  "troops</w>": 1912,
  "watching</w>": 1913,
  "stepped</w>": 1914,
  "oil</w>": 1915,
  "ai</w>": 1916,
  "ari": 1917,
  "sign</w>": 1918,
  "presented</w>": 1919,
  "horse</w>": 1920,
  "pacific</w>": 1921,
  "democratic</w>": 1922,
  "weight</w>": 1923,
  "whatever</w>": 1924,
  "mag": 1925,
  "sed</w>": 1926,
  "showed</w>": 1927,
  "gre": 1928,
  "growing</w>": 1929,
  "physical</w>": 1930,
  "spread</w>": 1931,
  "anti-": 1932,
  "junior</w>": 1933,
  "tom</w>": 1934,
  "parish</w>": 1935,
  "and": 1936,
  "individuals</w>": 1937,
  "1983</w>": 1938,
  "serve</w>": 1939,
  "dec": 1940,
  "bro": 1941,
  "wales</w>": 1942,
  "saint</w>": 1943,
  "assistant</w>": 1944,
  "ste": 1945,
  "prime</w>": 1946,
  "choice</w>": 1947,
  "acting</w>": 1948,
  "nations</w>": 1949,
  "res</w>": 1950,
  "the": 1951,
  "composed</w>": 1952,
  "chairman</w>": 1953,
  "township</w>": 1954,
  "mel": 1955,
  "truth</w>": 1956,
  "branch</w>": 1957,
  "tro": 1958,
  "greater</w>": 1959,
  "broken</w>": 1960,
  "no.</w>": 1961,
  "increase</w>": 1962,
  "pushed</w>": 1963,
  "creek</w>": 1964,
  "sleep</w>": 1965,
  "ff": 1966,
  "1982</w>": 1967,
  "expression</w>": 1968,
  "mm</w>": 1969,
  "sti": 1970,
  "rule</w>": 1971,
  "ce": 1972,
  "note</w>": 1973,
  "tion</w>": 1974,
  "workers</w>": 1975,
  "walls</w>": 1976,
  "mainly</w>": 1977,
  "fifth</w>": 1978,
  "numbers</w>": 1979,
  "situation</w>": 1980,
  "wil": 1981,
  "nation</w>": 1982,
  "louis</w>": 1983,
  "cars</w>": 1984,
  "code</w>": 1985,
  "mid-": 1986,
  "actor</w>": 1987,
  "appear</w>": 1988,
  "af": 1989,
  "nice</w>": 1990,
  "ss</w>": 1991,
  "hundred</w>": 1992,
  "spoke</w>": 1993,
  "k-": 1994,
  "planned</w>": 1995,
  "ach": 1996,
  "throat</w>": 1997,
  "speak</w>": 1998,
  "ong</w>": 1999,
  "laughed</w>": 2000,
  "baseball</w>": 2001,
  "seeing</w>": 2002,
  "lie</w>": 2003,
  "del</w>": 2004,
  "direct</w>": 2005,
  "difficult</w>": 2006,
  "gas</w>": 2007,
  "gri": 2008,
  "cr": 2009,
  "engineering</w>": 2010,
  "charge</w>": 2011,
  "beat</w>": 2012,
  "ata</w>": 2013,
  "seasons</w>": 2014,
  "provides</w>": 2015,
  "q</w>": 2016,
  "secret</w>": 2017,
  "1979</w>": 2018,
  "normal</w>": 2019,
  "recently</w>": 2020,
  "ay</w>": 2021,
  "za</w>": 2022,
  "border</w>": 2023,
  "edward</w>": 2024,
  "soft</w>": 2025,
  "extended</w>": 2026,
  "sin": 2027,
  "removed</w>": 2028,
  "offer</w>": 2029,
  "tra": 2030,
  "1972</w>": 2031,
  "windows</w>": 2032,
  "males</w>": 2033,
  "producer</w>": 2034,
  "wal": 2035,
  "settled</w>": 2036,
  "leaves</w>": 2037,
  "broadcast</w>": 2038,
  "sons</w>": 2039,
  "ass</w>": 2040,
  "russia</w>": 2041,
  "competed</w>": 2042,
  "share</w>": 2043,
  "singles</w>": 2044,
  "ny</w>": 2045,
  "presence</w>": 2046,
  "|</w>": 2047,
  "lack</w>": 2048,
  "in-": 2049,
  "territory</w>": 2050,
  "um": 2051,
  "jewish</w>": 2052,
  "1945</w>": 2053,
  "consists</w>": 2054,
  "ham": 2055,
  "tal": 2056,
  "et": 2057,
  "ey</w>": 2058,
  "minor</w>": 2059,
  "gate</w>": 2060,
  "crew</w>": 2061,
  "memory</w>": 2062,
  "commander</w>": 2063,
  "ment</w>": 2064,
  "spain</w>": 2065,
  "latter</w>": 2066,
  "letter</w>": 2067,
  "products</w>": 2068,
  "influence</w>": 2069,
  "sides</w>": 2070,
  "daily</w>": 2071,
  "ash": 2072,
  "heat</w>": 2073,
  "berg</w>": 2074,
  "anti": 2075,
  "authority</w>": 2076,
  "drama</w>": 2077,
  "walking</w>": 2078,
  "bs</w>": 2079,
  "article</w>": 2080,
  "my": 2081,
  "tive</w>": 2082,
  "smaller</w>": 2083,
  "officers</w>": 2084,
  "80</w>": 2085,
  "females</w>": 2086,
  "turning</w>": 2087,
  "1976</w>": 2088,
  "simple</w>": 2089,
  "seconds</w>": 2090,
  "intended</w>": 2091,
  "ben</w>": 2092,
  "1981</w>": 2093,
  "ahead</w>": 2094,
  "1974</w>": 2095,
  "champion</w>": 2096,
  "lands</w>": 2097,
  "shut</w>": 2098,
  "acquired</w>": 2099,
  "bas": 2100,
  "perfect</w>": 2101,
  "campus</w>": 2102,
  "multiple</w>": 2103,
  "reading</w>": 2104,
  "picked</w>": 2105,
  "que</w>": 2106,
  "ages</w>": 2107,
  "ties</w>": 2108,
  "easy</w>": 2109,
  "follow</w>": 2110,
  "ati": 2111,
  "value</w>": 2112,
  "air": 2113,
  "a.</w>": 2114,
  "serious</w>": 2115,
  "35</w>": 2116,
  "replied</w>": 2117,
  "mayor</w>": 2118,
  "poland</w>": 2119,
  "whispered</w>": 2120,
  "ff</w>": 2121,
  "ino</w>": 2122,
  "firm</w>": 2123,
  "paid</w>": 2124,
  "1978</w>": 2125,
  "ines</w>": 2126,
  "britain</w>": 2127,
  "1975</w>": 2128,
  "1970</w>": 2129,
  "journal</w>": 2130,
  "ven": 2131,
  "ze": 2132,
  "sy": 2133,
  "mad": 2134,
  "golden</w>": 2135,
  "200</w>": 2136,
  "newspaper</w>": 2137,
  "1968</w>": 2138,
  "glanced</w>": 2139,
  "shortly</w>": 2140,
  "sur": 2141,
  "lin</w>": 2142,
  "amount</w>": 2143,
  "vote</w>": 2144,
  "block</w>": 2145,
  "che": 2146,
  "judge</w>": 2147,
  "proposed</w>": 2148,
  "estate</w>": 2149,
  "mike</w>": 2150,
  "beside</w>": 2151,
  "recognized</w>": 2152,
  "graduated</w>": 2153,
  "kitchen</w>": 2154,
  "levels</w>": 2155,
  "haven</w>": 2156,
  "grade</w>": 2157,
  "elections</w>": 2158,
  "rules</w>": 2159,
  "defense</w>": 2160,
  "prize</w>": 2161,
  "constructed</w>": 2162,
  "screen</w>": 2163,
  "quality</w>": 2164,
  "knowledge</w>": 2165,
  "mas": 2166,
  "90</w>": 2167,
  "mil": 2168,
  "cat": 2169,
  "ish</w>": 2170,
  "zi": 2171,
  "conditions</w>": 2172,
  "+</w>": 2173,
  "needs</w>": 2174,
  "pressure</w>": 2175,
  "image</w>": 2176,
  "highly</w>": 2177,
  "agreement</w>": 2178,
  "iron</w>": 2179,
  "prison</w>": 2180,
  "twice</w>": 2181,
  "administrative</w>": 2182,
  "ker": 2183,
  "loved</w>": 2184,
  "regiment</w>": 2185,
  "host</w>": 2186,
  "thank</w>": 2187,
  "seems</w>": 2188,
  "star": 2189,
  "boat</w>": 2190,
  "ob": 2191,
  "races</w>": 2192,
  "digital</w>": 2193,
  "ada</w>": 2194,
  "drew</w>": 2195,
  "pol": 2196,
  "pat": 2197,
  "pop</w>": 2198,
  "ken": 2199,
  "two-": 2200,
  "2nd</w>": 2201,
  "double</w>": 2202,
  "promoted</w>": 2203,
  "1973</w>": 2204,
  "all-": 2205,
  "sw": 2206,
  "save</w>": 2207,
  "percent</w>": 2208,
  "emperor</w>": 2209,
  "tw": 2210,
  "1977</w>": 2211,
  "corps</w>": 2212,
  "70</w>": 2213,
  "ja</w>": 2214,
  "label</w>": 2215,
  "cam": 2216,
  "elements</w>": 2217,
  "finish</w>": 2218,
  "ss": 2219,
  "revealed</w>": 2220,
  "ked</w>": 2221,
  "officially</w>": 2222,
  "col": 2223,
  "function</w>": 2224,
  "ger</w>": 2225,
  "carolina</w>": 2226,
  "dor": 2227,
  "mentioned</w>": 2228,
  "residents</w>": 2229,
  "households</w>": 2230,
  "issued</w>": 2231,
  "dog</w>": 2232,
  "ep": 2233,
  "ano</w>": 2234,
  "joe</w>": 2235,
  "tr": 2236,
  "sen</w>": 2237,
  "iii</w>": 2238,
  "gets</w>": 2239,
  "ity</w>": 2240,
  "ell</w>": 2241,
  "kin</w>": 2242,
  "ence</w>": 2243,
  "albums</w>": 2244,
  "mass</w>": 2245,
  "leaned</w>": 2246,
  "kh": 2247,
  "hockey</w>": 2248,
  "purpose</w>": 2249,
  "spot</w>": 2250,
  "ski</w>": 2251,
  "growth</w>": 2252,
  "visit</w>": 2253,
  "housing</w>": 2254,
  "guess</w>": 2255,
  "losing</w>": 2256,
  "asian</w>": 2257,
  "positive</w>": 2258,
  "powerful</w>": 2259,
  "1971</w>": 2260,
  "tonight</w>": 2261,
  "farm</w>": 2262,
  "jones</w>": 2263,
  "ani": 2264,
  "politician</w>": 2265,
  "primarily</w>": 2266,
  "cy": 2267,
  "ali</w>": 2268,
  "gro": 2269,
  "marine</w>": 2270,
  "median</w>": 2271,
  "teacher</w>": 2272,
  "effort</w>": 2273,
  "racing</w>": 2274,
  "pair</w>": 2275,
  "destroyed</w>": 2276,
  "aged</w>": 2277,
  "travel</w>": 2278,
  "1969</w>": 2279,
  "ara</w>": 2280,
  "build</w>": 2281,
  "text</w>": 2282,
  "sis</w>": 2283,
  "dutch</w>": 2284,
  "safety</w>": 2285,
  "online</w>": 2286,
  "ja": 2287,
  "ky</w>": 2288,
  "gives</w>": 2289,
  "none</w>": 2290,
  "storm</w>": 2291,
  "500</w>": 2292,
  "frank</w>": 2293,
  "buried</w>": 2294,
  "activity</w>": 2295,
  "li</w>": 2296,
  "boston</w>": 2297,
  "gbp</w>": 2298,
  "accepted</w>": 2299,
  "pin": 2300,
  "inc": 2301,
  "one-": 2302,
  "lar": 2303,
  "supposed</w>": 2304,
  "grabbed</w>": 2305,
  "remain</w>": 2306,
  "latin</w>": 2307,
  "0": 2308,
  "evening</w>": 2309,
  "cap": 2310,
  "divided</w>": 2311,
  "fields</w>": 2312,
  "1967</w>": 2313,
  "pa</w>": 2314,
  "projects</w>": 2315,
  "pre-": 2316,
  "slow</w>": 2317,
  "page</w>": 2318,
  "ry": 2319,
  "younger</w>": 2320,
  "scotland</w>": 2321,
  "seem</w>": 2322,
  "secondary</w>": 2323,
  "produce</w>": 2324,
  "protection</w>": 2325,
  "unable</w>": 2326,
  "corporation</w>": 2327,
  "appearances</w>": 2328,
  "picture</w>": 2329,
  "ak</w>": 2330,
  "tears</w>": 2331,
  "ministry</w>": 2332,
  "garden</w>": 2333,
  "approach</w>": 2334,
  "bottom</w>": 2335,
  "suggested</w>": 2336,
  "transferred</w>": 2337,
  "shoulders</w>": 2338,
  "contact</w>": 2339,
  "academic</w>": 2340,
  "cas": 2341,
  "pr": 2342,
  "warm</w>": 2343,
  "est</w>": 2344,
  "1980s</w>": 2345,
  "machine</w>": 2346,
  "global</w>": 2347,
  "kal": 2348,
  "taught</w>": 2349,
  "ism</w>": 2350,
  "dy</w>": 2351,
  "64</w>": 2352,
  "2.": 2353,
  "questions</w>": 2354,
  "editor</w>": 2355,
  "scott</w>": 2356,
  "sort</w>": 2357,
  "initial</w>": 2358,
  "ann": 2359,
  "formation</w>": 2360,
  "easily</w>": 2361,
  "duke</w>": 2362,
  "card</w>": 2363,
  "effects</w>": 2364,
  "fought</w>": 2365,
  "ale</w>": 2366,
  "ji</w>": 2367,
  "alongside</w>": 2368,
  "escape</w>": 2369,
  "sit</w>": 2370,
  "mann</w>": 2371,
  "mount</w>": 2372,
  "strength</w>": 2373,
  "telling</w>": 2374,
  "basis</w>": 2375,
  "char": 2376,
  "treatment</w>": 2377,
  "han</w>": 2378,
  "risk</w>": 2379,
  "asia</w>": 2380,
  "typically</w>": 2381,
  "un</w>": 2382,
  "tells</w>": 2383,
  "exchange</w>": 2384,
  "types</w>": 2385,
  "ur</w>": 2386,
  "mile</w>": 2387,
  "begin</w>": 2388,
  "contemporary</w>": 2389,
  "bl": 2390,
  "ori": 2391,
  "prominent</w>": 2392,
  "settlement</w>": 2393,
  "gray</w>": 2394,
  "kan": 2395,
  "protect</w>": 2396,
  "potential</w>": 2397,
  "avenue</w>": 2398,
  "equipment</w>": 2399,
  "ends</w>": 2400,
  "formerly</w>": 2401,
  "alexander</w>": 2402,
  "gun": 2403,
  "ti</w>": 2404,
  "path</w>": 2405,
  "ary</w>": 2406,
  "bon": 2407,
  "1964</w>": 2408,
  "birth</w>": 2409,
  "urban</w>": 2410,
  "mountains</w>": 2411,
  "organized</w>": 2412,
  "19th</w>": 2413,
  "victoria</w>": 2414,
  "rugby</w>": 2415,
  "transport</w>": 2416,
  "francisco</w>": 2417,
  "flying</w>": 2418,
  "fin": 2419,
  "efforts</w>": 2420,
  "teeth</w>": 2421,
  "huge</w>": 2422,
  "magic</w>": 2423,
  "winner</w>": 2424,
  "rich</w>": 2425,
  "follows</w>": 2426,
  "steps</w>": 2427,
  "clubs</w>": 2428,
  "1970s</w>": 2429,
  "search</w>": 2430,
  "lam": 2431,
  "reserve</w>": 2432,
  "damage</w>": 2433,
  "industrial</w>": 2434,
  "super</w>": 2435,
  "republican</w>": 2436,
  "ry</w>": 2437,
  "zone</w>": 2438,
  "thanks</w>": 2439,
  "lifted</w>": 2440,
  "leg</w>": 2441,
  "ohio</w>": 2442,
  "bo</w>": 2443,
  "honor</w>": 2444,
  "ek</w>": 2445,
  "pieces</w>": 2446,
  "ber</w>": 2447,
  "yellow</w>": 2448,
  "shirt</w>": 2449,
  "advanced</w>": 2450,
  "anne</w>": 2451,
  "cer": 2452,
  "ors</w>": 2453,
  "ters</w>": 2454,
  "vel": 2455,
  "jersey</w>": 2456,
  "leaders</w>": 2457,
  "senate</w>": 2458,
  "traffic</w>": 2459,
  "pointed</w>": 2460,
  "literature</w>": 2461,
  "32</w>": 2462,
  "44</w>": 2463,
  "opera</w>": 2464,
  "connected</w>": 2465,
  "keeping</w>": 2466,
  "occurred</w>": 2467,
  "owner</w>": 2468,
  "trial</w>": 2469,
  "sam": 2470,
  "sion</w>": 2471,
  "compared</w>": 2472,
  "yards</w>": 2473,
  "ative</w>": 2474,
  "ella</w>": 2475,
  "youre</w>": 2476,
  "focused</w>": 2477,
  "cl": 2478,
  "candidate</w>": 2479,
  "mixed</w>": 2480,
  "dr": 2481,
  "website</w>": 2482,
  "ore</w>": 2483,
  "laid</w>": 2484,
  "cur": 2485,
  "wild</w>": 2486,
  "sol": 2487,
  "defeat</w>": 2488,
  "commonly</w>": 2489,
  "1965</w>": 2490,
  "fleet</w>": 2491,
  "grant</w>": 2492,
  "dan": 2493,
  "register</w>": 2494,
  "falls</w>": 2495,
  "dedicated</w>": 2496,
  "wearing</w>": 2497,
  "combined</w>": 2498,
  "notes</w>": 2499,
  "ash</w>": 2500,
  "captured</w>": 2501,
  "bought</w>": 2502,
  "michigan</w>": 2503,
  "draw</w>": 2504,
  "renamed</w>": 2505,
  "pull</w>": 2506,
  "elizabeth</w>": 2507,
  "agency</w>": 2508,
  "1966</w>": 2509,
  "happen</w>": 2510,
  "row</w>": 2511,
  "split</w>": 2512,
  "ac</w>": 2513,
  "johnson</w>": 2514,
  "refused</w>": 2515,
  "entertainment</w>": 2516,
  "wants</w>": 2517,
  "sil": 2518,
  "steel</w>": 2519,
  "participated</w>": 2520,
  "guitar</w>": 2521,
  "capacity</w>": 2522,
  "offers</w>": 2523,
  "tone</w>": 2524,
  "ful</w>": 2525,
  "naval</w>": 2526,
  "faced</w>": 2527,
  "daniel</w>": 2528,
  "product</w>": 2529,
  "planning</w>": 2530,
  "assigned</w>": 2531,
  "account</w>": 2532,
  "ches</w>": 2533,
  "cho": 2534,
  "returning</w>": 2535,
  "dress</w>": 2536,
  "purchased</w>": 2537,
  "agent</w>": 2538,
  "declared</w>": 2539,
  "electric</w>": 2540,
  "ders</w>": 2541,
  "20th</w>": 2542,
  "il</w>": 2543,
  "dun": 2544,
  "israel</w>": 2545,
  "1.": 2546,
  "m.</w>": 2547,
  "knowing</w>": 2548,
  "gained</w>": 2549,
  "serves</w>": 2550,
  "nick</w>": 2551,
  "gor": 2552,
  "price</w>": 2553,
  "affairs</w>": 2554,
  "ster": 2555,
  "williams</w>": 2556,
  "ken</w>": 2557,
  "murder</w>": 2558,
  "lat": 2559,
  "alive</w>": 2560,
  "tt</w>": 2561,
  "operating</w>": 2562,
  "coffee</w>": 2563,
  "sight</w>": 2564,
  "1960</w>": 2565,
  "necessary</w>": 2566,
  "bodies</w>": 2567,
  "sounds</w>": 2568,
  "doors</w>": 2569,
  "three-": 2570,
  "software</w>": 2571,
  "ade</w>": 2572,
  "ens</w>": 2573,
  "gs</w>": 2574,
  "surrounding</w>": 2575,
  "rise</w>": 2576,
  "ls</w>": 2577,
  "1944</w>": 2578,
  "marked</w>": 2579,
  "sydney</w>": 2580,
  "sources</w>": 2581,
  "rail</w>": 2582,
  "3rd</w>": 2583,
  "facilities</w>": 2584,
  "beneath</w>": 2585,
  "usa</w>": 2586,
  "scientific</w>": 2587,
  "conducted</w>": 2588,
  "dream</w>": 2589,
  "all": 2590,
  "damn</w>": 2591,
  "bbc</w>": 2592,
  "fc</w>": 2593,
  "plants</w>": 2594,
  "tur": 2595,
  "dy": 2596,
  "dry</w>": 2597,
  "bc</w>": 2598,
  "memorial</w>": 2599,
  "ending</w>": 2600,
  "ear</w>": 2601,
  "setting</w>": 2602,
  "mer</w>": 2603,
  "platform</w>": 2604,
  "leadership</w>": 2605,
  "por": 2606,
  "nar": 2607,
  "hand": 2608,
  "columbia</w>": 2609,
  "empty</w>": 2610,
  "vision</w>": 2611,
  "clothes</w>": 2612,
  "fair</w>": 2613,
  "quiet</w>": 2614,
  "tall</w>": 2615,
  "headquarters</w>": 2616,
  "positions</w>": 2617,
  "scottish</w>": 2618,
  "finger</w>": 2619,
  "sh</w>": 2620,
  "ir</w>": 2621,
  "ns</w>": 2622,
  "75</w>": 2623,
  "continues</w>": 2624,
  "critical</w>": 2625,
  "speaking</w>": 2626,
  "apart</w>": 2627,
  "suffered</w>": 2628,
  "si</w>": 2629,
  "calling</w>": 2630,
  "widely</w>": 2631,
  "chosen</w>": 2632,
  "silence</w>": 2633,
  "entrance</w>": 2634,
  "featuring</w>": 2635,
  "environment</w>": 2636,
  "polish</w>": 2637,
  "animals</w>": 2638,
  "content</w>": 2639,
  "gr": 2640,
  "holy</w>": 2641,
  "ies</w>": 2642,
  "lock</w>": 2643,
  "powers</w>": 2644,
  "languages</w>": 2645,
  "humans</w>": 2646,
  "georgia</w>": 2647,
  "concept</w>": 2648,
  "reaching</w>": 2649,
  "cro": 2650,
  "painting</w>": 2651,
  "hen": 2652,
  "c.</w>": 2653,
  "1960s</w>": 2654,
  "aid</w>": 2655,
  "adopted</w>": 2656,
  "squadron</w>": 2657,
  "net</w>": 2658,
  "sets</w>": 2659,
  "method</w>": 2660,
  "brain</w>": 2661,
  "soul</w>": 2662,
  "sport</w>": 2663,
  "sweet</w>": 2664,
  "possibly</w>": 2665,
  "cle": 2666,
  "solo</w>": 2667,
  "mul": 2668,
  "ang</w>": 2669,
  "est": 2670,
  "stock</w>": 2671,
  "kin": 2672,
  "sun": 2673,
  "learning</w>": 2674,
  "pressed</w>": 2675,
  "vol": 2676,
  "head": 2677,
  "thats</w>": 2678,
  "shit</w>": 2679,
  "footballer</w>": 2680,
  "passing</w>": 2681,
  "determined</w>": 2682,
  "e.</w>": 2683,
  "parties</w>": 2684,
  "driver</w>": 2685,
  "stomach</w>": 2686,
  "iran</w>": 2687,
  "heads</w>": 2688,
  "shared</w>": 2689,
  "claim</w>": 2690,
  "3-": 2691,
  "enemy</w>": 2692,
  "analysis</w>": 2693,
  "applied</w>": 2694,
  "kids</w>": 2695,
  "anyway</w>": 2696,
  "bag</w>": 2697,
  "joint</w>": 2698,
  "core</w>": 2699,
  "ocean</w>": 2700,
  "animal</w>": 2701,
  "knows</w>": 2702,
  "largely</w>": 2703,
  "black": 2704,
  "estimated</w>": 2705,
  "chris</w>": 2706,
  "bright</w>": 2707,
  "pur": 2708,
  "pick</w>": 2709,
  "ere</w>": 2710,
  "freedom</w>": 2711,
  "alex</w>": 2712,
  "principal</w>": 2713,
  "comedy</w>": 2714,
  "infantry</w>": 2715,
  "classes</w>": 2716,
  "gil": 2717,
  "palace</w>": 2718,
  "nor": 2719,
  "bat": 2720,
  "els</w>": 2721,
  "4-": 2722,
  "max</w>": 2723,
  "armed</w>": 2724,
  "guys</w>": 2725,
  "dri": 2726,
  "tight</w>": 2727,
  "acts</w>": 2728,
  "ei": 2729,
  "1963</w>": 2730,
  "thoughts</w>": 2731,
  "letters</w>": 2732,
  "wa</w>": 2733,
  "lights</w>": 2734,
  "theater</w>": 2735,
  "tru": 2736,
  "lose</w>": 2737,
  "tax</w>": 2738,
  "2-": 2739,
  "crowd</w>": 2740,
  "1962</w>": 2741,
  "stayed</w>": 2742,
  "noticed</w>": 2743,
  "turns</w>": 2744,
  "twenty</w>": 2745,
  "holds</w>": 2746,
  "thick</w>": 2747,
  "us": 2748,
  "du</w>": 2749,
  "technical</w>": 2750,
  "begins</w>": 2751,
  "maria</w>": 2752,
  "1990s</w>": 2753,
  "weapons</w>": 2754,
  "communities</w>": 2755,
  "rolled</w>": 2756,
  "crime</w>": 2757,
  "quick</w>": 2758,
  "yu": 2759,
  "becomes</w>": 2760,
  "jackson</w>": 2761,
  "fre": 2762,
  "ji": 2763,
  "an-": 2764,
  "learned</w>": 2765,
  "railroad</w>": 2766,
  "33</w>": 2767,
  "sexual</w>": 2768,
  "ward</w>": 2769,
  "wish</w>": 2770,
  "var": 2771,
  "impact</w>": 2772,
  "episodes</w>": 2773,
  "ously</w>": 2774,
  "density</w>": 2775,
  "wave</w>": 2776,
  "mi</w>": 2777,
  "format</w>": 2778,
  "covers</w>": 2779,
  "nor</w>": 2780,
  "ranked</w>": 2781,
  "0-": 2782,
  "partner</w>": 2783,
  "situated</w>": 2784,
  "relations</w>": 2785,
  "sales</w>": 2786,
  "sites</w>": 2787,
  "jan": 2788,
  "ani</w>": 2789,
  "dan</w>": 2790,
  "ves</w>": 2791,
  "sk</w>": 2792,
  "reports</w>": 2793,
  "challenge</w>": 2794,
  "killing</w>": 2795,
  "bell</w>": 2796,
  "unique</w>": 2797,
  "teaching</w>": 2798,
  "reviews</w>": 2799,
  "bird</w>": 2800,
  "b.</w>": 2801,
  "supreme</w>": 2802,
  "titled</w>": 2803,
  "generation</w>": 2804,
  "sm": 2805,
  "1942</w>": 2806,
  "allowing</w>": 2807,
  "tic": 2808,
  "carry</w>": 2809,
  "write</w>": 2810,
  "basic</w>": 2811,
  "guns</w>": 2812,
  "laws</w>": 2813,
  "motion</w>": 2814,
  "ched</w>": 2815,
  "von</w>": 2816,
  "1948</w>": 2817,
  "cd</w>": 2818,
  "shed</w>": 2819,
  "defined</w>": 2820,
  "eg": 2821,
  "rome</w>": 2822,
  "unlike</w>": 2823,
  "5-": 2824,
  "drink</w>": 2825,
  "seats</w>": 2826,
  "confirmed</w>": 2827,
  "distribution</w>": 2828,
  "ston</w>": 2829,
  "roles</w>": 2830,
  "uni": 2831,
  "titles</w>": 2832,
  "actions</w>": 2833,
  "volume</w>": 2834,
  "tam": 2835,
  "actress</w>": 2836,
  "facility</w>": 2837,
  "shop</w>": 2838,
  "claims</w>": 2839,
  "van": 2840,
  "anger</w>": 2841,
  "relief</w>": 2842,
  "silent</w>": 2843,
  "afraid</w>": 2844,
  "critics</w>": 2845,
  "ck</w>": 2846,
  "deputy</w>": 2847,
  "nose</w>": 2848,
  "granted</w>": 2849,
  "resources</w>": 2850,
  "models</w>": 2851,
  "birds</w>": 2852,
  "hosted</w>": 2853,
  "attacked</w>": 2854,
  "ini</w>": 2855,
  "concert</w>": 2856,
  "pic": 2857,
  "count</w>": 2858,
  "clearly</w>": 2859,
  "respectively</w>": 2860,
  "pp": 2861,
  "mun": 2862,
  "rank</w>": 2863,
  "jim</w>": 2864,
  "explained</w>": 2865,
  "1940</w>": 2866,
  "independence</w>": 2867,
  "adam</w>": 2868,
  "household</w>": 2869,
  "trip</w>": 2870,
  "strange</w>": 2871,
  "creation</w>": 2872,
  "4th</w>": 2873,
  "sto": 2874,
  "chi</w>": 2875,
  "tom": 2876,
  "vampire</w>": 2877,
  "yourself</w>": 2878,
  "ant": 2879,
  "illinois</w>": 2880,
  "1961</w>": 2881,
  "shape</w>": 2882,
  "son": 2883,
  "1941</w>": 2884,
  "draft</w>": 2885,
  "providing</w>": 2886,
  "organizations</w>": 2887,
  "o-": 2888,
  "neither</w>": 2889,
  "surprise</w>": 2890,
  "expanded</w>": 2891,
  "ny": 2892,
  "berlin</w>": 2893,
  "receive</w>": 2894,
  "mp": 2895,
  "hong</w>": 2896,
  "scoring</w>": 2897,
  "36</w>": 2898,
  "missing</w>": 2899,
  "1946</w>": 2900,
  "roof</w>": 2901,
  "champions</w>": 2902,
  "bob</w>": 2903,
  "00</w>": 2904,
  "inspired</w>": 2905,
  "1956</w>": 2906,
  "surprised</w>": 2907,
  "brand</w>": 2908,
  "le-": 2909,
  "resulted</w>": 2910,
  "lieutenant</w>": 2911,
  "cricket</w>": 2912,
  "reasons</w>": 2913,
  "identified</w>": 2914,
  "lying</w>": 2915,
  "i-": 2916,
  "trouble</w>": 2917,
  "figures</w>": 2918,
  "guest</w>": 2919,
  "disease</w>": 2920,
  "ver</w>": 2921,
  "er-": 2922,
  "allows</w>": 2923,
  "simon</w>": 2924,
  "calls</w>": 2925,
  "barely</w>": 2926,
  "medicine</w>": 2927,
  "orders</w>": 2928,
  "answered</w>": 2929,
  "audience</w>": 2930,
  "ro</w>": 2931,
  "fa</w>": 2932,
  "connection</w>": 2933,
  "occupied</w>": 2934,
  "interview</w>": 2935,
  "premier</w>": 2936,
  "newly</w>": 2937,
  "attacks</w>": 2938,
  "nominated</w>": 2939,
  "oni": 2940,
  "ala</w>": 2941,
  "non": 2942,
  "scale</w>": 2943,
  "unknown</w>": 2944,
  "andrew</w>": 2945,
  "politics</w>": 2946,
  "atlantic</w>": 2947,
  "entirely</w>": 2948,
  "ron</w>": 2949,
  "ri</w>": 2950,
  "santa</w>": 2951,
  "tongue</w>": 2952,
  "steve</w>": 2953,
  "drug</w>": 2954,
  "driving</w>": 2955,
  "architecture</w>": 2956,
  "jazz</w>": 2957,
  "wh": 2958,
  "dean</w>": 2959,
  "ered</w>": 2960,
  "1939</w>": 2961,
  "1943</w>": 2962,
  "reduced</w>": 2963,
  "supply</w>": 2964,
  "wine</w>": 2965,
  "enter</w>": 2966,
  "liberal</w>": 2967,
  "olympic</w>": 2968,
  "ena</w>": 2969,
  "vehicle</w>": 2970,
  "ney</w>": 2971,
  "high-": 2972,
  "ance</w>": 2973,
  "avoid</w>": 2974,
  "staring</w>": 2975,
  "w.</w>": 2976,
  "kong</w>": 2977,
  "flat</w>": 2978,
  "mur": 2979,
  "eric</w>": 2980,
  "eat</w>": 2981,
  "ride</w>": 2982,
  "opportunity</w>": 2983,
  "ned</w>": 2984,
  "internet</w>": 2985,
  "34</w>": 2986,
  "sixth</w>": 2987,
  "new": 2988,
  "conversation</w>": 2989,
  "revolution</w>": 2990,
  "hey</w>": 2991,
  "circle</w>": 2992,
  "bowl</w>": 2993,
  "burg</w>": 2994,
  "districts</w>": 2995,
  "christmas</w>": 2996,
  "performing</w>": 2997,
  "tradition</w>": 2998,
  "tor</w>": 2999,
  "ita</w>": 3000,
  "1950</w>": 3001,
  "cells</w>": 3002,
  "tt": 3003,
  "1958</w>": 3004,
  "ach</w>": 3005,
  "entry</w>": 3006,
  "ise</w>": 3007,
  "lane</w>": 3008,
  "cemetery</w>": 3009,
  "combat</w>": 3010,
  "develop</w>": 3011,
  "mill</w>": 3012,
  "existing</w>": 3013,
  "threw</w>": 3014,
  "ok": 3015,
  "ble</w>": 3016,
  "mid": 3017,
  "bury</w>": 3018,
  "finding</w>": 3019,
  "1959</w>": 3020,
  "designated</w>": 3021,
  "thin</w>": 3022,
  "38</w>": 3023,
  "half-": 3024,
  "existence</w>": 3025,
  "1947</w>": 3026,
  "heritage</w>": 3027,
  "fl": 3028,
  "ari</w>": 3029,
  "mol": 3030,
  "apparently</w>": 3031,
  "remembered</w>": 3032,
  "votes</w>": 3033,
  "ear": 3034,
  "tie</w>": 3035,
  "massachusetts</w>": 3036,
  "fans</w>": 3037,
  "sta": 3038,
  "desk</w>": 3039,
  "fit</w>": 3040,
  "id": 3041,
  "crossed</w>": 3042,
  "hole</w>": 3043,
  "red": 3044,
  "h.</w>": 3045,
  "interested</w>": 3046,
  "trail</w>": 3047,
  "opposition</w>": 3048,
  "ig": 3049,
  "ama</w>": 3050,
  "apartment</w>": 3051,
  "vice</w>": 3052,
  "5th</w>": 3053,
  "lets</w>": 3054,
  "bru": 3055,
  "resulting</w>": 3056,
  "heavily</w>": 3057,
  "pool</w>": 3058,
  "uncle</w>": 3059,
  "sciences</w>": 3060,
  "micro": 3061,
  "poly": 3062,
  "visited</w>": 3063,
  "twelve</w>": 3064,
  "send</w>": 3065,
  "drop</w>": 3066,
  "dinner</w>": 3067,
  "grace</w>": 3068,
  "cri": 3069,
  "tony</w>": 3070,
  "message</w>": 3071,
  "creating</w>": 3072,
  "learn</w>": 3073,
  "fr": 3074,
  "trains</w>": 3075,
  "gan</w>": 3076,
  "streets</w>": 3077,
  "representatives</w>": 3078,
  "officials</w>": 3079,
  "dae</w>": 3080,
  "waited</w>": 3081,
  "bol": 3082,
  "1957</w>": 3083,
  "ery</w>": 3084,
  "r.</w>": 3085,
  "cancer</w>": 3086,
  "succeeded</w>": 3087,
  "hun": 3088,
  "mrs.</w>": 3089,
  "dale</w>": 3090,
  "theme</w>": 3091,
  "ments</w>": 3092,
  "liked</w>": 3093,
  "crown</w>": 3094,
  "opposite</w>": 3095,
  "moon</w>": 3096,
  "flow</w>": 3097,
  "starts</w>": 3098,
  "thi": 3099,
  "representative</w>": 3100,
  "fox</w>": 3101,
  "citizens</w>": 3102,
  "oldest</w>": 3103,
  "gam": 3104,
  "ow": 3105,
  "drawn</w>": 3106,
  "rooms</w>": 3107,
  "pe</w>": 3108,
  "versions</w>": 3109,
  "educational</w>": 3110,
  "intelligence</w>": 3111,
  "quarter</w>": 3112,
  "authorities</w>": 3113,
  "performances</w>": 3114,
  "besides</w>": 3115,
  "weren</w>": 3116,
  "may": 3117,
  "frequently</w>": 3118,
  "reality</w>": 3119,
  "top": 3120,
  "fun</w>": 3121,
  "labour</w>": 3122,
  "ray</w>": 3123,
  "regions</w>": 3124,
  "ars</w>": 3125,
  "catch</w>": 3126,
  "pakistan</w>": 3127,
  "founder</w>": 3128,
  "cra": 3129,
  "relatively</w>": 3130,
  "hills</w>": 3131,
  "injury</w>": 3132,
  "au</w>": 3133,
  "sor": 3134,
  "back": 3135,
  "g-": 3136,
  "labor</w>": 3137,
  "permanent</w>": 3138,
  "classic</w>": 3139,
  "sho": 3140,
  "worry</w>": 3141,
  "ini": 3142,
  "attempted</w>": 3143,
  "constitution</w>": 3144,
  "sunday</w>": 3145,
  "fal": 3146,
  "municipal</w>": 3147,
  "taylor</w>": 3148,
  "alternative</w>": 3149,
  "brigade</w>": 3150,
  "trained</w>": 3151,
  "bound</w>": 3152,
  "mental</w>": 3153,
  "materials</w>": 3154,
  "bun": 3155,
  "sighed</w>": 3156,
  "bear</w>": 3157,
  "va": 3158,
  "ira</w>": 3159,
  "by": 3160,
  "target</w>": 3161,
  "check</w>": 3162,
  "achieved</w>": 3163,
  "imperial</w>": 3164,
  "rick</w>": 3165,
  "spirit</w>": 3166,
  "fri": 3167,
  "dro": 3168,
  "obtained</w>": 3169,
  "1952</w>": 3170,
  "1955</w>": 3171,
  "reaction</w>": 3172,
  "portion</w>": 3173,
  "??</w>": 3174,
  "1-": 3175,
  "frame</w>": 3176,
  "toronto</w>": 3177,
  "reference</w>": 3178,
  "conservative</w>": 3179,
  "fle": 3180,
  "42</w>": 3181,
  "falling</w>": 3182,
  "vis": 3183,
  "laugh</w>": 3184,
  "suit</w>": 3185,
  "trans": 3186,
  "weather</w>": 3187,
  "dur": 3188,
  "cool</w>": 3189,
  "gallery</w>": 3190,
  "northwest</w>": 3191,
  "clean</w>": 3192,
  "cannot</w>": 3193,
  "invited</w>": 3194,
  "tiny</w>": 3195,
  "philadelphia</w>": 3196,
  "ol</w>": 3197,
  "swedish</w>": 3198,
  "missed</w>": 3199,
  "peak</w>": 3200,
  "chamber</w>": 3201,
  "cop": 3202,
  "ontario</w>": 3203,
  "ah": 3204,
  "ats</w>": 3205,
  "prevent</w>": 3206,
  "pilot</w>": 3207,
  "arrested</w>": 3208,
  "interior</w>": 3209,
  "zing</w>": 3210,
  "wings</w>": 3211,
  "ep</w>": 3212,
  "abandoned</w>": 3213,
  "prepared</w>": 3214,
  "category</w>": 3215,
  "stri": 3216,
  "brazil</w>": 3217,
  "kissed</w>": 3218,
  "squad</w>": 3219,
  "len": 3220,
  "p.</w>": 3221,
  "plate</w>": 3222,
  "1949</w>": 3223,
  "effective</w>": 3224,
  "37</w>": 3225,
  "bronze</w>": 3226,
  "asks</w>": 3227,
  "doubt</w>": 3228,
  "attempts</w>": 3229,
  "fame</w>": 3230,
  "transfer</w>": 3231,
  "jesus</w>": 3232,
  "ess</w>": 3233,
  "48</w>": 3234,
  "rain</w>": 3235,
  "centuries</w>": 3236,
  "condition</w>": 3237,
  "handed</w>": 3238,
  "villages</w>": 3239,
  "ton": 3240,
  "jo</w>": 3241,
  "dam</w>": 3242,
  "ola</w>": 3243,
  "classical</w>": 3244,
  "sted</w>": 3245,
  "rear</w>": 3246,
  "korea</w>": 3247,
  "pictures</w>": 3248,
  "subsequent</w>": 3249,
  "thousand</w>": 3250,
  "1954</w>": 3251,
  "perform</w>": 3252,
  "grey</w>": 3253,
  "controlled</w>": 3254,
  "hi</w>": 3255,
  "fiction</w>": 3256,
  "land": 3257,
  "sia</w>": 3258,
  "background</w>": 3259,
  "speech</w>": 3260,
  "v.</w>": 3261,
  "economy</w>": 3262,
  "environmental</w>": 3263,
  "articles</w>": 3264,
  "mobile</w>": 3265,
  "billion</w>": 3266,
  "plane</w>": 3267,
  "guards</w>": 3268,
  "zation</w>": 3269,
  "rare</w>": 3270,
  "6-": 3271,
  "funding</w>": 3272,
  "burn</w>": 3273,
  "wilson</w>": 3274,
  "sword</w>": 3275,
  "???</w>": 3276,
  "orchestra</w>": 3277,
  "fm</w>": 3278,
  "tin</w>": 3279,
  "oo": 3280,
  "eli": 3281,
  "borough</w>": 3282,
  "entitled</w>": 3283,
  "greatest</w>": 3284,
  "briefly</w>": 3285,
  "worse</w>": 3286,
  "sharp</w>": 3287,
  "bla": 3288,
  "bul": 3289,
  "pulling</w>": 3290,
  "hunter</w>": 3291,
  "ye</w>": 3292,
  "vehicles</w>": 3293,
  "ath</w>": 3294,
  "harry</w>": 3295,
  "approved</w>": 3296,
  "qui": 3297,
  "str": 3298,
  "zer</w>": 3299,
  "fund</w>": 3300,
  "showing</w>": 3301,
  "nuclear</w>": 3302,
  "convention</w>": 3303,
  "1953</w>": 3304,
  "origin</w>": 3305,
  "fly</w>": 3306,
  "jason</w>": 3307,
  "adult</w>": 3308,
  "metres</w>": 3309,
  "otherwise</w>": 3310,
  "asking</w>": 3311,
  "details</w>": 3312,
  "brief</w>": 3313,
  "wonder</w>": 3314,
  "ll</w>": 3315,
  "duty</w>": 3316,
  "ultimately</w>": 3317,
  "graduate</w>": 3318,
  "display</w>": 3319,
  "southeast</w>": 3320,
  "carrying</w>": 3321,
  "towns</w>": 3322,
  "height</w>": 3323,
  "starring</w>": 3324,
  "arthur</w>": 3325,
  "billboard</w>": 3326,
  "chain</w>": 3327,
  "kat": 3328,
  "aired</w>": 3329,
  "hom": 3330,
  "stands</w>": 3331,
  "factory</w>": 3332,
  "55</w>": 3333,
  "grown</w>": 3334,
  "promotion</w>": 3335,
  "commissioned</w>": 3336,
  "plus</w>": 3337,
  "alliance</w>": 3338,
  "crazy</w>": 3339,
  "tin": 3340,
  "roll</w>": 3341,
  "dated</w>": 3342,
  "mo</w>": 3343,
  "link</w>": 3344,
  "dates</w>": 3345,
  "understanding</w>": 3346,
  "causing</w>": 3347,
  "ft</w>": 3348,
  "copies</w>": 3349,
  "struck</w>": 3350,
  "passenger</w>": 3351,
  "n-": 3352,
  "wondered</w>": 3353,
  "battalion</w>": 3354,
  "sarah</w>": 3355,
  "communist</w>": 3356,
  "pur</w>": 3357,
  "truck</w>": 3358,
  "bio": 3359,
  "shrugged</w>": 3360,
  "ire</w>": 3361,
  "clo": 3362,
  "41</w>": 3363,
  "tics</w>": 3364,
  "phase</w>": 3365,
  "ky": 3366,
  "ching</w>": 3367,
  "ical</w>": 3368,
  "dating</w>": 3369,
  "promise</w>": 3370,
  "fore": 3371,
  "sive</w>": 3372,
  "wolf</w>": 3373,
  "exist</w>": 3374,
  "darkness</w>": 3375,
  "ine": 3376,
  "federation</w>": 3377,
  "supporting</w>": 3378,
  "p-": 3379,
  "extra</w>": 3380,
  "d.</w>": 3381,
  "explain</w>": 3382,
  "jan</w>": 3383,
  "statement</w>": 3384,
  "eng": 3385,
  "chin</w>": 3386,
  "conflict</w>": 3387,
  "dal": 3388,
  "wor": 3389,
  "closely</w>": 3390,
  "contained</w>": 3391,
  "ell": 3392,
  "anymore</w>": 3393,
  "cel": 3394,
  "angry</w>": 3395,
  "tis</w>": 3396,
  "programme</w>": 3397,
  "finds</w>": 3398,
  "bringing</w>": 3399,
  "boo": 3400,
  "wear</w>": 3401,
  "faculty</w>": 3402,
  "employed</w>": 3403,
  "slid</w>": 3404,
  "ington</w>": 3405,
  "proved</w>": 3406,
  "gently</w>": 3407,
  "ators</w>": 3408,
  "writers</w>": 3409,
  "1951</w>": 3410,
  "post-": 3411,
  "task</w>": 3412,
  "cs</w>": 3413,
  "rolling</w>": 3414,
  "dangerous</w>": 3415,
  "extensive</w>": 3416,
  "1,": 3417,
  "1950s</w>": 3418,
  "breaking</w>": 3419,
  "flowers</w>": 3420,
  "stein</w>": 3421,
  "americans</w>": 3422,
  "aw": 3423,
  "somewhere</w>": 3424,
  "300</w>": 3425,
  "desire</w>": 3426,
  "wooden</w>": 3427,
  "admitted</w>": 3428,
  "worldwide</w>": 3429,
  "fresh</w>": 3430,
  "1918</w>": 3431,
  "internal</w>": 3432,
  "ryan</w>": 3433,
  "kers</w>": 3434,
  "47</w>": 3435,
  "ideas</w>": 3436,
  "cat</w>": 3437,
  "alized</w>": 3438,
  "climate</w>": 3439,
  "chose</w>": 3440,
  "snow</w>": 3441,
  "literary</w>": 3442,
  "offices</w>": 3443,
  "ov</w>": 3444,
  "rising</w>": 3445,
  "methods</w>": 3446,
  "launch</w>": 3447,
  "sab": 3448,
  "colonel</w>": 3449,
  "receiving</w>": 3450,
  "netherlands</w>": 3451,
  "20": 3452,
  "mp</w>": 3453,
  "t.</w>": 3454,
  "ved</w>": 3455,
  "well-": 3456,
  "shu": 3457,
  "publication</w>": 3458,
  "increasing</w>": 3459,
  "ingly</w>": 3460,
  "roads</w>": 3461,
  "bands</w>": 3462,
  "gan": 3463,
  "oxford</w>": 3464,
  "violence</w>": 3465,
  "hers</w>": 3466,
  "documentary</w>": 3467,
  "soccer</w>": 3468,
  "skills</w>": 3469,
  "ces</w>": 3470,
  "ther": 3471,
  "respect</w>": 3472,
  "painted</w>": 3473,
  "ae</w>": 3474,
  "ning</w>": 3475,
  "sounded</w>": 3476,
  "investigation</w>": 3477,
  "legislative</w>": 3478,
  "founding</w>": 3479,
  "application</w>": 3480,
  "ban</w>": 3481,
  "stuff</w>": 3482,
  "orange</w>": 3483,
  "ura</w>": 3484,
  "bass</w>": 3485,
  "specifically</w>": 3486,
  "ea": 3487,
  "fired</w>": 3488,
  "identity</w>": 3489,
  "aren</w>": 3490,
  "address</w>": 3491,
  "poetry</w>": 3492,
  "wrapped</w>": 3493,
  "1936</w>": 3494,
  "tomorrow</w>": 3495,
  "maximum</w>": 3496,
  "religion</w>": 3497,
  "standards</w>": 3498,
  "ase</w>": 3499,
  "yard</w>": 3500,
  "brian</w>": 3501,
  "39</w>": 3502,
  "vi</w>": 3503,
  "containing</w>": 3504,
  "strike</w>": 3505,
  "dra": 3506,
  "northeast</w>": 3507,
  "concerned</w>": 3508,
  "os": 3509,
  "davis</w>": 3510,
  "patrick</w>": 3511,
  "1938</w>": 3512,
  "sought</w>": 3513,
  "banks</w>": 3514,
  "signal</w>": 3515,
  "criminal</w>": 3516,
  "shall</w>": 3517,
  "handle</w>": 3518,
  "ents</w>": 3519,
  "7th</w>": 3520,
  "sy</w>": 3521,
  "singing</w>": 3522,
  "korean</w>": 3523,
  "pope</w>": 3524,
  "ing-": 3525,
  "dressed</w>": 3526,
  "sweden</w>": 3527,
  "c-": 3528,
  "aside</w>": 3529,
  "express</w>": 3530,
  "restaurant</w>": 3531,
  "regarding</w>": 3532,
  "weekly</w>": 3533,
  "ping</w>": 3534,
  "vin": 3535,
  "presidential</w>": 3536,
  "opposed</w>": 3537,
  "locked</w>": 3538,
  "e.g.</w>": 3539,
  "grow</w>": 3540,
  "ging</w>": 3541,
  "cul": 3542,
  "philosophy</w>": 3543,
  "chemical</w>": 3544,
  "evil</w>": 3545,
  "hearing</w>": 3546,
  "consisted</w>": 3547,
  "exhibition</w>": 3548,
  "ie</w>": 3549,
  "bedroom</w>": 3550,
  "hits</w>": 3551,
  "faith</w>": 3552,
  "touched</w>": 3553,
  "defence</w>": 3554,
  "stephen</w>": 3555,
  "wet</w>": 3556,
  "scheduled</w>": 3557,
  "400</w>": 3558,
  "stu": 3559,
  "kid</w>": 3560,
  "zo": 3561,
  "west": 3562,
  "sell</w>": 3563,
  "1920</w>": 3564,
  "certainly</w>": 3565,
  "typical</w>": 3566,
  "difference</w>": 3567,
  "knees</w>": 3568,
  "din": 3569,
  "institutions</w>": 3570,
  "pon": 3571,
  "tropical</w>": 3572,
  "stairs</w>": 3573,
  "sector</w>": 3574,
  "canal</w>": 3575,
  "hes</w>": 3576,
  "mari": 3577,
  "christ</w>": 3578,
  "cheek</w>": 3579,
  "sand": 3580,
  "fashion</w>": 3581,
  "grounds</w>": 3582,
  "temperature</w>": 3583,
  "images</w>": 3584,
  "bureau</w>": 3585,
  "somehow</w>": 3586,
  "49</w>": 3587,
  "hired</w>": 3588,
  "accident</w>": 3589,
  "ot</w>": 3590,
  "properties</w>": 3591,
  "narrow</w>": 3592,
  "provincial</w>": 3593,
  "four-": 3594,
  "pocket</w>": 3595,
  "fur": 3596,
  "dre": 3597,
  "expansion</w>": 3598,
  "selling</w>": 3599,
  "map</w>": 3600,
  "finishing</w>": 3601,
  "gru": 3602,
  "planet</w>": 3603,
  "unless</w>": 3604,
  "pel": 3605,
  "med</w>": 3606,
  "hoped</w>": 3607,
  "consider</w>": 3608,
  "b-": 3609,
  "shooting</w>": 3610,
  "afternoon</w>": 3611,
  "agricultural</w>": 3612,
  "ica</w>": 3613,
  "sions</w>": 3614,
  "tel": 3615,
  "francis</w>": 3616,
  "landing</w>": 3617,
  "examples</w>": 3618,
  "passes</w>": 3619,
  "fel": 3620,
  "loc": 3621,
  "locations</w>": 3622,
  "structures</w>": 3623,
  "assumed</w>": 3624,
  "engaged</w>": 3625,
  "fuel</w>": 3626,
  "cha": 3627,
  "credit</w>": 3628,
  "cape</w>": 3629,
  "i.e.</w>": 3630,
  "experienced</w>": 3631,
  "electronic</w>": 3632,
  "surname</w>": 3633,
  "wore</w>": 3634,
  "educated</w>": 3635,
  "communication</w>": 3636,
  "lip</w>": 3637,
  "converted</w>": 3638,
  "app": 3639,
  "developing</w>": 3640,
  "lewis</w>": 3641,
  "95</w>": 3642,
  "communications</w>": 3643,
  "ridge</w>": 3644,
  "ceremony</w>": 3645,
  "influenced</w>": 3646,
  "46</w>": 3647,
  "tied</w>": 3648,
  "listen</w>": 3649,
  "l.</w>": 3650,
  "bran": 3651,
  "domestic</w>": 3652,
  "retirement</w>": 3653,
  "43</w>": 3654,
  "kor": 3655,
  "funds</w>": 3656,
  "6th</w>": 3657,
  "joining</w>": 3658,
  "registered</w>": 3659,
  "incorporated</w>": 3660,
  "helping</w>": 3661,
  "notice</w>": 3662,
  "represent</w>": 3663,
  "incident</w>": 3664,
  "putting</w>": 3665,
  "ene</w>": 3666,
  "miller</w>": 3667,
  "princess</w>": 3668,
  "buy</w>": 3669,
  "kings</w>": 3670,
  "tran": 3671,
  "advantage</w>": 3672,
  "1937</w>": 3673,
  "quietly</w>": 3674,
  "treaty</w>": 3675,
  "vit": 3676,
  "lyrics</w>": 3677,
  "su</w>": 3678,
  "khan</w>": 3679,
  "cru": 3680,
  "homes</w>": 3681,
  "studios</w>": 3682,
  "negative</w>": 3683,
  "producing</w>": 3684,
  "failure</w>": 3685,
  "derived</w>": 3686,
  "worried</w>": 3687,
  "contest</w>": 3688,
  "coat</w>": 3689,
  "piano</w>": 3690,
  "m-": 3691,
  "scenes</w>": 3692,
  "hung</w>": 3693,
  "sale</w>": 3694,
  "establishment</w>": 3695,
  "equal</w>": 3696,
  "wedding</w>": 3697,
  "regarded</w>": 3698,
  "shore</w>": 3699,
  "19": 3700,
  "ality</w>": 3701,
  "woods</w>": 3702,
  "threat</w>": 3703,
  "charged</w>": 3704,
  "52</w>": 3705,
  "sta</w>": 3706,
  "surrounded</w>": 3707,
  "tries</w>": 3708,
  "decades</w>": 3709,
  "understood</w>": 3710,
  "etc</w>": 3711,
  "actual</w>": 3712,
  "attached</w>": 3713,
  "rac": 3714,
  "horses</w>": 3715,
  "sey</w>": 3716,
  "rad": 3717,
  "earl</w>": 3718,
  "fied</w>": 3719,
  "ho</w>": 3720,
  "sul": 3721,
  "inner</w>": 3722,
  "changing</w>": 3723,
  "whit": 3724,
  "papers</w>": 3725,
  "matt</w>": 3726,
  "qualified</w>": 3727,
  "patients</w>": 3728,
  "lo</w>": 3729,
  "functions</w>": 3730,
  "gain</w>": 3731,
  "ck": 3732,
  "concern</w>": 3733,
  "mexican</w>": 3734,
  "noise</w>": 3735,
  "neighborhood</w>": 3736,
  "wy": 3737,
  "wel": 3738,
  "architect</w>": 3739,
  "1919</w>": 3740,
  "successfully</w>": 3741,
  "usual</w>": 3742,
  "shock</w>": 3743,
  "southwest</w>": 3744,
  "kam": 3745,
  "kil": 3746,
  "spo": 3747,
  "survived</w>": 3748,
  "sick</w>": 3749,
  "pra": 3750,
  "kon": 3751,
  "broadcasting</w>": 3752,
  "jose</w>": 3753,
  "resistance</w>": 3754,
  "elle</w>": 3755,
  "'i</w>": 3756,
  "observed</w>": 3757,
  "camera</w>": 3758,
  "stream</w>": 3759,
  "jr</w>": 3760,
  "circuit</w>": 3761,
  "end": 3762,
  "loud</w>": 3763,
  "aware</w>": 3764,
  "x-": 3765,
  "metropolitan</w>": 3766,
  "sm</w>": 3767,
  "3.": 3768,
  "dia</w>": 3769,
  "66</w>": 3770,
  "tank</w>": 3771,
  "drove</w>": 3772,
  "gene</w>": 3773,
  "stupid</w>": 3774,
  "teachers</w>": 3775,
  "lap</w>": 3776,
  "accept</w>": 3777,
  "hidden</w>": 3778,
  "drawing</w>": 3779,
  "85</w>": 3780,
  "contributed</w>": 3781,
  "maintained</w>": 3782,
  "facing</w>": 3783,
  "representing</w>": 3784,
  "chapel</w>": 3785,
  "1930</w>": 3786,
  "giant</w>": 3787,
  "mr</w>": 3788,
  "cathedral</w>": 3789,
  "affected</w>": 3790,
  "softly</w>": 3791,
  "engineer</w>": 3792,
  "gen</w>": 3793,
  "ron": 3794,
  "pale</w>": 3795,
  "bil": 3796,
  "multi-": 3797,
  "advance</w>": 3798,
  "fixed</w>": 3799,
  "1917</w>": 3800,
  "pack</w>": 3801,
  "recognition</w>": 3802,
  "leads</w>": 3803,
  "ey": 3804,
  "thousands</w>": 3805,
  "hed</w>": 3806,
  "downtown</w>": 3807,
  "collected</w>": 3808,
  "familiar</w>": 3809,
  "spend</w>": 3810,
  "pleasure</w>": 3811,
  "refers</w>": 3812,
  "waters</w>": 3813,
  "covering</w>": 3814,
  "ut": 3815,
  "athletic</w>": 3816,
  "spoken</w>": 3817,
  "alan</w>": 3818,
  "stores</w>": 3819,
  "views</w>": 3820,
  "cher": 3821,
  "1935</w>": 3822,
  "extremely</w>": 3823,
  "51</w>": 3824,
  "run": 3825,
  "web</w>": 3826,
  "lau": 3827,
  "water": 3828,
  "kes</w>": 3829,
  "injured</w>": 3830,
  "dom": 3831,
  "composer</w>": 3832,
  "chan": 3833,
  "lit": 3834,
  "argued</w>": 3835,
  "occurs</w>": 3836,
  "importance</w>": 3837,
  "residence</w>": 3838,
  "demand</w>": 3839,
  "1914</w>": 3840,
  "occur</w>": 3841,
  "publishing</w>": 3842,
  "budget</w>": 3843,
  "eri": 3844,
  "employees</w>": 3845,
  "aria</w>": 3846,
  "tab": 3847,
  "wins</w>": 3848,
  "crossing</w>": 3849,
  "ears</w>": 3850,
  "sisters</w>": 3851,
  "wheel</w>": 3852,
  "sl": 3853,
  "churches</w>": 3854,
  "ami": 3855,
  "ure</w>": 3856,
  "mate</w>": 3857,
  "progress</w>": 3858,
  "bone</w>": 3859,
  "hate</w>": 3860,
  "programming</w>": 3861,
  "indeed</w>": 3862,
  "combination</w>": 3863,
  "capable</w>": 3864,
  "hoping</w>": 3865,
  "melbourne</w>": 3866,
  "expressed</w>": 3867,
  "jake</w>": 3868,
  "brick</w>": 3869,
  "hide</w>": 3870,
  "object</w>": 3871,
  "bay": 3872,
  "albert</w>": 3873,
  "ying</w>": 3874,
  "journey</w>": 3875,
  "dev": 3876,
  "survey</w>": 3877,
  "tennis</w>": 3878,
  "institution</w>": 3879,
  "emergency</w>": 3880,
  "items</w>": 3881,
  "burned</w>": 3882,
  "mit": 3883,
  "massive</w>": 3884,
  "attorney</w>": 3885,
  "form": 3886,
  "cards</w>": 3887,
  "forth</w>": 3888,
  "sections</w>": 3889,
  "device</w>": 3890,
  "ering</w>": 3891,
  "constituency</w>": 3892,
  "shaped</w>": 3893,
  "kansas</w>": 3894,
  "g.</w>": 3895,
  "broad</w>": 3896,
  "motor</w>": 3897,
  "beauty</w>": 3898,
  "priest</w>": 3899,
  "muslim</w>": 3900,
  "tunnel</w>": 3901,
  "poet</w>": 3902,
  "biggest</w>": 3903,
  "kel": 3904,
  "plu": 3905,
  "turkey</w>": 3906,
  "stan": 3907,
  "moscow</w>": 3908,
  "comic</w>": 3909,
  "1933</w>": 3910,
  "norwegian</w>": 3911,
  "minnesota</w>": 3912,
  "weapon</w>": 3913,
  "faces</w>": 3914,
  "selection</w>": 3915,
  "jews</w>": 3916,
  "jane</w>": 3917,
  "angel</w>": 3918,
  "moments</w>": 3919,
  "wake</w>": 3920,
  "forever</w>": 3921,
  "wrestling</w>": 3922,
  "missouri</w>": 3923,
  "visual</w>": 3924,
  "request</w>": 3925,
  "gon</w>": 3926,
  "saturday</w>": 3927,
  "tus</w>": 3928,
  "ably</w>": 3929,
  "sav": 3930,
  "forget</w>": 3931,
  "journalist</w>": 3932,
  "lan</w>": 3933,
  "solid</w>": 3934,
  "hon": 3935,
  "ts": 3936,
  "gotten</w>": 3937,
  "pink</w>": 3938,
  "low-": 3939,
  "inhabitants</w>": 3940,
  "tim": 3941,
  "1929</w>": 3942,
  "folk</w>": 3943,
  "invasion</w>": 3944,
  "charlie</w>": 3945,
  "3,": 3946,
  "lia</w>": 3947,
  "cabinet</w>": 3948,
  "thirty</w>": 3949,
  "8-": 3950,
  "chase</w>": 3951,
  "bachelor</w>": 3952,
  "formal</w>": 3953,
  "ely</w>": 3954,
  "factor</w>": 3955,
  "protected</w>": 3956,
  "em</w>": 3957,
  "vil": 3958,
  "ics</w>": 3959,
  "gl": 3960,
  "carefully</w>": 3961,
  "54</w>": 3962,
  "dge</w>": 3963,
  "dvd</w>": 3964,
  "dol": 3965,
  "st-": 3966,
  "voted</w>": 3967,
  "ges</w>": 3968,
  "normally</w>": 3969,
  "yn</w>": 3970,
  "7-": 3971,
  "hoo": 3972,
  "pping</w>": 3973,
  "impossible</w>": 3974,
  "norway</w>": 3975,
  "cambridge</w>": 3976,
  "wounded</w>": 3977,
  "establish</w>": 3978,
  "log": 3979,
  "investment</w>": 3980,
  "od": 3981,
  "25": 3982,
  "atic</w>": 3983,
  "fallen</w>": 3984,
  "lit</w>": 3985,
  "sec": 3986,
  "iv</w>": 3987,
  "cla": 3988,
  "purchase</w>": 3989,
  "vic": 3990,
  "indiana</w>": 3991,
  "engines</w>": 3992,
  "py": 3993,
  "30": 3994,
  "colonial</w>": 3995,
  "ane</w>": 3996,
  "approached</w>": 3997,
  "1934</w>": 3998,
  "manchester</w>": 3999,
  "jar": 4000,
  "mention</w>": 4001,
  "ruled</w>": 4002,
  "users</w>": 4003,
  "shifted</w>": 4004,
  "burning</w>": 4005,
  "raise</w>": 4006,
  "l-": 4007,
  "hat": 4008,
  "push</w>": 4009,
  "walter</w>": 4010,
  "friendly</w>": 4011,
  "underground</w>": 4012,
  "stones</w>": 4013,
  "personnel</w>": 4014,
  "realize</w>": 4015,
  "alism</w>": 4016,
  "candidates</w>": 4017,
  "fla": 4018,
  "belt</w>": 4019,
  "ric": 4020,
  "forming</w>": 4021,
  "sn": 4022,
  "1928</w>": 4023,
  "nfl</w>": 4024,
  "artillery</w>": 4025,
  "tired</w>": 4026,
  "dam": 4027,
  "applications</w>": 4028,
  "improved</w>": 4029,
  "transportation</w>": 4030,
  "resigned</w>": 4031,
  "ming</w>": 4032,
  "throw</w>": 4033,
  "gh</w>": 4034,
  "courses</w>": 4035,
  "dynasty</w>": 4036,
  "flag</w>": 4037,
  "feed</w>": 4038,
  "flu": 4039,
  "u-": 4040,
  "objects</w>": 4041,
  "paintings</w>": 4042,
  "disappeared</w>": 4043,
  "behavior</w>": 4044,
  "introduction</w>": 4045,
  "eve</w>": 4046,
  "installed</w>": 4047,
  "ef": 4048,
  "las</w>": 4049,
  "fan</w>": 4050,
  "calm</w>": 4051,
  "ology</w>": 4052,
  "seventh</w>": 4053,
  "feelings</w>": 4054,
  "squ": 4055,
  "bi</w>": 4056,
  "s.": 4057,
  "closing</w>": 4058,
  "ble": 4059,
  "colorado</w>": 4060,
  "cia</w>": 4061,
  "are": 4062,
  "arranged</w>": 4063,
  "of": 4064,
  "mirror</w>": 4065,
  "sum": 4066,
  "ants</w>": 4067,
  "arena</w>": 4068,
  "shi</w>": 4069,
  "grin</w>": 4070,
  "56</w>": 4071,
  "session</w>": 4072,
  "merged</w>": 4073,
  "reform</w>": 4074,
  "smell</w>": 4075,
  "bert</w>": 4076,
  "queensland</w>": 4077,
  "tennessee</w>": 4078,
  "kim</w>": 4079,
  "consecutive</w>": 4080,
  "fy</w>": 4081,
  "40": 4082,
  "protein</w>": 4083,
  "cave</w>": 4084,
  "confused</w>": 4085,
  "inch</w>": 4086,
  "mining</w>": 4087,
  "cry</w>": 4088,
  "zz": 4089,
  "sand</w>": 4090,
  "bou": 4091,
  "knife</w>": 4092,
  "improve</w>": 4093,
  "mb": 4094,
  "zu": 4095,
  "som": 4096,
  "plan": 4097,
  "somewhat</w>": 4098,
  "pro</w>": 4099,
  "guide</w>": 4100,
  "shaking</w>": 4101,
  "stra": 4102,
  "vietnam</w>": 4103,
  "a.": 4104,
  "wisconsin</w>": 4105,
  "18th</w>": 4106,
  "offering</w>": 4107,
  "ple": 4108,
  "lawyer</w>": 4109,
  "band": 4110,
  "f.</w>": 4111,
  "junction</w>": 4112,
  "values</w>": 4113,
  "ades</w>": 4114,
  "oned</w>": 4115,
  "shadow</w>": 4116,
  "weekend</w>": 4117,
  "stating</w>": 4118,
  "8th</w>": 4119,
  "shell</w>": 4120,
  "distinguished</w>": 4121,
  "ot": 4122,
  "rush</w>": 4123,
  "owners</w>": 4124,
  "contain</w>": 4125,
  "ive</w>": 4126,
  "tail</w>": 4127,
  "extension</w>": 4128,
  "1932</w>": 4129,
  "agu": 4130,
  "cher</w>": 4131,
  "promote</w>": 4132,
  "regularly</w>": 4133,
  "portuguese</w>": 4134,
  "paused</w>": 4135,
  "mir": 4136,
  "plot</w>": 4137,
  "sri</w>": 4138,
  "ku</w>": 4139,
  "nat": 4140,
  "attend</w>": 4141,
  "ado</w>": 4142,
  "rio</w>": 4143,
  "bad": 4144,
  "67</w>": 4145,
  "hin": 4146,
  "philippines</w>": 4147,
  "causes</w>": 4148,
  "glo": 4149,
  "beer</w>": 4150,
  "nam": 4151,
  "99</w>": 4152,
  "delivered</w>": 4153,
  "medi": 4154,
  "ged</w>": 4155,
  "pul": 4156,
  "post": 4157,
  "1924</w>": 4158,
  "howard</w>": 4159,
  "pun": 4160,
  "fun": 4161,
  "weak</w>": 4162,
  "grass</w>": 4163,
  "obviously</w>": 4164,
  "repeated</w>": 4165,
  "responsibility</w>": 4166,
  "historian</w>": 4167,
  "53</w>": 4168,
  "-year-old</w>": 4169,
  "nan": 4170,
  "turkish</w>": 4171,
  "concluded</w>": 4172,
  "ory</w>": 4173,
  "user</w>": 4174,
  "indi": 4175,
  "meanwhile</w>": 4176,
  "tors</w>": 4177,
  "breathing</w>": 4178,
  "andy</w>": 4179,
  "ole</w>": 4180,
  "partnership</w>": 4181,
  "shar": 4182,
  "separated</w>": 4183,
  "61</w>": 4184,
  "costs</w>": 4185,
  "palm</w>": 4186,
  "graphic</w>": 4187,
  "loan</w>": 4188,
  "fac": 4189,
  "fighter</w>": 4190,
  "operate</w>": 4191,
  "moth</w>": 4192,
  "has": 4193,
  "nag": 4194,
  "proper</w>": 4195,
  "goods</w>": 4196,
  "tea</w>": 4197,
  "jumped</w>": 4198,
  "kevin</w>": 4199,
  "letting</w>": 4200,
  "compete</w>": 4201,
  "consisting</w>": 4202,
  "wars</w>": 4203,
  "down": 4204,
  "1922</w>": 4205,
  "flew</w>": 4206,
  "rag": 4207,
  "ann</w>": 4208,
  "threatened</w>": 4209,
  "landed</w>": 4210,
  "oregon</w>": 4211,
  "committed</w>": 4212,
  "ram</w>": 4213,
  "rivers</w>": 4214,
  "fire": 4215,
  "to-": 4216,
  "worst</w>": 4217,
  "maryland</w>": 4218,
  "distributed</w>": 4219,
  "crisis</w>": 4220,
  "ncaa</w>": 4221,
  "ner": 4222,
  "capture</w>": 4223,
  "dragon</w>": 4224,
  "accused</w>": 4225,
  "bond</w>": 4226,
  "wood": 4227,
  "decade</w>": 4228,
  "ona</w>": 4229,
  "distinct</w>": 4230,
  "green": 4231,
  "universe</w>": 4232,
  "mounted</w>": 4233,
  "vers</w>": 4234,
  "maintain</w>": 4235,
  "glad</w>": 4236,
  "1927</w>": 4237,
  "jump</w>": 4238,
  "jean</w>": 4239,
  "warning</w>": 4240,
  "notably</w>": 4241,
  "arizona</w>": 4242,
  "eleven</w>": 4243,
  "agriculture</w>": 4244,
  "cash</w>": 4245,
  "ao</w>": 4246,
  "antonio</w>": 4247,
  "acted</w>": 4248,
  "diego</w>": 4249,
  "stan</w>": 4250,
  "vic</w>": 4251,
  "wo": 4252,
  "pattern</w>": 4253,
  "ath": 4254,
  "ov": 4255,
  "1912</w>": 4256,
  "hur": 4257,
  "interests</w>": 4258,
  "stre": 4259,
  "1931</w>": 4260,
  "9th</w>": 4261,
  "leg": 4262,
  "smiling</w>": 4263,
  "ped</w>": 4264,
  "dly</w>": 4265,
  "xi": 4266,
  "las": 4267,
  "hum": 4268,
  "72</w>": 4269,
  "favorite</w>": 4270,
  "cy</w>": 4271,
  "arrival</w>": 4272,
  "taste</w>": 4273,
  "degrees</w>": 4274,
  "ving</w>": 4275,
  "bin": 4276,
  "pad": 4277,
  "rep": 4278,
  "tta</w>": 4279,
  "fran": 4280,
  "damaged</w>": 4281,
  "musicians</w>": 4282,
  "coal</w>": 4283,
  "ist</w>": 4284,
  "rescue</w>": 4285,
  "choose</w>": 4286,
  "nic": 4287,
  "roughly</w>": 4288,
  "egypt</w>": 4289,
  "fifteen</w>": 4290,
  "constant</w>": 4291,
  "57</w>": 4292,
  "universities</w>": 4293,
  "swiss</w>": 4294,
  "1921</w>": 4295,
  "enjoyed</w>": 4296,
  "faster</w>": 4297,
  "riding</w>": 4298,
  "finals</w>": 4299,
  "danger</w>": 4300,
  "charges</w>": 4301,
  "billy</w>": 4302,
  "opinion</w>": 4303,
  "painter</w>": 4304,
  "che</w>": 4305,
  "file</w>": 4306,
  "wan": 4307,
  "62</w>": 4308,
  "measure</w>": 4309,
  "organisation</w>": 4310,
  "boats</w>": 4311,
  "accompanied</w>": 4312,
  "courts</w>": 4313,
  "anniversary</w>": 4314,
  "hanging</w>": 4315,
  "persons</w>": 4316,
  "sit": 4317,
  "luke</w>": 4318,
  "bach</w>": 4319,
  "mad</w>": 4320,
  "script</w>": 4321,
  "manner</w>": 4322,
  "adjacent</w>": 4323,
  "whi": 4324,
  "morgan</w>": 4325,
  "jer": 4326,
  "emma</w>": 4327,
  "ass": 4328,
  "kelly</w>": 4329,
  "seriously</w>": 4330,
  "jam": 4331,
  "gn": 4332,
  "cycle</w>": 4333,
  "driven</w>": 4334,
  "bb": 4335,
  "bir": 4336,
  "jordan</w>": 4337,
  "lic": 4338,
  "productions</w>": 4339,
  "hundreds</w>": 4340,
  "sudden</w>": 4341,
  "tha</w>": 4342,
  "fro": 4343,
  "ths</w>": 4344,
  "logical</w>": 4345,
  "starred</w>": 4346,
  "switzerland</w>": 4347,
  "techniques</w>": 4348,
  "samuel</w>": 4349,
  "willing</w>": 4350,
  "balance</w>": 4351,
  "hydro": 4352,
  "begun</w>": 4353,
  "discovery</w>": 4354,
  "inger</w>": 4355,
  "senator</w>": 4356,
  "tier</w>": 4357,
  "demanded</w>": 4358,
  "assistance</w>": 4359,
  "counter</w>": 4360,
  "truly</w>": 4361,
  "hood</w>": 4362,
  "slipped</w>": 4363,
  "1925</w>": 4364,
  "shift</w>": 4365,
  "86</w>": 4366,
  "parking</w>": 4367,
  "describes</w>": 4368,
  "allen</w>": 4369,
  "ye": 4370,
  "sting</w>": 4371,
  "additionally</w>": 4372,
  "ras": 4373,
  "snapped</w>": 4374,
  "matters</w>": 4375,
  "racial</w>": 4376,
  "anthony</w>": 4377,
  "singapore</w>": 4378,
  "soldier</w>": 4379,
  "clay</w>": 4380,
  "decide</w>": 4381,
  "sees</w>": 4382,
  "marks</w>": 4383,
  "59</w>": 4384,
  "sat": 4385,
  "ll": 4386,
  "bones</w>": 4387,
  "concrete</w>": 4388,
  "1910</w>": 4389,
  "de-": 4390,
  "th-": 4391,
  "saved</w>": 4392,
  "knight</w>": 4393,
  "vocals</w>": 4394,
  "heading</w>": 4395,
  "require</w>": 4396,
  "jaw</w>": 4397,
  "directors</w>": 4398,
  "roger</w>": 4399,
  "horror</w>": 4400,
  "1923</w>": 4401,
  "fication</w>": 4402,
  "thr": 4403,
  "9.": 4404,
  "ws</w>": 4405,
  "imagine</w>": 4406,
  "designs</w>": 4407,
  "fill</w>": 4408,
  "fil": 4409,
  "listening</w>": 4410,
  "1915</w>": 4411,
  "tol": 4412,
  "50": 4413,
  ".com</w>": 4414,
  "yan": 4415,
  "pm</w>": 4416,
  "defensive</w>": 4417,
  "passengers</w>": 4418,
  "participate</w>": 4419,
  "rachel</w>": 4420,
  "ser</w>": 4421,
  "busy</w>": 4422,
  "branches</w>": 4423,
  "gol": 4424,
  "nie</w>": 4425,
  "bathroom</w>": 4426,
  "din</w>": 4427,
  "blu": 4428,
  "expedition</w>": 4429,
  "quebec</w>": 4430,
  "plain</w>": 4431,
  "insurance</w>": 4432,
  "kentucky</w>": 4433,
  "long": 4434,
  "talked</w>": 4435,
  "favor</w>": 4436,
  "appeal</w>": 4437,
  "studying</w>": 4438,
  "shoot</w>": 4439,
  "philip</w>": 4440,
  "1926</w>": 4441,
  "definitely</w>": 4442,
  "1916</w>": 4443,
  "winners</w>": 4444,
  "ula</w>": 4445,
  "hollywood</w>": 4446,
  "gran": 4447,
  "feels</w>": 4448,
  "daughters</w>": 4449,
  "amy</w>": 4450,
  "walker</w>": 4451,
  "businesses</w>": 4452,
  "ace</w>": 4453,
  "lincoln</w>": 4454,
  "00": 4455,
  "ill": 4456,
  "88</w>": 4457,
  "1930s</w>": 4458,
  "occasionally</w>": 4459,
  "cc": 4460,
  "terminal</w>": 4461,
  "ethnic</w>": 4462,
  "fishing</w>": 4463,
  "documents</w>": 4464,
  "universal</w>": 4465,
  "hil": 4466,
  "pas": 4467,
  "reduce</w>": 4468,
  "????</w>": 4469,
  "cole</w>": 4470,
  "roy</w>": 4471,
  "vin</w>": 4472,
  "mar</w>": 4473,
  "replace</w>": 4474,
  "rocks</w>": 4475,
  "att": 4476,
  "contrast</w>": 4477,
  "zes</w>": 4478,
  "responded</w>": 4479,
  "adding</w>": 4480,
  "wanting</w>": 4481,
  "cousin</w>": 4482,
  "lucky</w>": 4483,
  "secure</w>": 4484,
  "anderson</w>": 4485,
  "solution</w>": 4486,
  "returns</w>": 4487,
  "jeff</w>": 4488,
  "earliest</w>": 4489,
  "hamilton</w>": 4490,
  "smoke</w>": 4491,
  "poverty</w>": 4492,
  "meters</w>": 4493,
  "ong": 4494,
  "sters</w>": 4495,
  "residential</w>": 4496,
  "promised</w>": 4497,
  "f-": 4498,
  "yl": 4499,
  "entering</w>": 4500,
  "continuing</w>": 4501,
  "islamic</w>": 4502,
  "bush</w>": 4503,
  "gy": 4504,
  "signs</w>": 4505,
  "print</w>": 4506,
  "deck</w>": 4507,
  "flo": 4508,
  "steam</w>": 4509,
  "gift</w>": 4510,
  "she": 4511,
  "gul": 4512,
  "linked</w>": 4513,
  "visible</w>": 4514,
  "fe</w>": 4515,
  "victor</w>": 4516,
  "afterwards</w>": 4517,
  "testing</w>": 4518,
  "credited</w>": 4519,
  "determine</w>": 4520,
  "comp": 4521,
  "lun": 4522,
  "grave</w>": 4523,
  "1900</w>": 4524,
  "desert</w>": 4525,
  "rating</w>": 4526,
  "sc</w>": 4527,
  "ically</w>": 4528,
  "clark</w>": 4529,
  "offensive</w>": 4530,
  "mac</w>": 4531,
  "houston</w>": 4532,
  "finance</w>": 4533,
  "existed</w>": 4534,
  "63</w>": 4535,
  "scheme</w>": 4536,
  "haw": 4537,
  "obvious</w>": 4538,
  "kit": 4539,
  "bet</w>": 4540,
  "aya</w>": 4541,
  "shouldn</w>": 4542,
  "arab</w>": 4543,
  "amateur</w>": 4544,
  "sau": 4545,
  "powered</w>": 4546,
  "parliamentary</w>": 4547,
  "outstanding</w>": 4548,
  "treated</w>": 4549,
  "alization</w>": 4550,
  "duties</w>": 4551,
  "childhood</w>": 4552,
  "austria</w>": 4553,
  "lift</w>": 4554,
  "patient</w>": 4555,
  "58</w>": 4556,
  "tun": 4557,
  "def": 4558,
  "aka</w>": 4559,
  "whilst</w>": 4560,
  "praised</w>": 4561,
  "severe</w>": 4562,
  "ung</w>": 4563,
  "survive</w>": 4564,
  "ess": 4565,
  "golf</w>": 4566,
  "associate</w>": 4567,
  "dave</w>": 4568,
  "commonwealth</w>": 4569,
  "dc</w>": 4570,
  "purposes</w>": 4571,
  "greece</w>": 4572,
  "rejected</w>": 4573,
  "colony</w>": 4574,
  "swimming</w>": 4575,
  "salt</w>": 4576,
  "makeup</w>": 4577,
  "rice</w>": 4578,
  "yn": 4579,
  "tim</w>": 4580,
  "dna</w>": 4581,
  "hunt</w>": 4582,
  "movies</w>": 4583,
  "storage</w>": 4584,
  "operates</w>": 4585,
  "interesting</w>": 4586,
  "musician</w>": 4587,
  "visitors</w>": 4588,
  "creative</w>": 4589,
  "9-": 4590,
  "med": 4591,
  "sequence</w>": 4592,
  "68</w>": 4593,
  "mono": 4594,
  "-based</w>": 4595,
  "77</w>": 4596,
  "counties</w>": 4597,
  "string</w>": 4598,
  "stick</w>": 4599,
  "scholars</w>": 4600,
  "marry</w>": 4601,
  "lion</w>": 4602,
  "71</w>": 4603,
  "hero</w>": 4604,
  "measures</w>": 4605,
  "coastal</w>": 4606,
  "soil</w>": 4607,
  "flesh</w>": 4608,
  "sleeping</w>": 4609,
  "ren</w>": 4610,
  "waist</w>": 4611,
  "subjects</w>": 4612,
  "dancing</w>": 4613,
  "single-": 4614,
  "trophy</w>": 4615,
  "option</w>": 4616,
  "actors</w>": 4617,
  "second-": 4618,
  "gay</w>": 4619,
  "mode</w>": 4620,
  "tip</w>": 4621,
  "sz": 4622,
  "composition</w>": 4623,
  "i.</w>": 4624,
  "israeli</w>": 4625,
  "strategy</w>": 4626,
  "met": 4627,
  "routes</w>": 4628,
  "dying</w>": 4629,
  "stuck</w>": 4630,
  "ensure</w>": 4631,
  "movements</w>": 4632,
  "poem</w>": 4633,
  "sid": 4634,
  "laughing</w>": 4635,
  "78</w>": 4636,
  "zi</w>": 4637,
  "victims</w>": 4638,
  "sub-": 4639,
  "bottle</w>": 4640,
  "waves</w>": 4641,
  "tem": 4642,
  "wan</w>": 4643,
  "gordon</w>": 4644,
  "76</w>": 4645,
  "factors</w>": 4646,
  "membership</w>": 4647,
  "hat</w>": 4648,
  "publications</w>": 4649,
  "demon</w>": 4650,
  "dreams</w>": 4651,
  "cm</w>": 4652,
  "memories</w>": 4653,
  "ora</w>": 4654,
  "bag": 4655,
  "za": 4656,
  "hay": 4657,
  "adi": 4658,
  "inc</w>": 4659,
  "tests</w>": 4660,
  "bin</w>": 4661,
  "stages</w>": 4662,
  "unusual</w>": 4663,
  "reputation</w>": 4664,
  "gods</w>": 4665,
  "douglas</w>": 4666,
  "smooth</w>": 4667,
  "conservation</w>": 4668,
  "k.</w>": 4669,
  "sr</w>": 4670,
  "lac": 4671,
  "se-": 4672,
  "xi</w>": 4673,
  "acid</w>": 4674,
  "tz</w>": 4675,
  "rapidly</w>": 4676,
  "96</w>": 4677,
  "emerged</w>": 4678,
  "signing</w>": 4679,
  "lor": 4680,
  "ese</w>": 4681,
  "tra</w>": 4682,
  "add</w>": 4683,
  "1911</w>": 4684,
  "gathered</w>": 4685,
  "premiered</w>": 4686,
  "visiting</w>": 4687,
  "camp": 4688,
  "tan</w>": 4689,
  "4,": 4690,
  "82</w>": 4691,
  "92</w>": 4692,
  "medieval</w>": 4693,
  "mail</w>": 4694,
  "shake</w>": 4695,
  "1913</w>": 4696,
  "dr</w>": 4697,
  "debuted</w>": 4698,
  "temporary</w>": 4699,
  "sla": 4700,
  "wer": 4701,
  "spending</w>": 4702,
  "low": 4703,
  "indicated</w>": 4704,
  "masters</w>": 4705,
  "relative</w>": 4706,
  "depending</w>": 4707,
  "cour": 4708,
  "kur": 4709,
  "cleared</w>": 4710,
  "tel</w>": 4711,
  "divisions</w>": 4712,
  "que": 4713,
  "rock": 4714,
  "amongst</w>": 4715,
  "phi": 4716,
  "translated</w>": 4717,
  "wit": 4718,
  "birthday</w>": 4719,
  "louisiana</w>": 4720,
  "frederick</w>": 4721,
  "69</w>": 4722,
  "markets</w>": 4723,
  "physics</w>": 4724,
  "elementary</w>": 4725,
  "sle": 4726,
  "kol": 4727,
  "prix</w>": 4728,
  "restored</w>": 4729,
  "appearing</w>": 4730,
  "lec": 4731,
  "gardens</w>": 4732,
  "cheeks</w>": 4733,
  "figured</w>": 4734,
  "moves</w>": 4735,
  "hem": 4736,
  "ni</w>": 4737,
  "grinned</w>": 4738,
  "possibility</w>": 4739,
  "bow": 4740,
  "ela</w>": 4741,
  "sou": 4742,
  "scared</w>": 4743,
  "any": 4744,
  "beating</w>": 4745,
  "reign</w>": 4746,
  "prove</w>": 4747,
  "fruit</w>": 4748,
  "benefit</w>": 4749,
  "represents</w>": 4750,
  "comics</w>": 4751,
  "81</w>": 4752,
  "lim": 4753,
  "johnny</w>": 4754,
  "resolution</w>": 4755,
  "alice</w>": 4756,
  "cau": 4757,
  "sli": 4758,
  "cable</w>": 4759,
  "recordings</w>": 4760,
  "chu": 4761,
  "partners</w>": 4762,
  "drugs</w>": 4763,
  "prisoners</w>": 4764,
  "dra</w>": 4765,
  "agree</w>": 4766,
  "guilty</w>": 4767,
  "kate</w>": 4768,
  "anywhere</w>": 4769,
  "equivalent</w>": 4770,
  "swe": 4771,
  "84</w>": 4772,
  "blocks</w>": 4773,
  "commune</w>": 4774,
  "iowa</w>": 4775,
  "ross</w>": 4776,
  "98</w>": 4777,
  "devices</w>": 4778,
  "ethan</w>": 4779,
  "stro": 4780,
  "hunting</w>": 4781,
  "ised</w>": 4782,
  "ast": 4783,
  "enjoy</w>": 4784,
  "clock</w>": 4785,
  "clu": 4786,
  "tons</w>": 4787,
  "expect</w>": 4788,
  "cli": 4789,
  "dou": 4790,
  "roots</w>": 4791,
  "glance</w>": 4792,
  "juan</w>": 4793,
  "electoral</w>": 4794,
  "blues</w>": 4795,
  "economics</w>": 4796,
  "iraq</w>": 4797,
  "clothing</w>": 4798,
  "detroit</w>": 4799,
  "multi": 4800,
  "charts</w>": 4801,
  "ab</w>": 4802,
  "frowned</w>": 4803,
  "ee</w>": 4804,
  "montreal</w>": 4805,
  "concerns</w>": 4806,
  "pure</w>": 4807,
  "eating</w>": 4808,
  "dies</w>": 4809,
  "keys</w>": 4810,
  "dogs</w>": 4811,
  "bent</w>": 4812,
  "talent</w>": 4813,
  "kir": 4814,
  "speaker</w>": 4815,
  "saint-": 4816,
  "limit</w>": 4817,
  "1908</w>": 4818,
  "drinking</w>": 4819,
  "spar": 4820,
  "strip</w>": 4821,
  "sha</w>": 4822,
  "boss</w>": 4823,
  "73</w>": 4824,
  "roman": 4825,
  "retained</w>": 4826,
  "forests</w>": 4827,
  "sad": 4828,
  "jimmy</w>": 4829,
  "manufacturing</w>": 4830,
  "burst</w>": 4831,
  "pho": 4832,
  "74</w>": 4833,
  "tech</w>": 4834,
  "kun": 4835,
  "kri": 4836,
  "differences</w>": 4837,
  "tribe</w>": 4838,
  "instruments</w>": 4839,
  "shoes</w>": 4840,
  "alabama</w>": 4841,
  "mes</w>": 4842,
  "val</w>": 4843,
  "bid</w>": 4844,
  "83</w>": 4845,
  "sugar</w>": 4846,
  "sending</w>": 4847,
  "welcome</w>": 4848,
  "sum</w>": 4849,
  "mathematics</w>": 4850,
  "mississippi</w>": 4851,
  "marie</w>": 4852,
  "thro": 4853,
  "diocese</w>": 4854,
  "missions</w>": 4855,
  "87</w>": 4856,
  "17th</w>": 4857,
  "cook</w>": 4858,
  "hip</w>": 4859,
  "significantly</w>": 4860,
  "97</w>": 4861,
  "authors</w>": 4862,
  "moore</w>": 4863,
  "semi-": 4864,
  "agents</w>": 4865,
  "wat": 4866,
  "muttered</w>": 4867,
  "rat": 4868,
  "grandfather</w>": 4869,
  "load</w>": 4870,
  "blade</w>": 4871,
  "sin</w>": 4872,
  "popularity</w>": 4873,
  "stable</w>": 4874,
  "vampires</w>": 4875,
  "bet": 4876,
  "kick</w>": 4877,
  "funny</w>": 4878,
  "beth</w>": 4879,
  "element</w>": 4880,
  "suggests</w>": 4881,
  "oklahoma</w>": 4882,
  "forehead</w>": 4883,
  "traveled</w>": 4884,
  "gur": 4885,
  "cap</w>": 4886,
  "ational</w>": 4887,
  "novels</w>": 4888,
  "adults</w>": 4889,
  "alist</w>": 4890,
  "gir": 4891,
  "involving</w>": 4892,
  "athletics</w>": 4893,
  "occupation</w>": 4894,
  "89</w>": 4895,
  "lists</w>": 4896,
  "technique</w>": 4897,
  "pit": 4898,
  "79</w>": 4899,
  "collaboration</w>": 4900,
  "parallel</w>": 4901,
  "bac": 4902,
  "danish</w>": 4903,
  "couples</w>": 4904,
  "crash</w>": 4905,
  "bow</w>": 4906,
  "mix</w>": 4907,
  "aspects</w>": 4908,
  "leather</w>": 4909,
  "appointment</w>": 4910,
  "satellite</w>": 4911,
  "schedule</w>": 4912,
  "shouted</w>": 4913,
  "gau": 4914,
  "nervous</w>": 4915,
  "tti</w>": 4916,
  "margaret</w>": 4917,
  "destroy</w>": 4918,
  "exposed</w>": 4919,
  "easier</w>": 4920,
  "careful</w>": 4921,
  "dal</w>": 4922,
  "peninsula</w>": 4923,
  "ska</w>": 4924,
  "bit": 4925,
  "instance</w>": 4926,
  "aunt</w>": 4927,
  "ette</w>": 4928,
  "93</w>": 4929,
  "surgery</w>": 4930,
  "backed</w>": 4931,
  "contributions</w>": 4932,
  "losses</w>": 4933,
  "argentina</w>": 4934,
  "ownership</w>": 4935,
  "totally</w>": 4936,
  "sson</w>": 4937,
  "czech</w>": 4938,
  "cab": 4939,
  "debate</w>": 4940,
  "supplies</w>": 4941,
  "filed</w>": 4942,
  "translation</w>": 4943,
  "considering</w>": 4944,
  "struggle</w>": 4945,
  "shopping</w>": 4946,
  "adapted</w>": 4947,
  "happening</w>": 4948,
  "gang</w>": 4949,
  "kra": 4950,
  "oli": 4951,
  "artistic</w>": 4952,
  "pushing</w>": 4953,
  "epi": 4954,
  "jobs</w>": 4955,
  "allied</w>": 4956,
  "jon</w>": 4957,
  "rit": 4958,
  "rapid</w>": 4959,
  "colors</w>": 4960,
  "je</w>": 4961,
  "rates</w>": 4962,
  "harvard</w>": 4963,
  "miami</w>": 4964,
  "classified</w>": 4965,
  "stare</w>": 4966,
  "charity</w>": 4967,
  "ceiling</w>": 4968,
  "flows</w>": 4969,
  "waste</w>": 4970,
  "ceo</w>": 4971,
  "passage</w>": 4972,
  "shes</w>": 4973,
  "friday</w>": 4974,
  "alo": 4975,
  "coalition</w>": 4976,
  "pap": 4977,
  "manage</w>": 4978,
  "outer</w>": 4979,
  "yan</w>": 4980,
  "dallas</w>": 4981,
  "matthew</w>": 4982,
  "sky": 4983,
  "suicide</w>": 4984,
  "marketing</w>": 4985,
  "throne</w>": 4986,
  "fair": 4987,
  "vor": 4988,
  "ati</w>": 4989,
  "dick</w>": 4990,
  "considerable</w>": 4991,
  "meets</w>": 4992,
  "eighth</w>": 4993,
  "depth</w>": 4994,
  "requires</w>": 4995,
  "twin</w>": 4996,
  "orthodox</w>": 4997,
  "strongly</w>": 4998,
  "5,000</w>": 4999,
  "assault</w>": 5000,
  "tools</w>": 5001,
  "wished</w>": 5002,
  "suffering</w>": 5003,
  "bis": 5004,
  "rough</w>": 5005,
  "94</w>": 5006,
  "deeply</w>": 5007,
  "kent</w>": 5008,
  "increasingly</w>": 5009,
  "idae</w>": 5010,
  "landscape</w>": 5011,
  "ful": 5012,
  "grip</w>": 5013,
  "harder</w>": 5014,
  "equipped</w>": 5015,
  "spell</w>": 5016,
  "protest</w>": 5017,
  "inn</w>": 5018,
  "sco": 5019,
  "hated</w>": 5020,
  "ites</w>": 5021,
  "advice</w>": 5022,
  "150</w>": 5023,
  "upset</w>": 5024,
  "zar": 5025,
  "ale": 5026,
  "til": 5027,
  "ith</w>": 5028,
  "cow": 5029,
  "flower</w>": 5030,
  "carter</w>": 5031,
  "dublin</w>": 5032,
  "but": 5033,
  "ap</w>": 5034,
  "panel</w>": 5035,
  "lasted</w>": 5036,
  "odd</w>": 5037,
  "formally</w>": 5038,
  "apple</w>": 5039,
  "belonged</w>": 5040,
  "91</w>": 5041,
  "ue</w>": 5042,
  "legislation</w>": 5043,
  "pole</w>": 5044,
  "tte</w>": 5045,
  "vo</w>": 5046,
  "accounts</w>": 5047,
  "ok</w>": 5048,
  "gulf</w>": 5049,
  "wright</w>": 5050,
  "pan</w>": 5051,
  "disc</w>": 5052,
  "aviation</w>": 5053,
  "ukrainian</w>": 5054,
  "and-": 5055,
  "replacement</w>": 5056,
  "attracted</w>": 5057,
  "ads</w>": 5058,
  "plastic</w>": 5059,
  "abad</w>": 5060,
  "policies</w>": 5061,
  "loose</w>": 5062,
  "raising</w>": 5063,
  "pants</w>": 5064,
  "defeating</w>": 5065,
  "whereas</w>": 5066,
  "equ": 5067,
  "ture</w>": 5068,
  "guitarist</w>": 5069,
  "puerto</w>": 5070,
  "kennedy</w>": 5071,
  "16th</w>": 5072,
  "lawrence</w>": 5073,
  "cha</w>": 5074,
  "convinced</w>": 5075,
  "colour</w>": 5076,
  "cal</w>": 5077,
  "cried</w>": 5078,
  "charlotte</w>": 5079,
  "1905</w>": 5080,
  "seek</w>": 5081,
  "stroke</w>": 5082,
  "dru": 5083,
  "voices</w>": 5084,
  "belgium</w>": 5085,
  "ish": 5086,
  "folded</w>": 5087,
  "wound</w>": 5088,
  "18": 5089,
  "jeans</w>": 5090,
  "seattle</w>": 5091,
  "describe</w>": 5092,
  "ed-": 5093,
  "charter</w>": 5094,
  "stic</w>": 5095,
  "aim</w>": 5096,
  "achieve</w>": 5097,
  "fed</w>": 5098,
  "carl</w>": 5099,
  "forcing</w>": 5100,
  "rated</w>": 5101,
  "atlanta</w>": 5102,
  "correct</w>": 5103,
  "practices</w>": 5104,
  "zero</w>": 5105,
  "80": 5106,
  "cloud</w>": 5107,
  "tag": 5108,
  "edited</w>": 5109,
  "fred</w>": 5110,
  "abbey</w>": 5111,
  "hiding</w>": 5112,
  "approval</w>": 5113,
  "solar</w>": 5114,
  "lunch</w>": 5115,
  "printed</w>": 5116,
  "flash</w>": 5117,
  "legend</w>": 5118,
  "gab": 5119,
  "gender</w>": 5120,
  "violent</w>": 5121,
  "license</w>": 5122,
  "rifle</w>": 5123,
  "har</w>": 5124,
  "600</w>": 5125,
  "kom": 5126,
  "ghost</w>": 5127,
  "superior</w>": 5128,
  "chemistry</w>": 5129,
  "industries</w>": 5130,
  "denmark</w>": 5131,
  "pages</w>": 5132,
  "smart</w>": 5133,
  "organ</w>": 5134,
  "chen</w>": 5135,
  "seeking</w>": 5136,
  "cavalry</w>": 5137,
  "laboratory</w>": 5138,
  "ven</w>": 5139,
  "1906</w>": 5140,
  "corporate</w>": 5141,
  "extreme</w>": 5142,
  "criticized</w>": 5143,
  "jonathan</w>": 5144,
  "harris</w>": 5145,
  "cont": 5146,
  "socialist</w>": 5147,
  "ottoman</w>": 5148,
  "hosts</w>": 5149,
  "bomb</w>": 5150,
  "metro</w>": 5151,
  "springs</w>": 5152,
  "franchise</w>": 5153,
  "sang</w>": 5154,
  "dear</w>": 5155,
  "immediate</w>": 5156,
  "fon": 5157,
  "scent</w>": 5158,
  "shield</w>": 5159,
  "useful</w>": 5160,
  "illegal</w>": 5161,
  "aj": 5162,
  "connecticut</w>": 5163,
  "shaw</w>": 5164,
  "bab": 5165,
  "logan</w>": 5166,
  "hungary</w>": 5167,
  "hang</w>": 5168,
  "fuck</w>": 5169,
  "requirements</w>": 5170,
  "column</w>": 5171,
  "commissioner</w>": 5172,
  "aff": 5173,
  "trading</w>": 5174,
  "depression</w>": 5175,
  "1907</w>": 5176,
  "bruce</w>": 5177,
  "criticism</w>": 5178,
  "abc</w>": 5179,
  "lions</w>": 5180,
  "fled</w>": 5181,
  "ries</w>": 5182,
  "gradually</w>": 5183,
  "ets</w>": 5184,
  "sentence</w>": 5185,
  "qualifying</w>": 5186,
  "escaped</w>": 5187,
  "blo": 5188,
  "vessel</w>": 5189,
  "meetings</w>": 5190,
  "brazilian</w>": 5191,
  "boundary</w>": 5192,
  "gin": 5193,
  "nights</w>": 5194,
  "broadway</w>": 5195,
  "eu</w>": 5196,
  "illa</w>": 5197,
  "frequency</w>": 5198,
  "networks</w>": 5199,
  "domain</w>": 5200,
  "orleans</w>": 5201,
  "revolutionary</w>": 5202,
  "couch</w>": 5203,
  "definition</w>": 5204,
  "rounds</w>": 5205,
  "guests</w>": 5206,
  "edinburgh</w>": 5207,
  "indigenous</w>": 5208,
  "bak": 5209,
  "worn</w>": 5210,
  "bears</w>": 5211,
  "cent": 5212,
  "1,000</w>": 5213,
  "successor</w>": 5214,
  "designer</w>": 5215,
  "kicked</w>": 5216,
  "circumstances</w>": 5217,
  "naked</w>": 5218,
  "austin</w>": 5219,
  "dust</w>": 5220,
  "our": 5221,
  "denied</w>": 5222,
  "intense</w>": 5223,
  "seth</w>": 5224,
  "gates</w>": 5225,
  "fan": 5226,
  "dollars</w>": 5227,
  "parks</w>": 5228,
  "1909</w>": 5229,
  "marshall</w>": 5230,
  "cinema</w>": 5231,
  "nit": 5232,
  "lou": 5233,
  "enti": 5234,
  "newspapers</w>": 5235,
  "destruction</w>": 5236,
  "monument</w>": 5237,
  "pace</w>": 5238,
  "gon": 5239,
  "aqu": 5240,
  "twisted</w>": 5241,
  "critic</w>": 5242,
  "ambassador</w>": 5243,
  "admiral</w>": 5244,
  "fault</w>": 5245,
  "raw</w>": 5246,
  "employment</w>": 5247,
  "gy</w>": 5248,
  "ignored</w>": 5249,
  "ast</w>": 5250,
  "eur</w>": 5251,
  "lined</w>": 5252,
  "commanded</w>": 5253,
  "loo": 5254,
  "sean</w>": 5255,
  "admit</w>": 5256,
  "sian</w>": 5257,
  "cutting</w>": 5258,
  "celebrated</w>": 5259,
  "claiming</w>": 5260,
  "hart</w>": 5261,
  "lowered</w>": 5262,
  "occasions</w>": 5263,
  "ukraine</w>": 5264,
  "romantic</w>": 5265,
  "eddie</w>": 5266,
  "components</w>": 5267,
  "anda</w>": 5268,
  "vas": 5269,
  "plat": 5270,
  "surviving</w>": 5271,
  "proposal</w>": 5272,
  "ste</w>": 5273,
  "meat</w>": 5274,
  "breakfast</w>": 5275,
  "customers</w>": 5276,
  "ino": 5277,
  "pen</w>": 5278,
  "blow</w>": 5279,
  "clan</w>": 5280,
  "declined</w>": 5281,
  "soundtrack</w>": 5282,
  "hips</w>": 5283,
  "cc</w>": 5284,
  "influential</w>": 5285,
  "electrical</w>": 5286,
  "fantasy</w>": 5287,
  "ssi": 5288,
  "basin</w>": 5289,
  "shadows</w>": 5290,
  "shower</w>": 5291,
  "mid</w>": 5292,
  "steady</w>": 5293,
  "voivodeship</w>": 5294,
  "fate</w>": 5295,
  "first-": 5296,
  "oak</w>": 5297,
  "index</w>": 5298,
  "ade": 5299,
  "maintenance</w>": 5300,
  "exit</w>": 5301,
  "lon": 5302,
  "tamil</w>": 5303,
  "boards</w>": 5304,
  "experiences</w>": 5305,
  "vocal</w>": 5306,
  "jun": 5307,
  "claire</w>": 5308,
  "context</w>": 5309,
  "mills</w>": 5310,
  "merely</w>": 5311,
  "ria</w>": 5312,
  "competitions</w>": 5313,
  "syn": 5314,
  "modified</w>": 5315,
  "baron</w>": 5316,
  "12th</w>": 5317,
  "slu": 5318,
  "remove</w>": 5319,
  "dozen</w>": 5320,
  "sing": 5321,
  "bare</w>": 5322,
  "knee</w>": 5323,
  "poli": 5324,
  "forgotten</w>": 5325,
  "medium</w>": 5326,
  "off": 5327,
  "legislature</w>": 5328,
  "berry</w>": 5329,
  "replacing</w>": 5330,
  "peaked</w>": 5331,
  "mes": 5332,
  "strategic</w>": 5333,
  "tag</w>": 5334,
  "crystal</w>": 5335,
  "scope</w>": 5336,
  "stronger</w>": 5337,
  "copy</w>": 5338,
  "carbon</w>": 5339,
  "neu": 5340,
  "honorary</w>": 5341,
  "200": 5342,
  "franklin</w>": 5343,
  "god": 5344,
  "coverage</w>": 5345,
  "gary</w>": 5346,
  "uniform</w>": 5347,
  "till</w>": 5348,
  "kha": 5349,
  "aki</w>": 5350,
  "exception</w>": 5351,
  "centers</w>": 5352,
  "happens</w>": 5353,
  "knocked</w>": 5354,
  "f**king</w>": 5355,
  "audio</w>": 5356,
  "craft</w>": 5357,
  "holiday</w>": 5358,
  "injuries</w>": 5359,
  "angle</w>": 5360,
  "pc</w>": 5361,
  "gg": 5362,
  "aimed</w>": 5363,
  "filmed</w>": 5364,
  "statue</w>": 5365,
  "d.c.</w>": 5366,
  "graham</w>": 5367,
  "1904</w>": 5368,
  "conduct</w>": 5369,
  "sigh</w>": 5370,
  "ack</w>": 5371,
  "styles</w>": 5372,
  "nobody</w>": 5373,
  "austrian</w>": 5374,
  "adams</w>": 5375,
  "hyper": 5376,
  "ther</w>": 5377,
  "russell</w>": 5378,
  "initiative</w>": 5379,
  "5,": 5380,
  "cleveland</w>": 5381,
  "rou": 5382,
  "spiritual</w>": 5383,
  "backs</w>": 5384,
  "ania</w>": 5385,
  "killer</w>": 5386,
  "expensive</w>": 5387,
  "climbed</w>": 5388,
  "monster</w>": 5389,
  "jacket</w>": 5390,
  "liverpool</w>": 5391,
  "proof</w>": 5392,
  "tly</w>": 5393,
  "portugal</w>": 5394,
  "habitat</w>": 5395,
  "seed</w>": 5396,
  "ile</w>": 5397,
  "show": 5398,
  "vessels</w>": 5399,
  "annually</w>": 5400,
  "welsh</w>": 5401,
  "ited</w>": 5402,
  "tokyo</w>": 5403,
  "gi</w>": 5404,
  "electricity</w>": 5405,
  "dic": 5406,
  "norman</w>": 5407,
  "sponsored</w>": 5408,
  "work": 5409,
  "absence</w>": 5410,
  "law": 5411,
  "maine</w>": 5412,
  "fying</w>": 5413,
  "ams</w>": 5414,
  "elder</w>": 5415,
  "sim": 5416,
  "effectively</w>": 5417,
  "wondering</w>": 5418,
  "ltd</w>": 5419,
  "jamie</w>": 5420,
  "slo": 5421,
  "processes</w>": 5422,
  "ex-": 5423,
  "lucas</w>": 5424,
  "inches</w>": 5425,
  "brook</w>": 5426,
  "resident</w>": 5427,
  "soci": 5428,
  "emily</w>": 5429,
  "medals</w>": 5430,
  "christopher</w>": 5431,
  "asi": 5432,
  "vienna</w>": 5433,
  "1902</w>": 5434,
  "ranking</w>": 5435,
  "ball": 5436,
  "collections</w>": 5437,
  "revival</w>": 5438,
  "amp": 5439,
  "nba</w>": 5440,
  "robin</w>": 5441,
  "rival</w>": 5442,
  "dos</w>": 5443,
  "amazing</w>": 5444,
  "fen": 5445,
  "kas": 5446,
  "six-": 5447,
  "rarely</w>": 5448,
  "staying</w>": 5449,
  "honour</w>": 5450,
  "monastery</w>": 5451,
  "sel</w>": 5452,
  "800</w>": 5453,
  "competing</w>": 5454,
  "malaysia</w>": 5455,
  "false</w>": 5456,
  "13th</w>": 5457,
  "bite</w>": 5458,
  "greatly</w>": 5459,
  "mia</w>": 5460,
  "lean</w>": 5461,
  "lis</w>": 5462,
  "sig": 5463,
  "wol": 5464,
  "territories</w>": 5465,
  "versus</w>": 5466,
  "1901</w>": 5467,
  "nevertheless</w>": 5468,
  "completion</w>": 5469,
  "thrown</w>": 5470,
  "wayne</w>": 5471,
  "vast</w>": 5472,
  "ris</w>": 5473,
  "joy</w>": 5474,
  "reaches</w>": 5475,
  "tric": 5476,
  "sad</w>": 5477,
  "jet</w>": 5478,
  "personality</w>": 5479,
  "comfortable</w>": 5480,
  "searching</w>": 5481,
  "ow</w>": 5482,
  "2,": 5483,
  "rico</w>": 5484,
  "bra</w>": 5485,
  "document</w>": 5486,
  "arrest</w>": 5487,
  "suggest</w>": 5488,
  "10,000</w>": 5489,
  "mechanical</w>": 5490,
  "10.": 5491,
  "cou": 5492,
  "off-": 5493,
  "encouraged</w>": 5494,
  "baltimore</w>": 5495,
  "rushed</w>": 5496,
  "scientists</w>": 5497,
  "minimum</w>": 5498,
  "elli</w>": 5499,
  "jacob</w>": 5500,
  "cited</w>": 5501,
  "executed</w>": 5502,
  "processing</w>": 5503,
  "nazi</w>": 5504,
  "perfectly</w>": 5505,
  "1903</w>": 5506,
  "radi": 5507,
  "c.": 5508,
  "leaning</w>": 5509,
  "lus</w>": 5510,
  "descent</w>": 5511,
  "possession</w>": 5512,
  "gap</w>": 5513,
  "balls</w>": 5514,
  "asleep</w>": 5515,
  "nelson</w>": 5516,
  "h-": 5517,
  "logy</w>": 5518,
  "ack": 5519,
  "kar</w>": 5520,
  "tered</w>": 5521,
  "hardly</w>": 5522,
  "restoration</w>": 5523,
  "badly</w>": 5524,
  "nav": 5525,
  "fifty</w>": 5526,
  "excellent</w>": 5527,
  "muscles</w>": 5528,
  "-yard</w>": 5529,
  "ined</w>": 5530,
  "advertising</w>": 5531,
  "funded</w>": 5532,
  "appropriate</w>": 5533,
  "ened</w>": 5534,
  "harbor</w>": 5535,
  "jay</w>": 5536,
  "hence</w>": 5537,
  "singh</w>": 5538,
  "warriors</w>": 5539,
  "lakes</w>": 5540,
  "gas": 5541,
  "chat": 5542,
  "09</w>": 5543,
  "creature</w>": 5544,
  "summit</w>": 5545,
  "dominated</w>": 5546,
  "hr</w>": 5547,
  "thompson</w>": 5548,
  "dian</w>": 5549,
  ",0": 5550,
  "fitted</w>": 5551,
  "battery</w>": 5552,
  "adventure</w>": 5553,
  "button</w>": 5554,
  "julian</w>": 5555,
  "nas": 5556,
  "voting</w>": 5557,
  "1920s</w>": 5558,
  "tat": 5559,
  "zane</w>": 5560,
  "teach</w>": 5561,
  "exact</w>": 5562,
  "onic</w>": 5563,
  "nate</w>": 5564,
  "credits</w>": 5565,
  "ami</w>": 5566,
  "tering</w>": 5567,
  "informed</w>": 5568,
  "integrated</w>": 5569,
  "eva</w>": 5570,
  "ling": 5571,
  "grab</w>": 5572,
  "nes</w>": 5573,
  "involvement</w>": 5574,
  "08</w>": 5575,
  "architectural</w>": 5576,
  "merchant</w>": 5577,
  "farmers</w>": 5578,
  "indonesia</w>": 5579,
  "recovered</w>": 5580,
  "symbol</w>": 5581,
  "arti": 5582,
  "luck</w>": 5583,
  "romania</w>": 5584,
  "king": 5585,
  "shares</w>": 5586,
  "how": 5587,
  "tend</w>": 5588,
  "ranks</w>": 5589,
  "terrible</w>": 5590,
  "bench</w>": 5591,
  "experimental</w>": 5592,
  "producers</w>": 5593,
  "assist</w>": 5594,
  "sharing</w>": 5595,
  "gel</w>": 5596,
  "bars</w>": 5597,
  "permission</w>": 5598,
  "borders</w>": 5599,
  "classification</w>": 5600,
  "relationships</w>": 5601,
  "was": 5602,
  "ented</w>": 5603,
  "wed</w>": 5604,
  "nicholas</w>": 5605,
  "counter": 5606,
  "ila</w>": 5607,
  "preserved</w>": 5608,
  "thinks</w>": 5609,
  "external</w>": 5610,
  "shire</w>": 5611,
  "carlos</w>": 5612,
  "abo": 5613,
  "auto": 5614,
  "disney</w>": 5615,
  "controversy</w>": 5616,
  "bible</w>": 5617,
  "description</w>": 5618,
  "indians</w>": 5619,
  "ox": 5620,
  "tion": 5621,
  "sessions</w>": 5622,
  "decline</w>": 5623,
  "mistake</w>": 5624,
  "poems</w>": 5625,
  "hungarian</w>": 5626,
  "gmina</w>": 5627,
  "commerce</w>": 5628,
  "hallway</w>": 5629,
  "ae": 5630,
  "girlfriend</w>": 5631,
  "warren</w>": 5632,
  "boy": 5633,
  "graduating</w>": 5634,
  "exists</w>": 5635,
  "eliminated</w>": 5636,
  "10th</w>": 5637,
  "departure</w>": 5638,
  "posted</w>": 5639,
  "sci": 5640,
  "electro": 5641,
  "progressive</w>": 5642,
  "rich": 5643,
  "dic</w>": 5644,
  "practical</w>": 5645,
  "ele": 5646,
  "bloody</w>": 5647,
  "interrupted</w>": 5648,
  "lar</w>": 5649,
  "ano": 5650,
  "pittsburgh</w>": 5651,
  "wards</w>": 5652,
  "bel</w>": 5653,
  "virgin</w>": 5654,
  "panic</w>": 5655,
  "cabin</w>": 5656,
  "colleges</w>": 5657,
  "decisions</w>": 5658,
  "screamed</w>": 5659,
  "ros": 5660,
  "stewart</w>": 5661,
  "om</w>": 5662,
  "aga</w>": 5663,
  "emotions</w>": 5664,
  "tac": 5665,
  "ink</w>": 5666,
  "pressing</w>": 5667,
  "hit": 5668,
  "grove</w>": 5669,
  "youngest</w>": 5670,
  "similarly</w>": 5671,
  "nod</w>": 5672,
  "scholar</w>": 5673,
  "blind</w>": 5674,
  "helen</w>": 5675,
  "infrastructure</w>": 5676,
  "?": 5677,
  "throwing</w>": 5678,
  "deaths</w>": 5679,
  "tension</w>": 5680,
  "cooper</w>": 5681,
  "limits</w>": 5682,
  "controversial</w>": 5683,
  "elevation</w>": 5684,
  "scholarship</w>": 5685,
  "neuro": 5686,
  "constitutional</w>": 5687,
  "gabriel</w>": 5688,
  "lab</w>": 5689,
  "milk</w>": 5690,
  "suppose</w>": 5691,
  "sheet</w>": 5692,
  "continental</w>": 5693,
  "liquid</w>": 5694,
  "yours</w>": 5695,
  "occasion</w>": 5696,
  "ea</w>": 5697,
  "nova</w>": 5698,
  "pro-": 5699,
  "abilities</w>": 5700,
  "genre</w>": 5701,
  "deeper</w>": 5702,
  "ladies</w>": 5703,
  "mall</w>": 5704,
  "struggled</w>": 5705,
  "15th</w>": 5706,
  "mess</w>": 5707,
  "rid</w>": 5708,
  "confusion</w>": 5709,
  "discussion</w>": 5710,
  "heaven</w>": 5711,
  "representation</w>": 5712,
  "pregnant</w>": 5713,
  "stops</w>": 5714,
  "colored</w>": 5715,
  "verse</w>": 5716,
  "ils</w>": 5717,
  "ero</w>": 5718,
  "argument</w>": 5719,
  "lied</w>": 5720,
  "shots</w>": 5721,
  "drums</w>": 5722,
  "liber": 5723,
  "bull</w>": 5724,
  "fer</w>": 5725,
  "frequent</w>": 5726,
  "..</w>": 5727,
  "unfortunately</w>": 5728,
  "pil": 5729,
  "das</w>": 5730,
  "supporters</w>": 5731,
  "compilation</w>": 5732,
  "dd": 5733,
  "pit</w>": 5734,
  "fab": 5735,
  "mus</w>": 5736,
  "pitch</w>": 5737,
  "instantly</w>": 5738,
  "mood</w>": 5739,
  "hispanic</w>": 5740,
  "alcohol</w>": 5741,
  "eggs</w>": 5742,
  "hull</w>": 5743,
  "operational</w>": 5744,
  "play": 5745,
  "output</w>": 5746,
  "extent</w>": 5747,
  "tia</w>": 5748,
  "recognize</w>": 5749,
  "apply</w>": 5750,
  "sebastian</w>": 5751,
  "es-": 5752,
  "drivers</w>": 5753,
  "07</w>": 5754,
  "partly</w>": 5755,
  "dar</w>": 5756,
  "funeral</w>": 5757,
  "intersection</w>": 5758,
  "pride</w>": 5759,
  "ez</w>": 5760,
  "hl</w>": 5761,
  "competitive</w>": 5762,
  "patrol</w>": 5763,
  "rob": 5764,
  "pine</w>": 5765,
  "ci</w>": 5766,
  "jury</w>": 5767,
  "iled</w>": 5768,
  "cotton</w>": 5769,
  "murray</w>": 5770,
  "layer</w>": 5771,
  "mont": 5772,
  "checked</w>": 5773,
  "walks</w>": 5774,
  "birmingham</w>": 5775,
  "dramatic</w>": 5776,
  "mans</w>": 5777,
  "pt</w>": 5778,
  "pay": 5779,
  "purple</w>": 5780,
  "stanley</w>": 5781,
  "siege</w>": 5782,
  "nee</w>": 5783,
  "penalty</w>": 5784,
  "60": 5785,
  "dawn</w>": 5786,
  "concentration</w>": 5787,
  "hr": 5788,
  "boots</w>": 5789,
  "ail</w>": 5790,
  "quar": 5791,
  "suspected</w>": 5792,
  "apparent</w>": 5793,
  "instrument</w>": 5794,
  "recommended</w>": 5795,
  "of-": 5796,
  "concerts</w>": 5797,
  "arkansas</w>": 5798,
  "cargo</w>": 5799,
  "licensed</w>": 5800,
  "fat</w>": 5801,
  "discuss</w>": 5802,
  "nbc</w>": 5803,
  "participation</w>": 5804,
  "gear</w>": 5805,
  "cbs</w>": 5806,
  "campbell</w>": 5807,
  "intention</w>": 5808,
  "engineers</w>": 5809,
  "gar</w>": 5810,
  "reminded</w>": 5811,
  "dirty</w>": 5812,
  "placing</w>": 5813,
  "maj": 5814,
  "revenue</w>": 5815,
  "distant</w>": 5816,
  "suspended</w>": 5817,
  "ninth</w>": 5818,
  "latest</w>": 5819,
  "portrayed</w>": 5820,
  "scream</w>": 5821,
  "pped</w>": 5822,
  "pin</w>": 5823,
  "disc": 5824,
  "substantial</w>": 5825,
  "emotional</w>": 5826,
  "cin": 5827,
  "enemies</w>": 5828,
  "statistics</w>": 5829,
  "viewed</w>": 5830,
  "suitable</w>": 5831,
  "thereafter</w>": 5832,
  "horn</w>": 5833,
  "remainder</w>": 5834,
  "arm": 5835,
  "brit": 5836,
  "paint</w>": 5837,
  "generated</w>": 5838,
  "susan</w>": 5839,
  "lifetime</w>": 5840,
  "ners</w>": 5841,
  "affiliated</w>": 5842,
  "reporter</w>": 5843,
  "spi": 5844,
  "loop</w>": 5845,
  "14th</w>": 5846,
  "principles</w>": 5847,
  "tal</w>": 5848,
  "touchdown</w>": 5849,
  "tar</w>": 5850,
  "tale</w>": 5851,
  "videos</w>": 5852,
  "identify</w>": 5853,
  "tables</w>": 5854,
  "channels</w>": 5855,
  "sburg</w>": 5856,
  "aci": 5857,
  "parker</w>": 5858,
  "ree</w>": 5859,
  "en-": 5860,
  "respond</w>": 5861,
  "dow": 5862,
  "sley</w>": 5863,
  "eth": 5864,
  "benefits</w>": 5865,
  "ici": 5866,
  "tu</w>": 5867,
  "opportunities</w>": 5868,
  "partially</w>": 5869,
  "south": 5870,
  "touring</w>": 5871,
  "preferred</w>": 5872,
  "01</w>": 5873,
  "victorian</w>": 5874,
  "transition</w>": 5875,
  "net": 5876,
  "animated</w>": 5877,
  "leaf</w>": 5878,
  "remote</w>": 5879,
  "assi": 5880,
  "4.": 5881,
  "transit</w>": 5882,
  "commented</w>": 5883,
  "nomination</w>": 5884,
  "chil": 5885,
  "julia</w>": 5886,
  "weird</w>": 5887,
  "robinson</w>": 5888,
  "stor": 5889,
  "lic</w>": 5890,
  "stru": 5891,
  "yed</w>": 5892,
  "innings</w>": 5893,
  "chester</w>": 5894,
  "murmured</w>": 5895,
  "dul": 5896,
  "blake</w>": 5897,
  "hop": 5898,
  "belief</w>": 5899,
  "swallowed</w>": 5900,
  "cham": 5901,
  "mines</w>": 5902,
  "05</w>": 5903,
  "diamond</w>": 5904,
  "agencies</w>": 5905,
  "earning</w>": 5906,
  "slave</w>": 5907,
  "discussed</w>": 5908,
  "?????</w>": 5909,
  "sheriff</w>": 5910,
  "tele": 5911,
  "baker</w>": 5912,
  "danny</w>": 5913,
  "governments</w>": 5914,
  "honey</w>": 5915,
  "snow": 5916,
  "lad": 5917,
  "detailed</w>": 5918,
  "alfred</w>": 5919,
  "widespread</w>": 5920,
  "alleged</w>": 5921,
  "iz": 5922,
  "bat</w>": 5923,
  "finland</w>": 5924,
  "defending</w>": 5925,
  "saints</w>": 5926,
  "allies</w>": 5927,
  "indicate</w>": 5928,
  "affair</w>": 5929,
  "managing</w>": 5930,
  "secured</w>": 5931,
  "freyja</w>": 5932,
  "ffs</w>": 5933,
  "oliver</w>": 5934,
  "pres": 5935,
  "sty": 5936,
  "traditionally</w>": 5937,
  "crying</w>": 5938,
  "fairly</w>": 5939,
  "absolutely</w>": 5940,
  "muscle</w>": 5941,
  "ordinary</w>": 5942,
  "ili": 5943,
  "yelled</w>": 5944,
  "1898</w>": 5945,
  "five-": 5946,
  "day": 5947,
  "than": 5948,
  "jay": 5949,
  "zy": 5950,
  "links</w>": 5951,
  "clinical</w>": 5952,
  "tribes</w>": 5953,
  "dd</w>": 5954,
  "transmission</w>": 5955,
  "alli": 5956,
  "writes</w>": 5957,
  "ax": 5958,
  "6,": 5959,
  "po</w>": 5960,
  "hard": 5961,
  "avi": 5962,
  "elite</w>": 5963,
  "behalf</w>": 5964,
  "donald</w>": 5965,
  "researchers</w>": 5966,
  "machines</w>": 5967,
  "parent</w>": 5968,
  "participants</w>": 5969,
  "11th</w>": 5970,
  "sham": 5971,
  "1000</w>": 5972,
  "organised</w>": 5973,
  "dock</w>": 5974,
  "guardian</w>": 5975,
  "noble</w>": 5976,
  "reli": 5977,
  "mam": 5978,
  "nan</w>": 5979,
  "ceased</w>": 5980,
  "essential</w>": 5981,
  "yam": 5982,
  "waved</w>": 5983,
  "obtain</w>": 5984,
  "elsewhere</w>": 5985,
  "doorway</w>": 5986,
  "morris</w>": 5987,
  "grand": 5988,
  "shocked</w>": 5989,
  "detective</w>": 5990,
  "cad": 5991,
  "duo</w>": 5992,
  "defend</w>": 5993,
  "stretched</w>": 5994,
  "arrangement</w>": 5995,
  "civilian</w>": 5996,
  "donated</w>": 5997,
  "plac": 5998,
  "attending</w>": 5999,
  "nec": 6000,
  "cen": 6001,
  "stress</w>": 6002,
  "venue</w>": 6003,
  "250</w>": 6004,
  "periods</w>": 6005,
  "populations</w>": 6006,
  "ratio</w>": 6007,
  "boyfriend</w>": 6008,
  "ph</w>": 6009,
  "zen": 6010,
  "judges</w>": 6011,
  "ruling</w>": 6012,
  "villa</w>": 6013,
  "inv": 6014,
  "regime</w>": 6015,
  "iting</w>": 6016,
  "devil</w>": 6017,
  "abroad</w>": 6018,
  "reg": 6019,
  "ease</w>": 6020,
  "dirt</w>": 6021,
  "friendship</w>": 6022,
  "instrumental</w>": 6023,
  "submarine</w>": 6024,
  "zer": 6025,
  "provinces</w>": 6026,
  "les": 6027,
  "mere</w>": 6028,
  "literally</w>": 6029,
  "repair</w>": 6030,
  "ava</w>": 6031,
  "detail</w>": 6032,
  "bau": 6033,
  "answers</w>": 6034,
  "releases</w>": 6035,
  "themes</w>": 6036,
  "wells</w>": 6037,
  "/": 6038,
  "aa</w>": 6039,
  "e.": 6040,
  "paying</w>": 6041,
  "rel": 6042,
  "cran": 6043,
  "brooklyn</w>": 6044,
  "diameter</w>": 6045,
  "acres</w>": 6046,
  "victim</w>": 6047,
  "dom</w>": 6048,
  "venture</w>": 6049,
  "1890</w>": 6050,
  "moral</w>": 6051,
  "josh</w>": 6052,
  "wick</w>": 6053,
  "sac": 6054,
  "aging</w>": 6055,
  "symphony</w>": 6056,
  "therapy</w>": 6057,
  "displayed</w>": 6058,
  "bigger</w>": 6059,
  "conventional</w>": 6060,
  "lots</w>": 6061,
  "silk</w>": 6062,
  "manor</w>": 6063,
  "ain</w>": 6064,
  "erected</w>": 6065,
  "raj": 6066,
  "abuse</w>": 6067,
  "supports</w>": 6068,
  "fist</w>": 6069,
  "shing</w>": 6070,
  "leon</w>": 6071,
  "expert</w>": 6072,
  "wr": 6073,
  "confidence</w>": 6074,
  "sole</w>": 6075,
  "apo": 6076,
  "1899</w>": 6077,
  "connect</w>": 6078,
  "gold": 6079,
  "switch</w>": 6080,
  "hurricane</w>": 6081,
  "taiwan</w>": 6082,
  "evolution</w>": 6083,
  "utah</w>": 6084,
  "benjamin</w>": 6085,
  "historically</w>": 6086,
  "dist": 6087,
  "germans</w>": 6088,
  "vincent</w>": 6089,
  "neil</w>": 6090,
  "contested</w>": 6091,
  "rat</w>": 6092,
  "sag": 6093,
  "portland</w>": 6094,
  "theres</w>": 6095,
  "fol": 6096,
  "rocky</w>": 6097,
  "ment": 6098,
  "photo</w>": 6099,
  "sville</w>": 6100,
  "full-time</w>": 6101,
  "eless</w>": 6102,
  "mitchell</w>": 6103,
  "fictional</w>": 6104,
  "ski": 6105,
  "wonderful</w>": 6106,
  "warrior</w>": 6107,
  "desperate</w>": 6108,
  "premiere</w>": 6109,
  "tically</w>": 6110,
  "foster</w>": 6111,
  "corridor</w>": 6112,
  "viewers</w>": 6113,
  "rer</w>": 6114,
  "wildlife</w>": 6115,
  "biological</w>": 6116,
  "attributed</w>": 6117,
  "egyptian</w>": 6118,
  "automatic</w>": 6119,
  "dis</w>": 6120,
  "achievement</w>": 6121,
  "toured</w>": 6122,
  "residing</w>": 6123,
  "liga</w>": 6124,
  "contribution</w>": 6125,
  "doubles</w>": 6126,
  "connecting</w>": 6127,
  "publisher</w>": 6128,
  "tourism</w>": 6129,
  "gener": 6130,
  "warner</w>": 6131,
  "produces</w>": 6132,
  "insisted</w>": 6133,
  "cum": 6134,
  "beast</w>": 6135,
  "regard</w>": 6136,
  "pau": 6137,
  "des": 6138,
  "smo": 6139,
  "swept</w>": 6140,
  "thor": 6141,
  "conclusion</w>": 6142,
  "overseas</w>": 6143,
  "fur</w>": 6144,
  "characteristics</w>": 6145,
  "at-": 6146,
  "istic</w>": 6147,
  "withdrew</w>": 6148,
  "fic": 6149,
  "lag": 6150,
  "technologies</w>": 6151,
  "hou": 6152,
  "whisper</w>": 6153,
  "sculpture</w>": 6154,
  "eyed</w>": 6155,
  "bobby</w>": 6156,
  "-up</w>": 6157,
  "06</w>": 6158,
  "athletes</w>": 6159,
  "jerry</w>": 6160,
  "dismissed</w>": 6161,
  "proud</w>": 6162,
  "component</w>": 6163,
  "trials</w>": 6164,
  "barry</w>": 6165,
  "rage</w>": 6166,
  "marcus</w>": 6167,
  "ising</w>": 6168,
  "linear</w>": 6169,
  "breathe</w>": 6170,
  "gentle</w>": 6171,
  "arriving</w>": 6172,
  "attempting</w>": 6173,
  "railways</w>": 6174,
  "ero": 6175,
  "well-known</w>": 6176,
  "ato": 6177,
  "sacred</w>": 6178,
  "school": 6179,
  "winds</w>": 6180,
  "drunk</w>": 6181,
  "texts</w>": 6182,
  "thailand</w>": 6183,
  "io": 6184,
  "peoples</w>": 6185,
  "arrive</w>": 6186,
  "decides</w>": 6187,
  "richmond</w>": 6188,
  "mystery</w>": 6189,
  "ished</w>": 6190,
  "sher": 6191,
  "exercise</w>": 6192,
  "portrait</w>": 6193,
  "dle</w>": 6194,
  "volunteer</w>": 6195,
  "maker</w>": 6196,
  "yar": 6197,
  "traveling</w>": 6198,
  "phil</w>": 6199,
  "leo</w>": 6200,
  "categories</w>": 6201,
  "resort</w>": 6202,
  "lords</w>": 6203,
  "tz": 6204,
  "instant</w>": 6205,
  "crimes</w>": 6206,
  "innocent</w>": 6207,
  "percentage</w>": 6208,
  "goo": 6209,
  "emp": 6210,
  "cooperation</w>": 6211,
  "murdered</w>": 6212,
  "1896</w>": 6213,
  "options</w>": 6214,
  "blinked</w>": 6215,
  "plo": 6216,
  "achi": 6217,
  "files</w>": 6218,
  "pper</w>": 6219,
  "eligible</w>": 6220,
  "volumes</w>": 6221,
  "onia</w>": 6222,
  "meter</w>": 6223,
  "mason</w>": 6224,
  "chy</w>": 6225,
  "delivery</w>": 6226,
  "belong</w>": 6227,
  "1895</w>": 6228,
  "yang</w>": 6229,
  "zo</w>": 6230,
  "monday</w>": 6231,
  "dealing</w>": 6232,
  "2,000</w>": 6233,
  "adaptation</w>": 6234,
  "pes</w>": 6235,
  "believes</w>": 6236,
  "archbishop</w>": 6237,
  "full-": 6238,
  "laughter</w>": 6239,
  "pointing</w>": 6240,
  "patterns</w>": 6241,
  "harrison</w>": 6242,
  "1.5</w>": 6243,
  "jail</w>": 6244,
  "glasgow</w>": 6245,
  "assets</w>": 6246,
  "ferry</w>": 6247,
  "ored</w>": 6248,
  "retail</w>": 6249,
  "settle</w>": 6250,
  "span</w>": 6251,
  "rings</w>": 6252,
  "tter</w>": 6253,
  "evans</w>": 6254,
  "tile</w>": 6255,
  "demolished</w>": 6256,
  "random</w>": 6257,
  "wrist</w>": 6258,
  "dropping</w>": 6259,
  "telephone</w>": 6260,
  "kay": 6261,
  "sailed</w>": 6262,
  "passion</w>": 6263,
  "bath</w>": 6264,
  "nearest</w>": 6265,
  "hampshire</w>": 6266,
  "nik</w>": 6267,
  "pot</w>": 6268,
  "mediterranean</w>": 6269,
  "luis</w>": 6270,
  "slaves</w>": 6271,
  "sty</w>": 6272,
  "bits</w>": 6273,
  "lily</w>": 6274,
  "principle</w>": 6275,
  "mic": 6276,
  "longest</w>": 6277,
  "thirteen</w>": 6278,
  "tape</w>": 6279,
  "opponent</w>": 6280,
  "tec": 6281,
  "vir": 6282,
  "mon</w>": 6283,
  "yl</w>": 6284,
  "min</w>": 6285,
  "drummer</w>": 6286,
  "phoenix</w>": 6287,
  "witness</w>": 6288,
  "way": 6289,
  "touching</w>": 6290,
  "thu": 6291,
  "impressed</w>": 6292,
  "shops</w>": 6293,
  "ultimate</w>": 6294,
  "foot": 6295,
  "aboard</w>": 6296,
  "reportedly</w>": 6297,
  "bic": 6298,
  "genetic</w>": 6299,
  "cattle</w>": 6300,
  "self</w>": 6301,
  "slight</w>": 6302,
  "04</w>": 6303,
  "dered</w>": 6304,
  "under-": 6305,
  "warned</w>": 6306,
  "belgian</w>": 6307,
  "switched</w>": 6308,
  "endemic</w>": 6309,
  "regulations</w>": 6310,
  "wire</w>": 6311,
  "tool</w>": 6312,
  "rob</w>": 6313,
  "psycho": 6314,
  "ek": 6315,
  "helps</w>": 6316,
  "sten": 6317,
  "bec": 6318,
  "yorkshire</w>": 6319,
  "fir": 6320,
  "jerusalem</w>": 6321,
  "chen": 6322,
  "cali": 6323,
  "spaces</w>": 6324,
  "assisted</w>": 6325,
  "ours</w>": 6326,
  "spots</w>": 6327,
  "alia</w>": 6328,
  "arch": 6329,
  "drum</w>": 6330,
  "segment</w>": 6331,
  "spotted</w>": 6332,
  "awareness</w>": 6333,
  "hugh</w>": 6334,
  "whenever</w>": 6335,
  "debt</w>": 6336,
  "rebuilt</w>": 6337,
  "ring": 6338,
  "comfort</w>": 6339,
  "raf</w>": 6340,
  "beam</w>": 6341,
  "settlers</w>": 6342,
  "fifa</w>": 6343,
  "hitting</w>": 6344,
  "arabic</w>": 6345,
  "mud</w>": 6346,
  "fortune</w>": 6347,
  "1897</w>": 6348,
  "scar": 6349,
  "nurse</w>": 6350,
  "rid": 6351,
  "sixteen</w>": 6352,
  "magazines</w>": 6353,
  "ch-": 6354,
  "phy": 6355,
  "spun</w>": 6356,
  "disaster</w>": 6357,
  "kan</w>": 6358,
  "punk</w>": 6359,
  "isolated</w>": 6360,
  "wealth</w>": 6361,
  "wealthy</w>": 6362,
  "ening</w>": 6363,
  "long-": 6364,
  "fighters</w>": 6365,
  "loaded</w>": 6366,
  "7,": 6367,
  "furthermore</w>": 6368,
  "com</w>": 6369,
  "dav": 6370,
  "carrier</w>": 6371,
  "photography</w>": 6372,
  "sensitive</w>": 6373,
  "wise</w>": 6374,
  "pursue</w>": 6375,
  "gli": 6376,
  "wis": 6377,
  "jor": 6378,
  "aries</w>": 6379,
  "continuous</w>": 6380,
  "lover</w>": 6381,
  "spec": 6382,
  "blan": 6383,
  "witch</w>": 6384,
  "platforms</w>": 6385,
  "catherine</w>": 6386,
  "listened</w>": 6387,
  "requested</w>": 6388,
  "afghanistan</w>": 6389,
  "publicly</w>": 6390,
  "photographs</w>": 6391,
  "biology</w>": 6392,
  "cream</w>": 6393,
  "nia</w>": 6394,
  "voters</w>": 6395,
  "ele</w>": 6396,
  "sized</w>": 6397,
  "mont</w>": 6398,
  "indoor</w>": 6399,
  "deployed</w>": 6400,
  "ently</w>": 6401,
  "ello</w>": 6402,
  "grandmother</w>": 6403,
  "creatures</w>": 6404,
  "spor": 6405,
  "graph</w>": 6406,
  "dare</w>": 6407,
  "gathering</w>": 6408,
  "valuable</w>": 6409,
  "organic</w>": 6410,
  "tted</w>": 6411,
  "shoved</w>": 6412,
  "wang</w>": 6413,
  "sufficient</w>": 6414,
  "leton</w>": 6415,
  "wider</w>": 6416,
  "brush</w>": 6417,
  "vancouver</w>": 6418,
  "5.": 6419,
  "dj</w>": 6420,
  "nhl</w>": 6421,
  "geo": 6422,
  "tightly</w>": 6423,
  "monthly</w>": 6424,
  "everywhere</w>": 6425,
  "decorated</w>": 6426,
  "hudson</w>": 6427,
  "int": 6428,
  "tossed</w>": 6429,
  "identical</w>": 6430,
  "recalled</w>": 6431,
  "buffalo</w>": 6432,
  "io</w>": 6433,
  "connections</w>": 6434,
  "pitched</w>": 6435,
  "ve-": 6436,
  "iri": 6437,
  "oni</w>": 6438,
  "psychology</w>": 6439,
  "rangers</w>": 6440,
  "pat</w>": 6441,
  "pierre</w>": 6442,
  "businessman</w>": 6443,
  "finnish</w>": 6444,
  "atmosphere</w>": 6445,
  "dig": 6446,
  "minority</w>": 6447,
  "gall": 6448,
  "8.": 6449,
  "volunteers</w>": 6450,
  "ministers</w>": 6451,
  "manhattan</w>": 6452,
  "beau": 6453,
  "characterized</w>": 6454,
  "opponents</w>": 6455,
  "copper</w>": 6456,
  "cast": 6457,
  "climb</w>": 6458,
  "citizen</w>": 6459,
  "plates</w>": 6460,
  "iling</w>": 6461,
  "porch</w>": 6462,
  "stal": 6463,
  "breaks</w>": 6464,
  "justin</w>": 6465,
  "ining</w>": 6466,
  "lucy</w>": 6467,
  "grades</w>": 6468,
  "rubbed</w>": 6469,
  "ises</w>": 6470,
  "argue</w>": 6471,
  "whats</w>": 6472,
  "noah</w>": 6473,
  "una</w>": 6474,
  "operator</w>": 6475,
  "1889</w>": 6476,
  "ases</w>": 6477,
  "1893</w>": 6478,
  "doctors</w>": 6479,
  "ement</w>": 6480,
  "oma</w>": 6481,
  "dont</w>": 6482,
  "tenure</w>": 6483,
  "accessible</w>": 6484,
  "cuts</w>": 6485,
  "barbara</w>": 6486,
  "hu</w>": 6487,
  "compound</w>": 6488,
  "sara</w>": 6489,
  "cross-": 6490,
  "delhi</w>": 6491,
  "mah": 6492,
  "housed</w>": 6493,
  "forum</w>": 6494,
  "v-": 6495,
  "hello</w>": 6496,
  "islam</w>": 6497,
  "mel</w>": 6498,
  "tanks</w>": 6499,
  "restricted</w>": 6500,
  "slammed</w>": 6501,
  "terminus</w>": 6502,
  "lers</w>": 6503,
  "karl</w>": 6504,
  "flames</w>": 6505,
  "lah</w>": 6506,
  "eagle</w>": 6507,
  "sentenced</w>": 6508,
  "belly</w>": 6509,
  "bridges</w>": 6510,
  "caribbean</w>": 6511,
  "serbian</w>": 6512,
  "locally</w>": 6513,
  "filming</w>": 6514,
  "m.": 6515,
  "tical</w>": 6516,
  "root</w>": 6517,
  "duc": 6518,
  "rey</w>": 6519,
  "1892</w>": 6520,
  "bli": 6521,
  "lodge</w>": 6522,
  "kg</w>": 6523,
  "onal</w>": 6524,
  "tting</w>": 6525,
  "isa</w>": 6526,
  "ticket</w>": 6527,
  "dominant</w>": 6528,
  "spr": 6529,
  "mansion</w>": 6530,
  "stopping</w>": 6531,
  "hill": 6532,
  "row": 6533,
  "establishing</w>": 6534,
  "perry</w>": 6535,
  "prepare</w>": 6536,
  "relocated</w>": 6537,
  "1894</w>": 6538,
  "pupils</w>": 6539,
  "concerning</w>": 6540,
  "madison</w>": 6541,
  "lifting</w>": 6542,
  "flood</w>": 6543,
  "buses</w>": 6544,
  "surely</w>": 6545,
  "1885</w>": 6546,
  "bearing</w>": 6547,
  "owen</w>": 6548,
  "tube</w>": 6549,
  "trinity</w>": 6550,
  "kap": 6551,
  "hungry</w>": 6552,
  "enterprise</w>": 6553,
  "householder</w>": 6554,
  "bristol</w>": 6555,
  "stolen</w>": 6556,
  "nathan</w>": 6557,
  "logic</w>": 6558,
  "costa</w>": 6559,
  "beck</w>": 6560,
  "ranging</w>": 6561,
  "traded</w>": 6562,
  "saf": 6563,
  "persian</w>": 6564,
  "mask</w>": 6565,
  "virus</w>": 6566,
  "garage</w>": 6567,
  "tap": 6568,
  "n.</w>": 6569,
  "derby</w>": 6570,
  "screaming</w>": 6571,
  "north": 6572,
  "illness</w>": 6573,
  "eau</w>": 6574,
  "ag</w>": 6575,
  "pleased</w>": 6576,
  "pom": 6577,
  "so-called</w>": 6578,
  "democracy</w>": 6579,
  "kov</w>": 6580,
  "imp": 6581,
  "03</w>": 6582,
  "vary</w>": 6583,
  "autumn</w>": 6584,
  "turner</w>": 6585,
  "phrase</w>": 6586,
  "vegas</w>": 6587,
  "discover</w>": 6588,
  "harm</w>": 6589,
  "initiated</w>": 6590,
  "recovery</w>": 6591,
  "excuse</w>": 6592,
  "excited</w>": 6593,
  "ales</w>": 6594,
  "boundaries</w>": 6595,
  "high": 6596,
  "tiger</w>": 6597,
  "reveal</w>": 6598,
  "gent</w>": 6599,
  "rod</w>": 6600,
  "fee</w>": 6601,
  "speakers</w>": 6602,
  "immigrants</w>": 6603,
  "tested</w>": 6604,
  "fix</w>": 6605,
  "devoted</w>": 6606,
  "reveals</w>": 6607,
  "colin</w>": 6608,
  "revenge</w>": 6609,
  "romanized</w>": 6610,
  "antly</w>": 6611,
  "ards</w>": 6612,
  "eldest</w>": 6613,
  "grows</w>": 6614,
  "certified</w>": 6615,
  "og": 6616,
  "simultaneously</w>": 6617,
  "thirty-": 6618,
  "drafted</w>": 6619,
  "bha": 6620,
  "giants</w>": 6621,
  "relation</w>": 6622,
  "involves</w>": 6623,
  "furniture</w>": 6624,
  "battles</w>": 6625,
  "suburb</w>": 6626,
  "rent</w>": 6627,
  "bee</w>": 6628,
  "outdoor</w>": 6629,
  "sten</w>": 6630,
  "ide": 6631,
  "latino</w>": 6632,
  "pp</w>": 6633,
  "02</w>": 6634,
  "thrust</w>": 6635,
  "belongs</w>": 6636,
  "reply</w>": 6637,
  "slip</w>": 6638,
  "first-class</w>": 6639,
  "thy</w>": 6640,
  "chile</w>": 6641,
  "milan</w>": 6642,
  "bangladesh</w>": 6643,
  "blame</w>": 6644,
  "coo": 6645,
  "maps</w>": 6646,
  "cliff</w>": 6647,
  "lanka</w>": 6648,
  "yer</w>": 6649,
  "oun": 6650,
  "knights</w>": 6651,
  "collins</w>": 6652,
  "3d</w>": 6653,
  "closest</w>": 6654,
  "origins</w>": 6655,
  "skull</w>": 6656,
  "bills</w>": 6657,
  "enforcement</w>": 6658,
  "euro": 6659,
  "swung</w>": 6660,
  "firing</w>": 6661,
  "jac": 6662,
  "inde": 6663,
  "kissing</w>": 6664,
  "bike</w>": 6665,
  "bu</w>": 6666,
  "plenty</w>": 6667,
  "1865</w>": 6668,
  "uefa</w>": 6669,
  "sank</w>": 6670,
  "romanian</w>": 6671,
  "prayer</w>": 6672,
  "festivals</w>": 6673,
  "sporting</w>": 6674,
  "satisfied</w>": 6675,
  "respective</w>": 6676,
  "curve</w>": 6677,
  "madrid</w>": 6678,
  "mechanism</w>": 6679,
  "atory</w>": 6680,
  "collective</w>": 6681,
  "radar</w>": 6682,
  "1891</w>": 6683,
  "ous": 6684,
  "spencer</w>": 6685,
  "rhythm</w>": 6686,
  "worker</w>": 6687,
  "ids</w>": 6688,
  "diverse</w>": 6689,
  "belonging</w>": 6690,
  "treat</w>": 6691,
  "sni": 6692,
  "planted</w>": 6693,
  "jen": 6694,
  "editions</w>": 6695,
  "alpha</w>": 6696,
  "rebellion</w>": 6697,
  "slide</w>": 6698,
  "alists</w>": 6699,
  "trapped</w>": 6700,
  "clinton</w>": 6701,
  "hawaii</w>": 6702,
  "explanation</w>": 6703,
  "pioneer</w>": 6704,
  "liberty</w>": 6705,
  "1888</w>": 6706,
  "trace</w>": 6707,
  "lighting</w>": 6708,
  "tho": 6709,
  "double-": 6710,
  "tigers</w>": 6711,
  "relieved</w>": 6712,
  "kins</w>": 6713,
  "scientist</w>": 6714,
  "ware</w>": 6715,
  "nov": 6716,
  "thumb</w>": 6717,
  "breast</w>": 6718,
  "beijing</w>": 6719,
  "erie</w>": 6720,
  "exclusive</w>": 6721,
  "stretch</w>": 6722,
  "todd</w>": 6723,
  "brushed</w>": 6724,
  "traditions</w>": 6725,
  "explains</w>": 6726,
  "earn</w>": 6727,
  "subsidiary</w>": 6728,
  "angels</w>": 6729,
  "completing</w>": 6730,
  "lessly</w>": 6731,
  "implemented</w>": 6732,
  "alien</w>": 6733,
  "triple</w>": 6734,
  "jon": 6735,
  "shan</w>": 6736,
  "muslims</w>": 6737,
  "meal</w>": 6738,
  "prisoner</w>": 6739,
  "sus</w>": 6740,
  "accurate</w>": 6741,
  "top-": 6742,
  "likes</w>": 6743,
  "honest</w>": 6744,
  "ix</w>": 6745,
  "affect</w>": 6746,
  "shah</w>": 6747,
  "pac": 6748,
  "bread</w>": 6749,
  "timber</w>": 6750,
  "ler": 6751,
  "squeezed</w>": 6752,
  "exclusively</w>": 6753,
  "regardless</w>": 6754,
  "brings</w>": 6755,
  "1864</w>": 6756,
  "municipalities</w>": 6757,
  "tribute</w>": 6758,
  "serbia</w>": 6759,
  "computers</w>": 6760,
  "internationally</w>": 6761,
  "pec": 6762,
  "chancellor</w>": 6763,
  "120</w>": 6764,
  "harbour</w>": 6765,
  "ralph</w>": 6766,
  "fourteen</w>": 6767,
  "reception</w>": 6768,
  "flights</w>": 6769,
  "ater</w>": 6770,
  "tales</w>": 6771,
  "quarters</w>": 6772,
  "holes</w>": 6773,
  "midnight</w>": 6774,
  "pi</w>": 6775,
  "ame</w>": 6776,
  "underneath</w>": 6777,
  "sits</w>": 6778,
  "terry</w>": 6779,
  "coaching</w>": 6780,
  "fires</w>": 6781,
  "nau": 6782,
  "musi": 6783,
  "tours</w>": 6784,
  "stat": 6785,
  "dish</w>": 6786,
  "con</w>": 6787,
  "demands</w>": 6788,
  "zy</w>": 6789,
  "dispute</w>": 6790,
  "sweat</w>": 6791,
  "vul": 6792,
  "len</w>": 6793,
  "ght</w>": 6794,
  "ongoing</w>": 6795,
  "settlements</w>": 6796,
  "tul": 6797,
  "reflected</w>": 6798,
  "unsuccessful</w>": 6799,
  "pearl</w>": 6800,
  "slept</w>": 6801,
  "healthy</w>": 6802,
  "stown</w>": 6803,
  "ros</w>": 6804,
  "muhammad</w>": 6805,
  "heroes</w>": 6806,
  "door": 6807,
  "clar": 6808,
  "towers</w>": 6809,
  "resting</w>": 6810,
  "kie</w>": 6811,
  "aceae</w>": 6812,
  "references</w>": 6813,
  "twenty-": 6814,
  "tory</w>": 6815,
  "1940s</w>": 6816,
  "saving</w>": 6817,
  "larry</w>": 6818,
  "bitch</w>": 6819,
  "1880</w>": 6820,
  "increases</w>": 6821,
  "tively</w>": 6822,
  "laura</w>": 6823,
  "departed</w>": 6824,
  "reduction</w>": 6825,
  "1861</w>": 6826,
  "raced</w>": 6827,
  "derek</w>": 6828,
  "exposure</w>": 6829,
  "talks</w>": 6830,
  "demonstrated</w>": 6831,
  "choir</w>": 6832,
  "oriented</w>": 6833,
  "reporting</w>": 6834,
  "lian</w>": 6835,
  "qualify</w>": 6836,
  "mom": 6837,
  "lisa</w>": 6838,
  "comment</w>": 6839,
  "book": 6840,
  "sample</w>": 6841,
  "sink</w>": 6842,
  "glasses</w>": 6843,
  "emotion</w>": 6844,
  "rang</w>": 6845,
  "manufactured</w>": 6846,
  "inaugural</w>": 6847,
  "sung</w>": 6848,
  "swing</w>": 6849,
  "shipping</w>": 6850,
  "personally</w>": 6851,
  "pent": 6852,
  "essentially</w>": 6853,
  "delta</w>": 6854,
  "dent</w>": 6855,
  "properly</w>": 6856,
  "solutions</w>": 6857,
  "coaches</w>": 6858,
  "radical</w>": 6859,
  "measured</w>": 6860,
  "worship</w>": 6861,
  "recognised</w>": 6862,
  "bia</w>": 6863,
  "collapsed</w>": 6864,
  "tommy</w>": 6865,
  "break": 6866,
  "aj</w>": 6867,
  "profile</w>": 6868,
  "scores</w>": 6869,
  "package</w>": 6870,
  "roo": 6871,
  "graduation</w>": 6872,
  "amendment</w>": 6873,
  "archaeological</w>": 6874,
  "cz": 6875,
  "prices</w>": 6876,
  "travelled</w>": 6877,
  "perspective</w>": 6878,
  "cameron</w>": 6879,
  "posts</w>": 6880,
  "puts</w>": 6881,
  "by-": 6882,
  "ric</w>": 6883,
  "substitute</w>": 6884,
  "ashes</w>": 6885,
  "700</w>": 6886,
  "opens</w>": 6887,
  "significance</w>": 6888,
  "lowest</w>": 6889,
  "mainstream</w>": 6890,
  "ick</w>": 6891,
  "gasped</w>": 6892,
  "pet</w>": 6893,
  "merger</w>": 6894,
  "select</w>": 6895,
  "murphy</w>": 6896,
  "focuses</w>": 6897,
  "referring</w>": 6898,
  "ket</w>": 6899,
  "stakes</w>": 6900,
  "olivia</w>": 6901,
  "chess</w>": 6902,
  "pers</w>": 6903,
  "199": 6904,
  "interstate</w>": 6905,
  "kes": 6906,
  "uss</w>": 6907,
  "negotiations</w>": 6908,
  "1862</w>": 6909,
  "wen": 6910,
  "celebration</w>": 6911,
  "tourist</w>": 6912,
  "preparation</w>": 6913,
  "dynamic</w>": 6914,
  "bernard</w>": 6915,
  "breeding</w>": 6916,
  "wn</w>": 6917,
  "temperatures</w>": 6918,
  "1870</w>": 6919,
  "mau": 6920,
  "no-": 6921,
  "hindu</w>": 6922,
  "yesterday</w>": 6923,
  "1887</w>": 6924,
  "beaten</w>": 6925,
  "nak": 6926,
  "playoffs</w>": 6927,
  "crosses</w>": 6928,
  "esp": 6929,
  "ensis</w>": 6930,
  "keith</w>": 6931,
  "inf": 6932,
  "knock</w>": 6933,
  "lloyd</w>": 6934,
  "destination</w>": 6935,
  "advisory</w>": 6936,
  "oring</w>": 6937,
  "difficulty</w>": 6938,
  "jurisdiction</w>": 6939,
  "11": 6940,
  "dai": 6941,
  "jean-": 6942,
  "naturally</w>": 6943,
  "experiment</w>": 6944,
  "submitted</w>": 6945,
  "1863</w>": 6946,
  "gaining</w>": 6947,
  "alaska</w>": 6948,
  "frozen</w>": 6949,
  "lam</w>": 6950,
  "conversion</w>": 6951,
  "unincorporated</w>": 6952,
  "boxes</w>": 6953,
  "historians</w>": 6954,
  "trio</w>": 6955,
  "bases</w>": 6956,
  "syria</w>": 6957,
  "terror</w>": 6958,
  "ship": 6959,
  "resumed</w>": 6960,
  "kim": 6961,
  "elevator</w>": 6962,
  "qualification</w>": 6963,
  "ut</w>": 6964,
  "gated</w>": 6965,
  "beetle</w>": 6966,
  "fs</w>": 6967,
  "greg</w>": 6968,
  "aga": 6969,
  "ley": 6970,
  "hau": 6971,
  "kit</w>": 6972,
  "departments</w>": 6973,
  "aaron</w>": 6974,
  "b.": 6975,
  "roberts</w>": 6976,
  "arch</w>": 6977,
  "locomotives</w>": 6978,
  "interviews</w>": 6979,
  "riley</w>": 6980,
  "shelter</w>": 6981,
  "cage</w>": 6982,
  "margin</w>": 6983,
  "fold</w>": 6984,
  "bour": 6985,
  "skill</w>": 6986,
  "attacking</w>": 6987,
  "interpretation</w>": 6988,
  "expand</w>": 6989,
  "ballet</w>": 6990,
  "visits</w>": 6991,
  "dragged</w>": 6992,
  "0,000</w>": 6993,
  "liam</w>": 6994,
  "grandson</w>": 6995,
  "craig</w>": 6996,
  "vertical</w>": 6997,
  "d.": 6998,
  "dee</w>": 6999,
  "xed</w>": 7000,
  "ivy</w>": 7001,
  "broad": 7002,
  "coins</w>": 7003,
  "indicates</w>": 7004,
  "lightning</w>": 7005,
  "impressive</w>": 7006,
  "originated</w>": 7007,
  "retreat</w>": 7008,
  "bes</w>": 7009,
  "pla": 7010,
  "ym": 7011,
  "speci": 7012,
  "hop</w>": 7013,
  "carved</w>": 7014,
  "firmly</w>": 7015,
  "rows</w>": 7016,
  "then-": 7017,
  "explosion</w>": 7018,
  "heights</w>": 7019,
  "consumer</w>": 7020,
  "dependent</w>": 7021,
  "nom": 7022,
  "partial</w>": 7023,
  "el-": 7024,
  "stuart</w>": 7025,
  "brun": 7026,
  "him": 7027,
  "honors</w>": 7028,
  "scout</w>": 7029,
  "cer</w>": 7030,
  "defended</w>": 7031,
  "congregation</w>": 7032,
  "soap</w>": 7033,
  "attitude</w>": 7034,
  "carries</w>": 7035,
  "pete</w>": 7036,
  "pulls</w>": 7037,
  "adelaide</w>": 7038,
  "fra": 7039,
  "step": 7040,
  "assume</w>": 7041,
  "wheels</w>": 7042,
  "hid</w>": 7043,
  "enters</w>": 7044,
  "collapse</w>": 7045,
  "describing</w>": 7046,
  "dining</w>": 7047,
  "circles</w>": 7048,
  "implementation</w>": 7049,
  "camps</w>": 7050,
  "columns</w>": 7051,
  "loves</w>": 7052,
  "comprehensive</w>": 7053,
  "oria</w>": 7054,
  "1886</w>": 7055,
  "butler</w>": 7056,
  "devon</w>": 7057,
  "cent</w>": 7058,
  "house": 7059,
  "50,000</w>": 7060,
  "scre": 7061,
  "companion</w>": 7062,
  "swear</w>": 7063,
  "topics</w>": 7064,
  "seal</w>": 7065,
  "nephew</w>": 7066,
  "fortress</w>": 7067,
  "dor</w>": 7068,
  "dennis</w>": 7069,
  "absolute</w>": 7070,
  "oning</w>": 7071,
  "commons</w>": 7072,
  "brow</w>": 7073,
  "bonus</w>": 7074,
  "farming</w>": 7075,
  "spin</w>": 7076,
  "scattered</w>": 7077,
  "specialized</w>": 7078,
  "evolved</w>": 7079,
  "promoting</w>": 7080,
  "surrender</w>": 7081,
  "convince</w>": 7082,
  "virtual</w>": 7083,
  "nowiki</w>": 7084,
  "statistical</w>": 7085,
  "narrowed</w>": 7086,
  "nigeria</w>": 7087,
  "restaurants</w>": 7088,
  "town": 7089,
  "f.c.</w>": 7090,
  "tyler</w>": 7091,
  "favour</w>": 7092,
  "stem</w>": 7093,
  "gat": 7094,
  "bags</w>": 7095,
  "eling</w>": 7096,
  "messages</w>": 7097,
  "clients</w>": 7098,
  "power": 7099,
  "mas</w>": 7100,
  "alternate</w>": 7101,
  "alberta</w>": 7102,
  "calendar</w>": 7103,
  "21st</w>": 7104,
  "microsoft</w>": 7105,
  "lev": 7106,
  "banned</w>": 7107,
  "imagined</w>": 7108,
  "say": 7109,
  "improvement</w>": 7110,
  "oper": 7111,
  "ua</w>": 7112,
  "cuba</w>": 7113,
  "eh": 7114,
  "globe</w>": 7115,
  "boxing</w>": 7116,
  "ashi</w>": 7117,
  "holder</w>": 7118,
  "baptist</w>": 7119,
  "inspiration</w>": 7120,
  "port": 7121,
  "rever": 7122,
  "duncan</w>": 7123,
  "rushing</w>": 7124,
  "fucking</w>": 7125,
  "failing</w>": 7126,
  "shan": 7127,
  "pairs</w>": 7128,
  "ssa</w>": 7129,
  "taxes</w>": 7130,
  "1881</w>": 7131,
  "acquisition</w>": 7132,
  "northwestern</w>": 7133,
  "mars</w>": 7134,
  "reed</w>": 7135,
  "inherited</w>": 7136,
  "forty</w>": 7137,
  "isaac</w>": 7138,
  "expecting</w>": 7139,
  "demons</w>": 7140,
  "feder": 7141,
  "steven</w>": 7142,
  "client</w>": 7143,
  "photos</w>": 7144,
  "stand": 7145,
  "east": 7146,
  "airlines</w>": 7147,
  "8,": 7148,
  "ly-": 7149,
  "sexy</w>": 7150,
  "focusing</w>": 7151,
  "wind": 7152,
  "3,000</w>": 7153,
  "survival</w>": 7154,
  "athlete</w>": 7155,
  "comparison</w>": 7156,
  "curled</w>": 7157,
  "demo": 7158,
  "tender</w>": 7159,
  "backing</w>": 7160,
  "examination</w>": 7161,
  "manufacturer</w>": 7162,
  "quit</w>": 7163,
  "distinction</w>": 7164,
  "1884</w>": 7165,
  "conver": 7166,
  "marble</w>": 7167,
  "peru</w>": 7168,
  "7.": 7169,
  "punishment</w>": 7170,
  "kre": 7171,
  "drake</w>": 7172,
  "dome</w>": 7173,
  "filling</w>": 7174,
  "guinea</w>": 7175,
  "torn</w>": 7176,
  "snake</w>": 7177,
  "keeps</w>": 7178,
  "kaz": 7179,
  "controls</w>": 7180,
  "onian</w>": 7181,
  "struggling</w>": 7182,
  "thin": 7183,
  "chap": 7184,
  "gothic</w>": 7185,
  "protests</w>": 7186,
  "gauge</w>": 7187,
  "picking</w>": 7188,
  "shorter</w>": 7189,
  "pounds</w>": 7190,
  "bron": 7191,
  "missile</w>": 7192,
  "sliding</w>": 7193,
  "targets</w>": 7194,
  "presents</w>": 7195,
  "the-": 7196,
  "bed": 7197,
  "immigration</w>": 7198,
  "ev</w>": 7199,
  "intent</w>": 7200,
  "faded</w>": 7201,
  "jack": 7202,
  "athens</w>": 7203,
  "ruler</w>": 7204,
  "owns</w>": 7205,
  "eman</w>": 7206,
  "edges</w>": 7207,
  "emphasis</w>": 7208,
  "sultan</w>": 7209,
  ",000</w>": 7210,
  "nowhere</w>": 7211,
  "rocket</w>": 7212,
  "acy</w>": 7213,
  "gers</w>": 7214,
  "tian</w>": 7215,
  "burns</w>": 7216,
  "goddess</w>": 7217,
  "elec": 7218,
  "animation</w>": 7219,
  "prey</w>": 7220,
  "kho": 7221,
  "rol": 7222,
  "eighteen</w>": 7223,
  "graphics</w>": 7224,
  "riders</w>": 7225,
  "curious</w>": 7226,
  "constantly</w>": 7227,
  "tear</w>": 7228,
  "dakota</w>": 7229,
  "extend</w>": 7230,
  "extensively</w>": 7231,
  "pes": 7232,
  "volleyball</w>": 7233,
  "iso": 7234,
  "heim</w>": 7235,
  "arian</w>": 7236,
  "assessment</w>": 7237,
  "comments</w>": 7238,
  "challenged</w>": 7239,
  "prof": 7240,
  "directions</w>": 7241,
  "cardinal</w>": 7242,
  "photo": 7243,
  "cav": 7244,
  "non</w>": 7245,
  "vs</w>": 7246,
  "ately</w>": 7247,
  "deemed</w>": 7248,
  "experiments</w>": 7249,
  "hopes</w>": 7250,
  "practically</w>": 7251,
  "iranian</w>": 7252,
  "tough</w>": 7253,
  "aded</w>": 7254,
  "intensity</w>": 7255,
  "trap</w>": 7256,
  "rode</w>": 7257,
  "kel</w>": 7258,
  "faint</w>": 7259,
  "kinds</w>": 7260,
  "campaigns</w>": 7261,
  "diplomatic</w>": 7262,
  "free": 7263,
  "ingen</w>": 7264,
  "brisbane</w>": 7265,
  "eps</w>": 7266,
  "chairs</w>": 7267,
  "permitted</w>": 7268,
  "hammer</w>": 7269,
  "corruption</w>": 7270,
  "jerked</w>": 7271,
  "participating</w>": 7272,
  "fies</w>": 7273,
  "helicopter</w>": 7274,
  "gel": 7275,
  "martial</w>": 7276,
  "tai": 7277,
  "mixture</w>": 7278,
  "cloth</w>": 7279,
  "framework</w>": 7280,
  "swi": 7281,
  "contributing</w>": 7282,
  "functional</w>": 7283,
  "activist</w>": 7284,
  "kyle</w>": 7285,
  "regulation</w>": 7286,
  "sie</w>": 7287,
  "drag</w>": 7288,
  "cancelled</w>": 7289,
  "procedure</w>": 7290,
  "tex": 7291,
  "gle": 7292,
  "indicating</w>": 7293,
  "equally</w>": 7294,
  "11.": 7295,
  "oxygen</w>": 7296,
  "payment</w>": 7297,
  "ache</w>": 7298,
  "dt</w>": 7299,
  "art": 7300,
  "100,000</w>": 7301,
  "ome</w>": 7302,
  "printing</w>": 7303,
  "ori</w>": 7304,
  "bal</w>": 7305,
  "characteristic</w>": 7306,
  "physician</w>": 7307,
  "attendance</w>": 7308,
  "sphere</w>": 7309,
  "basement</w>": 7310,
  "influences</w>": 7311,
  "binding</w>": 7312,
  "smiles</w>": 7313,
  "execution</w>": 7314,
  "bers</w>": 7315,
  "glu": 7316,
  "feld</w>": 7317,
  "rin": 7318,
  "corresponding</w>": 7319,
  "nad": 7320,
  "ideal</w>": 7321,
  "stern</w>": 7322,
  "leagues</w>": 7323,
  "preserve</w>": 7324,
  "sergeant</w>": 7325,
  "sne": 7326,
  "night": 7327,
  "tenth</w>": 7328,
  "patent</w>": 7329,
  "atten": 7330,
  "tional</w>": 7331,
  "th-century</w>": 7332,
  "evan</w>": 7333,
  "present-day</w>": 7334,
  "??????</w>": 7335,
  "ex</w>": 7336,
  "jefferson</w>": 7337,
  "mou": 7338,
  "supplied</w>": 7339,
  "flowing</w>": 7340,
  "heels</w>": 7341,
  "pradesh</w>": 7342,
  "romance</w>": 7343,
  "eri</w>": 7344,
  "lightly</w>": 7345,
  "ul</w>": 7346,
  "resignation</w>": 7347,
  "ais</w>": 7348,
  "10-": 7349,
  "ere": 7350,
  "trent</w>": 7351,
  "distinctive</w>": 7352,
  "scru": 7353,
  "farmer</w>": 7354,
  "rogers</w>": 7355,
  "spe": 7356,
  "feeding</w>": 7357,
  "fu</w>": 7358,
  "guilt</w>": 7359,
  "pulse</w>": 7360,
  "travels</w>": 7361,
  "nevada</w>": 7362,
  "serial</w>": 7363,
  "1882</w>": 7364,
  "challenges</w>": 7365,
  "2.5</w>": 7366,
  "widow</w>": 7367,
  "woke</w>": 7368,
  "warmth</w>": 7369,
  "democrat</w>": 7370,
  "floors</w>": 7371,
  "sao</w>": 7372,
  "objective</w>": 7373,
  "jeremy</w>": 7374,
  "reservoir</w>": 7375,
  "hebrew</w>": 7376,
  "parade</w>": 7377,
  "raid</w>": 7378,
  "sandy</w>": 7379,
  "disambiguation</w>": 7380,
  "gues</w>": 7381,
  "engagement</w>": 7382,
  "denver</w>": 7383,
  "intellectual</w>": 7384,
  "ever": 7385,
  "ray": 7386,
  "wall": 7387,
  "-e</w>": 7388,
  "symptoms</w>": 7389,
  "secrets</w>": 7390,
  "carriage</w>": 7391,
  "hear": 7392,
  "jin</w>": 7393,
  "zhou</w>": 7394,
  "writings</w>": 7395,
  "dylan</w>": 7396,
  "releasing</w>": 7397,
  "sequ": 7398,
  "worthy</w>": 7399,
  "washed</w>": 7400,
  "adventures</w>": 7401,
  "seeds</w>": 7402,
  "shy</w>": 7403,
  "error</w>": 7404,
  "convicted</w>": 7405,
  "excitement</w>": 7406,
  "munich</w>": 7407,
  "gregory</w>": 7408,
  "territorial</w>": 7409,
  "harold</w>": 7410,
  "ranch</w>": 7411,
  "democrats</w>": 7412,
  "philippine</w>": 7413,
  "norfolk</w>": 7414,
  "seized</w>": 7415,
  "hall": 7416,
  "ato</w>": 7417,
  "concentrated</w>": 7418,
  "dell</w>": 7419,
  "topic</w>": 7420,
  "uh</w>": 7421,
  "collect</w>": 7422,
  "confederate</w>": 7423,
  "clouds</w>": 7424,
  "keeper</w>": 7425,
  "capita</w>": 7426,
  "outbreak</w>": 7427,
  "12.": 7428,
  "log</w>": 7429,
  "relevant</w>": 7430,
  "enormous</w>": 7431,
  "occasional</w>": 7432,
  "signals</w>": 7433,
  "exhibited</w>": 7434,
  "rope</w>": 7435,
  "temporarily</w>": 7436,
  "prints</w>": 7437,
  "tent</w>": 7438,
  "bie</w>": 7439,
  "relaxed</w>": 7440,
  "diseases</w>": 7441,
  "oms</w>": 7442,
  "amounts</w>": 7443,
  "vulnerable</w>": 7444,
  "welfare</w>": 7445,
  "guided</w>": 7446,
  "consciousness</w>": 7447,
  "dollar</w>": 7448,
  "awake</w>": 7449,
  "wiped</w>": 7450,
  "encounter</w>": 7451,
  "illustrated</w>": 7452,
  "flashed</w>": 7453,
  "cock</w>": 7454,
  "sal</w>": 7455,
  "int</w>": 7456,
  "gang": 7457,
  "divorce</w>": 7458,
  "designation</w>": 7459,
  "leeds</w>": 7460,
  "tightened</w>": 7461,
  "dag": 7462,
  "long-term</w>": 7463,
  "deliver</w>": 7464,
  "veteran</w>": 7465,
  "mani": 7466,
  "preparing</w>": 7467,
  "physically</w>": 7468,
  "difficulties</w>": 7469,
  "biting</w>": 7470,
  "incumbent</w>": 7471,
  "www.": 7472,
  "jr.</w>": 7473,
  "rell</w>": 7474,
  "cincinnati</w>": 7475,
  "lyn": 7476,
  "servant</w>": 7477,
  "nickname</w>": 7478,
  "jesse</w>": 7479,
  "13.": 7480,
  "ppers</w>": 7481,
  "rally</w>": 7482,
  "mainland</w>": 7483,
  "rest": 7484,
  "thunder": 7485,
  "enrolled</w>": 7486,
  "judicial</w>": 7487,
  "aspect</w>": 7488,
  "sierra</w>": 7489,
  "thur": 7490,
  "blood": 7491,
  "ances</w>": 7492,
  "hn</w>": 7493,
  "ris": 7494,
  "mates</w>": 7495,
  "proteins</w>": 7496,
  "pipe</w>": 7497,
  "tham</w>": 7498,
  "artificial</w>": 7499,
  "playoff</w>": 7500,
  "bles</w>": 7501,
  "gue</w>": 7502,
  "cats</w>": 7503,
  "joke</w>": 7504,
  "roy": 7505,
  "cult</w>": 7506,
  "instruction</w>": 7507,
  "arc</w>": 7508,
  "bastard</w>": 7509,
  "climbing</w>": 7510,
  "eyebrows</w>": 7511,
  "mini": 7512,
  "aire</w>": 7513,
  "narrative</w>": 7514,
  "hesitated</w>": 7515,
  "colombia</w>": 7516,
  "rounded</w>": 7517,
  "maritime</w>": 7518,
  "sullivan</w>": 7519,
  "fool</w>": 7520,
  "theories</w>": 7521,
  "clenched</w>": 7522,
  "numbered</w>": 7523,
  "wag": 7524,
  "phones</w>": 7525,
  "boarding</w>": 7526,
  "magnetic</w>": 7527,
  "addressed</w>": 7528,
  "christians</w>": 7529,
  "handling</w>": 7530,
  "barcelona</w>": 7531,
  "divine</w>": 7532,
  "herbert</w>": 7533,
  "lp</w>": 7534,
  "chal": 7535,
  "rs</w>": 7536,
  "kno": 7537,
  "ingham</w>": 7538,
  "christianity</w>": 7539,
  "automatically</w>": 7540,
  "connor</w>": 7541,
  "hs</w>": 7542,
  "1883</w>": 7543,
  "ibn</w>": 7544,
  "vac": 7545,
  "ensemble</w>": 7546,
  "bold</w>": 7547,
  "urs</w>": 7548,
  "mic</w>": 7549,
  "dual</w>": 7550,
  "1860</w>": 7551,
  "eh</w>": 7552,
  "gem": 7553,
  "approaches</w>": 7554,
  "commanding</w>": 7555,
  "eagles</w>": 7556,
  "liberation</w>": 7557,
  "trunk</w>": 7558,
  "violet</w>": 7559,
  "bullet</w>": 7560,
  "sep": 7561,
  "chan</w>": 7562,
  "buddhist</w>": 7563,
  "fury</w>": 7564,
  "maz": 7565,
  "logo</w>": 7566,
  "bore</w>": 7567,
  "journalism</w>": 7568,
  "grammar</w>": 7569,
  "pile</w>": 7570,
  "yi</w>": 7571,
  "renowned</w>": 7572,
  "complicated</w>": 7573,
  "chem": 7574,
  "eff": 7575,
  "ou</w>": 7576,
  "tide</w>": 7577,
  "brilliant</w>": 7578,
  "hms</w>": 7579,
  "cker</w>": 7580,
  "altitude</w>": 7581,
  "rebels</w>": 7582,
  "rested</w>": 7583,
  "southeastern</w>": 7584,
  "sses</w>": 7585,
  "crops</w>": 7586,
  "readers</w>": 7587,
  "growled</w>": 7588,
  "depicted</w>": 7589,
  "dissolved</w>": 7590,
  "instructions</w>": 7591,
  "attractive</w>": 7592,
  "annie</w>": 7593,
  "i.": 7594,
  "1876</w>": 7595,
  "signature</w>": 7596,
  "axis</w>": 7597,
  "asa</w>": 7598,
  "clerk</w>": 7599,
  "hasn</w>": 7600,
  "ivan</w>": 7601,
  "1878</w>": 7602,
  "1871</w>": 7603,
  "vocalist</w>": 7604,
  "situations</w>": 7605,
  "hitler</w>": 7606,
  "mut": 7607,
  "documented</w>": 7608,
  "dat": 7609,
  "colonies</w>": 7610,
  "yu</w>": 7611,
  "obama</w>": 7612,
  "anim": 7613,
  "harsh</w>": 7614,
  "mysterious</w>": 7615,
  "schi": 7616,
  "manuel</w>": 7617,
  "reverse</w>": 7618,
  "generations</w>": 7619,
  "reducing</w>": 7620,
  "armenian</w>": 7621,
  "actively</w>": 7622,
  "circular</w>": 7623,
  "andre</w>": 7624,
  "florence</w>": 7625,
  "zen</w>": 7626,
  "vent": 7627,
  "blast</w>": 7628,
  "roll": 7629,
  "aires</w>": 7630,
  "commenced</w>": 7631,
  "relegated</w>": 7632,
  "pleasant</w>": 7633,
  "suspect</w>": 7634,
  "employee</w>": 7635,
  "trac": 7636,
  "efficient</w>": 7637,
  "tes": 7638,
  "ander</w>": 7639,
  "repeatedly</w>": 7640,
  "usage</w>": 7641,
  "amer": 7642,
  "makers</w>": 7643,
  "arrives</w>": 7644,
  "declaration</w>": 7645,
  "edwards</w>": 7646,
  "sto</w>": 7647,
  "facts</w>": 7648,
  "reflect</w>": 7649,
  "rie</w>": 7650,
  "succession</w>": 7651,
  "zam": 7652,
  "stranger</w>": 7653,
  "monitor</w>": 7654,
  "wolves</w>": 7655,
  "jared</w>": 7656,
  "gged</w>": 7657,
  "drops</w>": 7658,
  "blocked</w>": 7659,
  "gie</w>": 7660,
  "fabric</w>": 7661,
  "ref</w>": 7662,
  "hara</w>": 7663,
  "scu": 7664,
  "observation</w>": 7665,
  "reader</w>": 7666,
  "fundamental</w>": 7667,
  "ium</w>": 7668,
  "oral</w>": 7669,
  "removal</w>": 7670,
  "pis": 7671,
  "hug</w>": 7672,
  "elevated</w>": 7673,
  "ax</w>": 7674,
  "fail</w>": 7675,
  "und</w>": 7676,
  "stag": 7677,
  "tournaments</w>": 7678,
  "poll</w>": 7679,
  "locks</w>": 7680,
  "let": 7681,
  "mutual</w>": 7682,
  "hair": 7683,
  "ques</w>": 7684,
  "bother</w>": 7685,
  "seated</w>": 7686,
  "elling</w>": 7687,
  "pause</w>": 7688,
  "20,000</w>": 7689,
  "ort</w>": 7690,
  "radiation</w>": 7691,
  "delayed</w>": 7692,
  "resource</w>": 7693,
  "archi": 7694,
  "p.": 7695,
  "fake</w>": 7696,
  "hospitals</w>": 7697,
  "youtube</w>": 7698,
  "architects</w>": 7699,
  "sheets</w>": 7700,
  "vel</w>": 7701,
  "hai</w>": 7702,
  "twins</w>": 7703,
  "pha": 7704,
  "brad": 7705,
  "ille</w>": 7706,
  "pilots</w>": 7707,
  "yo</w>": 7708,
  "extending</w>": 7709,
  "or-": 7710,
  "diesel</w>": 7711,
  "clearing</w>": 7712,
  "sailing</w>": 7713,
  "6.": 7714,
  "everybody</w>": 7715,
  "breathed</w>": 7716,
  "tou": 7717,
  "locomotive</w>": 7718,
  "engage</w>": 7719,
  "ket": 7720,
  "approaching</w>": 7721,
  "structural</w>": 7722,
  "human": 7723,
  "nebraska</w>": 7724,
  "kab": 7725,
  "possessed</w>": 7726,
  "sucked</w>": 7727,
  "cement</w>": 7728,
  "mr": 7729,
  "corn</w>": 7730,
  "ports</w>": 7731,
  "pav": 7732,
  "chicken</w>": 7733,
  "wu</w>": 7734,
  "poured</w>": 7735,
  "you": 7736,
  "dness</w>": 7737,
  "wri": 7738,
  "nepal</w>": 7739,
  "tiv": 7740,
  "temples</w>": 7741,
  "contracts</w>": 7742,
  "tissue</w>": 7743,
  "rays</w>": 7744,
  "namely</w>": 7745,
  "inhabited</w>": 7746,
  "undergraduate</w>": 7747,
  "ves": 7748,
  "ns": 7749,
  "receives</w>": 7750,
  "believing</w>": 7751,
  "activated</w>": 7752,
  "ignore</w>": 7753,
  "ib": 7754,
  "intermediate</w>": 7755,
  "shaft</w>": 7756,
  "ion</w>": 7757,
  "more": 7758,
  "tters</w>": 7759,
  "kane</w>": 7760,
  "silently</w>": 7761,
  "arrangements</w>": 7762,
  "pag": 7763,
  "theology</w>": 7764,
  "phd</w>": 7765,
  "otto</w>": 7766,
  "pled</w>": 7767,
  "heart": 7768,
  "gui": 7769,
  "kisses</w>": 7770,
  "cdp</w>": 7771,
  "ranges</w>": 7772,
  "hans</w>": 7773,
  "defender</w>": 7774,
  "inter-": 7775,
  "sequel</w>": 7776,
  "iness</w>": 7777,
  "thy": 7778,
  "nun": 7779,
  "crashed</w>": 7780,
  "militia</w>": 7781,
  "questioned</w>": 7782,
  "graphy</w>": 7783,
  "thai</w>": 7784,
  "stake</w>": 7785,
  "fi</w>": 7786,
  "consistent</w>": 7787,
  "hardware</w>": 7788,
  "tomb</w>": 7789,
  "inducted</w>": 7790,
  "quest</w>": 7791,
  "mist</w>": 7792,
  "gia</w>": 7793,
  "metre</w>": 7794,
  "efficiency</w>": 7795,
  "happiness</w>": 7796,
  "advocate</w>": 7797,
  "lessons</w>": 7798,
  "banking</w>": 7799,
  "tures</w>": 7800,
  "tum": 7801,
  "julie</w>": 7802,
  "heir</w>": 7803,
  "glow</w>": 7804,
  "joan</w>": 7805,
  "armor</w>": 7806,
  "angel": 7807,
  "lovely</w>": 7808,
  "stored</w>": 7809,
  "wash</w>": 7810,
  "1867</w>": 7811,
  "mt</w>": 7812,
  "zoo": 7813,
  "celebrate</w>": 7814,
  "descendants</w>": 7815,
  "gla": 7816,
  "autonomous</w>": 7817,
  "eland</w>": 7818,
  "improvements</w>": 7819,
  "veterans</w>": 7820,
  "amp</w>": 7821,
  "chuckled</w>": 7822,
  "suite</w>": 7823,
  "master": 7824,
  "authorized</w>": 7825,
  "connects</w>": 7826,
  "coached</w>": 7827,
  "org": 7828,
  "stoc": 7829,
  "halfway</w>": 7830,
  "chocolate</w>": 7831,
  "rabbi</w>": 7832,
  "petersburg</w>": 7833,
  "bengal</w>": 7834,
  "kenya</w>": 7835,
  "jag": 7836,
  "9,": 7837,
  "prote": 7838,
  "wild": 7839,
  "encountered</w>": 7840,
  "p.m.</w>": 7841,
  "bbed</w>": 7842,
  "fit": 7843,
  "striking</w>": 7844,
  "barn</w>": 7845,
  "rhe": 7846,
  "shade</w>": 7847,
  "chorus</w>": 7848,
  "handsome</w>": 7849,
  "awa</w>": 7850,
  "manuscript</w>": 7851,
  "runner</w>": 7852,
  "cared</w>": 7853,
  "road": 7854,
  "fathers</w>": 7855,
  "yor": 7856,
  "liner</w>": 7857,
  "amsterdam</w>": 7858,
  "kilometers</w>": 7859,
  "venice</w>": 7860,
  "1879</w>": 7861,
  "variant</w>": 7862,
  "earthquake</w>": 7863,
  "molecular</w>": 7864,
  "feared</w>": 7865,
  "ony</w>": 7866,
  "1875</w>": 7867,
  "attraction</w>": 7868,
  "collaborated</w>": 7869,
  "home": 7870,
  "protestant</w>": 7871,
  "fewer</w>": 7872,
  "custom</w>": 7873,
  "plains</w>": 7874,
  "ich</w>": 7875,
  "ting": 7876,
  "wool": 7877,
  "manual</w>": 7878,
  "doc": 7879,
  "1872</w>": 7880,
  "neighboring</w>": 7881,
  "ulate</w>": 7882,
  "sake</w>": 7883,
  "deer</w>": 7884,
  "closure</w>": 7885,
  "invitation</w>": 7886,
  "mcc": 7887,
  "hearts</w>": 7888,
  "tang</w>": 7889,
  "comprises</w>": 7890,
  "exile</w>": 7891,
  "curse</w>": 7892,
  "administered</w>": 7893,
  "halt</w>": 7894,
  "lesser</w>": 7895,
  "recipient</w>": 7896,
  "revealing</w>": 7897,
  "congressional</w>": 7898,
  "assembled</w>": 7899,
  "investigate</w>": 7900,
  "mothers</w>": 7901,
  "chro": 7902,
  "disp": 7903,
  "widened</w>": 7904,
  "abu</w>": 7905,
  "gus</w>": 7906,
  "corners</w>": 7907,
  "reserves</w>": 7908,
  "footage</w>": 7909,
  "grateful</w>": 7910,
  "renaissance</w>": 7911,
  "threatening</w>": 7912,
  "database</w>": 7913,
  "tens</w>": 7914,
  "emerging</w>": 7915,
  "bourne</w>": 7916,
  "montana</w>": 7917,
  "colleagues</w>": 7918,
  "eli</w>": 7919,
  "holland</w>": 7920,
  "realm</w>": 7921,
  "theyre</w>": 7922,
  "quarterback</w>": 7923,
  "yale</w>": 7924,
  "mouse</w>": 7925,
  "smen</w>": 7926,
  "contents</w>": 7927,
  "shallow</w>": 7928,
  "input</w>": 7929,
  "-like</w>": 7930,
  "customs</w>": 7931,
  "sar</w>": 7932,
  "hook</w>": 7933,
  "chin": 7934,
  "dug</w>": 7935,
  "aids</w>": 7936,
  "altered</w>": 7937,
  "wai": 7938,
  "non-families</w>": 7939,
  "assists</w>": 7940,
  "nell</w>": 7941,
  "gos</w>": 7942,
  "vis</w>": 7943,
  "genes</w>": 7944,
  "exhibit</w>": 7945,
  "ech": 7946,
  "logist</w>": 7947,
  "psychological</w>": 7948,
  "spine</w>": 7949,
  "preservation</w>": 7950,
  "humor</w>": 7951,
  "encing</w>": 7952,
  "gather</w>": 7953,
  "dragons</w>": 7954,
  "dialogue</w>": 7955,
  "pedro</w>": 7956,
  "floating</w>": 7957,
  "societies</w>": 7958,
  "f**k</w>": 7959,
  "14.": 7960,
  "blew</w>": 7961,
  "???????</w>": 7962,
  "gilbert</w>": 7963,
  "bud": 7964,
  "croatian</w>": 7965,
  "imprisoned</w>": 7966,
  "spon": 7967,
  "ya": 7968,
  "rider</w>": 7969,
  "interaction</w>": 7970,
  "upstairs</w>": 7971,
  "mature</w>": 7972,
  "worlds</w>": 7973,
  "leigh</w>": 7974,
  "ratings</w>": 7975,
  "1868</w>": 7976,
  "variable</w>": 7977,
  "red-": 7978,
  "adrian</w>": 7979,
  "fluid</w>": 7980,
  "warsaw</w>": 7981,
  "sr": 7982,
  "predecessor</w>": 7983,
  "extinct</w>": 7984,
  "recruited</w>": 7985,
  "croatia</w>": 7986,
  "fbi</w>": 7987,
  "alize</w>": 7988,
  "customer</w>": 7989,
  "cultures</w>": 7990,
  "cassie</w>": 7991,
  "packed</w>": 7992,
  "beg": 7993,
  "commitment</w>": 7994,
  "cafe</w>": 7995,
  "ruth</w>": 7996,
  "airline</w>": 7997,
  "legacy</w>": 7998,
  "allan</w>": 7999,
  "farther</w>": 8000,
  "mps</w>": 8001,
  "maintaining</w>": 8002,
  "spite</w>": 8003,
  "transformed</w>": 8004,
  "1874</w>": 8005,
  "http</w>": 8006,
  "spare</w>": 8007,
  "chuck</w>": 8008,
  "ter-": 8009,
  "silver": 8010,
  "caroline</w>": 8011,
  "scra": 8012,
  "farms</w>": 8013,
  "plaza</w>": 8014,
  "crack</w>": 8015,
  "alarm</w>": 8016,
  "purse</w>": 8017,
  "casting</w>": 8018,
  "matrix</w>": 8019,
  "trick</w>": 8020,
  "woo": 8021,
  "sp</w>": 8022,
  "landmark</w>": 8023,
  "bombing</w>": 8024,
  "j.": 8025,
  "compiled</w>": 8026,
  "ms.</w>": 8027,
  "tation</w>": 8028,
  "bility</w>": 8029,
  "jennifer</w>": 8030,
  "inst": 8031,
  "dh": 8032,
  "warfare</w>": 8033,
  "simul": 8034,
  "experts</w>": 8035,
  "cooking</w>": 8036,
  "gal</w>": 8037,
  "civic</w>": 8038,
  "argentine</w>": 8039,
  "specialist</w>": 8040,
  "uncomfortable</w>": 8041,
  "breed</w>": 8042,
  "wallace</w>": 8043,
  "cake</w>": 8044,
  "hannah</w>": 8045,
  "1866</w>": 8046,
  "coup</w>": 8047,
  "sas": 8048,
  "loving</w>": 8049,
  "real": 8050,
  "prevented</w>": 8051,
  "jumping</w>": 8052,
  "ern": 8053,
  "programmes</w>": 8054,
  "disbanded</w>": 8055,
  "iner</w>": 8056,
  "delaware</w>": 8057,
  "songwriter</w>": 8058,
  "petro": 8059,
  "cylinder</w>": 8060,
  "urge</w>": 8061,
  "freight</w>": 8062,
  "vich</w>": 8063,
  "cameras</w>": 8064,
  "canton</w>": 8065,
  "professionals</w>": 8066,
  "bot": 8067,
  "kills</w>": 8068,
  "priests</w>": 8069,
  "1873</w>": 8070,
  "thereby</w>": 8071,
  "currency</w>": 8072,
  "humanity</w>": 8073,
  "kai</w>": 8074,
  "legion</w>": 8075,
  "somebody</w>": 8076,
  "inc.</w>": 8077,
  "ruins</w>": 8078,
  "honours</w>": 8079,
  "handled</w>": 8080,
  "archives</w>": 8081,
  "casualties</w>": 8082,
  "stran": 8083,
  "consumption</w>": 8084,
  "harvey</w>": 8085,
  "organisations</w>": 8086,
  "frag": 8087,
  "governing</w>": 8088,
  "see": 8089,
  "oscar</w>": 8090,
  "canyon</w>": 8091,
  "updated</w>": 8092,
  "trump</w>": 8093,
  "perceived</w>": 8094,
  "web": 8095,
  "sively</w>": 8096,
  "mers</w>": 8097,
  "pond</w>": 8098,
  "equation</w>": 8099,
  "pitcher</w>": 8100,
  "groaned</w>": 8101,
  "sheep</w>": 8102,
  "ssing</w>": 8103,
  "garrison</w>": 8104,
  "fence</w>": 8105,
  "sent": 8106,
  "facade</w>": 8107,
  "aw</w>": 8108,
  "lov": 8109,
  "tow": 8110,
  "itali": 8111,
  "ishing</w>": 8112,
  "exhibitions</w>": 8113,
  "short": 8114,
  "kylie</w>": 8115,
  "moo": 8116,
  "permanently</w>": 8117,
  "embassy</w>": 8118,
  "escort</w>": 8119,
  "alis</w>": 8120,
  "revised</w>": 8121,
  "survivors</w>": 8122,
  "receiver</w>": 8123,
  "tributary</w>": 8124,
  "inj": 8125,
  "blanket</w>": 8126,
  "consist</w>": 8127,
  "impression</w>": 8128,
  "porter</w>": 8129,
  "ading</w>": 8130,
  "bulgarian</w>": 8131,
  "gospel</w>": 8132,
  "literacy</w>": 8133,
  "key": 8134,
  "alley</w>": 8135,
  "boulevard</w>": 8136,
  "depot</w>": 8137,
  "nancy</w>": 8138,
  "presentation</w>": 8139,
  "newcastle</w>": 8140,
  "wounds</w>": 8141,
  "protecting</w>": 8142,
  "installation</w>": 8143,
  "consequences</w>": 8144,
  "white": 8145,
  "nation": 8146,
  "gut</w>": 8147,
  "hang": 8148,
  "adi</w>": 8149,
  "generate</w>": 8150,
  "mc</w>": 8151,
  "praise</w>": 8152,
  "kat</w>": 8153,
  "aring</w>": 8154,
  "accommodate</w>": 8155,
  "samples</w>": 8156,
  "sup": 8157,
  "patri": 8158,
  "tense</w>": 8159,
  "certificate</w>": 8160,
  "delay</w>": 8161,
  "bic</w>": 8162,
  "nest</w>": 8163,
  "ophy": 8164,
  "lu</w>": 8165,
  "jol": 8166,
  "ail": 8167,
  "sch</w>": 8168,
  "kis": 8169,
  "bling</w>": 8170,
  "ame": 8171,
  "ottawa</w>": 8172,
  "bend</w>": 8173,
  "torture</w>": 8174,
  "pos": 8175,
  "eaten</w>": 8176,
  "dancer</w>": 8177,
  "leonard</w>": 8178,
  "singers</w>": 8179,
  "azerbaijan</w>": 8180,
  "sophie</w>": 8181,
  "sensation</w>": 8182,
  "tau": 8183,
  "monk</w>": 8184,
  "invented</w>": 8185,
  "shane</w>": 8186,
  "unity</w>": 8187,
  "mathematical</w>": 8188,
  "2000s</w>": 8189,
  "huh</w>": 8190,
  "politicians</w>": 8191,
  "sanctuary</w>": 8192,
  "followers</w>": 8193,
  "fusion</w>": 8194,
  "1877</w>": 8195,
  "photographer</w>": 8196,
  "sign": 8197,
  "queens</w>": 8198,
  "affiliate</w>": 8199,
  "aer": 8200,
  "sometime</w>": 8201,
  "chaos</w>": 8202,
  "loading</w>": 8203,
  "manufacturers</w>": 8204,
  "founders</w>": 8205,
  "daddy</w>": 8206,
  "arnold</w>": 8207,
  "amanda</w>": 8208,
  "saudi</w>": 8209,
  "bulgaria</w>": 8210,
  "sman</w>": 8211,
  "grants</w>": 8212,
  "variations</w>": 8213,
  "introduce</w>": 8214,
  "spy</w>": 8215,
  "bren": 8216,
  "mtv</w>": 8217,
  "gram</w>": 8218,
  "hul": 8219,
  "ec</w>": 8220,
  "sounding</w>": 8221,
  "loyal</w>": 8222,
  "uri</w>": 8223,
  "wom": 8224,
  "honored</w>": 8225,
  "armies</w>": 8226,
  "foo": 8227,
  "bly</w>": 8228,
  "conscious</w>": 8229,
  "concepts</w>": 8230,
  "abraham</w>": 8231,
  "dering</w>": 8232,
  "integration</w>": 8233,
  "pus</w>": 8234,
  "sei": 8235,
  "hire</w>": 8236,
  "tate</w>": 8237,
  "examined</w>": 8238,
  "sap": 8239,
  "kh</w>": 8240,
  "drag": 8241,
  "statements</w>": 8242,
  "array</w>": 8243,
  "acknowledged</w>": 8244,
  "presidency</w>": 8245,
  "consequently</w>": 8246,
  "suspension</w>": 8247,
  "afford</w>": 8248,
  "kop": 8249,
  "refugees</w>": 8250,
  "assured</w>": 8251,
  "voiced</w>": 8252,
  "vale</w>": 8253,
  "ore": 8254,
  "portions</w>": 8255,
  "estates</w>": 8256,
  "settling</w>": 8257,
  "variation</w>": 8258,
  "sustained</w>": 8259,
  "bishops</w>": 8260,
  "aims</w>": 8261,
  "midfielder</w>": 8262,
  "bing</w>": 8263,
  "lebanon</w>": 8264,
  "ei</w>": 8265,
  "anchor</w>": 8266,
  "thed</w>": 8267,
  "hawk</w>": 8268,
  "rebel</w>": 8269,
  "ober": 8270,
  "punch</w>": 8271,
  "threats</w>": 8272,
  "gram": 8273,
  "maggie</w>": 8274,
  "courage</w>": 8275,
  "side": 8276,
  "continent</w>": 8277,
  "reforms</w>": 8278,
  "static</w>": 8279,
  "karen</w>": 8280,
  "fellowship</w>": 8281,
  "river": 8282,
  "diet</w>": 8283,
  "circum": 8284,
  "pirates</w>": 8285,
  "nap": 8286,
  "12-": 8287,
  "proceeded</w>": 8288,
  "roland</w>": 8289,
  "lish</w>": 8290,
  "blond</w>": 8291,
  "gross</w>": 8292,
  "mond</w>": 8293,
  "servants</w>": 8294,
  "rant</w>": 8295,
  "teen</w>": 8296,
  "hughes</w>": 8297,
  "lungs</w>": 8298,
  "one": 8299,
  "nationalist</w>": 8300,
  "mark": 8301,
  "aly": 8302,
  "announcement</w>": 8303,
  "broadcasts</w>": 8304,
  "thesis</w>": 8305,
  "chambers</w>": 8306,
  "tasks</w>": 8307,
  "third-": 8308,
  "seminary</w>": 8309,
  "jessica</w>": 8310,
  "mother": 8311,
  "kai": 8312,
  "airing</w>": 8313,
  "blank</w>": 8314,
  "cricketer</w>": 8315,
  "rap": 8316,
  "encourage</w>": 8317,
  "berkeley</w>": 8318,
  "bitter</w>": 8319,
  "journalists</w>": 8320,
  "stom": 8321,
  "acoustic</w>": 8322,
  "neutral</w>": 8323,
  "marathon</w>": 8324,
  "searched</w>": 8325,
  "accomplished</w>": 8326,
  "enzyme</w>": 8327,
  "northeastern</w>": 8328,
  "mosque</w>": 8329,
  "explore</w>": 8330,
  "citing</w>": 8331,
  "roosevelt</w>": 8332,
  "prestigious</w>": 8333,
  "gad": 8334,
  "ellen</w>": 8335,
  "batting</w>": 8336,
  "mit</w>": 8337,
  "noting</w>": 8338,
  "stationed</w>": 8339,
  "bai": 8340,
  "oli</w>": 8341,
  "exp": 8342,
  "1848</w>": 8343,
  "guidance</w>": 8344,
  "centered</w>": 8345,
  "google</w>": 8346,
  "dream": 8347,
  "bennett</w>": 8348,
  "rin</w>": 8349,
  "construct</w>": 8350,
  "innovation</w>": 8351,
  "-to-": 8352,
  "stanford</w>": 8353,
  "backward</w>": 8354,
  "assignment</w>": 8355,
  "electronics</w>": 8356,
  "interface</w>": 8357,
  "stepping</w>": 8358,
  "cio</w>": 8359,
  "raymond</w>": 8360,
  "ists</w>": 8361,
  "exhausted</w>": 8362,
  "logists</w>": 8363,
  "exterior</w>": 8364,
  "grid</w>": 8365,
  "parked</w>": 8366,
  "thered</w>": 8367,
  "severely</w>": 8368,
  "workshop</w>": 8369,
  "barrel</w>": 8370,
  "counted</w>": 8371,
  "compositions</w>": 8372,
  "gging</w>": 8373,
  "unions</w>": 8374,
  "1869</w>": 8375,
  "recreation</w>": 8376,
  "op</w>": 8377,
  "millions</w>": 8378,
  "cop</w>": 8379,
  "magical</w>": 8380,
  "t-shirt</w>": 8381,
  "promising</w>": 8382,
  "recover</w>": 8383,
  "~</w>": 8384,
  "ges": 8385,
  "ached</w>": 8386,
  "damned</w>": 8387,
  "sacrifice</w>": 8388,
  "xes</w>": 8389,
  "practiced</w>": 8390,
  "editorial</w>": 8391,
  "drinks</w>": 8392,
  "az</w>": 8393,
  "cho</w>": 8394,
  "enjoying</w>": 8395,
  "ef</w>": 8396,
  "advisor</w>": 8397,
  "nis": 8398,
  "sheffield</w>": 8399,
  "displays</w>": 8400,
  "chop": 8401,
  "layers</w>": 8402,
  "shakespeare</w>": 8403,
  "ick": 8404,
  "two-year</w>": 8405,
  "catching</w>": 8406,
  "flies</w>": 8407,
  "mph</w>": 8408,
  "spirits</w>": 8409,
  "nashville</w>": 8410,
  "'you</w>": 8411,
  "steal</w>": 8412,
  "fin</w>": 8413,
  "egg</w>": 8414,
  "virtually</w>": 8415,
  "moderate</w>": 8416,
  "youve</w>": 8417,
  "spectrum</w>": 8418,
  "necessarily</w>": 8419,
  "celtic</w>": 8420,
  "cruz</w>": 8421,
  "call": 8422,
  "manages</w>": 8423,
  "barrier</w>": 8424,
  "boot</w>": 8425,
  "toes</w>": 8426,
  "absorbed</w>": 8427,
  "ech</w>": 8428,
  "streak</w>": 8429,
  "**": 8430,
  "serie</w>": 8431,
  "ples</w>": 8432,
  "is-": 8433,
  "chiefs</w>": 8434,
  "sai": 8435,
  "shanghai</w>": 8436,
  "garcia</w>": 8437,
  "mg</w>": 8438,
  "slavery</w>": 8439,
  "tourists</w>": 8440,
  "gly": 8441,
  "ova</w>": 8442,
  "appreciate</w>": 8443,
  "separation</w>": 8444,
  "dding</w>": 8445,
  "relay</w>": 8446,
  "rolls</w>": 8447,
  "fat": 8448,
  "jur": 8449,
  "well": 8450,
  "***</w>": 8451,
  "sony</w>": 8452,
  "abolished</w>": 8453,
  "chau": 8454,
  "prompted</w>": 8455,
  "server</w>": 8456,
  "orbit</w>": 8457,
  "vs.</w>": 8458,
  "shri": 8459,
  "theatrical</w>": 8460,
  "bull": 8461,
  "tv": 8462,
  "24": 8463,
  "with": 8464,
  "flame</w>": 8465,
  "wellington</w>": 8466,
  "frustration</w>": 8467,
  "1850</w>": 8468,
  "pronounced</w>": 8469,
  "zan": 8470,
  "py</w>": 8471,
  "pistol</w>": 8472,
  "regret</w>": 8473,
  "aching</w>": 8474,
  "centres</w>": 8475,
  "maurice</w>": 8476,
  "extends</w>": 8477,
  "ripped</w>": 8478,
  "ellis</w>": 8479,
  "pir": 8480,
  "preston</w>": 8481,
  "alised</w>": 8482,
  "tang": 8483,
  "thermal</w>": 8484,
  "curved</w>": 8485,
  "hurry</w>": 8486,
  "relatives</w>": 8487,
  "cox</w>": 8488,
  "coin</w>": 8489,
  "ced</w>": 8490,
  "conductor</w>": 8491,
  "mentally</w>": 8492,
  "chel": 8493,
  "byzantine</w>": 8494,
  "retiring</w>": 8495,
  "tit": 8496,
  "della</w>": 8497,
  "burial</w>": 8498,
  "heated</w>": 8499,
  "dine</w>": 8500,
  "suggesting</w>": 8501,
  "brad</w>": 8502,
  "isle</w>": 8503,
  "rian</w>": 8504,
  "overhead</w>": 8505,
  "boom</w>": 8506,
  "kle</w>": 8507,
  "predominantly</w>": 8508,
  "kau": 8509,
  "renewed</w>": 8510,
  "abruptly</w>": 8511,
  "arched</w>": 8512,
  "vii</w>": 8513,
  "elbow</w>": 8514,
  "vermont</w>": 8515,
  "kad": 8516,
  "jacques</w>": 8517,
  "speaks</w>": 8518,
  "width</w>": 8519,
  "topped</w>": 8520,
  "w-": 8521,
  "developments</w>": 8522,
  "peri": 8523,
  "dubbed</w>": 8524,
  "arguing</w>": 8525,
  "eager</w>": 8526,
  "ar-": 8527,
  ",": 8528,
  "holders</w>": 8529,
  "rely</w>": 8530,
  "missionary</w>": 8531,
  "melody</w>": 8532,
  "marvel</w>": 8533,
  "tune</w>": 8534,
  "southwestern</w>": 8535,
  "phillips</w>": 8536,
  "upcoming</w>": 8537,
  "fastest</w>": 8538,
  "cork</w>": 8539,
  "kne": 8540,
  "tucked</w>": 8541,
  "tribal</w>": 8542,
  "jenny</w>": 8543,
  "fem": 8544,
  "buck": 8545,
  "wester": 8546,
  "num": 8547,
  "vali": 8548,
  "reasonable</w>": 8549,
  "soo": 8550,
  "bride</w>": 8551,
  "thighs</w>": 8552,
  "watson</w>": 8553,
  "nationwide</w>": 8554,
  "ignoring</w>": 8555,
  "mario</w>": 8556,
  "desired</w>": 8557,
  "seri": 8558,
  "favourite</w>": 8559,
  "relating</w>": 8560,
  "montgomery</w>": 8561,
  "cross": 8562,
  "amber</w>": 8563,
  "shel": 8564,
  "hot": 8565,
  "strikes</w>": 8566,
  "md</w>": 8567,
  "reconstruction</w>": 8568,
  "strings</w>": 8569,
  "streams</w>": 8570,
  "handful</w>": 8571,
  "sop": 8572,
  "transformation</w>": 8573,
  "non-profit</w>": 8574,
  "intervention</w>": 8575,
  "glared</w>": 8576,
  "depends</w>": 8577,
  "merit</w>": 8578,
  "associations</w>": 8579,
  "quinn</w>": 8580,
  "judgment</w>": 8581,
  "kow": 8582,
  "maid</w>": 8583,
  "painful</w>": 8584,
  "glory</w>": 8585,
  "patch</w>": 8586,
  "ras</w>": 8587,
  "15.": 8588,
  "ico</w>": 8589,
  "comple": 8590,
  "aver": 8591,
  "ritual</w>": 8592,
  "z-": 8593,
  "ured</w>": 8594,
  "sharply</w>": 8595,
  "suffer</w>": 8596,
  "ashing</w>": 8597,
  "liz</w>": 8598,
  "kul": 8599,
  "rookie</w>": 8600,
  "dense</w>": 8601,
  "t.": 8602,
  "roster</w>": 8603,
  "mati": 8604,
  "aggregate</w>": 8605,
  "brow": 8606,
  "kr": 8607,
  "excellence</w>": 8608,
  "horrible</w>": 8609,
  "nursing</w>": 8610,
  "shorts</w>": 8611,
  "die": 8612,
  "interchange</w>": 8613,
  "satisfaction</w>": 8614,
  "r.": 8615,
  "contribute</w>": 8616,
  "mercy</w>": 8617,
  "trips</w>": 8618,
  "regi": 8619,
  "ske": 8620,
  "travelling</w>": 8621,
  "thir": 8622,
  "curriculum</w>": 8623,
  "rape</w>": 8624,
  "witnesses</w>": 8625,
  "snu": 8626,
  "xy</w>": 8627,
  "disorder</w>": 8628,
  "dead": 8629,
  "grain</w>": 8630,
  "quantum</w>": 8631,
  "bunch</w>": 8632,
  "arrow</w>": 8633,
  "dot</w>": 8634,
  "vital</w>": 8635,
  "brooks</w>": 8636,
  "hurried</w>": 8637,
  "grun": 8638,
  "strain</w>": 8639,
  "elena</w>": 8640,
  "epic</w>": 8641,
  "gesture</w>": 8642,
  "kirk</w>": 8643,
  "realizing</w>": 8644,
  "borg</w>": 8645,
  "protective</w>": 8646,
  "discipline</w>": 8647,
  "platinum</w>": 8648,
  "tina</w>": 8649,
  "victories</w>": 8650,
  "vari": 8651,
  "booth</w>": 8652,
  "wishes</w>": 8653,
  "counts</w>": 8654,
  "methodist</w>": 8655,
  "specified</w>": 8656,
  "chains</w>": 8657,
  "cheese</w>": 8658,
  "marking</w>": 8659,
  "traced</w>": 8660,
  "enable</w>": 8661,
  "syrian</w>": 8662,
  "argues</w>": 8663,
  "episcopal</w>": 8664,
  "thunder</w>": 8665,
  "dac": 8666,
  "healing</w>": 8667,
  "eugene</w>": 8668,
  "ate": 8669,
  "syndrome</w>": 8670,
  "conquest</w>": 8671,
  "beliefs</w>": 8672,
  "biography</w>": 8673,
  "descended</w>": 8674,
  "planes</w>": 8675,
  "identification</w>": 8676,
  "infection</w>": 8677,
  "iv": 8678,
  "cit": 8679,
  "fork</w>": 8680,
  "eco": 8681,
  "south-east</w>": 8682,
  "jav": 8683,
  "enabled</w>": 8684,
  "fierce</w>": 8685,
  "recall</w>": 8686,
  "aber": 8687,
  "ju</w>": 8688,
  "reserved</w>": 8689,
  "motorcycle</w>": 8690,
  "flipped</w>": 8691,
  "trevor</w>": 8692,
  "cand": 8693,
  "expanding</w>": 8694,
  "deals</w>": 8695,
  "oration</w>": 8696,
  "venues</w>": 8697,
  "dame</w>": 8698,
  "nur": 8699,
  "gin</w>": 8700,
  "amar": 8701,
  "finn</w>": 8702,
  "disappointed</w>": 8703,
  "involve</w>": 8704,
  "ures</w>": 8705,
  "reformed</w>": 8706,
  "legendary</w>": 8707,
  "artwork</w>": 8708,
  "harmon": 8709,
  "remarkable</w>": 8710,
  "libraries</w>": 8711,
  "sally</w>": 8712,
  "201": 8713,
  "panama</w>": 8714,
  "diversity</w>": 8715,
  "hint</w>": 8716,
  "hollow</w>": 8717,
  "vice-": 8718,
  "gravity</w>": 8719,
  "pol</w>": 8720,
  "circulation</w>": 8721,
  "rum": 8722,
  "hunger</w>": 8723,
  "imposed</w>": 8724,
  "louise</w>": 8725,
  "elli": 8726,
  "protocol</w>": 8727,
  "brid": 8728,
  "glen": 8729,
  "creator</w>": 8730,
  "preliminary</w>": 8731,
  "nel</w>": 8732,
  "tore</w>": 8733,
  "lei": 8734,
  "bang</w>": 8735,
  "after": 8736,
  "hamlet</w>": 8737,
  "colt</w>": 8738,
  "venezuela</w>": 8739,
  "discovers</w>": 8740,
  "coun": 8741,
  "independently</w>": 8742,
  "uri": 8743,
  "ds": 8744,
  "berger</w>": 8745,
  "classi": 8746,
  "ens": 8747,
  "colours</w>": 8748,
  "bolt</w>": 8749,
  "unexpected</w>": 8750,
  "cks</w>": 8751,
  "collegiate</w>": 8752,
  "appeals</w>": 8753,
  "asi</w>": 8754,
  "dium</w>": 8755,
  "spin": 8756,
  "tle</w>": 8757,
  "it-": 8758,
  "privately</w>": 8759,
  "cherry</w>": 8760,
  "quin": 8761,
  "stle</w>": 8762,
  "cun": 8763,
  "commentary</w>": 8764,
  "prague</w>": 8765,
  "discontinued</w>": 8766,
  "schu": 8767,
  "yugoslavia</w>": 8768,
  "precious</w>": 8769,
  "abby</w>": 8770,
  "-y": 8771,
  "chapters</w>": 8772,
  "journals</w>": 8773,
  "hotels</w>": 8774,
  "restore</w>": 8775,
  "isation</w>": 8776,
  "clin": 8777,
  "lasting</w>": 8778,
  "requiring</w>": 8779,
  "pursuit</w>": 8780,
  "retain</w>": 8781,
  "invisible</w>": 8782,
  "minds</w>": 8783,
  "rises</w>": 8784,
  "cottage</w>": 8785,
  "ante</w>": 8786,
  "tum</w>": 8787,
  "fl</w>": 8788,
  "3.5</w>": 8789,
  "sofia</w>": 8790,
  "sunlight</w>": 8791,
  "creates</w>": 8792,
  "198": 8793,
  "bill": 8794,
  "iraqi</w>": 8795,
  "ao": 8796,
  "all-star</w>": 8797,
  "closet</w>": 8798,
  "ee": 8799,
  "dental</w>": 8800,
  "linda</w>": 8801,
  "removing</w>": 8802,
  "segments</w>": 8803,
  "napoleon</w>": 8804,
  "cannon</w>": 8805,
  "relax</w>": 8806,
  "forgot</w>": 8807,
  "kle": 8808,
  "checking</w>": 8809,
  "mach": 8810,
  "beds</w>": 8811,
  "civilians</w>": 8812,
  "aling</w>": 8813,
  "spreading</w>": 8814,
  "phon": 8815,
  "dop": 8816,
  "fisher</w>": 8817,
  "guild</w>": 8818,
  "rams</w>": 8819,
  "buying</w>": 8820,
  "doctorate</w>": 8821,
  "exploration</w>": 8822,
  "eno": 8823,
  "pier": 8824,
  "scri": 8825,
  "navigation</w>": 8826,
  "essi": 8827,
  "discrimination</w>": 8828,
  "matched</w>": 8829,
  "rivals</w>": 8830,
  "milli": 8831,
  "devi": 8832,
  "divorced</w>": 8833,
  "varied</w>": 8834,
  "bowling</w>": 8835,
  "provisions</w>": 8836,
  "iro</w>": 8837,
  "item</w>": 8838,
  "harper</w>": 8839,
  "deci": 8840,
  "entity</w>": 8841,
  "hunters</w>": 8842,
  "potentially</w>": 8843,
  "ugly</w>": 8844,
  "pie</w>": 8845,
  "auckland</w>": 8846,
  "registration</w>": 8847,
  "nick": 8848,
  "refuge</w>": 8849,
  "conducting</w>": 8850,
  "aming</w>": 8851,
  "math</w>": 8852,
  "motor": 8853,
  "pets</w>": 8854,
  "consultant</w>": 8855,
  "liu</w>": 8856,
  "1859</w>": 8857,
  "1857</w>": 8858,
  "mai": 8859,
  "eyebrow</w>": 8860,
  "lum</w>": 8861,
  "essex</w>": 8862,
  "moreover</w>": 8863,
  "committees</w>": 8864,
  "shoe</w>": 8865,
  "maintains</w>": 8866,
  "fo</w>": 8867,
  "tica</w>": 8868,
  "smelled</w>": 8869,
  "prototype</w>": 8870,
  "strict</w>": 8871,
  "inspector</w>": 8872,
  "seemingly</w>": 8873,
  "shin": 8874,
  "tobacco</w>": 8875,
  "reflection</w>": 8876,
  "flooding</w>": 8877,
  "echo</w>": 8878,
  "holly</w>": 8879,
  "palestine</w>": 8880,
  "leu": 8881,
  "sustainable</w>": 8882,
  "procedures</w>": 8883,
  "behaviour</w>": 8884,
  "lectures</w>": 8885,
  "conferences</w>": 8886,
  "1,0": 8887,
  "chloe</w>": 8888,
  "aches</w>": 8889,
  "voyage</w>": 8890,
  "hybrid</w>": 8891,
  "aggressive</w>": 8892,
  "read": 8893,
  "doctrine</w>": 8894,
  "fights</w>": 8895,
  "foods</w>": 8896,
  "rubber</w>": 8897,
  "terrain</w>": 8898,
  "ph.d.</w>": 8899,
  "sip</w>": 8900,
  "advised</w>": 8901,
  "beat": 8902,
  "anime</w>": 8903,
  "blin": 8904,
  "ordained</w>": 8905,
  "quoted</w>": 8906,
  "determination</w>": 8907,
  "chip</w>": 8908,
  "tail": 8909,
  "dealt</w>": 8910,
  "ashed</w>": 8911,
  "rh": 8912,
  "facebook</w>": 8913,
  "enlisted</w>": 8914,
  "trucks</w>": 8915,
  "eventual</w>": 8916,
  "trusted</w>": 8917,
  "anga</w>": 8918,
  "tara</w>": 8919,
  "siblings</w>": 8920,
  "suburban</w>": 8921,
  "pursued</w>": 8922,
  "glen</w>": 8923,
  "populated</w>": 8924,
  "o.</w>": 8925,
  "magne": 8926,
  "slam</w>": 8927,
  "tos</w>": 8928,
  "tas": 8929,
  "kerala</w>": 8930,
  "zoo</w>": 8931,
  "lon</w>": 8932,
  "collar</w>": 8933,
  "ison</w>": 8934,
  "touchdowns</w>": 8935,
  "allegedly</w>": 8936,
  "cr</w>": 8937,
  "cian</w>": 8938,
  "diver": 8939,
  "varies</w>": 8940,
  "newton</w>": 8941,
  "insects</w>": 8942,
  "felix</w>": 8943,
  "eta</w>": 8944,
  "notion</w>": 8945,
  "resist</w>": 8946,
  "cruise</w>": 8947,
  "stock": 8948,
  "restrictions</w>": 8949,
  "bon</w>": 8950,
  "define</w>": 8951,
  "pissed</w>": 8952,
  "wives</w>": 8953,
  "citizenship</w>": 8954,
  "drives</w>": 8955,
  "holdings</w>": 8956,
  "spac": 8957,
  "cleaning</w>": 8958,
  "cus</w>": 8959,
  "criteria</w>": 8960,
  "aman</w>": 8961,
  "blonde</w>": 8962,
  "mick</w>": 8963,
  "stained</w>": 8964,
  "suburbs</w>": 8965,
  "underwent</w>": 8966,
  "suff": 8967,
  "confident</w>": 8968,
  "corn": 8969,
  "avoided</w>": 8970,
  "clarke</w>": 8971,
  "dges</w>": 8972,
  "jin": 8973,
  "tram": 8974,
  "monitoring</w>": 8975,
  "tari": 8976,
  "collecting</w>": 8977,
  "panels</w>": 8978,
  "celebrity</w>": 8979,
  "migration</w>": 8980,
  "audiences</w>": 8981,
  "wow</w>": 8982,
  "wednesday</w>": 8983,
  "permit</w>": 8984,
  "sage</w>": 8985,
  "youll</w>": 8986,
  "operators</w>": 8987,
  "cardinals</w>": 8988,
  "viewing</w>": 8989,
  "stance</w>": 8990,
  "palms</w>": 8991,
  "requirement</w>": 8992,
  "targeted</w>": 8993,
  "vie": 8994,
  "mrs</w>": 8995,
  "marsh</w>": 8996,
  "trailer</w>": 8997,
  "associates</w>": 8998,
  "hawks</w>": 8999,
  "yuan</w>": 9000,
  "nerve</w>": 9001,
  "codes</w>": 9002,
  "interpreted</w>": 9003,
  "improving</w>": 9004,
  "massacre</w>": 9005,
  "logically</w>": 9006,
  "frontier</w>": 9007,
  "investors</w>": 9008,
  "yp": 9009,
  "16.": 9010,
  "gripped</w>": 9011,
  "vu": 9012,
  "headquartered</w>": 9013,
  "profit</w>": 9014,
  "lighter</w>": 9015,
  "vy": 9016,
  "spinning</w>": 9017,
  "grammy</w>": 9018,
  "liv": 9019,
  "joins</w>": 9020,
  "ces": 9021,
  "altar</w>": 9022,
  "compact</w>": 9023,
  "stefan</w>": 9024,
  "treasure</w>": 9025,
  "a.m.</w>": 9026,
  "senses</w>": 9027,
  "cab</w>": 9028,
  "claude</w>": 9029,
  "lom": 9030,
  "cane</w>": 9031,
  "stability</w>": 9032,
  "butterfly</w>": 9033,
  "awkward</w>": 9034,
  "marc</w>": 9035,
  "mass": 9036,
  "fare</w>": 9037,
  "marshal</w>": 9038,
  "particles</w>": 9039,
  "symbols</w>": 9040,
  "doc</w>": 9041,
  "startled</w>": 9042,
  "horizon</w>": 9043,
  "ammunition</w>": 9044,
  "aca</w>": 9045,
  "palestinian</w>": 9046,
  "cracked</w>": 9047,
  "genesis</w>": 9048,
  "seventeen</w>": 9049,
  "heavyweight</w>": 9050,
  "whoever</w>": 9051,
  "accidentally</w>": 9052,
  "routine</w>": 9053,
  "indies</w>": 9054,
  "idi": 9055,
  "larvae</w>": 9056,
  "pose</w>": 9057,
  "luci": 9058,
  "elaborate</w>": 9059,
  "lea</w>": 9060,
  "offense</w>": 9061,
  "ge-": 9062,
  "desperately</w>": 9063,
  "sor</w>": 9064,
  "listing</w>": 9065,
  "mercury</w>": 9066,
  "tai</w>": 9067,
  "manila</w>": 9068,
  "ssy</w>": 9069,
  "vietnamese</w>": 9070,
  "forgive</w>": 9071,
  "aba</w>": 9072,
  "impe": 9073,
  "chances</w>": 9074,
  "awful</w>": 9075,
  "overcome</w>": 9076,
  "tch</w>": 9077,
  "columbus</w>": 9078,
  "jam</w>": 9079,
  "brandon</w>": 9080,
  "kara</w>": 9081,
  "h.": 9082,
  "fau": 9083,
  "arabia</w>": 9084,
  "ks": 9085,
  "toy</w>": 9086,
  "chand": 9087,
  "veins</w>": 9088,
  "lining</w>": 9089,
  "repeat</w>": 9090,
  "wagon</w>": 9091,
  "sali": 9092,
  "shifting</w>": 9093,
  "breeze</w>": 9094,
  "punjab</w>": 9095,
  "ough</w>": 9096,
  "mumbai</w>": 9097,
  "succeed</w>": 9098,
  "lawn</w>": 9099,
  "pound</w>": 9100,
  "reviewed</w>": 9101,
  "lyn</w>": 9102,
  "demanding</w>": 9103,
  "ial</w>": 9104,
  "peaceful</w>": 9105,
  "fever</w>": 9106,
  "nonetheless</w>": 9107,
  "marco</w>": 9108,
  "hl": 9109,
  "nationals</w>": 9110,
  "prefer</w>": 9111,
  "smoking</w>": 9112,
  "prefecture</w>": 9113,
  "lecturer</w>": 9114,
  "fr</w>": 9115,
  "neighbouring</w>": 9116,
  "ez": 9117,
  "north-west</w>": 9118,
  "alumni</w>": 9119,
  "lobby</w>": 9120,
  "diving</w>": 9121,
  "crow": 9122,
  "diana</w>": 9123,
  "insane</w>": 9124,
  "south-west</w>": 9125,
  "urged</w>": 9126,
  "nai": 9127,
  "nominations</w>": 9128,
  "convoy</w>": 9129,
  "afterward</w>": 9130,
  "monsters</w>": 9131,
  "thursday</w>": 9132,
  "somerset</w>": 9133,
  "miguel</w>": 9134,
  "slope</w>": 9135,
  "swift</w>": 9136,
  "esh</w>": 9137,
  "shor": 9138,
  "rot": 9139,
  "bleeding</w>": 9140,
  "deadly</w>": 9141,
  "inscription</w>": 9142,
  "ig</w>": 9143,
  "eled</w>": 9144,
  "inland</w>": 9145,
  "fts</w>": 9146,
  "lows</w>": 9147,
  "hd</w>": 9148,
  "fis": 9149,
  "lecture</w>": 9150,
  "dante</w>": 9151,
  "brands</w>": 9152,
  "nab": 9153,
  "ce-": 9154,
  "crap</w>": 9155,
  "patron</w>": 9156,
  "shu</w>": 9157,
  "rev": 9158,
  "theological</w>": 9159,
  "privacy</w>": 9160,
  "sail</w>": 9161,
  "scales</w>": 9162,
  "sno": 9163,
  "witnessed</w>": 9164,
  "re-elected</w>": 9165,
  "alert</w>": 9166,
  "playstation</w>": 9167,
  "raz": 9168,
  "footsteps</w>": 9169,
  "resolved</w>": 9170,
  "agrees</w>": 9171,
  "orn</w>": 9172,
  "burton</w>": 9173,
  "rip": 9174,
  "beard</w>": 9175,
  "grabbing</w>": 9176,
  "poin": 9177,
  "administrator</w>": 9178,
  "casino</w>": 9179,
  "consequence</w>": 9180,
  "ip": 9181,
  "eda</w>": 9182,
  "estimate</w>": 9183,
  "loyalty</w>": 9184,
  "vag": 9185,
  "proven</w>": 9186,
  "slowed</w>": 9187,
  "solely</w>": 9188,
  "oro": 9189,
  "gg</w>": 9190,
  "skirt</w>": 9191,
  "solve</w>": 9192,
  "dani": 9193,
  "gavin</w>": 9194,
  "matic</w>": 9195,
  "interactive</w>": 9196,
  "exploded</w>": 9197,
  "souls</w>": 9198,
  "fai": 9199,
  "too": 9200,
  "monica</w>": 9201,
  "trigger</w>": 9202,
  "tended</w>": 9203,
  "1854</w>": 9204,
  "jungle</w>": 9205,
  "chelsea</w>": 9206,
  "sox</w>": 9207,
  "arsenal</w>": 9208,
  "nods</w>": 9209,
  "luc": 9210,
  "dg": 9211,
  "stur": 9212,
  "stumbled</w>": 9213,
  "buck</w>": 9214,
  "scandal</w>": 9215,
  "beta</w>": 9216,
  "hometown</w>": 9217,
  "bryan</w>": 9218,
  "transported</w>": 9219,
  "beats</w>": 9220,
  "vector</w>": 9221,
  "jal": 9222,
  "pounding</w>": 9223,
  "shame</w>": 9224,
  "stunned</w>": 9225,
  "r-": 9226,
  "testament</w>": 9227,
  "findings</w>": 9228,
  "fried</w>": 9229,
  "lawyers</w>": 9230,
  "eye": 9231,
  "cock": 9232,
  "pad</w>": 9233,
  "pastor</w>": 9234,
  "1855</w>": 9235,
  "hamburg</w>": 9236,
  "reads</w>": 9237,
  "regul": 9238,
  "trustees</w>": 9239,
  "freestyle</w>": 9240,
  "graves</w>": 9241,
  "extraordinary</w>": 9242,
  "dialect</w>": 9243,
  "respected</w>": 9244,
  "varying</w>": 9245,
  "chit": 9246,
  "clinic</w>": 9247,
  "cir": 9248,
  "scor": 9249,
  "witz</w>": 9250,
  "unt</w>": 9251,
  "oblast</w>": 9252,
  "honestly</w>": 9253,
  "anglican</w>": 9254,
  "copyright</w>": 9255,
  "froze</w>": 9256,
  "set": 9257,
  "phenomenon</w>": 9258,
  "galaxy</w>": 9259,
  "drawings</w>": 9260,
  "tactical</w>": 9261,
  "geographic</w>": 9262,
  "intelligent</w>": 9263,
  "cluster</w>": 9264,
  "nationally</w>": 9265,
  "23": 9266,
  "draws</w>": 9267,
  "indonesian</w>": 9268,
  "brah": 9269,
  "consideration</w>": 9270,
  "perth</w>": 9271,
  "lay": 9272,
  "parted</w>": 9273,
  "sprint</w>": 9274,
  "hub</w>": 9275,
  "me-": 9276,
  "north-east</w>": 9277,
  "vibr": 9278,
  "jamaica</w>": 9279,
  "jab": 9280,
  "hypo": 9281,
  "priority</w>": 9282,
  "zh": 9283,
  "bulk</w>": 9284,
  "steep</w>": 9285,
  "rein": 9286,
  "performers</w>": 9287,
  "ernest</w>": 9288,
  "lef": 9289,
  "lou</w>": 9290,
  "dried</w>": 9291,
  "zar</w>": 9292,
  "u.": 9293,
  "bhar": 9294,
  "diary</w>": 9295,
  "wu": 9296,
  "palmer</w>": 9297,
  "yi": 9298,
  "heath</w>": 9299,
  "referendum</w>": 9300,
  "stockholm</w>": 9301,
  "outcome</w>": 9302,
  "portal</w>": 9303,
  "sion": 9304,
  "marched</w>": 9305,
  "valid</w>": 9306,
  "atomic</w>": 9307,
  "nasa</w>": 9308,
  "malcolm</w>": 9309,
  "fists</w>": 9310,
  "uncertain</w>": 9311,
  "locality</w>": 9312,
  "reactions</w>": 9313,
  "unconscious</w>": 9314,
  "alu": 9315,
  "tracking</w>": 9316,
  "lap": 9317,
  "brave</w>": 9318,
  "caps</w>": 9319,
  "anism</w>": 9320,
  "gorgeous</w>": 9321,
  "tickets</w>": 9322,
  "safely</w>": 9323,
  "rup": 9324,
  "colspan</w>": 9325,
  "profession</w>": 9326,
  "gom": 9327,
  "luxury</w>": 9328,
  "spir": 9329,
  "synthesis</w>": 9330,
  "terrorist</w>": 9331,
  "cers</w>": 9332,
  "plantation</w>": 9333,
  "mck": 9334,
  "vill": 9335,
  "fron": 9336,
  "admission</w>": 9337,
  "var</w>": 9338,
  "ized</w>": 9339,
  "take": 9340,
  "fitz": 9341,
  "lifestyle</w>": 9342,
  "ago": 9343,
  "bonds</w>": 9344,
  "comprising</w>": 9345,
  "counter-": 9346,
  "pretend</w>": 9347,
  "pianist</w>": 9348,
  "grande</w>": 9349,
  "rot</w>": 9350,
  "rus</w>": 9351,
  "duck</w>": 9352,
  "maxim": 9353,
  "steering</w>": 9354,
  "ud": 9355,
  "duration</w>": 9356,
  "bern": 9357,
  "santiago</w>": 9358,
  "adri": 9359,
  "brass</w>": 9360,
  "penn</w>": 9361,
  "provision</w>": 9362,
  "pierce</w>": 9363,
  "pass": 9364,
  "asse": 9365,
  "trails</w>": 9366,
  "tilted</w>": 9367,
  "considerably</w>": 9368,
  "ld</w>": 9369,
  "compensation</w>": 9370,
  "1858</w>": 9371,
  "dozens</w>": 9372,
  "il-": 9373,
  "dynamics</w>": 9374,
  "ridiculous</w>": 9375,
  "rea</w>": 9376,
  "skating</w>": 9377,
  "stack</w>": 9378,
  "pru": 9379,
  "guar": 9380,
  "yak": 9381,
  "milwaukee</w>": 9382,
  "asp": 9383,
  "amusement</w>": 9384,
  "carol</w>": 9385,
  "conjunction</w>": 9386,
  "staged</w>": 9387,
  "substance</w>": 9388,
  "loudly</w>": 9389,
  ":": 9390,
  "theoretical</w>": 9391,
  "oakland</w>": 9392,
  "basket</w>": 9393,
  "dity</w>": 9394,
  "flora</w>": 9395,
  "cure</w>": 9396,
  "beings</w>": 9397,
  "hanna</w>": 9398,
  "lance</w>": 9399,
  "miranda</w>": 9400,
  "bear": 9401,
  "deny</w>": 9402,
  "gifts</w>": 9403,
  "sh-": 9404,
  "hank</w>": 9405,
  "limestone</w>": 9406,
  "4,000</w>": 9407,
  "viii</w>": 9408,
  "storyline</w>": 9409,
  "ert</w>": 9410,
  "rex</w>": 9411,
  "spider</w>": 9412,
  "sl</w>": 9413,
  "000</w>": 9414,
  "bailey</w>": 9415,
  "te-": 9416,
  "17.": 9417,
  "enhanced</w>": 9418,
  "gym</w>": 9419,
  "bang": 9420,
  "laying</w>": 9421,
  "ligh": 9422,
  "canon</w>": 9423,
  "vanished</w>": 9424,
  "apollo</w>": 9425,
  "ral</w>": 9426,
  "logies</w>": 9427,
  "1856</w>": 9428,
  "thal</w>": 9429,
  "strom</w>": 9430,
  "ruined</w>": 9431,
  "nina</w>": 9432,
  "reid</w>": 9433,
  "accent</w>": 9434,
  "scotia</w>": 9435,
  "conflicts</w>": 9436,
  "fairy</w>": 9437,
  "andrea</w>": 9438,
  "stop": 9439,
  "graduates</w>": 9440,
  "had": 9441,
  "chor": 9442,
  "bradley</w>": 9443,
  "stra</w>": 9444,
  "aro</w>": 9445,
  "kumar</w>": 9446,
  "desp": 9447,
  "atus</w>": 9448,
  "bble</w>": 9449,
  "runway</w>": 9450,
  "lawsuit</w>": 9451,
  "tc</w>": 9452,
  "email</w>": 9453,
  "ud</w>": 9454,
  "unlikely</w>": 9455,
  "congo</w>": 9456,
  "directing</w>": 9457,
  "secre": 9458,
  "fli": 9459,
  "twentieth</w>": 9460,
  "marines</w>": 9461,
  "kets</w>": 9462,
  "navi": 9463,
  "fog</w>": 9464,
  "alec</w>": 9465,
  "goodbye</w>": 9466,
  "gage</w>": 9467,
  "gw": 9468,
  "buenos</w>": 9469,
  "hea": 9470,
  "lene</w>": 9471,
  "aerial</w>": 9472,
  "vladimir</w>": 9473,
  "hal</w>": 9474,
  "georgian</w>": 9475,
  "observations</w>": 9476,
  "rap</w>": 9477,
  "assuming</w>": 9478,
  "darling</w>": 9479,
  "destroying</w>": 9480,
  "buddy</w>": 9481,
  "export</w>": 9482,
  "echoed</w>": 9483,
  "developers</w>": 9484,
  "eden</w>": 9485,
  "withdrawn</w>": 9486,
  "ential</w>": 9487,
  "stering</w>": 9488,
  "life": 9489,
  "durham</w>": 9490,
  "mented</w>": 9491,
  "innovative</w>": 9492,
  "then": 9493,
  "furious</w>": 9494,
  "hp</w>": 9495,
  "downstairs</w>": 9496,
  "aye</w>": 9497,
  "griffin</w>": 9498,
  "chri": 9499,
  "sper": 9500,
  "workshops</w>": 9501,
  "arc": 9502,
  "nis</w>": 9503,
  "quo": 9504,
  "hir": 9505,
  "drifted</w>": 9506,
  "vinyl</w>": 9507,
  "bassist</w>": 9508,
  "rim</w>": 9509,
  "ashley</w>": 9510,
  "goalkeeper</w>": 9511,
  "granite</w>": 9512,
  "brunswick</w>": 9513,
  "westminster</w>": 9514,
  "competitors</w>": 9515,
  "align</w>": 9516,
  "andrews</w>": 9517,
  "consent</w>": 9518,
  "sham</w>": 9519,
  "stevens</w>": 9520,
  "ace": 9521,
  "specimens</w>": 9522,
  "cigarette</w>": 9523,
  "tici": 9524,
  "casey</w>": 9525,
  "mentions</w>": 9526,
  "ome": 9527,
  "know": 9528,
  "cb": 9529,
  "faction</w>": 9530,
  "borne</w>": 9531,
  "choices</w>": 9532,
  "counsel</w>": 9533,
  "newport</w>": 9534,
  "dial</w>": 9535,
  "robot</w>": 9536,
  "ayan</w>": 9537,
  "halls</w>": 9538,
  "1851</w>": 9539,
  "allo": 9540,
  "surgeon</w>": 9541,
  "teenage</w>": 9542,
  "6,000</w>": 9543,
  "alle": 9544,
  "controlling</w>": 9545,
  "20.": 9546,
  "conceived</w>": 9547,
  "nou": 9548,
  "anth": 9549,
  "firms</w>": 9550,
  "sher</w>": 9551,
  "lens</w>": 9552,
  "ourselves</w>": 9553,
  "glacier</w>": 9554,
  "900</w>": 9555,
  "elo": 9556,
  "cartoon</w>": 9557,
  "open-": 9558,
  "codice</w>": 9559,
  "shining</w>": 9560,
  "horse": 9561,
  "acre</w>": 9562,
  "eous</w>": 9563,
  "allegations</w>": 9564,
  "warehouse</w>": 9565,
  "jealous</w>": 9566,
  "optical</w>": 9567,
  "zones</w>": 9568,
  "stered</w>": 9569,
  "trend</w>": 9570,
  "lab": 9571,
  "ret": 9572,
  "vicinity</w>": 9573,
  "ado": 9574,
  "vy</w>": 9575,
  "itz</w>": 9576,
  "sussex</w>": 9577,
  "attract</w>": 9578,
  "mum</w>": 9579,
  "sue</w>": 9580,
  "rose": 9581,
  "cally</w>": 9582,
  "verses</w>": 9583,
  "matching</w>": 9584,
  "27": 9585,
  "manga</w>": 9586,
  "museums</w>": 9587,
  "101</w>": 9588,
  "acquire</w>": 9589,
  "aks</w>": 9590,
  "deliberately</w>": 9591,
  "favorable</w>": 9592,
  "prospect</w>": 9593,
  "hem</w>": 9594,
  "holden</w>": 9595,
  "sic</w>": 9596,
  "scal": 9597,
  "nati": 9598,
  "beh": 9599,
  "airfield</w>": 9600,
  "crop</w>": 9601,
  "yel": 9602,
  "publishers</w>": 9603,
  "suspicious</w>": 9604,
  "toll</w>": 9605,
  "jets</w>": 9606,
  "plateau</w>": 9607,
  "acker</w>": 9608,
  "af</w>": 9609,
  "br**sts</w>": 9610,
  "alling</w>": 9611,
  "download</w>": 9612,
  "rifles</w>": 9613,
  "syl": 9614,
  "quad": 9615,
  "banner</w>": 9616,
  "18.": 9617,
  "issa</w>": 9618,
  "instructor</w>": 9619,
  "rubbing</w>": 9620,
  "silly</w>": 9621,
  "patho": 9622,
  "nt</w>": 9623,
  "bott": 9624,
  "governed</w>": 9625,
  "zers</w>": 9626,
  "rev.</w>": 9627,
  "keen</w>": 9628,
  "lanes</w>": 9629,
  "goal": 9630,
  "occurring</w>": 9631,
  "sooner</w>": 9632,
  "cycling</w>": 9633,
  "francois</w>": 9634,
  "incredible</w>": 9635,
  "uc": 9636,
  "soli": 9637,
  "glancing</w>": 9638,
  "butt</w>": 9639,
  "ghana</w>": 9640,
  "explaining</w>": 9641,
  "parti": 9642,
  "tee</w>": 9643,
  "motors</w>": 9644,
[...]
