t h 52319169
th e</w> 32696962
i n 32032461
a n 30344506
e d</w> 23842055
e r 21620467
a r 18902502
r e 16730496
e r</w> 16630435
t i 15869718
an d</w> 15761362
e n 15486584
o n 15313402
o f</w> 14819481
i n</w> 14742825
o r 14407045
o u 14259630
o n</w> 13988688
in g</w> 13804691
a l 12616306
s t 12527834
t o</w> 12510337
a s</w> 12107907
i t 11162106
r o 10344876
h i 10155249
a t 9890926
e s</w> 9824976
a t</w> 8244396
a c 7851345
e l 7813119
a n</w> 7684480
o r</w> 7266964
h e</w> 7144019
r i 7053686
s i 7004730
l i 6787490
a l</w> 6663326
w as</w> 6425519
a s 6359897
e n</w> 6258974
o m 6221331
d i 6155537
a m 6123072
i s</w> 6117901
e c 5739503
u r 5681530
l y</w> 5614845
c h 5401307
l e 5366786
s t</w> 5333213
l o 5223318
u n 5074247
a ti 4876156
i l 4692107
h a 4642219
o l 4496350
d e 4291933
i t</w> 4155971
b e 4138809
s e 4055778
l e</w> 4053346
n o 4024330
f or</w> 4003329
v e</w> 3998039
i c 3972649
w h 3952979
a g 3931976
w it 3774123
th e 3737875
a d 3729659
th at</w> 3692864
wit h</w> 3641694
n e 3512905
en t</w> 3497089
b u 3494153
hi s</w> 3494001
er e</w> 3454360
i r 3391780
i s 3312474
r a 3264102
s u 3242480
e m 3189578
' s</w> 3187730
g h 3167718
c h</w> 3166956
p o 3155665
c on 3150963
1 9 3107203
b y</w> 3096810
en t 3084083
l a 3084044
s e</w> 2988742
c om 2948825
ou n 2921709
v er 2919018
p ro 2898116
s p 2872410
c e</w> 2819450
a b 2815309
s h 2801562
f or 2730452
h er</w> 2652067
ati on</w> 2587329
f ro 2557605
o o 2545427
m o 2489674
fro m</w> 2483573
2 0 2462277
m a 2457507
er s</w> 2452647
v i 2452640
o p 2410420
a p 2397910
s he</w> 2346807
t ed</w> 2300330
o w 2299852
t h</w> 2263796
m e</w> 2208398
ti on</w> 2136934
e a 2124610
y o 2109217
t s</w> 2101930
e x 2100819
r u 2088320
e s 2067897
on e</w> 2016187
yo u</w> 2015062
p ar 2010526
th er</w> 1987408
a u 1985293
t er</w> 1968971
l d</w> 1959136
q u 1948489
ou t</w> 1948288
a y</w> 1941382
al l</w> 1936122
v er</w> 1909894
u l 1887609
ar e</w> 1827088
d s</w> 1826174
c i 1816369
ha d</w> 1816203
it y</w> 1801278
on s</w> 1788408
l u 1787567
p re 1785530
t er 1775147
w hi 1773569
b e</w> 1753525
k e</w> 1747640
w or 1740410
gh t</w> 1738130
at e</w> 1723305
s o</w> 1700381
w e 1678070
d u 1669523
in g 1669280
w ere</w> 1661465
bu t</w> 1659542
a i 1649150
c o 1621266
e ar 1613492
d e</w> 1603956
b o 1590376
m e 1566381
at ed</w> 1555467
f f 1553444
m y</w> 1542122
p er 1538736
d ed</w> 1528872
t r 1524900
th is</w> 1514220
m an 1509442
t o 1504647
t a 1483518
ou ld</w> 1467971
m ar 1457896
d ing</w> 1441848
' t</w> 1416227
am e</w> 1409752
a r</w> 1407937
g r 1401170
g h</w> 1383447
a f 1369271
f i 1357532
g u 1354973
al ly</w> 1345764
g e 1344877
i m 1328312
g o 1323209
p l 1320036
no t</w> 1312013
s c 1298159
s ed</w> 1296890
b er</w> 1256689
f e 1254845
s er 1248196
p e 1241803
p u 1235438
t ur 1234567
f ir 1230981
re c 1226924
the y</w> 1226173
20 1 1213333
g e</w> 1211270
whi ch</w> 1209073
l ed</w> 1204196
g i 1201300
ha ve</w> 1189740
i r</w> 1181651
d o 1179767
d er</w> 1179746
h o 1170578
k ing</w> 1164661
k ed</w> 1160894
in e</w> 1158801
m u 1150644
hi m</w> 1139285
ac k</w> 1137913
j u 1124975
ou r 1122952
ag e</w> 1122183
u p</w> 1110451
it s</w> 1108489
v ed</w> 1107580
20 0 1099767
p or 1099266
in c 1098640
ar y</w> 1082730
t y</w> 1081356
ar d</w> 1076600
t w 1070338
t e 1067970
m i 1064833
oun d</w> 1054367
s om 1042947
t ing</w> 1035427
s s</w> 1031759
d er 1031442
s o 1030184
on al</w> 1025693
on g</w> 1021838
m or 1019892
ou gh</w> 1015780
ou r</w> 1015518
m in 1012213
k e 1004358
m ent</w> 1000500
ow n</w> 986676
al so</w> 985348
the ir</w> 981630
e v 981121
h as</w> 975415
an t</w> 967442
n i 959384
si on</w> 955765
fir st</w> 954411
as t</w> 954235
el l</w> 953757
s ti 946885
al i 944660
o ther</w> 933681
ne w</w> 922860
p la 921794
w ay</w> 919634
s hi 918698
wh o</w> 913224
k s</w> 910933
c ol 910538
ac e</w> 909275
k no 908344
f in 901304
r an 898808
be en</w> 896842
u m 896527
u s</w> 894322
a y 890018
wh en</w> 886462
af ter</w> 879221
e l</w> 872604
j o 871887
th ere</w> 864958
lo w 858923
b ec 856257
w i 847489
in to</w> 846359
n ed</w> 839191
com m 838450
for m 837821
or i 836969
g re 835302
s ec 832411
c ar 826498
ti me</w> 824143
ent s</w> 819035
p i 815922
du c 810181
t e</w> 809686
o c 805072
st r 796412
ai d</w> 790666
a d</w> 789313
t en 784547
com p 784479
an d 780647
s ch 777695
ri c 774332
c oun 774005
w ould</w> 773677
t u 772830
p p 769598
a v 769405
ou s</w> 766124
s el 760913
1 8 756465
m il 753425
en ce</w> 752634
ag a 747086
tw o</w> 744046
m an</w> 743912
lo o 742639
wh at</w> 741610
ti c 738738
em ber</w> 738682
e t</w> 730378
mor e</w> 726796
s aid</w> 726016
w il 725618
ad e</w> 721825
c an</w> 720299
ab out</w> 709218
el y</w> 708250
s on</w> 708055
in ter 708012
m on 705980
un i 703868
ab le</w> 703753
o ver</w> 703094
s ur 699796
ic e</w> 696775
th en</w> 696172
con t 695504
p ri 694534
w e</w> 690184
e p 686333
n or 685317
n ati 685118
th ing</w> 681627
s h</w> 679700
l l</w> 676593
lo c 674164
at er</w> 674117
n o</w> 668919
f u 664646
g en 664615
b i 662579
r e</w> 656154
ol d</w> 654839
l and</w> 651381
li ke</w> 648697
b ack</w> 646620
it e</w> 646543
b er 646342
al l 645815
b r 642784
t ra 641608
h e 641261
sp ec 637768
i es</w> 632730
i f</w> 632380
d ec 628936
c hi 628390
c ent 627639
pre s 624897
ea r</w> 624673
re n 623893
inc lu 623280
l an 621151
si g 620311
b or 619726
en g 618585
d n</w> 609651
c or 608012
on ly</w> 602777
s y 602674
or y</w> 602130
h el 601050
pla y 596491
oo d</w> 595256
o ff 592021
the m</w> 590565
19 9 585009
d o</w> 583980
e st 582411
th r 582015
b ro 581941
t ri 581918
l es</w> 581449
at es</w> 580193
v ing</w> 579635
ing s</w> 578755
ati ons</w> 576576
wh ere</w> 576238
be t 575459
n ing</w> 572422
p h 571176
st u 569511
re e</w> 566928
p s</w> 565957
an g 564875
f il 564536
as ed</w> 564261
mo st</w> 563773
it ed</w> 563027
b li 562427
w n</w> 561189
an y</w> 559919
s in 559497
d ur 559411
st ar 558253
a m</w> 557925
b ri 557692
ti ons</w> 553700
si de</w> 553544
an ce</w> 552146
ar i 550390
ear s</w> 549439
ac h</w> 548893
s ing</w> 546923
at t 545960
oo k</w> 544254
som e</w> 543411
s es</w> 540760
st e 536956
s ou 536366
for e</w> 533702
o f 527929
c ould</w> 526518
es s</w> 525263
ac h 524119
c l 522769
h ea 522242
d ay</w> 518601
w ar 517780
ju st</w> 517269
d on</w> 515345
c u 514363
e i 514028
in ed</w> 513899
pu bli 512566
g ra 512483
am i 511923
as e</w> 510705
s a 510642
h ou 509898
e d 509887
f t</w> 508606
th an</w> 507344
s m 506751
c re 506677
ch ar 501469
ap p 501094
al s</w> 500439
dur ing</w> 499615
nati onal</w> 495843
f ol 494660
b el 493815
v el 493376
be fore</w> 492169
oo l</w> 490208
0 0</w> 489266
ti es</w> 489232
th er 484891
re s</w> 477682
f a 477651
an s</w> 477456
m ade</w> 476039
di st 475540
no w</w> 472946
e ver</w> 471198
thr ough</w> 469534
en ti 469366
t on</w> 468290
an i 467133
ver y</w> 466442
b l 466367
r y</w> 466129
c a 465431
am er 462985
v es</w> 461437
som e 459422
l ar 458465
ay s</w> 457390
r ed</w> 457240
m at 455263
bu il 454178
t ly</w> 453758
d own</w> 452113
w ell</w> 450691
d y</w> 449738
en d</w> 449418
shi p</w> 448592
s k 447757
ma y</w> 445830
c an 444352
19 8 443202
y ears</w> 442251
e y 442044
f ac 441510
or s</w> 440939
v o 440850
m s</w> 438546
whi le</w> 437763
c al 437464
in s</w> 437234
sch ool</w> 436611
ur e</w> 434122
st s</w> 433498
on d</w> 432937
il l 430856
man y</w> 429625
st er</w> 428104
el l 427115
g a 425957
we en</w> 423567
ver s 423144
d re 422600
p ul 421988
di s 420233
h ar 419996
bet ween</w> 419768
p r 418621
b le</w> 417642
so ci 412775
th o 412057
f e</w> 411828
st ru 411640
st er 410921
amer ic 410282
c lo 409618
a ir 408844
u e</w> 408534
' d</w> 408317
u m</w> 408157
at ing</w> 407838
wor ld</w> 407735
c es</w> 407699
b ar 402959
c ur 402949
as on</w> 401946
m is 400468
wil l</w> 400364
an n 399576
b re 399532
in di 397910
ti ve</w> 397745
om e</w> 397477
ar e 397247
u sed</w> 397219
po in 397040
wor k</w> 396897
c ap 396793
t le</w> 396669
ge t</w> 396347
r it 395695
su b 395052
on g 394699
t en</w> 394417
l ater</w> 392438
hea d</w> 391950
f ami 391871
po li 391618
sel f</w> 391246
di d</w> 390907
sh ed</w> 387934
el ec 387929
19 7 385656
fol low 385093
a k 385006
ar ound</w> 383657
w in 382272
wi th 382137
ec t</w> 380287
th ree</w> 379892
h u 379704
pro duc 379003
sh o 378921
c ity</w> 378573
em p 378409
y ing</w> 376055
be g 375249
y ear</w> 374455
si d 374004
t or</w> 373403
i c</w> 373329
es s 372299
be ing</w> 371529
pe op 371096
un der</w> 371023
re le 370310
su ch</w> 369956
kno w</w> 367364
f er 365133
kno wn</w> 365037
au se</w> 364485
ic i 363788
ser v 361464
ev en</w> 360014
ou ght</w> 359842
aga in 359443
b ur 359272
e st</w> 358866
peop le</w> 358589
s si 358091
again st</w> 358065
n am 355288
g o</w> 354961
st ed</w> 354238
t re 353865
y our</w> 353843
tur e</w> 353414
ti m 352755
c ed</w> 352411
par t</w> 352062
p en 350940
c lu 350636
ho w</w> 350417
n um 350416
c k</w> 350168
bo th</w> 348522
st ate</w> 347466
at h</w> 346258
f re 346219
tr an 345671
em ent</w> 345085
l it 344269
di rec 344134
lo w</w> 343742
w al 343230
h an 343056
of f</w> 342898
the se</w> 342063
gen er 341578
th ough</w> 339081
in v 338587
f l 338387
ti c</w> 338245
uni vers 337784
f o 337199
d r 336251
un ti 335746
c our 335599
as s</w> 335136
rec or 335092
v e 334989
me di 334903
er ed</w> 334809
lo g 334157
19 6 334052
s ing 333400
ou l 332295
is h</w> 331529
unti l</w> 331355
ai r</w> 330711
h er 330104
o m</w> 329769
t ro 328379
gr ou 326743
c er 325969
di dn</w> 325939
am p 325906
z ed</w> 325123
sec ond</w> 324429
g er 324329
mu si 323904
ea m</w> 323007
p ic 322977
s en 321844
l ing</w> 319909
se e</w> 319625
ri ght</w> 319325
e u 318779
p a 318557
f r 318050
b a 315086
m em 314647
t t 313741
bor n</w> 313508
univers ity</w> 312863
bec ause</w> 312855
n er</w> 312400
z e</w> 310688
go ver 310103
h ow 309952
v en</w> 309791
t ow 309780
hou se</w> 309060
sti ll</w> 308547
n ame</w> 307972
bec ame</w> 306367
t eam</w> 306302
se ason</w> 306249
sin ce</w> 305738
un ited</w> 305272
. .</w> 304991
su p 303817
w om 303291
in k</w> 303046
st re 303028
t y 302950
la r</w> 302692
d en 302550
w s</w> 302360
g in 302250
c ro 302201
aga in</w> 301994
w a 301801
fu l</w> 301303
is h 299561
b all</w> 298759
fami ly</w> 298429
al e</w> 298100
h ol 297975
fil m</w> 297834
o b 297320
w ard</w> 296405
i a</w> 296382
f ri 294242
stru c 294086
. ..</w> 293052
d a 291829
ey es</w> 291828
l ine</w> 291606
t ook</w> 290072
americ an</w> 289933
t ec 289137
spec i 287954
hi st 287694
vi e 287143
s ol 287083
pl ace</w> 286447
b ed</w> 285715
op er 284054
por t</w> 283497
f ran 283483
c c 283267
19 4 283250
e p</w> 282474
ou t 282400
vi sion</w> 282361
f ul 281896
s ha 281820
ac k 280638
w ar</w> 280441
gover n 280148
t ru 280005
no v 279486
p e</w> 279248
f oo 279078
e - 278780
inclu ding</w> 277692
w rit 277523
di ff 277445
h ere</w> 276860
tur ned</w> 276317
de vel 275303
st ates</w> 274828
go ing</w> 274293
as h 274234
ac t</w> 274065
st an 272196
per i 272089
p hi 272071
f ace</w> 271458
al bu 271172
le y</w> 270804
su l 270165
an y 269620
li fe</w> 269572
g ar 269073
how ever</w> 269041
l ong</w> 268569
' m</w> 268168
en ed</w> 268055
ic al</w> 268031
? ? 267064
ou s 267033
se ver 266983
mu ch</w> 266959
sou th</w> 266459
jo h 266091
19 5 266049
cal led</w> 265663
am es</w> 264927
e ach</w> 264567
hi gh 264426
com e</w> 264195
re gi 264181
we st</w> 264015
tr y</w> 263900
as si 263763
f ound</w> 263718
s ame</w> 263655
cont in 263520
a way</w> 263047
d el 262990
ati ve</w> 261347
w an 260939
con si 260920
un der 260485
in ing</w> 260263
h ear 259270
ch am 259012
c ri 258334
in d</w> 258236
an other</w> 257830
t ers</w> 257753
ch ed</w> 257751
comp le 257241
f ic 257121
d es</w> 256656
b an 256304
ti v 256152
f el 255917
c le 255584
as s 254856
c y</w> 254790
w on</w> 254506
re l 253683
are a</w> 253346
li c 253108
hi gh</w> 253009
j e 252910
t al 252802
d en</w> 252004
po w 251720
sc ri 251261
le t</w> 250983
s w 250290
devel op 250017
grou p</w> 249955
c al</w> 249648
t own</w> 249031
c r 248905
or g 248777
pp ed</w> 248571
m p 248199
pl ac 248127
dist ric 247758
sever al</w> 247026
re ad 247003
j an 246786
n a 246278
ta in</w> 245847
j un 245570
l in 245026
le ft</w> 245021
v al 244746
po si 244600
h and</w> 244266
min i 244194
ex p 243709
follow ing</w> 243678
ma ke</w> 243437
i d</w> 242942
h ome</w> 242575
d ar 242537
se t</w> 241895
g ed</w> 241652
h al 240826
ne ver</w> 240641
ch an 240401
ro om</w> 240275
c la 240118
ta ke</w> 239702
to o</w> 239695
ser ies</w> 239345
c k 238951
v ic 238455
de sig 237828
e k</w> 237734
n s</w> 237650
se p 237551
d ge</w> 236762
w at 236738
b ru 236650
u p 236641
comp any</w> 236426
nor th</w> 236258
l ast</w> 235507
v en 235040
albu m</w> 234947
ent ly</w> 234918
m en</w> 234501
fi el 234462
num ber</w> 234428
or e</w> 233488
g ro 233078
0 s</w> 232957
musi c</w> 232247
f our</w> 231954
ag ue</w> 231489
rele ased</w> 231063
beg an</w> 230750
f un 230396
ec ted</w> 230055
sti tu 230052
tim es</w> 229772
ri ed</w> 229204
u se</w> 229169
play ed</w> 228903
ur y</w> 228545
publi c</w> 228544
su m 228345
el e 228306
in a</w> 227930
hel d</w> 227913
d ra 227391
g ood</w> 227356
b and</w> 226987
for m</w> 226753
f oun 225770
ori gin 225731
am s</w> 225392
g ame</w> 225075
w ant</w> 224011
m er 224003
b il 223777
rec ei 223657
in i 223640
c ep 222610
su cc 222423
1 7 222168
m ember</w> 221909
ear ly</w> 221885
mi d 221532
le ad 220824
distric t</w> 220774
ster n</w> 220636
app ear 220502
tho se</w> 220405
or t</w> 220289
19 3 219677
qu i 219484
lit tle</w> 219278
le g 218632
in e 218257
, 0 217601
coun ty</w> 216824
d ri 216305
t es</w> 216283
g l 216009
b ers</w> 215891
po pul 215520
h un 214757
ma j 214488
pro f 214281
t a</w> 214029
pl an 213518
le ague</w> 213238
th ink</w> 213146
i l</w> 213111
' re</w> 212923
st ri 212781
v ari 212760
o ver 212424
g er</w> 212359
c ame</w> 212237
foo t 211628
k en</w> 211323
ch ur 211160
th ir 211063
sur e</w> 210956
li ght</w> 210939
oul dn</w> 210177
l s</w> 209963
cham pi 209883
t or 209831
bo dy</w> 208986
di ed</w> 208944
w ent</w> 208482
fe at 208405
por t 208268
loo ked</w> 208123
p ed</w> 207515
1 0</w> 207196
pro vi 206859
p al 206507
re ma 205768
k o 205547
as ked</w> 204629
diff er 204594
some thing</w> 204482
sm all</w> 203989
tic al</w> 203652
le ss</w> 203601
th ought</w> 203180
mo ved</w> 203036
govern ment</w> 202688
y s</w> 201695
pres ent 201483
ad v 201386
c ul 201214
der ed</w> 201124
d a</w> 201096
al ong</w> 200691
be st</w> 200557
col le 200533
st o 200504
p ur 200499
v ill 200257
p ol 200020
ni ght</w> 199674
fa ther</w> 199506
sp on 199435
ser ved</w> 199342
contin u 198935
fo re 198397
s qu 198366
s ci 198316
e ver 198174
st ation</w> 198172
s li 198070
chi l 198044
comm un 197762
b ased</w> 197034
ap pro 196650
ne x 196392
ch o 196020
joh n</w> 195744
go t</w> 195730
s .</w> 195284
co ver 195088
w ays</w> 194949
loc ated</w> 194902
d ro 194806
fe w</w> 194760
ag es</w> 194612
au gu 194359
se ar 194350
v ol 194254
d ent</w> 194131
t al</w> 193970
ch ri 193421
clu b</w> 193377
on i 193076
n ec 191775
n at 191677
par t 191305
li m 191288
ti sh</w> 190658
di tion</w> 190523
y or 190388
w ater</w> 190264
gh ts</w> 190143
pro b 189928
k es</w> 189295
r un 189233
fr on 188859
mar ch</w> 188161
ro ad</w> 188042
p at 187592
c e 187314
dec i 187121
w as 186995
gener al</w> 186879
s al 186521
th ers</w> 186378
,0 00</w> 186117
sep t 186048
ti onal</w> 185491
cont ro 185300
sept ember</w> 185201
t - 184818
do or</w> 184750
k i 184639
nex t</w> 184596
u ary</w> 184221
jun e</w> 183633
sho w</w> 183549
s s 183251
at s</w> 183109
in st 183088
e f 183031
h or 183015
pre sid 182566
in f 182284
ar ds</w> 182251
fiel d</w> 182192
19 2 181795
b as 181581
ste m</w> 181534
k er</w> 181077
form ed</w> 181018
ke t</w> 180929
loo k</w> 180846
tran s 180158
si l 180101
d ers</w> 179668
h y 179649
jan uary</w> 179648
b en 179500
st ing</w> 179385
k il 179359
ju ly</w> 179303
li on</w> 179085
log y</w> 178945
colle ge</w> 178662
chur ch</w> 178371
ri l</w> 178260
ne ss</w> 178135
w ing</w> 177985
oc to 177695
is ed</w> 177495
ha pp 177397
nam ed</w> 177190
e ty</w> 177180
octo ber</w> 177037
eu ro 176983
it al</w> 176874
c au 176744
augu st</w> 176616
form er</w> 176422
cur ren 176413
par ty</w> 176348
buil ding</w> 176175
y oun 175894
g ir 175879
e ast</w> 175791
m y 175430
tr ac 175279
com pe 175205
st a 175177
v ir 175142
man ag 175046
ever y 174895
di o</w> 174789
si s</w> 174689
e f</w> 174603
as soci 174250
ther n</w> 174121
inter national</w> 174070
on - 174018
e very</w> 173938
is e</w> 173691
m er</w> 173412
ap ril</w> 173327
m ents</w> 172951
star ted</w> 172680
with in</w> 172655
b ook</w> 172488
sy stem</w> 172263
s it 172251
' ll</w> 171816
on ed</w> 171718
ar ly</w> 171606
c ra 171168
i g 171139
l a</w> 171122
p er</w> 171065
re sul 170854
li es</w> 170573
popul ation</w> 170546
ch es</w> 170488
ar t</w> 170481
on ce</w> 170391
s an 170370
at ely</w> 170152
ri ver</w> 169892
ne w 169418
t ting</w> 169272
with out</w> 169218
fi ve</w> 169136
de f 169035
wh y</w> 168952
wom en</w> 168947
e g 168884
bel i 168826
buil t</w> 168688
n e</w> 168634
fi ed</w> 168516
ous ly</w> 168341
t able</w> 168059
1 8</w> 167760
pr in 167672
car e 167374
yor k</w> 167316
cent ury</w> 167101
c am 167020
to p</w> 166667
s ong</w> 166552
a th 166315
cent r 166299
1 0 166207
nov ember</w> 166177
lar ge</w> 166172
ma y 165926
b ra 165872
ch e 165623
p le 165483
ab li 165380
hi m 165161
1 6 165071
201 0</w> 164758
l y 164593
he ad 164587
l er</w> 164324
at ten 164109
e duc 164072
ti ci 164064
dec ember</w> 163986
est abli 163969
h on 163917
au str 163897
re g 163813
tur n</w> 163775
sh ould</w> 163649
o s</w> 163228
1 2</w> 163027
f ur 162960
s co 162896
re spon 162881
was n</w> 162879
p t</w> 162810
du e</w> 162564
ach ed</w> 162442
d ow 162160
ne ed</w> 162073
s ay</w> 161955
pu t</w> 161883
m al 161476
d - 161405
read y</w> 161282
u s 161222
v el</w> 161092
i m</w> 160669
e t 160468
2 0</w> 160016
wan ted</w> 159969
al though</w> 159950
austr ali 159946
or der</w> 159939
k new</w> 159937
sa w</w> 159862
b s</w> 159750
loc al</w> 159516
b al 159462
de ath</w> 159432
dre n</w> 159403
p as 159253
chil dren</w> 158932
m ed</w> 158677
ar ti 158519
po sed</w> 158494
c at 158251
gre at</w> 157762
to ge 157672
si ons</w> 157588
bri tish</w> 157564
fin al</w> 157350
be h 157187
op en</w> 157107
tec h 157098
ic k</w> 156855
an a</w> 156835
toge ther</w> 156805
lo ve</w> 156681
m ul 156665
j ect</w> 156618
s ite</w> 156240
ch a 156228
i i</w> 156203
bl ack</w> 156062
ou th</w> 155865
r ing</w> 155848
s mil 155763
201 1</w> 155534
b oo 155438
au th 155373
en s</w> 155090
e y</w> 155082
c as 155074
si ve</w> 154918
org ani 154891
fel t</w> 154860
ro y 154807
vill age</w> 154730
recei ved</w> 154654
e ff 154440
foot ball</w> 154368
ro ss</w> 154027
sh ow 153500
ir e</w> 153415
pla y</w> 153363
n a</w> 153309
an ts</w> 153061
1 5</w> 152980
bu sin 152845
wh ite</w> 152737
l on 152712
s po 152558
m un 152237
ish ed</w> 152002
poin t</w> 151931
posi tion</w> 151816
mem bers</w> 151769
m ent 151664
serv ice</w> 151623
de scri 151575
1 5 151447
ch ang 151128
er ing</w> 150954
beh ind</w> 150851
en ing</w> 150731
d om 150723
char ac 150489
b att 150003
fron t</w> 149946
ac cor 149896
ma in</w> 149692
differ ent</w> 149337
him self</w> 148413
201 2</w> 148385
d ays</w> 148079
m oun 148073
fe bru 148048
la u 147947
champi on 147936
febru ary</w> 147899
la w</w> 147879
gr ad 147854
sing le</w> 147840
ha ving</w> 147825
d in 147787
mo ther</w> 147500
maj or</w> 147415
presid ent</w> 147088
v in 146969
a z 146771
col l 146764
or ed</w> 146687
l ate</w> 146665
pow er</w> 146497
en d 146183
m ag 145924
ur ed</w> 145720
u al</w> 145681
ab ly</w> 145482
di c 145340
g ames</w> 145320
s on 144690
er i 144679
a ff 144617
inclu de</w> 144576
r ac 144423
d on 144019
at or</w> 143443
ec ts</w> 143430
s we 143266
is m</w> 143191
vo ice</w> 143106
f lo 142877
hel p</w> 142869
gr ound</w> 142863
spec ies</w> 142550
t old</w> 142306
200 9</w> 142258
inc re 142234
thir d</w> 142157
c y 142152
200 8</w> 141966
le a 141843
han ds</w> 141788
for d</w> 141743
h um 141475
- -</w> 141308
in de 141193
th s</w> 141046
sear ch</w> 141012
1 1</w> 140620
201 3</w> 140578
m a</w> 140479
d ou 140461
bo ard</w> 140402
b ir 140388
t t</w> 140192
ne ar</w> 140189
t ou 139880
d am 139843
po ssi 139824
re li 139795
g g 139432
201 4</w> 139417
wil li 139320
par k</w> 139117
ac ross</w> 138966
do c 138800
e se</w> 138589
f ar 137930
es si 137734
a war 137563
u res</w> 137351
publi shed</w> 137330
on es</w> 137251
t om 137233
' ve</w> 137052
ic es</w> 137033
on om 136869
li sh</w> 136818
b lu 136800
a h</w> 136789
gh ter</w> 136438
v is 136176
re ally</w> 136072
th re 135973
con struc 135923
ne y</w> 135883
ic k 135851
t ell</w> 135824
of ten</w> 135807
a k</w> 135586
hist ory</w> 135461
s our 135436
m om 135409
ar my</w> 135369
ou gh 134974
op ened</w> 134901
t an 134858
a de 134801
k a</w> 134612
ge or 134585
ch ing</w> 134427
1 4</w> 134222
fin d</w> 134033
off ici 134011
3 0</w> 134006
f f</w> 133953
201 5</w> 133887
h en 133694
stu d 133598
i d 133508
200 6</w> 133494
ga ve</w> 133435
is su 133363
i ght</w> 133290
coun try</w> 133264
stre et</w> 133237
accor ding</w> 133057
1 6</w> 133010
em s</w> 132939
f ren 132898
ra il 132807
ma king</w> 132634
en ough</w> 132442
gi ven</w> 132023
200 7</w> 131961
y m 131960
l ong 131953
re present 131692
plac ed</w> 131641
lo t</w> 131375
st ra 131235
ke y</w> 131172
di vision</w> 131169
am ong</w> 131097
ir ed</w> 130918
sc re 130891
c ar</w> 130540
sig ned</w> 130517
i de 130187
ma in 130158
ab o 129995
vie w</w> 129917
ge st</w> 129878
h op 129698
y - 129686
p le</w> 129619
ti on 129602
inclu ded</w> 129199
in t</w> 129175
al ity</w> 129051
min u 128822
form ation</w> 128803
se en</w> 128645
i li 128390
ati c</w> 128241
ru n</w> 128224
v il 128218
re por 128094
ur al</w> 128040
cent er</w> 127950
u sing</w> 127906
19 0 127861
in es</w> 127665
ri bu 127562
lo y 127562
c ou 127554
mi ght</w> 126970
di es</w> 126873
ci al</w> 126775
wom an</w> 126725
se qu 126674
an t 126614
ad a</w> 126586
l at 126474
il ity</w> 126272
origin al</w> 126248
ber t</w> 126205
youn g</w> 126191
el s</w> 125982
th ro 125884
st y 125782
our s</w> 125663
1 3</w> 125445
c ir 125428
peri o 125351
c ess</w> 125329
1 7</w> 125182
shi ps</w> 125149
lo st</w> 125076
ne e 124988
off ice</w> 124942
z ation</w> 124839
de sp 124828
201 6</w> 124813
wor ks</w> 124411
centr al</w> 124280
t ex 124107
m ur 124104
im port 123841
m en 123658
o k 123386
st at 123135
p ho 123101
continu ed</w> 123100
ing ton</w> 123076
cour t</w> 122890
mu st</w> 122865
in stitu 122768
fren ch</w> 122719
f le 122704
tic s</w> 122492
ac ti 122394
si x</w> 122322
u . 122303
m b 122159
t ele 122124
eng lish</w> 122077
c ouldn</w> 121909
mil lion</w> 121853
al most</w> 121844
h om 121750
chan ge</w> 121713
we stern</w> 121674
b b 121308
bec ome</w> 121299
t ors</w> 121104
ar ch 121031
n u 120944
all s</w> 120917
il ed</w> 120844
s or 120794
qu e 120600
al ways</w> 120581
li ve</w> 120563
c o</w> 120442
sp or 120385
busin ess</w> 120385
mini str 120369
en ces</w> 120299
do m</w> 120144
sh ar 120066
u ally</w> 119977
h am 119791
n er 119783
appear ed</w> 119778
li st</w> 119623
f em 119619
u su 119616
th ings</w> 119600
c op 119457
ann oun 119347
develop ment</w> 119333
gi ve</w> 119197
ini ti 118908
ci l</w> 118822
lan gu 118748
commun ity</w> 118637
2 5</w> 118417
j ap 118312
b loo 118305
for ce</w> 118121
it ary</w> 118036
wor ked</w> 117969
ori es</w> 117835
qu ar 117820
su s</w> 117765
b ran 117683
in du 117598
ful ly</w> 117439
on y</w> 117131
st on</w> 117087
it ing</w> 116704
al low 116551
ha m</w> 116342
f er</w> 116061
g ri 115970
qu e</w> 115903
no thing</w> 115864
c ase</w> 115811
inv ol 115798
h ur 115796
in ten 115576
it h</w> 115529
fi c</w> 115486
bet ter</w> 115415
l ou 115204
ag o</w> 115171
any thing</w> 115078
care er</w> 115032
en ds</w> 115025
beli e 115024
coun cil</w> 115001
clo se</w> 114892
pre vi 114838
p an 114802
mar y</w> 114767
s un 114663
a w 114649
t ar 114626
ec tion</w> 114582
p au 114504
c up</w> 114449
ea d</w> 114385
hal f</w> 114354
ex ten 114297
lon don</w> 114228
s sed</w> 114101
re turned</w> 113950
d ly</w> 113900
j a</w> 113799
ol s</w> 113616
is land</w> 113576
18 9 113462
en ded</w> 113416
w in</w> 113262
poin ted</w> 113207
in side</w> 113150
l l 113050
fe der 112911
we e 112807
o thers</w> 112660
af ric 112629
u. s.</w> 112535
stud ents</w> 112334
st ory</w> 112196
con cer 112185
i gh 112110
fir e</w> 112003
1 9</w> 111873
mar ried</w> 111795
se e 111793
d an 111561
po s 111544
re qu 111524
fe el</w> 111492
ru ssi 111421
do es</w> 111417
d au 111318
ol e</w> 111206
n al</w> 110899
i an</w> 110799
establi shed</w> 110789
ger man</w> 110669
loo king</w> 110656
contro l</w> 110636
cover ed</w> 110575
recor d</w> 110571
m c 110528
re search</w> 110406
re co 110374
play er</w> 110358
sup port</w> 110021
s an</w> 110011
n y</w> 109970
er y</w> 109900
h ard</w> 109887
ac tion</w> 109767
201 7</w> 109594
lan ds</w> 109287
de part 109075
f ar</w> 109045
al ready</w> 108872
sp e 108852
ta ken</w> 108804
wor king</w> 108725
m ing</w> 108677
f our 108597
gra m</w> 108490
d ate</w> 108441
c le</w> 108338
sec re 108240
le vel</w> 107740
ti tle</w> 107542
se tt 107377
a il 107335
comm it 107238
cl ass</w> 107125
bi g</w> 107087
so on</w> 106893
at a</w> 106846
re st 106739
ex i 106698
c amp 106382
min d</w> 106324
he al 106145
mil itary</w> 106062
st op 106017
ke ep</w> 105980
ac ade 105917
jo ined</w> 105794
vari ous</w> 105723
mo der 105550
regi on</w> 105540
an ti 105463
re st</w> 105407
succ ess 105372
educ ation</w> 105371
f ree</w> 105333
am a</w> 105323
l or 105202
li ving</w> 105176
writ ten</w> 105165
r a</w> 105164
ni a</w> 105116
produc ed</w> 105006
ai l</w> 104991
w ood</w> 104864
st - 104817
par tic 104817
ver sion</w> 104748
ar ms</w> 104714
y es</w> 104681
a in</w> 104584
wh e 104576
in t 104546
qu es 104543
v al</w> 104539
ag ed</w> 104515
si mil 104493
to tal</w> 104443
perio d</w> 104184
m it 104143
le ast</w> 103859
wor d</w> 103811
is o 103785
j our 103737
le av 103654
bro ad 103584
ph y 103479
h all</w> 103464
el i 103459
k ar 103394
wor ds</w> 103393
uni on</w> 103367
ag re 103287
ec u 103264
tele vision</w> 103224
5 0</w> 103222
li ed</w> 103220
hum an</w> 103117
ec onom 103063
a ward</w> 103002
n ar 102941
d one</w> 102924
m ac 102828
d le</w> 102784
ro le</w> 102653
sh ort</w> 102547
200 5</w> 102490
re ached</w> 102487
m ic 102363
pres ent</w> 102331
re fer 102090
as se 101949
elec tion</w> 101941
d ence</w> 101873
oun ds</w> 101803
p ap 101687
st ood</w> 101681
re ad</w> 101604
r ound</w> 101561
2 4</w> 101559
me d 101520
t ation</w> 101516
sp ea 101487
st ro 101450
m el 101243
cour se</w> 101159
ne t 101008
cre ated</w> 100994
hear t</w> 100988
ran ge</w> 100946
18 8 100795
em ents</w> 100713
f ing 100712
prof essi 100694
fur ther</w> 100525
vic t 100482
wi fe</w> 100351
st and</w> 100095
d y 100090
import ant</w> 99991
si mp 99926
direc tor</w> 99905
st one</w> 99876
pro mo 99783
w r 99743
produc tion</w> 99687
z e 99672
mar i 99633
de mo 99604
h and 99544
or ity</w> 99542
ar ri 99489
eng land</w> 99432
mo ve</w> 99403
stan ding</w> 99385
poli tical</w> 99312
pro gram</w> 99279
ful l</w> 99209
c ali 99171
vi de 99146
di sp 99143
a di 99094
m outh</w> 99063
w ro 99059
j er 99029
att emp 99026
x im 98916
ta king</w> 98899
pro gr 98892
fri end</w> 98863
com b 98832
r an</w> 98811
wi de</w> 98577
ei ther</w> 98549
ha ir</w> 98477
a ver 98475
di tional</w> 98393
t un 98381
bro ther</w> 98345
cla im 98301
ne l</w> 98225
n on- 98205
1 4 98162
announ ced</w> 98078
tici p 98042
ch ap 97980
com ing</w> 97941
comm is 97932
ci vi 97919
s le 97889
compe ti 97851
r ou 97753
s a</w> 97578
cep t</w> 97564
pri v 97520
inst ead</w> 97384
1 2 97371
d ings</w> 97360
b it 97228
la ke</w> 97119
depart ment</w> 97105
rel ati 97059
de l</w> 97004
c ru 96901
ul a</w> 96863
s ong 96815
associ ation</w> 96754
up on</w> 96704
grad u 96551
ab ility</w> 96537
inde pen 96528
in tro 96448
g s</w> 96411
follow ed</w> 96287
te st</w> 96257
re p 96232
champion ship</w> 96223
en cy</w> 96192
sum mer</w> 96192
wro te</w> 96150
mom ent</w> 96118
i or</w> 96115
de fe 96054
st and 96027
d ru 95989
sch o 95897
the m 95859
vi a</w> 95782
f - 95762
t em 95738
s af 95706
foun ded</w> 95532
some one</w> 95530
m r 95500
fin ally</w> 95463
b ac 95288
su per 95244
h old</w> 95242
j a 95241
con ta 95203
n av 95142
s ent</w> 94765
th an 94601
s k</w> 94388
f es 94374
s la 94289
sto p</w> 94255
ra dio</w> 94249
hear d</w> 94111
sup por 94092
an im 94049
da vi 93990
f oc 93916
re sid 93903
t our 93890
consi dered</w> 93824
j ames</w> 93822
s ar 93808
ev ent 93785
18 6 93735
willi am</w> 93681
ac i 93574
tow ard</w> 93479
2 1</w> 93275
1 3 93225
off ic 93124
c en 93119
as h</w> 93102
bri dge</w> 93026
soci ety</w> 93012
ro ck</w> 92930
200 4</w> 92926
g es</w> 92872
p ast</w> 92840
ter min 92808
th om 92416
for man 92384
ter ed</w> 92359
roy al</w> 92353
ep iso 92334
may be</w> 92301
dar k</w> 92278
re al</w> 92239
l ad 92205
k ers</w> 92181
descri bed</w> 92178
gir l</w> 92177
se a</w> 92118
s ound</w> 91947
mar k</w> 91871
b it</w> 91862
prob le 91838
pro vin 91774
o - 91670
play ing</w> 91632
vi du 91481
tr ying</w> 91356
soci al</w> 91280
out side</w> 91273
possi ble</w> 91270
indi vidu 91150
air s</w> 91143
1 . 91064
le ar 91057
for t</w> 90960
b ack 90786
euro pe 90785
su ff 90740
ro w</w> 90710
c s</w> 90663
th - 90627
200 0</w> 90619
y et</w> 90612
ac tu 90582
k u 90538
me t</w> 90525
fi f 90476
speci al</w> 90468
si a</w> 90348
per forman 90277
se em 90243
y a</w> 89908
poli ce</w> 89852
amp le</w> 89849
as k</w> 89827
o w</w> 89777
reco g 89663
comm on</w> 89662
every thing</w> 89659
duc ed</w> 89628
tr ack</w> 89546
pro ject</w> 89353
ay ing</w> 89341
batt le</w> 89171
di sc 89168
ali st</w> 89147
to day</w> 89072
lea ve</w> 88992
tur al</w> 88967
k ing 88931
phy si 88888
ad ministr 88835
sh or 88805
ic s</w> 88775
mat ch</w> 88766
st or 88753
sp ace</w> 88660
hist ori 88589
sh u 88575
c a</w> 88551
nor thern</w> 88492
an sw 88297
c all</w> 88293
k is 88228
clo sed</w> 88217
sty le</w> 88164
tri ed</w> 88142
ser ve</w> 88074
serv ices</w> 88061
fe et</w> 87973
v ely</w> 87910
m ir 87896
s am 87862
v ement</w> 87775
18 7 87768
st ers</w> 87669
c are</w> 87633
pre ss</w> 87434
sec on 87301
le ad</w> 87239
2 2</w> 87127
langu age</w> 87093
in formation</w> 87003
c ast</w> 86930
n ers</w> 86912
dau ghter</w> 86878
fin ished</w> 86847
ell s</w> 86811
t v</w> 86808
vil le</w> 86736
bloo d</w> 86708
er g 86624
indi a</w> 86580
fran ce</w> 86487
in ning</w> 86483
go d</w> 86422
professi onal</w> 86420
loc k</w> 86367
ar m</w> 86343
r ace</w> 86308
str y</w> 86300
1 00</w> 86271
americ a</w> 86271
w oo 86245
o h</w> 86178
def en 86082
c el 85991
log ical</w> 85967
cali for 85880
geor ge</w> 85821
on to</w> 85813
sh oul 85735
p ra 85706
bu l 85677
australi a</w> 85654
g ol 85632
cl assi 85330
sou thern</w> 85322
il s</w> 85282
do ing</w> 85262
star t</w> 85243
europe an</w> 85240
g a</w> 85229
low er</w> 85176
li e</w> 85153
par ticip 85112
li c</w> 85104
mun ici 84899
pa in 84763
mon ths</w> 84753
s - 84708
recor ded</w> 84675
br ought</w> 84674
hi t</w> 84617
e vi 84604
elec ted</w> 84504
ex peri 84464
re - 84428
oun ded</w> 84372
i ri 84329
pp ing</w> 84304
b y 84047
w all</w> 83951
st .</w> 83884
su g 83880
x i 83864
p ing</w> 83788
desig n</w> 83758
la un 83727
mul ti 83638
califor nia</w> 83575
ati onal</w> 83564
inf lu 83528
m ine</w> 83280
gre en</w> 83186
g an</w> 83049
2 3</w> 82978
b a</w> 82931
l and 82911
lo gi 82895
ap pointed</w> 82892
v a</w> 82842
abo ve</w> 82737
simil ar</w> 82734
nee ded</w> 82714
ho sp 82643
mu se 82611
vide o</w> 82601
flo or</w> 82568
ach ing</w> 82521
po pu 82491
curren tly</w> 82462
re turn</w> 82309
z z 82254
st ep 82184
ev ent</w> 82181
sc en 82166
rele ase</w> 82017
per son</w> 81966
es ti 81961
oc cu 81903
develop ed</w> 81814
con stitu 81766
c ing</w> 81749
desp ite</w> 81736
v ent 81730
fac t</w> 81730
s ays</w> 81718
u tion</w> 81679
k ind</w> 81668
k en 81637
gra ph 81510
cle ar</w> 81508
s en</w> 81464
tu res</w> 81414
w ash 81315
gu e</w> 81193
co - 81172
ni fic 81119
pul led</w> 81088
ra ther</w> 81059
com man 81029
pro per 81029
blu e</w> 80907
av ail 80773
ty pe</w> 80679
popu lar</w> 80674
usu ally</w> 80656
prob ably</w> 80623
construc tion</w> 80535
poin ts</w> 80476
rail way</w> 80454
te e</w> 80449
we ek</w> 80370
kil led</w> 80215
are as</w> 80100
st age</w> 80072
id enti 80052
sci ence</w> 79861
w on 79838
p it 79829
event ually</w> 79810
d i</w> 79791
c li 79779
chri sti 79765
200 3</w> 79723
p un 79677
fun c 79652
hou se 79638
0 . 79505
davi d</w> 79457
am ed</w> 79430
seem ed</w> 79428
fi g 79384
be au 79350
se par 79321
deci ded</w> 79312
v an</w> 79296
se ven</w> 79296
w ea 79288
tri es</w> 79224
aver age</w> 79201
ter m</w> 79133
ro l 79130
emp loy 79058
ri ch 78985
for ces</w> 78979
ex ecu 78971
ad ded</w> 78910
m ad 78869
sk y</w> 78801
run ning</w> 78784
chi ef</w> 78733
ai g 78704
recor ds</w> 78696
can ada</w> 78685
ide a</w> 78680
thr ough 78623
str ong</w> 78612
form ula</w> 78431
de ad</w> 78410
st ar</w> 78407
ali zed</w> 78357
lit er 78346
ex pres 78341
o l</w> 78339
fes tiv 78329
tra ining</w> 78230
chang ed</w> 78214
pi ec 78162
man u 78154
lo s</w> 78107
qu ick 78053
an g</w> 78037
ex ample</w> 78005
mini ster</w> 77999
op s</w> 77967
resul t</w> 77953
nati ve</w> 77786
2 8</w> 77785
tech no 77665
sec tion</w> 77603
j ac 77550
f av 77496
ri es</w> 77496
me an</w> 77480
origin ally</w> 77392
re ti 77345
b at 77336
minu tes</w> 77177
ear li 77041
con tr 77015
ser i 77000
de gre 76945
curren t</w> 76879
ric k</w> 76747
ro man 76735
st om 76731
ad dition</w> 76613
2 . 76590
fe el 76590
through out</w> 76552
fri ends</w> 76528
b ow 76527
2 6</w> 76488
bo y</w> 76482
do w</w> 76472
mon ey</w> 76442
l in</w> 76399
2 7</w> 76378
moder n</w> 76349
z i 76335
rema ined</w> 76150
li ps</w> 76009
k a 75947
v y</w> 75945
me an 75879
ev ents</w> 75856
pro tec 75852
mid dle</w> 75720
wh o 75699
in ation</w> 75549
?? ?? 75520
200 2</w> 75493
ne ws</w> 75476
song s</w> 75429
th in 75415
cra ft</w> 75310
avail able</w> 75308
de ep</w> 75294
sig nific 75259
chi ld</w> 75248
lead ing</w> 75241
recog ni 75226
te ams</w> 75216
f ted</w> 75206
de but</w> 75190
si t</w> 75178
enti al</w> 75166
de fin 75078
al y 75039
ac y</w> 75000
r y 74981
ac hi 74981
con nec 74786
w el 74744
bec om 74639
sur vi 74605
sho t</w> 74553
pl es</w> 74544
ca st 74498
aga z 74362
sit u 74297
se at</w> 74272
su d 74261
ani a</w> 74243
al - 74203
ea stern</w> 74198
for ward</w> 74137
200 1</w> 74117
boo ks</w> 74109
scho ols</w> 74055
di e</w> 74045
re fu 73906
m agaz 73903
form s</w> 73787
ol ym 73777
muse um</w> 73768
si ble</w> 73644
ar s</w> 73639
n om 73610
u k</w> 73593
tal k</w> 73560
re spec 73555
si an</w> 73463
camp aig 73444
quick ly</w> 73392
z ing</w> 73381
bi o 73266
el se</w> 73217
her self</w> 73199
all er</w> 73159
rou te</w> 73138
g un 73131
er ous</w> 73104
ti t 73086
some times</w> 73073
sh ing</w> 73069
u lar</w> 73033
to m</w> 73033
me e 73026
offici al</w> 72980
the at 72979
t our</w> 72957
ge tting</w> 72945
heal th</w> 72879
e e 72846
ta in 72833
p es</w> 72756
r am 72732
s op 72721
t on 72704
ess or</w> 72582
il l</w> 72518
per s 72471
e qu 72425
w ouldn</w> 72405
at ure</w> 72333
medi a</w> 72329
fer ence</w> 72296
smil e</w> 72151
priv ate</w> 72124
s old</w> 72003
201 8</w> 71978
mat eri 71968
g one</w> 71946
de st 71911
im p 71902
eng ine 71886
hi ll</w> 71855
com pu 71596
d ded</w> 71562
g old</w> 71549
desig ned</w> 71532
speci ally</w> 71521
so f 71520
h ours</w> 71508
bre a 71502
my self</w> 71482
x ed</w> 71431
stu dy</w> 71431
ger many</w> 71408
en a</w> 71314
k m</w> 71233
ban k</w> 71168
f all</w> 71135
reli gi 71104
ver s</w> 71099
di vi 71020
mor ning</w> 71014
k an 70983
f ood</w> 70975
e qui 70933
gu n</w> 70917
st ant</w> 70861
al one</w> 70801
g lo 70742
ha dn</w> 70686
ta ined</w> 70666
im pro 70661
mis sion</w> 70622
la y</w> 70617
pro cess</w> 70591
cont ribu 70551
feat ures</w> 70511
indi an</w> 70485
vi ol 70436
ph one</w> 70425
b ad</w> 70422
ei ght</w> 70360
comm er 70288
t ter</w> 70248
b is 70238
australi an</w> 70234
thom as</w> 70223
2 9</w> 70179
4 0</w> 70143
s at</w> 69956
provin ce</w> 69940
tow ards</w> 69933
mi cha 69911
play ers</w> 69855
lin es</w> 69826
d ance</w> 69801
it ali 69757
k i</w> 69714
r on 69580
bur g</w> 69456
w y 69427
commit tee</w> 69404
ment al</w> 69400
pl at 69341
t op 69327
shi re</w> 69304
u r</w> 69297
ke pt</w> 69282
gu lar</w> 69280
demo cr 69209
d or 69087
ang el 69058
t in 69051
g al 69014
att ack</w> 69005
g oo 68928
wh ole</w> 68909
ig n</w> 68864
te en</w> 68847
qu ali 68846
c oo 68814
co ach</w> 68779
arch it 68764
charac ter</w> 68726
con gre 68620
si ze</w> 68543
belie ve</w> 68425
th us</w> 68411
invol ved</w> 68397
b le 68389
ti n</w> 68369
sy st 68222
pau l</w> 68210
pas sed</w> 68208
j ects</w> 68176
ac tive</w> 68134
te l</w> 68132
ex c 68121
pp er</w> 68083
l am 68061
li ber 68043
m ex 67946
cent re</w> 67935
sp an 67721
r on</w> 67693
th y</w> 67660
h a</w> 67650
b our 67643
wal ked</w> 67625
b an</w> 67566
li gh 67533
mex ic 67504
l en 67449
festiv al</w> 67403
tour nam 67350
c ent</w> 67261
be l</w> 67259
tiv ely</w> 67240
si x 67219
beg inning</w> 67217
e specially</w> 67196
mo ving</w> 67180
pl an</w> 67174
s ses</w> 66982
lar gest</w> 66887
b on 66880
col um 66862
fre y 66839
sco t 66812
euro pe</w> 66706
erg y</w> 66676
ri ghts</w> 66619
ch ina</w> 66592
m on</w> 66591
fic ation</w> 66511
per formed</w> 66458
d ol 66412
im medi 66406
h ear</w> 66357
fami lies</w> 66348
p al</w> 66303
b ase</w> 66271
net work</w> 66269
actu ally</w> 66198
y ed</w> 66186
cen sus</w> 66090
l eng 66024
frey ja</w> 65914
ke t 65847
fi ght</w> 65845
lor d</w> 65842
ma ster</w> 65839
co ver</w> 65812
at ors</w> 65718
institu te</w> 65710
pre mi 65704
st an</w> 65701
hosp ital</w> 65700
* * 65693
li am 65674
en ced</w> 65672
gr and 65661
performan ce</w> 65630
po se</w> 65596
long er</w> 65593
ro bert</w> 65537
ar ts</w> 65510
micha el</w> 65472
p ass 65463
par liam 65399
comple ted</w> 65383
writ ing</w> 65374
g or 65305
g ing</w> 65197
sur pri 65177
li br 65088
mo vement</w> 65076
me t 65075
hu s 64951
grou ps</w> 64945
sub sequ 64921
sy m 64898
par ents</w> 64870
bro wn</w> 64823
re fer</w> 64800
ex pla 64794
par ts</w> 64788
s at 64782
199 9</w> 64768
pro te 64698
ju sti 64671
direc ted</w> 64659
leav ing</w> 64656
n ic 64641
con duc 64627
success ful</w> 64622
cer tain</w> 64593
tur ning</w> 64574
si ster</w> 64529
t ely</w> 64436
nat ural</w> 64431
repor ted</w> 64397
ul arly</w> 64389
au l 64342
bel ow</w> 64327
sp ent</w> 64304
st af 64293
episo de</w> 64291
ti al</w> 64248
su pp 64220
ar tic 64204
fran c 64195
h ood</w> 64185
mo vi 64173
de v 64142
mar ket</w> 64122
as ons</w> 64086
w ed</w> 64076
s low 63955
me tho 63947
ho p</w> 63905
sp ort</w> 63885
bu t 63815
sy n 63806
b ay</w> 63792
do es 63699
w ol 63686
con n 63657
fu ture</w> 63640
dow n 63615
spor ts</w> 63601
for ced</w> 63586
di tions</w> 63556
in - 63552
re ve 63551
g ation</w> 63534
in o</w> 63523
russi an</w> 63522
li ved</w> 63360
enti re</w> 63329
inclu des</w> 63299
ra ised</w> 63290
gr an 63259
z a</w> 63223
ent al</w> 63211
all ing</w> 63201
char les</w> 63177
fem ale</w> 63165
ell ing</w> 63119
f ine</w> 63057
re si 63030
e th 63018
f low 63002
w ish</w> 62998
el li 62994
me ans</w> 62987
t emp 62961
18 5 62930
can adi 62794
v an 62791
pho to 62762
magaz ine</w> 62753
ent ary</w> 62744
se x</w> 62741
3 1</w> 62733
does n</w> 62730
k h 62716
att ac 62680
ok ay</w> 62674
ent ed</w> 62663
st ay</w> 62616
st ated</w> 62595
feat ured</w> 62595
all - 62594
m p</w> 62591
st ly</w> 62556
lau gh 62536
ex per 62496
cu t</w> 62479
happ ened</w> 62465
wash ington</w> 62429
acade my</w> 62306
c .</w> 62300
0 ,000</w> 62298
s er</w> 62245
no dded</w> 62143
nor m 62101
li sted</w> 62097
pre par 62088
struc ture</w> 61966
sp ir 61956
stop ped</w> 61911
c lim 61862
ber g</w> 61804
ne igh 61797
g lan 61794
bo t 61792
relati on 61717
st oc 61670
bi a</w> 61575
li st 61569
com par 61568
sid es</w> 61549
er a</w> 61538
al e 61460
sec ur 61453
civi l</w> 61435
se x 61421
sy l 61401
gra phi 61395
si r</w> 61391
it self</w> 61351
la bor 61305
feder al</w> 61282
gr and</w> 61279
ul t</w> 61249
stu dies</w> 61220
en vir 61213
tur ed</w> 61203
bil ity</w> 61188
en ergy</w> 61090
s n 61055
ho t</w> 61042
k in 60964
foun d 60958
f ell</w> 60951
ac coun 60948
organi zation</w> 60925
competi tion</w> 60923
mi c</w> 60916
199 8</w> 60915
k y 60868
writ er</w> 60837
tra vel 60766
b om 60747
me as 60733
previ ous</w> 60725
bu d 60699
four th</w> 60656
hen ry</w> 60644
s aying</w> 60603
an ese</w> 60569
a - 60552
air craft</w> 60549
pe ter</w> 60510
mo del</w> 60482
provi ded</w> 60477
ke ep 60461
envir on 60460
earli er</w> 60451
del i 60447
de al</w> 60423
fin an 60417
hol ds</w> 60363
re placed</w> 60357
po st</w> 60276
exp an 60208
f ast</w> 60199
est er</w> 60192
tru e</w> 60162
con ference</w> 60144
du ce</w> 60139
si on 60099
allow ed</w> 60054
l o</w> 60049
kno w 60047
f lu 60045
indepen dent</w> 60006
b bed</w> 59990
prin ci 59968
sel ves</w> 59955
bre ath</w> 59948
e m</w> 59915
king dom</w> 59913
ar ing</w> 59897
appro xim 59813
awar ds</w> 59711
re vol 59686
prof essor</w> 59638
sk in</w> 59601
ne arly</w> 59580
dom in 59570
inter est</w> 59443
b un 59434
al ed</w> 59428
stu dio</w> 59427
ru g 59391
who se</w> 59372
g am 59345
m ol 59222
cap ital</w> 59133
coun tries</w> 59121
degre e</w> 59121
pro mis 59076
pr acti 59060
y our 58981
1 , 58981
plac es</w> 58926
medi cal</w> 58922
ne t</w> 58893
tournam ent</w> 58889
l un 58874
f am 58864
h ell</w> 58825
kil l</w> 58817
win ning</w> 58767
rel ated</w> 58766
m ach 58751
co ast</w> 58645
ent er 58640
claim ed</w> 58624
ath le 58582
se y</w> 58517
mat ter</w> 58479
n ation</w> 58469
as es</w> 58452
histori c</w> 58426
techno logy</w> 58411
in j 58371
3 . 58344
p on 58332
campaig n</w> 58318
syst ems</w> 58247
inter est 58246
j ack</w> 58191
is l 58127
ch ine 58072
every one</w> 58020
p lu 57986
show s</w> 57952
fing ers</w> 57882
ter rit 57818
lead er</w> 57786
awar ded</w> 57768
ca tho 57760
ol der</w> 57697
sol di 57695
ar gu 57680
ori al</w> 57665
val ley</w> 57656
af ter 57602
any one</w> 57508
acti vi 57467
atten tion</w> 57456
ow ned</w> 57450
di g 57423
199 6</w> 57409
op ening</w> 57393
as y</w> 57388
squ are</w> 57388
nati on 57384
buil dings</w> 57365
canadi an</w> 57363
d un 57356
g ate</w> 57270
inv esti 57249
k ill 57233
li k 57226
indi c 57217
an o</w> 57205
a i</w> 57135
e e</w> 57122
d an</w> 57102
re gular</w> 57094
ch est</w> 57080
c er</w> 57079
ec tive</w> 56995
comple te</w> 56995
ing ly</w> 56991
jap anese</w> 56989
it or</w> 56929
intro duced</w> 56897
cap tain</w> 56892
succ ess</w> 56888
199 7</w> 56880
al es</w> 56844
dist ribu 56803
m as 56764
feel ing</w> 56742
b ar</w> 56686
smil ed</w> 56654
chine se</w> 56635
k it 56619
sur r 56588
secur ity</w> 56549
progr am 56540
? ?</w> 56530
p sy 56520
ver se</w> 56516
sm ith</w> 56483
jap an</w> 56451
ma kes</w> 56439
al ex 56434
sen se</w> 56413
la b 56411
hu man 56407
ag u 56381
jo b</w> 56370
gh tly</w> 56361
d ata</w> 56358
em er 56300
at ory</w> 56273
provi de</w> 56250
t el 56225
ch all 56224
ent ered</w> 56152
t ch</w> 56137
leg al</w> 56099
manag ement</w> 56095
an e</w> 56066
publi c 56057
c ab 56041
tw ent 56026
org an 56004
nor th 55951
s lo 55921
ar ed</w> 55867
w ell 55828
a u</w> 55824
ch ec 55781
fil ms</w> 55781
gi ving</w> 55772
offic er</w> 55769
p h</w> 55736
wee ks</w> 55716
re gar 55686
sen ior</w> 55676
ac qu 55609
staf f</w> 55594
fre qu 55586
ac tiv 55572
fi gh 55545
me et</w> 55505
whi sp 55490
indu stry</w> 55444
high er</w> 55430
doc um 55419
ha w 55362
que en</w> 55360
sour ces</w> 55334
vie ws</w> 55298
bre ak</w> 55296
per f 55273
mee ting</w> 55271
christi an</w> 55269
war ds</w> 55252
al ter 55236
re ason</w> 55233
ac cep 55220
oc cur 55202
c es 55190
i re 55172
u ses</w> 55162
pur ch 55160
tow n 55084
ad s</w> 55080
y el 55066
an ed</w> 55062
diff ic 55061
dou b 55047
asse mb 55036
tre at 54985
es cap 54974
gir ls</w> 54918
ro se</w> 54904
ke ts</w> 54898
hea vy</w> 54885
mr .</w> 54845
da e</w> 54822
r i</w> 54814
c in 54762
ex hi 54729
comm uni 54727
di um</w> 54724
hol ding</w> 54698
ru p 54661
can di 54588
ra y</w> 54586
ta kes</w> 54483
v oc 54467
t ary</w> 54461
bil l</w> 54435
hist or 54407
theat re</w> 54407
joh n 54380
c ele 54368
ex am 54293
s m</w> 54283
ro o 54273
ear th</w> 54117
sh oo 54112
sh ook</w> 54112
nat ure</w> 54104
cor por 54070
ad es</w> 54003
sci enti 53954
sh e 53932
con serv 53887
k er 53872
approxim ately</w> 53797
sour ce</w> 53741
18 4 53723
f y</w> 53707
previ ously</w> 53706
ro r</w> 53625
s ity</w> 53612
r t</w> 53602
cast le</w> 53596
lim ited</w> 53557
g ent 53540
cro w 53481
chap ter</w> 53472
comm and</w> 53461
ch air</w> 53448
g ers</w> 53431
gu y</w> 53389
hus band</w> 53355
sug ge 53347
an aly 53336
itali an</w> 53320
span ish</w> 53287
as ing</w> 53264
or ing</w> 53225
bo x</w> 53184
pri mary</w> 53183
il ing</w> 53155
run s</w> 53145
per son 53142
leng th</w> 53118
199 5</w> 53112
an ces</w> 53086
re public</w> 53039
we b 53039
gl ass</w> 52996
comp an 52986
o x 52924
d ary</w> 52895
wal k</w> 52819
k o</w> 52802
ad ed</w> 52792
graph y</w> 52707
afric a</w> 52695
loc ation</w> 52681
al le 52678
we ight</w> 52646
ari an</w> 52640
u se 52622
ch em 52622
o d 52621
pal ity</w> 52615
199 4</w> 52602
or din 52588
199 2</w> 52557
ish ing</w> 52526
phi li 52509
pers onal</w> 52505
ques tion</w> 52492
st ance</w> 52477
ther e 52465
star ting</w> 52452
sc ored</w> 52425
pri or</w> 52389
al d</w> 52378
ter y</w> 52330
b al</w> 52286
z a 52277
t ty</w> 52273
atten ded</w> 52265
com es</w> 52250
me ant</w> 52243
exp lo 52211
ty pic 52180
ar t 52157
commun ic 52152
gro w 52120
hi l 52113
immedi ately</w> 52093
b r</w> 52081
coll ection</w> 52074
tr ade</w> 52035
col d</w> 52016
know le 52004
tw o- 52001
s av 51998
un it</w> 51989
fre e 51961
libr ary</w> 51946
d ad</w> 51913
b es</w> 51908
un its</w> 51834
bu s</w> 51825
chan nel</w> 51805
ta ins</w> 51798
y u 51785
cau ght</w> 51778
them selves</w> 51739
rich ard</w> 51736
an - 51713
1 st</w> 51692
defe ated</w> 51687
su n</w> 51668
fore st</w> 51646
s and 51599
wh om</w> 51585
on a</w> 51575
gener ally</w> 51529
moun tain</w> 51513
dow s</w> 51501
oper ations</w> 51479
contr act</w> 51476
a .</w> 51421
it al 51411
g in</w> 51400
am oun 51395
y ea 51386
go al</w> 51344
stand ard</w> 51341
qu ite</w> 51325
ro man</w> 51285
p ass</w> 51237
stu dent</w> 51226
c ks</w> 51225
cou ple</w> 51180
indu stri 51155
im ag 51140
econom ic</w> 51135
arti st</w> 51122
tex as</w> 51109
an ci 51102
sch ol 51092
dre ss</w> 51090
oper ation</w> 51046
thin king</w> 51028
govern or</w> 50948
m ec 50930
y l 50921
signific ant</w> 50902
slow ly</w> 50876
ann a</w> 50786
oc ca 50745
nov el</w> 50696
ili ties</w> 50684
ri age</w> 50683
sel f- 50675
vel s</w> 50672
shoul der</w> 50672
g n 50668
6 0</w> 50659
br it 50645
at e 50619
ra di 50616
yea h</w> 50614
n ine</w> 50534
manag ed</w> 50478
al o 50463
le - 50463
cl ar 50459
con v 50452
par is</w> 50422
champion ships</w> 50397
al low</w> 50392
regi onal</w> 50389
proper ty</w> 50375
ne ar 50359
ck y</w> 50332
g en</w> 50310
cro ss</w> 50281
f la 50271
stu died</w> 50269
il e</w> 50265
o logy</w> 50262
munici pality</w> 50236
s sing</w> 50225
gu it 50223
v ar 50200
re port</w> 50110
s ac 50087
der ing</w> 50066
play s</w> 50032
i st</w> 50021
ire land</w> 50007
off ered</w> 49982
appear ance</w> 49980
mon th</w> 49966
wor th</w> 49950
dr ag 49933
wee k 49880
hel ped</w> 49838
re ly</w> 49803
199 3</w> 49762
bis hop</w> 49753
mo stly</w> 49728
hop e</w> 49717
le e</w> 49694
practi ce</w> 49681
no ted</w> 49657
d ang 49620
manu fac 49562
0 - 49507
w er 49479
tra ditional</w> 49455
nec k</w> 49452
pa in</w> 49418
ch en</w> 49400
ve hi 49371
in te 49366
sor ry</w> 49281
commis sion</w> 49260
oun ding</w> 49246
pl ant</w> 49202
requ ired</w> 49165
fore ign</w> 49158
b ly</w> 49156
lo ss</w> 49153
nav y</w> 49140
inc or 49130
is ra 49123
wr ong</w> 49118
relation ship</w> 49098
199 1</w> 49062
199 0</w> 49000
bo ys</w> 48957
st e</w> 48918
ea si 48877
lik ely</w> 48845
h in 48838
gu ard</w> 48818
exp ected</w> 48741
pr ac 48709
new sp 48709
ser ving</w> 48670
fig ure</w> 48647
comple tely</w> 48637
pres sed</w> 48636
whe ther</w> 48628
e ts</w> 48622
dr .</w> 48608
g as</w> 48600
br ing</w> 48583
under stand</w> 48534
h our</w> 48533
ac cess</w> 48528
afric an</w> 48524
we ap 48505
e .</w> 48470
cul ture</w> 48413
and re 48368
fer red</w> 48364
newsp ap 48358
ey e</w> 48332
b ol 48319
cele br 48310
initi ally</w> 48300
st y</w> 48251
ric ul 48248
k y</w> 48238
pap er</w> 48226
as ses</w> 48160
li ves</w> 48157
f as 48149
s wit 48102
dro pped</w> 48094
air port</w> 48076
de m 48072
cau sed</w> 48042
th i 47944
ch air 47938
t s 47934
high way</w> 47903
li t</w> 47899
l ac 47887
re pe 47847
chi c 47806
wa iting</w> 47805
spe ed</w> 47794
be th</w> 47784
beau ti 47769
eng ine</w> 47768
mi gr 47755
found ation</w> 47727
tal king</w> 47723
p ati 47714
mem ber 47704
manag er</w> 47688
sou th 47669
catho lic</w> 47669
nam es</w> 47660
ch er</w> 47649
deci sion</w> 47627
in come</w> 47495
tic ally</w> 47440
wa it</w> 47440
compan ies</w> 47422
med al</w> 47411
p ea 47405
vict ori 47405
ell a</w> 47402
sil ver</w> 47398
happ y</w> 47366
tri c</w> 47329
mid - 47326
gu i 47311
becom ing</w> 47304
dist ance</w> 47289
represent ed</w> 47267
m it</w> 47234
ko re 47225
t te</w> 47207
form ing</w> 47175
individu al</w> 47152
ex cept</w> 47136
win dow</w> 47107
car ried</w> 47094
er - 47067
ri ch</w> 47060
arri ved</w> 47013
movi e</w> 46954
de st</w> 46927
proble m</w> 46922
re member</w> 46903
num erous</w> 46867
b ad 46803
ha ps</w> 46786
car ol 46730
be y 46729
direc tion</w> 46724
fam ous</w> 46702
4 . 46689
s sion</w> 46679
dri ve</w> 46674
chang es</w> 46654
hou ses</w> 46643
star s</w> 46640
f lic 46619
assemb ly</w> 46600
belie ved</w> 46560
laun ched</w> 46559
sur face</w> 46553
ste p</w> 46553
wat ch</w> 46546
parliam ent</w> 46535
vi et</w> 46510
sk i</w> 46497
en jo 46479
ach es</w> 46448
c um 46419
ec h</w> 46415
sud den 46400
al and</w> 46300
per haps</w> 46288
commer cial</w> 46287
piec e</w> 46214
re ach</w> 46212
k ra 46197
pen n 46145
ch ance</w> 46143
om s</w> 46136
ad op 46128
de p 46116
re r</w> 46105
minu te</w> 46096
k - 46092
ad ditional</w> 46084
syl v 46074
por ary</w> 46034
ann ual</w> 46018
experi ence</w> 46014
z es</w> 45978
nec ess 45936
sudden ly</w> 45935
wat ched</w> 45856
y er</w> 45835
chic ago</w> 45832
l - 45827
arti sts</w> 45810
vir gin 45804
issu e</w> 45788
issu es</w> 45766
vict ory</w> 45746
en ding</w> 45697
ed ge</w> 45684
wh it 45674
m ess 45638
f al 45593
u n</w> 45583
bl ack 45577
s ort</w> 45576
k ne 45576
pu s</w> 45560
partic ularly</w> 45534
a c</w> 45509
ro b 45502
tra in</w> 45475
j ack 45457
198 9</w> 45456
prin ce</w> 45454
so ft</w> 45445
partic ular</w> 45445
m ale</w> 45364
tru st</w> 45350
6 5</w> 45273
ing u 45270
pro gre 45204
auth or</w> 45196
associ ated</w> 45193
lad y</w> 45182
f ish</w> 45166
sp ar 45152
d ai 45142
dec lar 45138
t ric 45126
th or 45099
answ er</w> 45096
ti z 45071
in ci 45051
de termin 45049
ic h</w> 45008
leg s</w> 44993
u t 44935
mil es</w> 44916
agre ed</w> 44900
dre w</w> 44876
t ree</w> 44866
v in</w> 44840
au di 44810
ci es</w> 44785
ter ms</w> 44777
gre at 44763
evi dence</w> 44759
beauti ful</w> 44727
e an</w> 44709
cam p</w> 44627
wh at 44626
gre w</w> 44625
sp r 44609
so viet</w> 44608
reg im 44567
fil led</w> 44550
app lic 44516
st ren 44512
a h 44505
de b 44483
b c</w> 44469
ho tel</w> 44447
ba si 44444
c amer 44420
musi cal</w> 44398
o li 44391
the ast</w> 44389
e ve</w> 44377
reg ul 44372
sig n</w> 44355
tr a</w> 44348
secre tary</w> 44310
c ally</w> 44303
s ons</w> 44292
at lan 44264
- y 44251
simp ly</w> 44222
ba by</w> 44221
execu tive</w> 44220
pic s</w> 44209
t ail</w> 44208
d ates</w> 44188
m .</w> 44178
c les</w> 44149
mexic o</w> 44110
hur t</w> 44105
198 8</w> 44076
li ghts</w> 44052
av o 44019
foo t</w> 44017
th ou 43958
incor por 43953
c ked</w> 43909
and a</w> 43885
pro ce 43877
jour n 43868
it ation</w> 43853
me tal</w> 43837
ur ing</w> 43829
tur ns</w> 43824
th ous 43818
on ic</w> 43813
s ent 43754
mar ine</w> 43748
comple x</w> 43748
o p</w> 43728
finan cial</w> 43725
s mo 43710
gr ade</w> 43703
f ru 43698
incre ased</w> 43691
j uni 43689
respon se</w> 43689
loo ks</w> 43649
con ver 43641
trans l 43631
fa iled</w> 43619
cor ner</w> 43603
pow er 43566
religi ous</w> 43531
r ate</w> 43524
y outh</w> 43513
aul t</w> 43495
p in 43445
stren g 43441
re n</w> 43434
high est</w> 43411
sub ject</w> 43404
compu ter</w> 43396
ar ran 43353
ex ac 43322
t ab 43293
mic ro 43274
sp ring</w> 43272
chri st 43242
n d</w> 43237
mis s</w> 43235
in stru 43202
2 5 43169
conta ins</w> 43169
e dition</w> 43098
ati ves</w> 43061
ap par 43046
app ear</w> 43030
sel y</w> 43029
rema ins</w> 43028
bro thers</w> 43025
maj ority</w> 43020
is n</w> 43015
poli cy</w> 42998
anci ent</w> 42954
lar ger</w> 42950
ic a</w> 42948
j am 42943
u pper</w> 42933
cre ate</w> 42876
em o 42873
a st 42859
il lu 42838
ri s</w> 42832
ital y</w> 42772
emp ire</w> 42768
c ause</w> 42716
temp le</w> 42696
pl ans</w> 42685
on e- 42682
fl ori 42675
o t</w> 42666
re view</w> 42664
po st 42650
ze aland</w> 42616
virgin ia</w> 42608
se mi 42586
sti c</w> 42568
ac tions</w> 42549
cre d 42536
stra ight</w> 42534
p aci 42504
a vi 42499
es tim 42484
charac ters</w> 42484
z er 42458
pre tty</w> 42457
sylv ania</w> 42444
it a</w> 42443
materi al</w> 42422
ad o</w> 42421
sh own</w> 42413
trac ks</w> 42380
ser ves</w> 42366
bas ket 42366
scri p 42362
win ter</w> 42353
po or</w> 42351
con clu 42343
j en 42313
tr ou 42311
ju li 42309
ple ase</w> 42293
near by</w> 42259
pi c</w> 42256
e th</w> 42239
g all 42202
read ing</w> 42200
r ural</w> 42172
progr ams</w> 42168
activi ties</w> 42125
cas es</w> 42110
ha bit 42095
in ated</w> 42046
dest roy 42045
ci tiz 42032
sel ected</w> 42002
sing er</w> 41987
mar riage</w> 41970
ge ts</w> 41951
basket ball</w> 41896
y ou 41891
m m</w> 41887
inv est 41875
m ass 41866
direc tly</w> 41864
subsequ ently</w> 41852
ne u 41833
po ten 41795
eff ect</w> 41782
rec ent</w> 41725
proble ms</w> 41714
ster ed</w> 41703
angel es</w> 41672
18 3 41664
d ani 41661
the ory</w> 41637
o logical</w> 41621
5 00</w> 41596
s y</w> 41575
f it 41556
al a</w> 41534
bey ond</w> 41522
scen e</w> 41468
tion ally</w> 41448
g il 41415
wi d 41405
administr ation</w> 41387
figh ting</w> 41366
al i</w> 41359
w a</w> 41349
attemp t</w> 41341
di sh</w> 41340
8 0</w> 41337
198 7</w> 41329
cul tural</w> 41324
at trac 41294
ch u 41282
app ears</w> 41267
anti - 41258
justi ce</w> 41250
ac ting</w> 41242
bro ke</w> 41221
resul ts</w> 41167
w o 41157
er o 41136
histor ical</w> 41136
por tra 41108
russi a</w> 41105
198 6</w> 41085
en em 41067
se l</w> 41022
sc ore</w> 41021
be at</w> 41014
dis covered</w> 41012
ch ester</w> 41008
ei gh 40974
cont em 40941
un g</w> 40940
h i</w> 40924
oper ated</w> 40922
ic ally</w> 40912
gre ek</w> 40907
t au 40904
d red</w> 40896
no table</w> 40893
re fl 40878
sett le 40867
st ore</w> 40864
sit ting</w> 40830
c ell</w> 40827
clo ser</w> 40826
le ts</w> 40824
av en 40783
al li 40776
poli tici 40764
reti red</w> 40757
mit ted</w> 40748
ben e 40724
vari ety</w> 40720
adv an 40720
feat ure</w> 40702
au tom 40699
gu il 40699
w ise</w> 40689
p ay</w> 40684
jo sep 40670
d .</w> 40601
win d</w> 40591
ec ture</w> 40590
exac tly</w> 40588
de si 40584
6 . 40573
star ed</w> 40569
b ing</w> 40558
mar tin</w> 40551
sta dium</w> 40539
fel low</w> 40534
t ory</w> 40524
198 4</w> 40516
sp i 40513
ar ies</w> 40503
ani c</w> 40485
co st</w> 40481
mat ches</w> 40461
st ories</w> 40433
la w 40424
mo m</w> 40417
al ing</w> 40413
y p 40394
j i 40360
go als</w> 40360
g b 40349
po ol</w> 40340
gu ar 40331
7 . 40330
stru gg 40326
der i 40315
ac her</w> 40259
ac tor</w> 40169
ci ties</w> 40165
mean ing</w> 40153
de pen 40117
n on 40107
elec tr 40103
is lands</w> 40090
dist inc 40070
penn sylvania</w> 40055
2 nd</w> 40042
josep h</w> 39996
ti l 39980
recor ding</w> 39980
gen us</w> 39974
soldi ers</w> 39963
phi lo 39962
col or</w> 39945
4 5</w> 39925
suppor ted</w> 39920
f light</w> 39913
bra z 39913
tou ch</w> 39904
so li 39888
su it</w> 39887
sum ed</w> 39870
g .</w> 39842
198 5</w> 39826
r o</w> 39814
j or 39795
198 0</w> 39759
as p 39723
su sp 39717
bur y</w> 39703
ju d 39695
20 0</w> 39685
rema ining</w> 39682
ay ed</w> 39634
we al 39616
ear ned</w> 39615
d u</w> 39572
speci fic</w> 39533
no tic 39532
pro t 39528
foc us</w> 39526
cu stom 39495
re ali 39494
m es</w> 39492
contin ue</w> 39450
stat us</w> 39446
st ations</w> 39443
fir m</w> 39414
b ill 39382
kis s</w> 39371
s ati 39362
u te</w> 39357
l ati 39339
k el 39328
in o 39327
pass eng 39321
flori da</w> 39306
cat eg 39291
st a</w> 39244
ar m 39236
saf e</w> 39211
b la 39203
e ved</w> 39198
geor gi 39194
pe ace</w> 39173
doc tor</w> 39171
s am</w> 39169
amoun t</w> 39168
ni e</w> 39163
j .</w> 39139
separ ate</w> 39139
pro min 39130
head ed</w> 39101
sh es</w> 39096
f ear</w> 39091
charac ter 39086
om e 39080
mo del 39055
h oo 39036
pos se 39035
ga ze</w> 39027
char t</w> 39022
p ac 38982
d ding</w> 38981
t ac 38972
iri sh</w> 38963
m enti 38945
sh el 38930
olym pics</w> 38928
or dered</w> 38927
refer red</w> 38927
br on 38922
ed y</w> 38901
an der</w> 38887
sli ghtly</w> 38886
r d</w> 38879
neigh bor 38875
be ach</w> 38870
there fore</w> 38870
t ari 38856
de ta 38825
k ni 38824
wor l 38821
tre es</w> 38816
di a</w> 38815
en s 38805
tow er</w> 38803
re alized</w> 38790
am e 38772
b ab 38769
hor se</w> 38767
ex tre 38747
a x 38736
b oun 38726
go es</w> 38722
p il 38701
see ing</w> 38686
ing ing</w> 38682
ag ricul 38673
de sc 38671
b ell</w> 38647
z y</w> 38608
t ten</w> 38577
col labor 38566
tem per 38555
jo in</w> 38550
respon sible</w> 38534
ste pped</w> 38516
op port 38512
congre ss</w> 38506
over all</w> 38485
tro ops</w> 38476
present ed</w> 38475
ti an</w> 38472
r .</w> 38448
norm al</w> 38419
sp read</w> 38409
bre ak 38374
gro wing</w> 38352
what ever</w> 38347
di se 38323
u es</w> 38305
paci fic</w> 38240
democr atic</w> 38215
wat ching</w> 38206
juni or</w> 38190
ad ap 38188
is ing</w> 38144
sh oc 38122
con ven 38113
e asy</w> 38094
fa ir 38075
w ra 38055
p a</w> 38046
town ship</w> 38008
quar ters</w> 38002
individu als</w> 37990
o il</w> 37984
cho ice</w> 37977
h an</w> 37899
st ati 37899
no .</w> 37889
bran ch</w> 37882
pri me</w> 37852
show ed</w> 37850
knowle dge</w> 37847
sa int</w> 37840
chair man</w> 37834
b loc 37800
inte gr 37778
par ish</w> 37772
assi stant</w> 37769
physi cal</w> 37760
b o</w> 37759
gre ater</w> 37752
198 3</w> 37745
tre ss</w> 37743
tru th</w> 37735
d ated</w> 37732
exper im 37732
wal es</w> 37731
cre ek</w> 37720
ur ban</w> 37702
bi g 37689
bas e 37689
j i</w> 37646
expres sion</w> 37640
l ack</w> 37636
o t 37619
a po 37616
ac ted</w> 37584
shi rt</w> 37577
cl in 37575
ur a</w> 37560
com posed</w> 37555
wat er 37490
d ul 37489
7 0</w> 37483
ap pe 37483
main ly</w> 37483
situ ation</w> 37481
lou is</w> 37469
pi d</w> 37461
no te</w> 37457
bl ing</w> 37449
c key</w> 37443
incre ase</w> 37407
nati ons</w> 37396
el ev 37395
ar chi 37377
pu shed</w> 37374
bro ken</w> 37351
leg isl 37348
pre ci 37347
b en</w> 37340
construc ted</w> 37326
co ff 37322
n it 37301
w alls</w> 37291
wor kers</w> 37291
v a 37281
198 2</w> 37272
t oni 37268
sle ep</w> 37259
spea k</w> 37250
i al</w> 37229
ci an</w> 37227
ar a</w> 37209
de mon 37195
fif th</w> 37194
num bers</w> 37190
step s</w> 37188
car s</w> 37175
k ir 37174
to - 37171
el ess</w> 37159
spo ke</w> 37148
5 . 37147
con fu 37091
ru le</w> 37052
al ism</w> 37049
ver si 37044
n ice</w> 37027
co de</w> 37020
engine ering</w> 36993
p y 36987
direc t</w> 36968
philo sop 36960
hun dred</w> 36951
9 0</w> 36929
n an 36916
bo at</w> 36915
thro at</w> 36847
laugh ed</w> 36839
an tly</w> 36830
th u 36815
f c</w> 36809
off er</w> 36807
8 . 36776
ac ci 36771
w ings</w> 36744
re qui 36708
diffic ult</w> 36699
qu ality</w> 36677
base ball</w> 36676
plan ned</w> 36651
thre e- 36629
secre t</w> 36620
mec han 36620
i e</w> 36610
el le</w> 36603
rec ently</w> 36578
win dows</w> 36566
c ket</w> 36565
197 9</w> 36560
bel ong 36557
f ying</w> 36516
broad cast</w> 36511
c em 36482
se asons</w> 36451
contro l 36443
am ing</w> 36428
197 2</w> 36424
h it 36417
ed ward</w> 36411
sec u 36401
p aid</w> 36376
ac ts</w> 36368
auth ori 36362
be d 36353
produc er</w> 36353
ec ting</w> 36347
stre am</w> 36338
gh t 36335
ple as 36335
ac comp 36313
z o 36287
provi des</w> 36281
agre ement</w> 36281
ci a</w> 36278
leav es</w> 36277
re moved</w> 36263
mal es</w> 36208
z u 36182
ma r</w> 36172
exten ded</w> 36168
tu al</w> 36164
char ge</w> 36152
pr inc 36143
defen se</w> 36111
bor der</w> 36104
o s 36062
c ric 36057
posi tions</w> 36018
compe ted</w> 36012
pres ence</w> 36009
sett led</w> 35997
p ay 35985
sing les</w> 35979
p ak 35960
tra ff 35950
menti oned</w> 35945
produc ts</w> 35943
rol led</w> 35943
si ght</w> 35933
je wish</w> 35932
t led</w> 35931
sh are</w> 35913
194 5</w> 35903
i zed</w> 35898
de dic 35897
scre en</w> 35879
issu ed</w> 35852
er ship</w> 35817
ma d</w> 35817
y n 35816
ash ed</w> 35811
vo te</w> 35808
in struc 35796
tech ni 35795
medi c 35788
comman der</w> 35783
consi sts</w> 35779
tt ers</w> 35739
sol ution</w> 35739
ge o 35730
buil d</w> 35722
territ ory</w> 35713
em per 35660
dai ly</w> 35660
w an</w> 35652
ben ef 35646
198 1</w> 35641
fem ales</w> 35618
he at</w> 35603
sm aller</w> 35575
cre w</w> 35567
simp le</w> 35552
k at 35549
wal king</w> 35539
min or</w> 35522
offic ers</w> 35521
gre en 35511
2 - 35505
b lan 35493
dra w</w> 35491
ap e</w> 35470
for tun 35455
artic le</w> 35449
influ ence</w> 35447
pol y 35422
le tter</w> 35415
usu al</w> 35415
all en</w> 35389
be ha 35382
organ is 35381
divi ded</w> 35351
1 - 35343
multi ple</w> 35339
d ney</w> 35327
dr ama</w> 35308
ad ing</w> 35306
inten ded</w> 35302
er ly</w> 35298
g ab 35285
mem ory</w> 35277
a head</w> 35270
ti oned</w> 35261
perf ect</w> 35247
197 4</w> 35230
ri se</w> 35221
de ep 35193
as tic</w> 35188
ra id</w> 35181
tri bu 35180
duc tion</w> 35176
sp ain</w> 35164
ag ing</w> 35161
lat ter</w> 35158
s as</w> 35142
shu t</w> 35116
mis si 35110
197 6</w> 35108
pic ked</w> 35088
ann e</w> 35071
col on 35064
champi on</w> 35051
seri ous</w> 35037
auth ority</w> 35036
acqu ired</w> 34991
197 5</w> 34982
secon ds</w> 34976
app ed</w> 34974
k in</w> 34951
is tic</w> 34950
val ue</w> 34896
brit ain</w> 34874
la p 34862
cam pus</w> 34846
high - 34831
v ac 34809
f is 34809
197 8</w> 34793
t ol 34780
3 5</w> 34779
ty pes</w> 34750
man n</w> 34733
v es 34713
gol den</w> 34711
well - 34703
re publi 34696
197 0</w> 34685
st airs</w> 34675
pol and</w> 34643
franc is 34631
al led</w> 34602
ju dge</w> 34574
r at 34572
fol low</w> 34549
pre - 34525
rep lied</w> 34510
b lock</w> 34509
con ditions</w> 34501
est ate</w> 34488
g as 34483
qu es</w> 34482
jour nal</w> 34477
gen e 34452
mar ked</w> 34450
may or</w> 34429
be side</w> 34417
for ts</w> 34391
le vels</w> 34383
recogni zed</w> 34370
x es</w> 34345
whisp ered</w> 34345
4 - 34308
c tion</w> 34303
newspap er</w> 34296
n is</w> 34293
3 0 34289
pri ze</w> 34289
wor k 34283
9 . 34278
shor tly</w> 34273
196 8</w> 34268
glan ced</w> 34267
regim ent</w> 34263
cover s</w> 34248
pro posed</w> 34200
broad ca 34187
mi ke</w> 34181
w is 34178
d am</w> 34176
ge l</w> 34173
nee ds</w> 34154
sh all</w> 34149
c av 34148
l ers</w> 34144
kit chen</w> 34122
ha ven</w> 34080
sho p</w> 34068
gradu ated</w> 34064
ra in</w> 34063
ga ined</w> 34060
m as</w> 34043
ru les</w> 34018
im age</w> 34016
pat ter 34016
administr ative</w> 34001
elec tions</w> 33997
l ined</w> 33993
ti s</w> 33975
ob vi 33973
tw ice</w> 33965
ty - 33953
y n</w> 33952
l i</w> 33905
no w 33904
ear - 33904
ve y</w> 33903
high ly</w> 33897
lic en 33891
organi zed</w> 33877
organi z 33872
pri son</w> 33854
squ ad 33851
de man 33838
p ment</w> 33828
se vent 33819
re ment</w> 33816
3 rd</w> 33807
than k</w> 33799
k al 33785
ri c</w> 33783
con fir 33781
re sc 33770
gradu ate</w> 33750
197 3</w> 33744
18 0 33738
int elli 33729
lo ved</w> 33707
pres sure</w> 33700
el ements</w> 33698
ho st</w> 33691
con centr 33690
ir on</w> 33686
mon d</w> 33673
ri d 33657
cor ps</w> 33648
e ds</w> 33628
pro duce</w> 33619
promo ted</w> 33566
se ems</w> 33562
fin als</w> 33555
ari a</w> 33537
sig n 33526
d av 33520
198 0s</w> 33518
cir cu 33487
vol un 33482
rac es</w> 33482
n ur 33479
po p</w> 33462
dou ble</w> 33456
fin ish</w> 33453
dig ital</w> 33438
am m 33435
cla im</w> 33422
co m</w> 33380
la bel</w> 33370
pro ces 33358
197 7</w> 33353
on e 33342
h o</w> 33339
sa ve</w> 33327
fri end 33306
func tion</w> 33296
ab and 33289
l an</w> 33253
re y</w> 33234
sm is 33228
offici ally</w> 33220
far m</w> 33216
ex clu 33194
grow th</w> 33188
d al 33178
l ec 33145
spo t</w> 33138
di e 33128
per cent</w> 33089
reve aled</w> 33088
h en</w> 33082
emper or</w> 33078
power ful</w> 33069
mari ly</w> 33053
lo sing</w> 33049
g ely</w> 33034
un ity</w> 33025
a sian</w> 33008
ho ckey</w> 32993
carol ina</w> 32982
posi tive</w> 32976
jo e</w> 32975
ig nor 32975
resid ents</w> 32953
war m</w> 32946
house holds</w> 32919
i ii</w> 32911
i b 32888
t elling</w> 32874
we st 32869
desig n 32851
ou d</w> 32842
do g</w> 32840
gu ess</w> 32838
pur pose</w> 32819
au stri 32809
m ass</w> 32804
r ying</w> 32802
beha vi 32802
196 9</w> 32801
ti ves</w> 32770
toni ght</w> 32765
necess ary</w> 32751
n as 32746
c king</w> 32742
air ed</w> 32737
ne s 32732
p air</w> 32722
aw are</w> 32714
ent ran 32691
vi sit</w> 32672
ten ed</w> 32669
al ty</w> 32644
er al</w> 32639
albu ms</w> 32623
pri marily</w> 32615
ef fort</w> 32597
rac ing</w> 32589
op po 32582
w er</w> 32578
gb p</w> 32577
tech n 32558
gi ves</w> 32539
tra vel</w> 32537
tex t</w> 32529
197 1</w> 32521
v or 32498
destroy ed</w> 32498
hou sing</w> 32496
bo y 32470
fac ed</w> 32449
c z 32443
bu ried</w> 32442
ev ol 32440
politici an</w> 32434
gi an</w> 32427
le aned</w> 32424
s in</w> 32399
medi an</w> 32387
s ab 32381
mu sc 32380
disc us 32374
bo ston</w> 32369
demon str 32350
n one</w> 32342
du tch</w> 32341
te acher</w> 32328
on line</w> 32326
activ ity</w> 32324
psy cho 32318
am bi 32315
saf ety</w> 32314
or che 32283
e . 32281
enter tain 32278
k ings</w> 32244
197 0s</w> 32243
orche str 32237
per man 32230
gra bbed</w> 32222
ul ty</w> 32205
j ones</w> 32202
h at 32197
19 th</w> 32196
p el 32189
gr y</w> 32181
mi xed</w> 32176
dar k 32160
ow ner</w> 32146
el d</w> 32143
stor m</w> 32143
le ss 32127
th es</w> 32121
ev ening</w> 32117
er e 32096
accep ted</w> 32091
si gh 32073
de pu 32066
sup posed</w> 32054
w rest 32053
ent h</w> 32050
fran k</w> 32007
tw el 31994
ner ship</w> 31943
en - 31926
lati n</w> 31926
elec tric</w> 31920
e ding</w> 31914
con flic 31904
st ran 31902
fiel ds</w> 31873
s low</w> 31853
ol a</w> 31839
pro jects</w> 31835
al ong 31832
f air</w> 31827
appear ances</w> 31823
b lo 31813
pres sion</w> 31803
por tu 31801
d ry</w> 31800
corpor ation</w> 31798
eli za 31796
p age</w> 31780
g ary</w> 31777
196 7</w> 31776
h ang 31770
appro ach</w> 31760
as signed</w> 31727
protec tion</w> 31723
go tten</w> 31719
inf an 31699
conn ected</w> 31674
li fe 31659
g ul 31657
dam n</w> 31653
lu c 31650
. c.</w> 31646
ran k</w> 31645
cont act</w> 31637
sit es</w> 31631
trans ferred</w> 31628
scot land</w> 31609
shi t</w> 31608
re sted</w> 31591
pi er 31588
see m</w> 31588
bot tom</w> 31580
di an</w> 31570
youn ger</w> 31563
cap ac 31558
secon dary</w> 31553
b in 31539
un able</w> 31538
s l 31527
pri son 31521
i x</w> 31513
pic ture</w> 31502
2 , 31497
3 - 31485
ve - 31485
sex ual</w> 31479
mach ine</w> 31478
ar med</w> 31476
l ying</w> 31464
no t 31455
rema in</w> 31453
con vers 31445
du ke</w> 31424
mic hi 31423
t ren 31420
v i</w> 31417
initi al</w> 31407
mp ed</w> 31393
c ement</w> 31378
cor e</w> 31378
4 th</w> 31370
glo bal</w> 31370
h as 31355
thre at 31343
mu t 31342
bor ough</w> 31342
tau ght</w> 31326
sugge sted</w> 31324
ar i</w> 31317
ri sk</w> 31308
acade mic</w> 31301
z en</w> 31298
phili pp 31295
occu pi 31283
eff ects</w> 31262
re d 31257
t ears</w> 31236
ques tions</w> 31217
o hi 31209
e ag 31209
escap e</w> 31206
c ard</w> 31187
f ought</w> 31186
gar den</w> 31186
ministr y</w> 31181
shoul ders</w> 31180
t ells</w> 31164
along side</w> 31157
t i</w> 31154
ed itor</w> 31145
eu r</w> 31141
6 4</w> 31138
g ence</w> 31137
?? ?</w> 31121
ami c</w> 31117
sco tt</w> 31115
or ation</w> 31100
do ors</w> 31091
bo dies</w> 31070
easi ly</w> 31070
promin ent</w> 31066
ba sis</w> 31060
streng th</w> 31035
a sia</w> 31027
settle ment</w> 31017
a b</w> 31012
typic ally</w> 31010
as ks</w> 31001
sc ul 30994
ma xim 30974
beg in</w> 30965
5 0 30963
gra y</w> 30953
7 5</w> 30936
moun t</w> 30934
poten tial</w> 30923
j on 30919
form erly</w> 30910
treat ment</w> 30910
graphi c</w> 30898
re sta 30888
ri f 30849
te eth</w> 30849
moun tains</w> 30845
b ag 30834
resta ur 30819
pak i 30808
aven ue</w> 30806
en cour 30803
long - 30799
prot ect</w> 30794
dra wn</w> 30773
cor rec 30769
re member 30768
contem porary</w> 30746
rug by</w> 30744
est s</w> 30732
or ders</w> 30729
her it 30705
f l</w> 30699
am i</w> 30693
industri al</w> 30684
ex t 30679
sup er</w> 30672
mil e</w> 30670
bri g 30659
n es</w> 30657
ex change</w> 30656
ap art 30646
pre v 30643
kan sas</w> 30638
ma x</w> 30636
fl ying</w> 30631
ing ham</w> 30630
win ner</w> 30618
alex ander</w> 30618
equi pment</w> 30582
cer em 30565
hea vi 30556
z one</w> 30549
dam age</w> 30540
republi can</w> 30538
de tec 30536
victori a</w> 30532
196 4</w> 30530
mag ic</w> 30525
im ple 30520
al u 30511
ne g 30502
sc ale</w> 30486
bro o 30485
p ath</w> 30465
francis co</w> 30452
j ected</w> 30450
y an 30442
3 2</w> 30439
follow s</w> 30428
bir th</w> 30427
ver ed</w> 30421
ne i 30417
re serve</w> 30405
tran sport</w> 30403
b ak 30393
foot b 30390
ef forts</w> 30390
clu bs</w> 30379
em i 30357
le g</w> 30338
it es</w> 30326
s ad 30315
web site</w> 30309
than ks</w> 30303
keep ing</w> 30299
yel low</w> 30294
ohi o</w> 30288
bur n</w> 30287
oun d 30284
liter ature</w> 30277
ac cu 30269
li eu 30259
li fted</w> 30257
piec es</w> 30256
advan ced</w> 30254
candi date</w> 30249
s i</w> 30248
your e</w> 30227
hon or</w> 30219
har d 30212
hu ge</w> 30203
tri al</w> 30181
compar ed</w> 30177
tit led</w> 30169
occu p 30138
la id</w> 30130
consi der 30129
lead ers</w> 30128
vi c</w> 30123
ro me</w> 30119
is on</w> 30118
re al 30116
ent er</w> 30112
spea king</w> 30104
su pre 30093
str ong 30088
ti ce</w> 30086
com for 30075
eliza beth</w> 30075
jer sey</w> 30074
f it</w> 30069
196 0s</w> 30058
d ay 30050
stoc k</w> 30046
4 4</w> 30045
comm only</w> 30041
gr ant</w> 30030
j az 30029
michi gan</w> 30027
fle et</w> 30023
sof tw 30014
sen ate</w> 30011
incorpor ated</w> 30006
ste el</w> 30000
man i 29997
defe at</w> 29991
b ought</w> 29976
bur gh</w> 29972
cap tured</w> 29960
wil d</w> 29936
u t</w> 29919
196 5</w> 29903
t am 29901
oper a</w> 29901
y ards</w> 29894
th a</w> 29893
traff ic</w> 29892
f loo 29882
design ated</w> 29871
foc used</w> 29865
accoun t</w> 29865
regi ster</w> 29859
coun t</w> 29858
no tes</w> 29837
succ ee 29831
ro oms</w> 29824
refu sed</w> 29817
wan ts</w> 29807
comb ined</w> 29783
s wi 29781
lieu ten 29781
ear l</w> 29778
dre ssed</w> 29775
we aring</w> 29772
occur red</w> 29772
s au 29763
ag ency</w> 29745
199 0s</w> 29744
adv ant 29743
f alls</w> 29742
j an</w> 29739
dedic ated</w> 29737
in i</w> 29730
produc t</w> 29718
p - 29708
t one</w> 29706
particip ated</w> 29703
m i</w> 29697
196 6</w> 29691
r ad 29670
declar ed</w> 29662
f ly</w> 29653
happ en</w> 29637
pat ri 29632
ren amed</w> 29630
ste in</w> 29621
plan ning</w> 29603
g la 29597
pul l</w> 29597
ro ll</w> 29556
ex pl 29543
off ers</w> 29532
dani el</w> 29530
sp lit</w> 29509
ta x</w> 29504
fil e</w> 29482
willi ams</w> 29482
softw are</w> 29481
mon t 29475
r as 29474
wa ve</w> 29444
nav al</w> 29443
b i</w> 29424
20 th</w> 29418
capac ity</w> 29417
b ang 29411
isra el</w> 29398
ra il</w> 29389
ex pen 29385
ap poin 29363
ren ce</w> 29363
s ounds</w> 29356
go d 29343
ali ve</w> 29342
n ick</w> 29336
re turning</w> 29332
ill s</w> 29318
entertain ment</w> 29311
ti tu 29299
v .</w> 29298
john son</w> 29287
kno wing</w> 29275
ag ent</w> 29272
purch ased</w> 29209
aff airs</w> 29194
196 0</w> 29182
mur der</w> 29176
ad ver 29168
guit ar</w> 29166
17 9 29162
us a</w> 29159
bene ath</w> 29150
surr ounding</w> 29147
dre am</w> 29141
mu sli 29130
194 4</w> 29108
foun der</w> 29106
exhi bi 29096
li p</w> 29092
fac ilities</w> 29087
ta r</w> 29085
off en 29061
st ence</w> 29053
tran spor 29049
re plac 29022
fi re 29002
chall eng 28996
u kra 28980
coff ee</w> 28979
it ors</w> 28976
notic ed</w> 28968
oper ating</w> 28963
di tionally</w> 28958
mem orial</w> 28958
pri ce</w> 28941
scienti fic</w> 28929
plat form</w> 28915
o ther 28910
sa in 28893
ar ab 28892
se tting</w> 28887
fir st- 28873
por tion</w> 28849
i . 28840
ad or</w> 28817
tou ri 28814
plan ts</w> 28793
sy dney</w> 28789
hal f- 28776
vol u 28763
scot tish</w> 28744
langu ages</w> 28736
in si 28719
cer tain 28689
c us</w> 28674
vo ted</w> 28670
continu es</w> 28651
lead ership</w> 28633
conduc ted</w> 28633
colum bia</w> 28631
ga ther 28616
t all</w> 28613
emp ty</w> 28610
sil ence</w> 28602
qui et</w> 28598
clo thes</w> 28597
squad ron</w> 28597
bb c</w> 28586
bri ef 28540
c alling</w> 28517
v amp 28513
them ati 28500
wid ely</w> 28488
poli sh</w> 28482
f ers</w> 28479
li ar</w> 28475
entran ce</w> 28471
w ai 28464
suff ered</w> 28464
a . 28457
pow ers</w> 28456
gener ation</w> 28453
se ts</w> 28448
anim als</w> 28444
cri tical</w> 28442
batt ali 28433
fing er</w> 28421
adop ted</w> 28419
environ ment</w> 28404
un t</w> 28403
la ws</w> 28397
head s</w> 28357
feat uring</w> 28356
ap art</w> 28353
coll ec 28353
cho sen</w> 28352
tion ary</w> 28348
pal ace</w> 28344
lan e</w> 28325
is es</w> 28311
lear ning</w> 28308
ri sing</w> 28301
re aching</w> 28293
woo d 28292
5 - 28288
ri an</w> 28278
bra in</w> 28277
determin ed</w> 28276
ho ly</w> 28272
cont ent</w> 28260
georgi a</w> 28258
head quarters</w> 28257
oni st</w> 28250
possi bly</w> 28234
de - 28225
hy dro 28220
ani an</w> 28216
swe et</w> 28215
ti e</w> 28187
elec tric 28186
civi li 28185
par ties</w> 28180
d den</w> 28175
fi gu 28166
con cept</w> 28158
pain ting</w> 28155
sol o</w> 28154
w av 28141
human s</w> 28115
pol it 28106
z i</w> 28077
analy sis</w> 28077
enem y</w> 28067
tur ing</w> 28064
a e</w> 28057
el im 28056
in sp 28053
ri a</w> 28052
sou l</w> 28049
ir an</w> 28042
dist ingu 28041
jo int</w> 28029
ba g</w> 28029
cri min 27996
t ts</w> 27989
metho d</w> 27988
ch er 27973
free dom</w> 27966
pas sing</w> 27965
o v 27964
anim al</w> 27962
princi pal</w> 27960
ma themati 27944
app lied</w> 27941
stom ach</w> 27934
ch i</w> 27930
footb aller</w> 27928
di c</w> 27917
ali sts</w> 27915
fas hi 27891
ter ri 27882
sol u 27881
v inc 27877
lar gely</w> 27866
th ats</w> 27862
shar ed</w> 27852
b ound</w> 27847
par ti 27839
n y 27823
sat ur 27812
col oni 27802
di t</w> 27799
dri ver</w> 27788
oc ean</w> 27782
chri s</w> 27776
bri ght</w> 27767
le gen 27760
the ater</w> 27745
kno ws</w> 27744
con sul 27743
ff s</w> 27741
me tro 27720
ha u 27712
ki ds</w> 27711
gu ys</w> 27699
ri s 27679
tin y</w> 27662
ici ent</w> 27655
infan try</w> 27639
g y 27621
any way</w> 27621
m ers</w> 27619
pic k</w> 27575
estim ated</w> 27572
f ts</w> 27570
c ow 27568
techn ical</w> 27557
ful l- 27549
cer ti 27540
vic ti 27538
le tters</w> 27535
r out 27532
d ale</w> 27531
ale x</w> 27526
coun ter 27514
z er</w> 27508
ar th 27508
cl asses</w> 27502
el led</w> 27498
st ayed</w> 27491
ti ght</w> 27483
han ded</w> 27472
fol k</w> 27463
ar c 27461
thou ghts</w> 27451
our ed</w> 27438
crow d</w> 27438
b ou 27430
le s 27423
wa ke</w> 27419
feder ation</w> 27408
sati s 27381
in sul 27379
im peri 27377
f a</w> 27370
investi g 27367
tt a</w> 27362
twent y</w> 27347
mo di 27344
jack son</w> 27320
f red</w> 27319
aff ili 27314
th ick</w> 27310
qu ick</w> 27306
mar ia</w> 27306
po e 27302
att le</w> 27272
pic al</w> 27271
inter pre 27265
com edy</w> 27264
k ins</w> 27258
lo se</w> 27252
h es 27239
3 3</w> 27237
ph y</w> 27231
cem e 27228
communi ties</w> 27223
n ings</w> 27222
196 3</w> 27218
con trac 27213
becom es</w> 27204
cri me</w> 27195
en ge</w> 27190
weap ons</w> 27189
episo des</w> 27161
form at</w> 27152
lear ned</w> 27150
beg ins</w> 27141
it able</w> 27132
occupi ed</w> 27132
se ats</w> 27120
kill ing</w> 27113
imp act</w> 27098
ac e 27093
gen e</w> 27058
cover ing</w> 27056
or a</w> 27053
196 2</w> 27049
sal es</w> 27027
n or</w> 27018
situ ated</w> 26998
rel ations</w> 26984
fav or 26980
den sity</w> 26978
p ag 26976
re ven 26975
ga in</w> 26960
bl in 26955
bour ne</w> 26950
t .</w> 26949
mo tion</w> 26925
g - 26908
re min 26907
scul p 26906
im migr 26899
la y 26892
g ur 26880
allow ing</w> 26859
tw i 26846
gun s</w> 26830
reli ef</w> 26825
e z</w> 26823
b by</w> 26812
wa ited</w> 26791
t ted</w> 26789
rail road</w> 26785
supre me</w> 26773
an i</w> 26771
basi c</w> 26753
un like</w> 26752
re mo 26750
ran ked</w> 26750
194 8</w> 26745
dro p</w> 26737
fac es</w> 26736
part ner</w> 26732
defin ed</w> 26725
ro ads</w> 26721
li shed</w> 26710
b .</w> 26709
four - 26705
bir d</w> 26703
m es 26698
wr ite</w> 26688
re views</w> 26686
distribu tion</w> 26685
s end</w> 26683
ini an</w> 26682
ep ing</w> 26670
n el 26663
ac tress</w> 26663
weal th</w> 26661
uni que</w> 26649
prac tic 26647
bo w</w> 26645
si vely</w> 26638
194 2</w> 26636
on ia</w> 26630
is s</w> 26629
si oned</w> 26628
chall enge</w> 26620
repor ts</w> 26606
dr ink</w> 26602
ro les</w> 26598
ti a</w> 26579
te aching</w> 26578
sil ent</w> 26570
ma u 26559
en e</w> 26554
v on</w> 26543
vie wed</w> 26532
ul l</w> 26530
bu re 26525
promis e</w> 26519
car ry</w> 26514
re sources</w> 26501
plan e</w> 26479
pur su 26474
indepen dence</w> 26468
cri tics</w> 26465
fac ility</w> 26451
attac ked</w> 26450
volu me</w> 26447
t an</w> 26440
b on</w> 26438
confir med</w> 26432
no se</w> 26426
li ked</w> 26394
min im 26371
tit les</w> 26364
si onal</w> 26360
bir ds</w> 26350
gran ted</w> 26343
or an 26329
ch oo 26313
6 - 26307
af raid</w> 26307
respec tively</w> 26298
ang er</w> 26296
concer t</w> 26286
re vi 26278
194 0</w> 26276
5 th</w> 26275
f ab 26264
speci fic 26255
ch or 26254
vamp ire</w> 26246
f ** 26237
r ati 26221
tri p</w> 26203
t um 26201
c d</w> 26190
house hold</w> 26183
ari ly</w> 26182
st range</w> 26177
t ment</w> 26172
depu ty</w> 26168
surpri se</w> 26157
model s</w> 26156
mo on</w> 26153
sc oring</w> 26151
si mul 26149
ho sted</w> 26144
k ic 26126
d al</w> 26125
ill ino 26117
y ard</w> 26107
claim s</w> 26102
k ri 26100
196 1</w> 26094
expla ined</w> 26093
cle arly</w> 26090
wol f</w> 26081
volun te 26079
recei ve</w> 26061
ad am</w> 26049
h es</w> 26045
twent y- 26029
nei ther</w> 26027
your self</w> 26016
194 1</w> 26009
sha pe</w> 26006
ay a</w> 26004
de par 25987
mon t</w> 25975
cre ation</w> 25969
identi fied</w> 25964
ro of</w> 25951
jun ction</w> 25949
cent u 25942
con sci 25926
ul ed</w> 25906
n - 25904
illino is</w> 25900
ri ce</w> 25867
expan ded</w> 25865
re comm 25861
194 6</w> 25861
p .</w> 25842
am az 25842
br and</w> 25842
h ong</w> 25839
adv is 25836
trou ble</w> 25836
provi ding</w> 25831
ti mat 25817
de pic 25813
dra ft</w> 25811
dru g</w> 25807
ri er</w> 25802
3 6</w> 25800
organiz ations</w> 25795
195 6</w> 25788
new ly</w> 25787
olym pic</w> 25785
ster y</w> 25782
j im</w> 25779
resul ted</w> 25756
ber lin</w> 25753
figu res</w> 25746
gen cy</w> 25735
insp ired</w> 25733
bo b</w> 25732
si mon</w> 25712
be at 25706
lieuten ant</w> 25705
allow s</w> 25701
mis sing</w> 25700
answ ered</w> 25700
t ai 25694
li a</w> 25689
th um 25688
es ses</w> 25681
dise ase</w> 25674
tro pical</w> 25669
premi er</w> 25666
re asons</w> 25665
surpri sed</w> 25661
archit ecture</w> 25660
semi - 25646
attac ks</w> 25634
bil e</w> 25628
lo ts</w> 25627
su spec 25596
o re 25595
i - 25584
m o</w> 25583
gi e</w> 25579
k ol 25570
champi ons</w> 25565
avo id</w> 25560
y e</w> 25552
con fi 25547
c alls</w> 25541
un known</w> 25537
b led</w> 25533
distric ts</w> 25533
dri ving</w> 25532
v it 25526
vehi cle</w> 25526
re duced</w> 25519
bar ely</w> 25518
w ear</w> 25514
san ta</w> 25508
audi ence</w> 25505
b ass 25501
connec tion</w> 25500
ste ve</w> 25495
coun ter</w> 25491
andre w</w> 25483
no on</w> 25481
poli tics</w> 25478
ex cep 25477
com pos 25471
er ic</w> 25468
medic ine</w> 25457
br ad 25447
dom es 25431
cric ket</w> 25431
atlan tic</w> 25430
inter view</w> 25426
de an</w> 25423
ton gue</w> 25423
w ine</w> 25422
po st- 25418
enti rely</w> 25412
ar gent 25409
opport unity</w> 25402
logi st</w> 25378
ir a 25368
plu s</w> 25364
revol ution</w> 25361
vie t 25360
ear- old</w> 25354
ak es</w> 25337
convers ation</w> 25334
nor th- 25323
scri pt</w> 25322
gu est</w> 25315
cle an</w> 25313
nom inated</w> 25311
liber al</w> 25294
supp ly</w> 25290
fic tion</w> 25289
et te</w> 25287
bow l</w> 25253
sm oo 25250
s . 25249
jaz z</w> 25222
193 9</w> 25215
ric s</w> 25209
in sur 25206
op e</w> 25203
te ach 25198
194 3</w> 25184
ing er</w> 25182
w .</w> 25175
star ing</w> 25168
ceme tery</w> 25160
comb at</w> 25155
k ong</w> 25143
devel op</w> 25141
ri de</w> 25129
x - 25125
n am</w> 25120
fl at</w> 25115
six th</w> 25110
n ick 25107
exi sting</w> 25076
a qu 25064
sch ed 25060
e at</w> 25058
195 8</w> 25056
dr in 25048
he y</w> 25039
tra dition</w> 25023
195 0</w> 25003
fin ding</w> 24993
cr y 24979
vo tes</w> 24975
3 4</w> 24959
ob serv 24950
herit age</w> 24950
per forming</w> 24941
c ells</w> 24934
ch ron 24928
ex pe 24922
f li 24920
cir cle</w> 24914
g on 24898
christ mas</w> 24896
appar ently</w> 24876
tra ins</w> 24870
exi stence</w> 24861
mass ach 24859
f an</w> 24858
fran k 24848
st al 24847
success fully</w> 24843
quar ter 24822
di pl 24818
gr ace</w> 24808
sc ar 24806
inter net</w> 24804
f ting</w> 24776
ec e</w> 24746
h .</w> 24745
195 9</w> 24738
tra il</w> 24733
rec ep 24723
massach use 24721
hol e</w> 24706
op position</w> 24705
3 8</w> 24702
ali ties</w> 24701
j o</w> 24698
h y</w> 24697
m ou 24687
pu r</w> 24684
rug ged</w> 24684
remember ed</w> 24684
194 7</w> 24679
k ur 24676
cro ssed</w> 24676
6 th</w> 24674
har b 24671
represent atives</w> 24668
ar ity</w> 24664
f ans</w> 24663
loc ked</w> 24663
h l</w> 24661
mil l</w> 24661
ent ry</w> 24656
thre w</w> 24653
arth ur</w> 24645
massachuse tts</w> 24636
y an</w> 24632
h em 24627
j ar 24622
resul ting</w> 24597
col or 24591
4 0 24588
cro ss 24582
fac tory</w> 24581
educ ational</w> 24573
the me</w> 24572
f m</w> 24562
sh ou 24548
wor e</w> 24546
sp iri 24541
twel ve</w> 24527
a o</w> 24523
rest ric 24512
illu str 24489
heavi ly</w> 24465
de sk</w> 24458
195 7</w> 24458
th in</w> 24452
apart ment</w> 24449
adv ent 24447
t ony</w> 24446
mr s.</w> 24444
lear n</w> 24443
offici als</w> 24437
at o 24432
ci ans</w> 24416
cro wn</w> 24406
stan ds</w> 24399
sci ences</w> 24395
interest ed</w> 24390
cre ating</w> 24387
gh o 24382
adver ti 24376
dipl om 24368
le w 24363
con te 24361
timat ely</w> 24359
stre ets</w> 24353
mess age</w> 24349
war ri 24333
ri son</w> 24326
re ality</w> 24319
respon si 24318
sh ore</w> 24313
authori ties</w> 24309
v ice</w> 24302
din ner</w> 24302
el a</w> 24299
y e 24278
- up</w> 24277
employ ed</w> 24277
intelli gence</w> 24273
bi an</w> 24270
stre t 24266
un cle</w> 24264
citiz ens</w> 24259
sel ling</w> 24255
p ack 24251
phi a</w> 24251
fa il 24249
represent ative</w> 24237
succee ded</w> 24234
worl d 24225
ey e 24224
ta ining</w> 24212
har v 24205
fu n</w> 24194
le gi 24175
vis ited</w> 24174
la wy 24172
comp on 24172
wer en</w> 24155
re as 24154
can cer</w> 24145
f low</w> 24144
g an 24135
cat ch</w> 24127
ol dest</w> 24125
me tr 24122
de ter 24119
dr am 24119
inj ury</w> 24098
de ser 24084
relati vely</w> 24078
star ts</w> 24068
pres ents</w> 24066
cy cle</w> 24058
oppo site</w> 24056
ad mir 24051
fo x</w> 24049
frequ ently</w> 24049
lab our</w> 24047
be sides</w> 24042
ag gre 24041
j ec 24030
7 th</w> 24022
regi ons</w> 24019
hil ls</w> 24017
lab or</w> 24012
cor respon 24006
performan ces</w> 24002
paki stan</w> 24002
sp ac 23992
min ne 23989
sch em 23986
ban ds</w> 23984
munici pal</w> 23961
quar ter</w> 23958
un k</w> 23940
er c 23937
x ing</w> 23927
lad el 23926
phi ladel 23916
s burg</w> 23901
n i</w> 23898
ni ght 23897
v ements</w> 23888
ti li 23884
achi ev 23880
ti er</w> 23878
st am 23874
classi c</w> 23873
chec k</w> 23867
constitu tion</w> 23865
ta yl 23862
writ ers</w> 23831
achi eved</w> 23831
n ate</w> 23827
attemp ted</w> 23826
ssi ons</w> 23822
el i</w> 23819
tar get</w> 23819
b ai 23818
alter native</w> 23811
h ers</w> 23801
wor ry</w> 23801
w ic 23788
tra ined</w> 23783
sun day</w> 23780
x i</w> 23779
gr ounds</w> 23779
d d 23769
ni c</w> 23769
ver sions</w> 23767
j im 23761
phi l 23758
tor onto</w> 23757
perman ent</w> 23757
b - 23742
s or</w> 23727
w w 23711
materi als</w> 23699
on tari 23661
ir a</w> 23660
195 5</w> 23657
brea king</w> 23656
d v 23654
w ay 23652
u ss</w> 23643
north west</w> 23623
mo tor 23622
jo ining</w> 23618
der son</w> 23612
g au 23602
ba th 23599
go ti 23571
gall ery</w> 23566
sk i 23565
refer ence</w> 23554
spiri t</w> 23550
r hy 23546
fr ame</w> 23535
tur k 23532
bri d 23522
b ited</w> 23520
w ri 23514
can not</w> 23513
a bu 23511
stati sti 23508
mar ks</w> 23501
imperi al</w> 23500
4 2</w> 23494
f alling</w> 23492
inv ited</w> 23480
wea ther</w> 23480
tim ate</w> 23479
ontari o</w> 23469
ne ther 23465
b ent</w> 23461
l as 23453
re bel 23444
and - 23442
195 2</w> 23438
philadel phia</w> 23436
ob tained</w> 23431
sym bo 23420
be t</w> 23415
conserv ative</w> 23413
sw im 23410
re action</w> 23405
cin em 23405
be ar</w> 23404
m assi 23388
prepar ed</w> 23367
imple ment 23366
g ru 23357
sigh ed</w> 23349
and y</w> 23341
d son</w> 23336
lau gh</w> 23336
con sequ 23333
c ool</w> 23329
bron ze</w> 23329
pl ate</w> 23328
bro w 23323
4 8</w> 23313
cham ber</w> 23310
pi lot</w> 23307
je sus</w> 23301
sh ment</w> 23300
tayl or</w> 23292
squ ad</w> 23289
categ ory</w> 23286
mis sed</w> 23279
qui e 23279
bb ing</w> 23270
p ack</w> 23269
braz il</w> 23268
3 7</w> 23252
doub t</w> 23249
prev ent</w> 23239
di oc 23236
ar rested</w> 23235
back ground</w> 23234
an ing</w> 23233
op posed</w> 23233
trans fer</w> 23231
pea k</w> 23230
artic les</w> 23227
thous and</w> 23221
brig ade</w> 23221
form al</w> 23219
swe dish</w> 23213
c - 23208
ing - 23177
w ag 23176
194 9</w> 23175
f are</w> 23165
mo bile</w> 23164
vi sible</w> 23163
orchestr a</w> 23158
pul ling</w> 23156
mar y 23155
man s</w> 23152
s na 23151
wh ere 23149
re ver 23148
z ar 23130
classi cal</w> 23130
m ble</w> 23126
inter ior</w> 23122
co ordin 23121
com mo 23118
dis ci 23116
m att 23112
a p</w> 23111
con dition</w> 23111
s word</w> 23105
an th 23105
kis sed</w> 23104
attemp ts</w> 23097
n in 23087
aband oned</w> 23082
h amp 23079
kore a</w> 23075
str at 23074
eff ective</w> 23070
tor al</w> 23069
c he</w> 23047
cri tic 23042
att or 23038
in n</w> 23037
gu ards</w> 23036
enti tled</w> 23034
1 1 23031
re la 23025
appro ved</w> 23009
bil lion</w> 23003
r are</w> 23002
en cies</w> 23001
re ar</w> 23000
fun d</w> 22998
control led</w> 22997
environ mental</w> 22986
centu ries</w> 22985
a side</w> 22984
vill ages</w> 22978
shar p</w> 22976
op ini 22965
p ad 22964
195 4</w> 22963
per form</w> 22957
f ame</w> 22951
de stro 22951
adv oc 22950
subsequ ent</w> 22949
wor se</w> 22942
pic tures</w> 22940
goo d 22932
ne goti 22927
em bar 22908
gre y</w> 22908
sou theast</w> 22885
brief ly</w> 22878
har ry</w> 22864
he ight</w> 22861
dec or 22836
as king</w> 22833
econom y</w> 22828
du ty</w> 22802
g li 22795
spe ech</w> 22790
wil son</w> 22788
show ing</w> 22780
o v</w> 22778
j ason</w> 22763
great est</w> 22760
fun ding</w> 22759
tou ched</w> 22759
n on</w> 22756
re sear 22740
other wise</w> 22735
ter ing</w> 22727
gr am 22723
mal ay 22722
r ag 22717
coo per 22691
bri an</w> 22680
lo ad</w> 22669
ori gin</w> 22667
car rying</w> 22654
195 3</w> 22651
su sta 22644
hun ter</w> 22644
won der</w> 22643
conven tion</w> 22643
beli ev 22642
ul timately</w> 22623
vehi cles</w> 22614
i si 22610
gro wn</w> 22607
na sty</w> 22605
star ring</w> 22604
tran si 22604
bri ef</w> 22602
l ink</w> 22596
battali on</w> 22595
f on 22590
mar ke 22578
e pi 22560
po ses</w> 22558
ki e</w> 22556
inv a 22546
nu clear</w> 22539
deta ils</w> 22535
met res</w> 22528
tru ck</w> 22523
en ess</w> 22519
ssi ve</w> 22511
b ay 22508
s mar 22476
alli ance</w> 22467
qu o 22454
tow ns</w> 22449
h ate</w> 22422
e es</w> 22420
sp an</w> 22419
tou ch 22419
e ks</w> 22417
ad ult</w> 22410
ph ase</w> 22410
sub stan 22405
cha in</w> 22402
5 5</w> 22382
pre c 22373
communi st</w> 22372
g arian</w> 22371
ex tra</w> 22370
cop ies</w> 22368
v o</w> 22361
cra zy</w> 22360
commis sioned</w> 22358
bill board</w> 22352
k on 22347
d ating</w> 22345
8 - 22330
under standing</w> 22330
al an</w> 22327
disp lay</w> 22325
c ell 22319
s wal 22318
lar s</w> 22312
n ag 22305
stru ck</w> 22293
col lap 22276
ra m</w> 22275
sh rugged</w> 22271
promo tion</w> 22270
dark ness</w> 22267
clo sely</w> 22266
sar ah</w> 22261
cau sing</w> 22260
exi st</w> 22230
won dered</w> 22226
4 1</w> 22220
advant age</w> 22220
passeng er</w> 22215
s u</w> 22205
g ged</w> 22201
con stan 22192
te dly</w> 22190
t us</w> 22177
ti ed</w> 22168
dang erous</w> 22168
l as</w> 22167
gra ph</w> 22165
di ag 22156
fami liar</w> 22154
expla in</w> 22142
in ner</w> 22125
at ures</w> 22121
19 18</w> 22120
3 , 22111
r ough 22109
suppor ting</w> 22109
i ds</w> 22105
la p</w> 22105
f an 22100
any more</w> 22092
ri d</w> 22079
fac ulty</w> 22067
conflic t</w> 22047
ch in</w> 22046
g ently</w> 22039
an gry</w> 22034
t ask</w> 22019
8 5</w> 22017
ish es</w> 22016
sou th- 22015
stat ement</w> 22010
pre dic 22006
ide as</w> 22005
conta ined</w> 22003
u g 21996
sli d</w> 21988
program me</w> 21980
fin ds</w> 21978
rec ru 21977
americ ans</w> 21967
ad mitted</w> 21957
sh i</w> 21956
woo den</w> 21952
7 - 21950
3 00</w> 21950
195 1</w> 21926
br inging</w> 21914
colon el</w> 21911
ex ter 21889
ch el 21883
laun ch</w> 21881
flow ers</w> 21880
pro ved</w> 21875
ry an</w> 21868
s now</w> 21865
exten sive</w> 21852
viol ence</w> 21851
nether lands</w> 21850
gr in 21847
bi li 21846
disp la 21845
some where</w> 21837
8 th</w> 21834
rol ling</w> 21833
an ni 21818
tom or 21817
v am 21812
ra pi 21793
wil d 21788
195 0s</w> 21779
quali fied</w> 21777
polit an</w> 21770
fre sh</w> 21769
si m 21768
br un 21767
incre asing</w> 21757
te en 21756
an ds</w> 21743
?? ??</w> 21721
p ha 21720
respec t</w> 21718
world wide</w> 21710
inter nal</w> 21698
mer ged</w> 21687
ang le</w> 21685
pe t</w> 21680
th ri 21660
recei ving</w> 21643
desi re</w> 21637
al b 21634
so cc 21612
metho ds</w> 21612
liter ary</w> 21599
clim ate</w> 21594
public ation</w> 21584
d d</w> 21574
ab ilities</w> 21571
off ices</w> 21571
z y 21569
her o 21564
specific ally</w> 21557
b its</w> 21550
ad dress</w> 21550
cho se</w> 21547
se g 21537
socc er</w> 21529
stu di 21523
appro pri 21520
c at</w> 21519
4 7</w> 21517
fir ed</w> 21513
nor theast</w> 21501
foun ding</w> 21500
ken ne 21498
docum entary</w> 21495
religi on</w> 21492
applic ation</w> 21487
s al</w> 21483
k am 21483
ox ford</w> 21468
il a</w> 21452
sop hi 21446
b ass</w> 21440
legisl ative</w> 21433
don ald</w> 21431
stri ke</w> 21428
re pu 21419
193 6</w> 21419
concer ned</w> 21411
b and 21406
ro ber 21401
do or 21396
in ity</w> 21389
hand le</w> 21389
3 9</w> 21386
desp er 21381
sig nal</w> 21377
identi ty</w> 21376
hol der</w> 21369
stu ff</w> 21363
conta ining</w> 21359
be y</w> 21354
m ate</w> 21342
s ounded</w> 21320
ca the 21315
li ons</w> 21304
ho li 21297
ex press</w> 21293
193 8</w> 21292
in et</w> 21287
regar ding</w> 21284
h all 21280
com pla 21280
ban ks</w> 21278
op pon 21262
9 th</w> 21261
to t 21257
ar en</w> 21253
tre as 21251
pain ted</w> 21243
dra wing</w> 21241
poe try</w> 21239
f ant 21237
investi gation</w> 21235
pro to 21230
maxim um</w> 21223
pat rick</w> 21215
v ul 21211
emp ha 21203
philosop hy</w> 21203
cred ited</w> 21192
cir cum 21191
crimin al</w> 21188
st able</w> 21176
dav is</w> 21167
al co 21164
week ly</w> 21160
den s</w> 21143
we t</w> 21142
sk ills</w> 21141
tomor row</w> 21138
chil d 21127
ch ol 21119
in er</w> 21118
wra pped</w> 21116
oran ge</w> 21112
conv inc 21111
bed room</w> 21096
sou ght</w> 21088
con sum 21087
stand ards</w> 21082
swe den</w> 21074
po pe</w> 21073
kore an</w> 21068
sing ing</w> 21058
hear ing</w> 21054
bure au</w> 21050
typic al</w> 21048
e. g.</w> 21048
p ir 21043
presid ential</w> 21037
fa ith</w> 21028
l ing 21024
b one</w> 21021
spo ken</w> 21011
sec tor</w> 20999
chri st</w> 20990
certain ly</w> 20990
exhibi tion</w> 20986
def ence</w> 20976
institu tions</w> 20957
cor n 20950
chem ical</w> 20950
low - 20946
4 00</w> 20945
restaur ant</w> 20933
step hen</w> 20931
sched uled</w> 20931
ke y 20926
s ell</w> 20925
evi l</w> 20918
consi sted</w> 20916
gro w</w> 20916
dis co 20908
ch en 20891
tre ated</w> 20890
k id</w> 20887
thro w</w> 20882
h its</w> 20881
dr al</w> 20881
kne es</w> 20874
che ek</w> 20866
b ap 20862
t ton</w> 20841
differ ence</w> 20841
some how</w> 20837
temper ature</w> 20829
im ages</w> 20824
can al</w> 20818
provin cial</w> 20818
bir th 20804
d ged</w> 20803
fin ishing</w> 20799
r ated</w> 20795
192 0</w> 20789
comfor table</w> 20787
sha ped</w> 20769
exc ell 20764
g al</w> 20749
lan ce</w> 20729
nar ro 20723
hi red</w> 20714
shoo ting</w> 20688
4 9</w> 20680
as sumed</w> 20677
ly n 20673
ma ke 20672
un less</w> 20670
w ers</w> 20668
sur name</w> 20658
ve ter 20658
expan sion</w> 20657
agricul tural</w> 20644
franc is</w> 20642
consi der</w> 20621
educ ated</w> 20613
ma p</w> 20612
po cket</w> 20607
w ned</w> 20594
hop ed</w> 20591
le i 20575
acci dent</w> 20573
cu ri 20569
plan et</w> 20566
after noon</w> 20565
9 5</w> 20559
nar row</w> 20556
ti le</w> 20551
it ely</w> 20544
t z</w> 20539
lan ding</w> 20538
te enth</w> 20534
proper ties</w> 20530
experi enced</w> 20528
p her</w> 20515
st ric 20510
sta ke</w> 20504
pas ses</w> 20500
ha y 20489
ea u</w> 20481
d n 20480
str ate 20478
princ ess</w> 20473
cha e 20462
land sc 20458
struc tures</w> 20455
fashi on</w> 20444
ner v 20439
gre g 20429
loc ations</w> 20414
exam ples</w> 20414
bu ff 20403
develop ing</w> 20399
sk y 20396
regi stered</w> 20393
eng aged</w> 20391
si zed</w> 20378
pi ano</w> 20369
sel s</w> 20365
cap e</w> 20364
se ssion</w> 20362
br ac 20360
st um 20357
neg ative</w> 20357
ric al</w> 20356
inci dent</w> 20355
i. e.</w> 20355
cre dit</w> 20349
influ enced</w> 20349
domes tic</w> 20349
u de</w> 20347
re present</w> 20343
di men 20335
dr a</w> 20318
electr onic</w> 20315
g ent</w> 20294
reti rement</w> 20293
b all 20291
et c</w> 20289
4 6</w> 20285
ch ers</w> 20282
sc ra 20282
lew is</w> 20277
f en 20272
cerem ony</w> 20271
appoin tment</w> 20270
fu el</w> 20269
chang ing</w> 20268
bu y</w> 20240
hun g</w> 20223
hor ses</w> 20215
r al 20214
in ations</w> 20211
mil ler</w> 20210
fun ds</w> 20209
se min 20205
est er 20203
p m</w> 20198
list en</w> 20196
wor ried</w> 20195
conver ted</w> 20195
fil l</w> 20194
mi x</w> 20183
strate gi 20183
extre m 20177
val ent</w> 20173
5 2</w> 20171
studi os</w> 20163
concer n</w> 20157
m - 20155
communic ation</w> 20148
actu al</w> 20147
at tribu 20144
co at</w> 20141
hom es</w> 20136
deri ved</w> 20133
l inc 20132
e du 20130
quie tly</w> 20129
thre at</w> 20127
hel ping</w> 20121
establi shment</w> 20121
fail ure</w> 20118
4 3</w> 20116
ep h 20115
ma il</w> 20114
bi e</w> 20114
communic ations</w> 20114
ri dge</w> 20110
pi one 20110
ll ery</w> 20106
broadca sting</w> 20105
l .</w> 20103
surr ounded</w> 20086
commis sion 20083
pre gn 20079
fre der 20071
se t 20064
k or 20061
con test</w> 20057
po t 20055
pu tting</w> 20046
i tion</w> 20042
shoc k</w> 20042
no tice</w> 20040
regar ded</w> 20039
s ale</w> 20038
produc ing</w> 20031
we dding</w> 20030
woo ds</w> 20029
neighbor hood</w> 20021
pati ents</w> 20015
or tho 20009
ly rics</w> 20002
wil ling</w> 19991
equ al</w> 19986
bud d 19985
in spec 19978
treat y</w> 19975
19 19</w> 19969
char ged</w> 19965
u - 19957
on ing</w> 19950
si ck</w> 19948
dec ades</w> 19948
no ise</w> 19944
scen es</w> 19940
sol ved</w> 19936
s lu 19934
func tions</w> 19934
ir s</w> 19933
193 7</w> 19927
t at 19925
kh an</w> 19921
a str 19911
bac hel 19897
att ached</w> 19896
camer a</w> 19891
dro ve</w> 19885
in ess</w> 19883
fr ag 19877
pap ers</w> 19876
lou d</w> 19875
is a 19867
don e 19866
archit ect</w> 19858
la m</w> 19857
val u 19840
teach ers</w> 19839
under stood</w> 19837
jo se</w> 19835
mexic an</w> 19830
cry st 19828
survi ved</w> 19826
o bli 19824
south west</w> 19815
chap el</w> 19813
circu it</w> 19809
gi ant</w> 19792
mat t</w> 19791
sh op 19789
o tt 19786
in habit 19783
co ast 19778
br a</w> 19768
resi stance</w> 19766
de bu 19765
ly wood</w> 19763
tan k</w> 19745
aff ected</w> 19743
ow ners</w> 19734
comm on 19734
ob served</w> 19733
ak a</w> 19731
represent ing</w> 19727
c ei 19720
engine er</w> 19719
metro politan</w> 19717
nor we 19708
ex erc 19704
han g</w> 19684
stu pid</w> 19678
ash es</w> 19674
arran g 19668
wat ers</w> 19661
fac ing</w> 19659
ac cept</w> 19658
de sh</w> 19657
squ ee 19655
193 0</w> 19650
ac cur 19627
tion ing</w> 19627
li p 19619
in done 19618
di smis 19614
contribu ted</w> 19606
in ch</w> 19602
17 8 19602
j r</w> 19598
hi dden</w> 19596
ra bb 19592
m r</w> 19591
6 6</w> 19589
d it 19587
re fers</w> 19583
lead s</w> 19555
fi xed</w> 19549
titu de</w> 19537
h ed</w> 19529
' i</w> 19529
5 1</w> 19527
bap ti 19520
que ens 19519
coll ected</w> 19518
sub si 19515
19 17</w> 19499
an n</w> 19491
mid d 19491
adv ance</w> 19486
si sters</w> 19477
u el</w> 19474
sof tly</w> 19471
sp end</w> 19470
athle tic</w> 19468
au to 19466
down town</w> 19461
ad ul 19447
thous ands</w> 19444
linc ol 19439
program ming</w> 19438
multi - 19434
dem and</w> 19430
k ha 19429
prin t</w> 19427
recogni tion</w> 19427
jour ney</w> 19423
cra w 19414
the sis</w> 19413
main tained</w> 19411
p ric 19406
pleas ure</w> 19402
pro pos 19386
con vic 19380
ar chae 19372
-y ear-old</w> 19368
import ance</w> 19364
s ound 19355
re ci 19353
193 5</w> 19346
com o 19344
expres sed</w> 19337
p ale</w> 19332
occu r</w> 19331
z o</w> 19314
prof it</w> 19314
compos er</w> 19314
it er 19309
bud get</w> 19303
resid ence</w> 19300
cathe dral</w> 19290
c it 19287
argu ed</w> 19280
g ar</w> 19278
pre ten 19275
ob ject</w> 19275
ro ck 19264
occur s</w> 19264
is s 19261
em ma</w> 19259
comb ination</w> 19255
k ent 19252
w ins</w> 19248
bre ath 19248
sto res</w> 19246
extrem ely</w> 19243
b rick</w> 19231
minne so 19228
se - 19226
we b</w> 19226
progre ss</w> 19224
cro ssing</w> 19223
gr ass</w> 19216
hun dre 19214
mo sco 19207
ligh t 19207
el em 19202
er son</w> 19199
co al</w> 19199
19 14</w> 19197
r ho 19195
le v 19188
y i 19185
ef s</w> 19183
g le</w> 19179
whe el</w> 19168
institu tion</w> 19162
employ ees</w> 19155
sp here</w> 19152
cap able</w> 19151
inj ured</w> 19149
con qu 19146
publi shing</w> 19145
inde ed</w> 19138
m ly</w> 19137
poli s</w> 19104
st ab 19103
7 2</w> 19101
tre at</w> 19101
oni an</w> 19101
wor n</w> 19100
pa int 19096
mo tor</w> 19094
193 3</w> 19092
hop ing</w> 19077
a f</w> 19070
dec re 19070
je ws</w> 19070
di am 19067
ten nis</w> 19067
bl in</w> 19065
massi ve</w> 19064
t ap 19060
sti n</w> 19039
sc ent</w> 19029
minneso ta</w> 19025
pri est</w> 19024
sh er</w> 19011
it ems</w> 19009
b ren 19003
car ds</w> 19002
b ic 18999
bur ned</w> 18985
emer gency</w> 18984
vis ual</w> 18978
ca a</w> 18972
ac c 18968
sour i</w> 18967
ja ke</w> 18964
chur ches</w> 18963
attor ney</w> 18962
al bert</w> 18960
mom ents</w> 18959
jan e</w> 18956
en de 18952
as su 18952
tan e 18937
weap on</w> 18937
sur vey</w> 18935
ther ap 18923
hi re</w> 18906
su peri 18904
dev ice</w> 18900
bu sh</w> 18899
hi de</w> 18896
norm ally</w> 18890
mis souri</w> 18889
cal cul 18878
ap preci 18871
mel bourne</w> 18866
consi st 18859
mosco w</w> 18859
con secu 18850
el and</w> 18846
x on</w> 18837
constitu ency</w> 18833
ch ase</w> 18830
wrest ling</w> 18828
for th</w> 18819
norwe gian</w> 18819
fore ver</w> 18816
192 9</w> 18814
beau ty</w> 18810
an gel</w> 18805
com ic</w> 18804
fac tor</w> 18799
requ est</w> 18799
d at 18796
po et</w> 18788
tur key</w> 18786
sec tions</w> 18782
sh er 18770
v is</w> 18766
cre te</w> 18764
inhabit ants</w> 18763
journ alist</w> 18759
soli d</w> 18759
be c</w> 18758
protec ted</w> 18758
sh - 18757
musli m</w> 18756
p he 18741
big gest</w> 18731
re in 18723
y l</w> 18716
sel ection</w> 18716
d p</w> 18714
bro ad</w> 18714
satur day</w> 18693
tun nel</w> 18691
eng ines</w> 18682
cam bridge</w> 18675
assi st</w> 18672
ad y</w> 18671
re l</w> 18669
g on</w> 18662
t ations</w> 18659
coloni al</w> 18658
r ach 18647
low ed</w> 18643
lo como 18642
portu gu 18642
p ink</w> 18626
care fully</w> 18625
candi dates</w> 18613
stan ces</w> 18612
mon o 18611
purch ase</w> 18610
appear ing</w> 18600
ant oni 18596
in nov 18595
cab inet</w> 18594
har mon 18588
t ant</w> 18580
se es</w> 18574
uni versi 18573
nor way</w> 18573
es sion</w> 18568
invest ment</w> 18565
man chester</w> 18563
le ans</w> 18561
f allen</w> 18551
bo ar 18545
appro ached</w> 18542
of - 18540
ec ho 18539
re ments</w> 18529
ann y</w> 18524
men tion</w> 18524
po t</w> 18520
w ounded</w> 18509
establi sh</w> 18504
gg ing</w> 18500
organis ation</w> 18500
indi ana</w> 18496
disci pl 18479
7 6</w> 18478
thir ty</w> 18471
san c 18470
bachel or</w> 18463
6 2</w> 18456
char lie</w> 18455
le y 18453
im possible</w> 18452
bel t</w> 18452
wal ter</w> 18448
i v</w> 18443
ra ise</w> 18432
arti llery</w> 18432
for get</w> 18428
dioc ese</w> 18426
as ka</w> 18425
s ni 18420
192 8</w> 18416
f ra 18403
her o</w> 18384
w right</w> 18376
re signed</w> 18373
193 4</w> 18368
dv d</w> 18368
ph ar 18366
hi p</w> 18364
descri p 18364
feel ings</w> 18364
me ters</w> 18363
fe ed</w> 18362
pu sh</w> 18357
5 4</w> 18349
ch at 18344
do gs</w> 18344
shi fted</w> 18343
ph en 18337
pla yo 18335
dau gh 18331
win d 18330
er n 18329
queens land</w> 18327
am at 18314
ad o 18311
l ag 18306
s and</w> 18295
bur ning</w> 18290
intro duction</w> 18285
under ground</w> 18281
impro ved</w> 18280
friend ly</w> 18278
re se 18269
wis con 18266
ar ena</w> 18262
reali ze</w> 18254
se v 18252
transpor tation</w> 18252
7 7</w> 18246
inva sion</w> 18243
fla g</w> 18242
color ado</w> 18240
tu be</w> 18236
mat the 18229
ter r 18226
sevent h</w> 18223
sto l</w> 18221
cour ses</w> 18220
h ori 18216
ob jects</w> 18210
in c</w> 18206
person nel</w> 18202
th- century</w> 18200
ti red</w> 18197
ev a</w> 18194
promis ed</w> 18194
le on</w> 18179
us ers</w> 18176
de vi 18172
ev al</w> 18148
dis appeared</w> 18144
ru led</w> 18142
re form</w> 18139
consecu tive</w> 18134
sha king</w> 18133
po ver 18119
ordin ary</w> 18119
sat ell 18116
vers ary</w> 18115
si e 18104
dy nasty</w> 18101
the tic</w> 18095
val ues</w> 18091
h ec 18088
applic ations</w> 18079
c lock</w> 18069
om an</w> 18065
is ol 18062
in no 18061
pi res</w> 18060
9 - 18053
ki m</w> 18050
in au 18044
gr in</w> 18044
o reg 18038
sk ir 18036
ari z 18034
kni fe</w> 18019
prote in</w> 18018
spir it 18018
min ing</w> 18013
5 6</w> 18012
week end</w> 18012
arran ged</w> 18011
0 0 18007
viet nam</w> 18006
paint ings</w> 17996
st ones</w> 17991
t ag 17986
cal m</w> 17979
confu sed</w> 17974
pe ter 17973
p ine</w> 17971
reg ularly</w> 17968
impro ve</w> 17966
inst alled</w> 17963
revol u 17962
ro s 17957
en na</w> 17950
mir ror</w> 17950
behavi or</w> 17947
dru m 17938
gui de</w> 17924
ar ch</w> 17914
v ey 17903
pau sed</w> 17903
fran chi 17901
9 9</w> 17899
6 3</w> 17898
n fl</w> 17897
employ ment</w> 17897
con cep 17892
ten nes 17891
ly n</w> 17890
ca ve</w> 17885
ow a</w> 17882
192 4</w> 17879
s ri</w> 17869
c ry</w> 17856
g ated</w> 17850
w are</w> 17843
p om 17839
repe ated</w> 17834
n ap 17829
portugu ese</w> 17829
f ear 17821
exten sion</w> 17814
il le</w> 17806
clo sing</w> 17802
cau ses</w> 17802
s z 17801
6 7</w> 17801
mag ne 17794
off ering</w> 17789
7 8</w> 17786
conclu ded</w> 17783
ab or 17782
por ts</w> 17782
mi li 17770
b au 17768
co sts</w> 17764
sm ell</w> 17757
i ve</w> 17756
u d</w> 17755
deli vered</w> 17750
some what</w> 17748
be er</w> 17745
gra pher</w> 17741
con tain</w> 17736
k u</w> 17726
18 th</w> 17724
distingu ished</w> 17720
le tting</w> 17716
p lot</w> 17715
goo ds</w> 17710
turk ish</w> 17703
di r 17700
strat eg 17699
st ating</w> 17697
responsi bility</w> 17696
ru sh</w> 17692
h n</w> 17683
fi ghter</w> 17678
wiscon sin</w> 17676
sig ns</w> 17672
del eg 17667
f ter</w> 17664
promo te</w> 17662
ri e</w> 17657
eff ec 17657
d ag 17650
ri o</w> 17637
tennes see</w> 17631
5 3</w> 17628
6 1</w> 17627
l t 17626
atten d</w> 17625
ham il 17625
obvi ously</w> 17620
a si 17614
consi sting</w> 17614
pu p 17612
den i 17609
sha dow</w> 17609
is tics</w> 17606
de al 17601
d c</w> 17599
war s</w> 17598
mo th</w> 17594
f .</w> 17593
hon or 17587
brea thing</w> 17583
pr o</w> 17577
stre ss</w> 17575
us er</w> 17564
accomp ani 17557
uni verse</w> 17551
192 7</w> 17548
sen si 17547
mary land</w> 17546
sub ur 17542
inter rup 17534
wea k</w> 17532
philipp ines</w> 17530
st ages</w> 17529
mean while</w> 17529
5 8</w> 17522
it ated</w> 17520
oper ate</w> 17517
lawy er</w> 17515
193 2</w> 17514
pal m</w> 17507
te a</w> 17502
ber n 17495
die go</w> 17494
threat ened</w> 17492
distinc t</w> 17488
mb led</w> 17485
de struc 17462
ri vers</w> 17459
distribu ted</w> 17457
sh ell</w> 17453
ff ed</w> 17450
fle w</w> 17449
sti ck</w> 17444
eg y 17442
how ard</w> 17438
l li 17434
ke ys</w> 17430
192 2</w> 17430
separ ated</w> 17428
lo an</w> 17427
ke vin</w> 17423
logi es</w> 17418
cap ture</w> 17416
cri sis</w> 17412
cri tici 17406
ab ad</w> 17400
the y 17395
war ning</w> 17391
histori an</w> 17391
19 12</w> 17380
n caa</w> 17378
b ond</w> 17375
ash ing</w> 17371
meas ure</w> 17364
pro per</w> 17354
part nership</w> 17354
ju mped</w> 17351
main tain</w> 17346
6 8</w> 17340
de t 17339
compe te</w> 17337
accu sed</w> 17325
ven e 17319
gla d</w> 17316
interest s</w> 17310
wor st</w> 17309
patter n</w> 17308
agricul ture</w> 17306
mi x 17296
smil ing</w> 17278
ju mp</w> 17275
il er</w> 17274
not ably</w> 17267
ac tors</w> 17258
bil ly</w> 17257
fa ster</w> 17254
moun ted</w> 17254
193 1</w> 17252
choo se</w> 17252
cas h</w> 17242
lu x 17240
nat ur 17240
lan ded</w> 17235
mor gan</w> 17230
commit ted</w> 17230
op en 17223
av a</w> 17222
v or</w> 17221
opini on</w> 17221
degre es</w> 17220
universi ties</w> 17220
192 1</w> 17215
oreg on</w> 17214
el even</w> 17213
con stant</w> 17210
ca p</w> 17208
je an</w> 17208
ati cally</w> 17205
pl ed</w> 17202
ici de</w> 17201
car din 17198
drag on</w> 17198
favor ite</w> 17195
v ity</w> 17192
ad jac 17191
in son</w> 17188
4 , 17186
- in- 17181
u tili 17178
dec ade</w> 17151
agu es</w> 17142
ta ste</w> 17135
b low 17126
dam aged</w> 17125
5 7</w> 17123
accompani ed</w> 17120
techni ques</w> 17114
resc ue</w> 17113
soldi er</w> 17100
the a 17093
arri val</w> 17089
dri ven</w> 17085
egy pt</w> 17083
bu ck 17081
sh ops</w> 17079
musi cians</w> 17071
sw iss</w> 17071
swit zer 17071
mo re 17060
pain ter</w> 17054
man ner</w> 17044
ri gh 17043
dep loy 17042
ve ge 17033
8 6</w> 17032
sion ally</w> 17030
ariz ona</w> 17030
adjac ent</w> 17030
bo ards</w> 17029
ag ree</w> 17027
ear th 17026
sing ap 17026
antoni o</w> 17018
7 4</w> 17012
le an</w> 17011
sol e</w> 17008
ou ts</w> 17007
switzer land</w> 17007
dang er</w> 17000
li qu 16988
assi stance</w> 16988
na vi 16985
hang ing</w> 16985
jor dan</w> 16977
mar k 16973
pers ons</w> 16972
divi sions</w> 16967
disco very</w> 16963
cour ts</w> 16962
7 1</w> 16953
lu m</w> 16953
sen ator</w> 16953
produc tions</w> 16951
sam uel</w> 16951
bo ats</w> 16944
hundre ds</w> 16944
l en</w> 16940
direc tors</w> 16925
lu ke</w> 16920
star red</w> 16920
seri ously</w> 16918
enjo yed</w> 16915
singap ore</w> 16914
mi d</w> 16912
min a</w> 16910
de ad 16905
192 5</w> 16904
c c</w> 16902
nar r 16897
6 9</w> 16891
char ges</w> 16889
shi ft</w> 16881
je ff 16881
p it</w> 16875
b ach</w> 16873
log an</w> 16872
fif teen</w> 16871
n an</w> 16868
5 9</w> 16868
rough ly</w> 16865
rhy th 16863
b ones</w> 16855
v ine</w> 16855
head ing</w> 16852
lin e 16844
sli pped</w> 16838
ther ine</w> 16837
19 10</w> 16830
gab ri 16830
vir tu 16823
ad ditionally</w> 16820
mis sions</w> 16819
b in</w> 16808
sud den</w> 16807
hom e 16801
anth ony</w> 16782
cla y</w> 16772
anni versary</w> 16770
sn apped</w> 16768
ri ding</w> 16767
ac he</w> 16759
be gun</w> 16756
kel ly</w> 16752
descri bes</w> 16751
kent u 16745
19 16</w> 16744
ro ger</w> 16740
que bec</w> 16725
ja w</w> 16724
a a</w> 16722
requ ire</w> 16715
bath room</w> 16713
7 3</w> 16703
par king</w> 16703
al ab 16692
deman ded</w> 16692
num ber 16687
bal ance</w> 16687
tal ked</w> 16686
rach el</w> 16686
list ening</w> 16676
rac ial</w> 16670
win ners</w> 16665
daugh ters</w> 16662
192 6</w> 16661
passeng ers</w> 16660
ru s</w> 16655
n ine 16654
bran ches</w> 16649
bu sy</w> 16637
tru ly</w> 16630
hor ror</w> 16629
spon s 16628
m ps</w> 16626
particip ate</w> 16626
d in</w> 16625
sen s 16623
sa ved</w> 16622
8 8</w> 16619
shoo t</w> 16616
19 15</w> 16613
imag ine</w> 16612
ne st</w> 16610
ad ju 16605
ra i 16601
w all 16595
t ons</w> 16594
ger y</w> 16594
wal ker</w> 16589
at tered</w> 16583
stud ying</w> 16580
coun c 16576
insur ance</w> 16573
g ang</w> 16567
busin esses</w> 16567
bu ll 16556
enter pri 16554
ici ous</w> 16551
cont ex 16550
voc als</w> 16549
m al</w> 16547
appe al</w> 16547
con crete</w> 16543
matt ers</w> 16539
ac commo 16537
pre hen 16537
192 3</w> 16534
deci de</w> 16522
tab les</w> 16522
o on</w> 16520
defin itely</w> 16515
isl amic</w> 16515
gen der</w> 16513
7 9</w> 16510
k night</w> 16506
contr ast</w> 16506
al ber 16505
expe dition</w> 16503
bo t</w> 16498
desig ns</w> 16498
respon ded</w> 16493
termin al</w> 16492
fe els</w> 16491
an a 16485
ir o</w> 16483
kentu cky</w> 16483
ch - 16469
phili p</w> 16466
c ous 16465
do x</w> 16463
ent ering</w> 16462
mar gar 16461
ha r</w> 16459
le on 16457
defen sive</w> 16457
di vor 16454
pla in</w> 16454
si de 16451
193 0s</w> 16440
. com</w> 16437
sub stitu 16437
cro ati 16431
pro mp 16428
e sp 16426
re place</w> 16423
hol lywood</w> 16423
ad el 16421
nation ally</w> 16421
lincol n</w> 16421
f at 16420
re duce</w> 16419
gi ft</w> 16419
fav or</w> 16419
rec re 16417
ro l</w> 16410
occa sionally</w> 16409
di ary</w> 16407
photo graph 16407
er o</w> 16404
sec ure</w> 16394
di sa 16389
prin ted</w> 16384
eth nic</w> 16382
sh eri 16371
de ath 16369
we igh 16360
ari st</w> 16351
univers al</w> 16343
hamil ton</w> 16343
sal v 16340
keep er</w> 16338
am y</w> 16329
sh a</w> 16326
docum ents</w> 16323
earli est</w> 16318
pp i</w> 16317
p . 16310
leg is 16310
f ishing</w> 16306
lin ked</w> 16302
ne tt</w> 16301
o b</w> 16294
resid ential</w> 16287
grand father</w> 16286
re turns</w> 16274
w ich</w> 16272
smo ke</w> 16272
pover ty</w> 16270
ro cks</w> 16266
an derson</w> 16260
fl ag 16258
ad ding</w> 16255
after wards</w> 16255
wan ting</w> 16242
col e</w> 16240
lu cky</w> 16239
ar men 16230
st eam</w> 16230
k es 16213
austri a</w> 16210
cous in</w> 16209
ro y</w> 16208
schem e</w> 16192
te sting</w> 16183
je ff</w> 16183
a e 16182
l st</w> 16180
re v 16180
d all 16178
deser t</w> 16176
ab sor 16163
19 00</w> 16155
gl as</w> 16154
clar k</w> 16154
tran sm 16150
vic tor</w> 16150
i g</w> 16148
hou ston</w> 16148
gu s</w> 16143
bro w</w> 16138
th ru 16125
con su 16120
he i 16114
r age</w> 16112
la h</w> 16108
ra y 16105
dis gu 16105
sur ren 16099
fin ance</w> 16092
child hood</w> 16086
g ay</w> 16085
5 ,000</w> 16080
ho t 16072
thea stern</w> 16072
dec k</w> 16071
survi ve</w> 16071
20 s</w> 16070
continu ing</w> 16069
common wealth</w> 16063
ar ab</w> 16061
mon tre 16061
parliam entary</w> 16061
ma c</w> 16059
beli ef</w> 16059
s c</w> 16057
li ft</w> 16057
leg es</w> 16053
tu rer</w> 16052
b eng 16048
oper ates</w> 16048
exi sted</w> 16048
out standing</w> 16045
ni chol 16034
lu ci 16030
sal em</w> 16030
mel o 16030
scrip tion</w> 16025
g n</w> 16023
re duc 16023
ge st 16022
ori a</w> 16018
g i</w> 16012
cre ative</w> 16011
legis lat 16008
pow ered</w> 16007
r ating</w> 16002
re jected</w> 16001
char lo 15997
amat eur</w> 15989
mon a 15984
c ran 15982
r ar 15980
obvi ous</w> 15965
ti s 15962
hy po 15962
col om 15958
in y</w> 15957
gh tened</w> 15952
v ali 15945
pati ent</w> 15945
meas ures</w> 15944
tor ate</w> 15928
h r 15922
- based</w> 15921
ch y</w> 15920
ju di 15913
d ent 15907
whi lst</w> 15905
deter mine</w> 15905
strateg y</w> 15902
interest ing</w> 15900
mp tion</w> 15891
musi cian</w> 15889
offen sive</w> 15889
mo de</w> 15886
in her 15885
associ ate</w> 15885
rout es</w> 15881
ili an</w> 15879
ch ant</w> 15876
d na</w> 15874
re sp 15871
d ents</w> 15862
du ties</w> 15862
sev ere</w> 15861
gra ve</w> 15855
coast al</w> 15855
sequ ence</w> 15854
make up</w> 15844
so il</w> 15843
sal t</w> 15842
pra ised</w> 15842
gre ece</w> 15840
sh ouldn</w> 15833
hori z 15832
str ing</w> 15827
vic es</w> 15824
ur s</w> 15819
fle sh</w> 15814
pur poses</w> 15813
sle eping</w> 15810
coun ties</w> 15809
hun t</w> 15805
ab s 15801
shi eld</w> 15801
ha i</w> 15799
da ve</w> 15792
stor age</w> 15790
b les</w> 15787
movi es</w> 15781
op tion</w> 15779
ed - 15775
isra eli</w> 15775
ti m</w> 15773
bro ok 15772
bot tle</w> 15768
schol ars</w> 15761
un a</w> 15760
mo vements</w> 15758
wav es</w> 15758
dan cing</w> 15751
o sc 15749
form ally</w> 15740
secon d- 15739
a j 15738
swim ming</w> 15731
col ony</w> 15723
o k</w> 15722
mar ry</w> 15720
ag a</w> 15712
appro val</w> 15712
wai st</w> 15712
alco ho 15710
gol f</w> 15697
fru str 15689
vis itors</w> 15686
in k 15683
mp ing</w> 15677
t oo 15666
victi ms</w> 15657
public ations</w> 15656
lou isi 15653
i .</w> 15652
est ed</w> 15648
e u</w> 15642
fac tors</w> 15637
ali zation</w> 15631
af gh 15630
sing le- 15629
dre ams</w> 15625
com position</w> 15623
repu tation</w> 15623
de s 15612
li v 15606
e ing</w> 15600
de mon</w> 15599
pal est 15596
tro phy</w> 15589
ac id</w> 15581
h at</w> 15580
mem ories</w> 15578
conserv ation</w> 15575
premi ered</w> 15569
s r</w> 15568
re nov 15567
pr on 15563
ann ah</w> 15556
stu ck</w> 15550
dou glas</w> 15549
gi ble</w> 15541
d ying</w> 15531
n au 15525
c and 15524
b y- 15524
v as 15521
ber ry</w> 15520
en ab 15513
sha ke</w> 15510
vo i 15507
am bass 15506
whe el 15504
un usual</w> 15502
9 2</w> 15495
c m</w> 15489
en sure</w> 15484
chri stop 15484
rel ative</w> 15483
in qu 15479
po em</w> 15478
mar kets</w> 15476
sub - 15475
gather ed</w> 15469
th ic</w> 15468
k an</w> 15466
laugh ing</w> 15466
member ship</w> 15463
cl er 15450
wit ne 15446
rapi dly</w> 15446
k .</w> 15444
pe ti 15441
cle ared</w> 15432
equi valent</w> 15428
sub jects</w> 15417
ti p</w> 15412
transl ated</w> 15411
smoo th</w> 15409
go ds</w> 15408
vis iting</w> 15405
am ong 15403
ad d</w> 15398
te sts</w> 15388
c able</w> 15384
gor don</w> 15384
f lan 15373
8 2</w> 15371
an o 15367
louisi ana</w> 15367
birth day</w> 15363
se as</w> 15356
dic tion</w> 15346
ma sters</w> 15345
rest ored</w> 15343
indic ated</w> 15340
d r</w> 15332
emer ged</w> 15325
freder ick</w> 15320
under - 15314
alex and 15312
sp ending</w> 15311
among st</w> 15310
8 1</w> 15309
9 6</w> 15305
com ics</w> 15305
ne ver 15303
medi eval</w> 15295
th ur 15294
t age</w> 15287
tem porary</w> 15280
col li 15279
prison ers</w> 15279
i z 15275
de tro 15275
em an</w> 15274
benef it</w> 15272
ali a</w> 15268
dru gs</w> 15266
pri x</w> 15261
missi ssi 15261
depen ding</w> 15260
al ice</w> 15259
com e 15257
fig ured</w> 15257
gar dens</w> 15256
19 11</w> 15255
grin ned</w> 15248
in ts</w> 15247
sig ning</w> 15245
the ore 15243
fi ve- 15242
re ign</w> 15229
elem entary</w> 15227
possi bility</w> 15218
schol ar 15218
roo ts</w> 15214
any where</w> 15212
enjo y</w> 15212
physi cs</w> 15211
hom a</w> 15210
ira q</w> 15209
be ating</w> 15201
sa il 15195
vi an</w> 15186
9 8</w> 15183
im pres 15180
gol d 15169
debu ted</w> 15165
appropri ate</w> 15161
no d</w> 15160
cap it 15156
hun ting</w> 15156
fre sh 15155
be e 15150
19 13</w> 15142
spea ker</w> 15139
mi ch 15137
ri ses</w> 15131
mo ves</w> 15131
re solution</w> 15129
pro ve</w> 15129
al ties</w> 15124
p en</w> 15123
di son</w> 15121
john ny</w> 15117
fru it</w> 15116
ke e</w> 15115
p ure</w> 15109
fortun ately</w> 15103
e ating</w> 15099
che eks</w> 15099
glan ce</w> 15094
ti ous</w> 15088
i owa</w> 15085
p is 15085
to x 15080
blu es</w> 15076
g ates</w> 15075
recor dings</w> 15075
sc ared</w> 15072
c i</w> 15069
comp ani 15069
8 4</w> 15068
bloc ks</w> 15067
guil ty</w> 15058
6 0 15056
gen ous</w> 15047
chem i 15045
ac ks</w> 15042
ill a</w> 15036
re con 15030
k ate</w> 15027
lau ghter</w> 15014
bur st</w> 15011
ma ker</w> 15010
???? ?</w> 15004
ph r 15000
elec toral</w> 15000
detro it</w> 14998
econom ics</w> 14996
co ol 14993
part ners</w> 14993
spec tive</w> 14991
mari e</w> 14991
sho es</w> 14990
c assi 14989
mi a</w> 14985
sain t- 14984
clo thing</w> 14983
. a.</w> 14980
re gre 14977
ju an</w> 14976
exp ect</w> 14974
neu tr 14974
char ts</w> 14971
a than</w> 14970
drin king</w> 14970
ro ws</w> 14969
manufac turing</w> 14966
e than</w> 14965
gi um</w> 14962
alab ama</w> 14962
sym ph 14959
ev alu 14954
e ties</w> 14950
g y</w> 14948
montre al</w> 14947
commun e</w> 14945
haw ai 14941
fro wned</w> 14938
cav al 14933
k az 14930
el ement</w> 14930
es cor 14929
co ali 14929
re presents</w> 14927
sug ar</w> 14926
eri e</w> 14923
ed ly</w> 14916
wel come</w> 14915
stoc k 14908
tec h</w> 14899
190 8</w> 14899
bo ss</w> 14898
bi d</w> 14896
an ch 14894
ag ents</w> 14891
concer ns</w> 14887
ok la 14886
ami l</w> 14885
la bel 14881
17 th</w> 14881
pu er 14876
instru ments</w> 14873
at mo 14871
won der 14867
differ ences</w> 14866
k un 14860
y le</w> 14856
c ook</w> 14852
li ver 14851
comp lic 14850
ak i</w> 14828
re tained</w> 14826
jim my</w> 14823
fore sts</w> 14821
et ings</w> 14818
sh ru 14813
lim it</w> 14810
a ke</w> 14805
collabor ation</w> 14805
hor ri 14801
li sts</w> 14786
wea k 14784
gu er 14783
stri p</w> 14781
techni que</w> 14778
8 3</w> 14767
m bling</w> 14764
9 7</w> 14763
bl ast</w> 14762
as ingly</w> 14756
8 7</w> 14752
bac ked</w> 14752
easi er</w> 14752
um s</w> 14749
k ar</w> 14745
jo bs</w> 14736
at - 14731
sen ding</w> 14728
mississi ppi</w> 14728
destro y</w> 14727
de vices</w> 14714
tal ent</w> 14711
s as 14710
signific antly</w> 14702
p lo 14699
su m</w> 14696
f ea 14695
sugge sts</w> 14692
ami e</w> 14688
okla homa</w> 14686
travel ed</w> 14684
8 9</w> 14682
ex po 14672
mut tered</w> 14672
k ick</w> 14671
li s</w> 14669
ro t 14658
auth ors</w> 14657
d ant</w> 14656
vam pires</w> 14653
dan ish</w> 14652
tri be</w> 14651
mo ore</w> 14649
asp ects</w> 14646
conduc t</w> 14644
thou se</w> 14642
mathemati cs</w> 14642
lo sses</w> 14641
a unt</w> 14638
si e</w> 14638
ser ge 14637
satell ite</w> 14637
di str 14627
j ay</w> 14612
ha z 14607
pe tro 14605
adap ted</w> 14603
invol ving</w> 14601
no vels</w> 14593
occup ation</w> 14593
margar et</w> 14588
pen insul 14587
le f 14585
ow nership</w> 14584
fun ny</w> 14578
t ack 14576
tiv ity</w> 14576
lea ther</w> 14571
war t</w> 14569
care ful</w> 14569
contribu tions</w> 14558
cy cl 14550
elec tro 14547
sch edu 14542
9 3</w> 14539
g om 14538
cz ech</w> 14538
shou ted</w> 14538
strong ly</w> 14536
arti stic</w> 14535
inc t</w> 14533
supp lies</w> 14528
ex posed</w> 14520
s son</w> 14512
bl ade</w> 14506
fore head</w> 14506
s ne 14502
ir ing</w> 14498
be an</w> 14496
popul arity</w> 14496
j e</w> 14492
inst ance</w> 14491
schedu le</w> 14490
hi ll 14487
expen sive</w> 14487
ran king</w> 14483
argent ina</w> 14482
su e</w> 14479
w ick</w> 14475
belong ed</w> 14475
adul ts</w> 14473
sur gery</w> 14471
s lam 14468
au t 14463
d t</w> 14462
me ter</w> 14460
ch ess</w> 14457
happ ening</w> 14456
deb ate</w> 14455
mee ts</w> 14453
st en 14452
tot ally</w> 14451
alle l</w> 14448
strugg le</w> 14445
ro ll 14443
st are</w> 14440
cr ash</w> 14438
nerv ous</w> 14435
archit ec 14432
par allel</w> 14428
fil ed</w> 14426
ni ger 14420
recog n 14415
j on</w> 14414
tt i</w> 14414
at i</w> 14413
contro versi 14409
scho ol 14407
fic ations</w> 14399
. d.</w> 14397
peninsul a</w> 14394
eg yp 14393
n ad 14392
hun garian</w> 14391
consi dering</w> 14389
dist ur 14388
marke ting</w> 14377
man age</w> 14373
adv ice</w> 14373
harv ard</w> 14372
ch ann 14370
ce iling</w> 14367
comp il 14361
pass age</w> 14357
k ent</w> 14355
cou ples</w> 14354
ce o</w> 14352
i dae</w> 14347
to ols</w> 14343
shop ping</w> 14343
re new 14340
transl ation</w> 14339
iss ance</w> 14337
gir l 14333
incre asingly</w> 14332
al lied</w> 14330
e ter 14326
den ed</w> 14324
athle tics</w> 14323
budd hi 14320
flow s</w> 14315
dep th</w> 14314
voi vo 14314
c ad 14310
inst all 14308
g lu 14297
in ju 14295
pu shing</w> 14295
col ors</w> 14290
ta x 14285
pan el</w> 14282
m ck 14278
cl ou 14277
matthe w</w> 14272
char ity</w> 14269
sk a</w> 14267
resp ond</w> 14267
d dy</w> 14259
w ished</w> 14258
slo v 14256
di ck</w> 14254
wa ste</w> 14252
ra j 14249
h ated</w> 14248
ex - 14248
r ates</w> 14245
r ough</w> 14240
contin ental</w> 14240
professi on 14231
p an</w> 14228
ra pid</w> 14227
su icide</w> 14226
suff ering</w> 14223
ass ault</w> 14222
cei ved</w> 14222
ul ated</w> 14219
ri ver 14211
so - 14211
fri day</w> 14206
15 0</w> 14203
dall as</w> 14202
classi fied</w> 14198
chu ck 14196
equi pped</w> 14195
ash a</w> 14194
coali tion</w> 14191
vie wers</w> 14188
j ing</w> 14187
perf ec 14186
loo se</w> 14185
labor atory</w> 14184
n ish</w> 14182
ten ance</w> 14177
16 th</w> 14177
hur ric 14177
la sted</w> 14175
du blin</w> 14175
od d</w> 14172
ck er</w> 14170
tw in</w> 14168
se attle</w> 14164
ac le</w> 14159
puer to</w> 14159
ici al</w> 14155
mi ami</w> 14154
consci ous</w> 14149
9 4</w> 14145
car to 14139
he im</w> 14138
pro test</w> 14136
har der</w> 14134
poli cies</w> 14134
ukra inian</w> 14130
f lower</w> 14129
consider able</w> 14128
car ter</w> 14121
exp ec 14116
attrac ted</w> 14113
at om 14112
th ly</w> 14110
gul f</w> 14105
tu m</w> 14103
app le</w> 14098
landsc ape</w> 14090
vo ices</w> 14089
ir d</w> 14088
h - 14087
g ins</w> 14087
sp ell</w> 14087
eigh th</w> 14077
gri p</w> 14073
190 5</w> 14072
lo aded</w> 14066
defe ating</w> 14066
ortho dox</w> 14065
tr act</w> 14063
fol ded</w> 14063
ai m</w> 14061
fac ts</w> 14059
ky o</w> 14055
b ish 14053
thr one</w> 14048
avi ation</w> 14048
superi or</w> 14048
pol e</w> 14047
zer o</w> 14047
hel ic 14045
pro hi 14044
viol ent</w> 14040
charlo tte</w> 14040
8 0 14037
deep ly</w> 14036
re m 14032
suff icient</w> 14029
st ol 14025
legisl ation</w> 14024
ou ter</w> 14020
hi ding</w> 14020
guit arist</w> 14020
al o</w> 14018
mon u 14017
9 1</w> 14016
sol ar</w> 14014
graphi cal</w> 14013
where as</w> 14010
m ir</w> 14004
in nings</w> 14004
law rence</w> 14002
up set</w> 14001
ham mad</w> 14000
pl astic</w> 13998
constitu tional</w> 13991
metr o</w> 13991
alo gue</w> 13982
for cing</w> 13979
stro ke</w> 13979
see king</w> 13977
char ter</w> 13972
gho st</w> 13971
se ek</w> 13969
replac ement</w> 13969
ame ter</w> 13968
ac ked</w> 13967
achi eve</w> 13960
k shire</w> 13957
f ed</w> 13957
legen d</w> 13950
kenne dy</w> 13948
car l</w> 13946
diag no 13946
accoun ts</w> 13944
ch a</w> 13939
franchi se</w> 13933
soci alist</w> 13932
requi res</w> 13922
dis c</w> 13921
ban k 13919
atlan ta</w> 13919
ra ising</w> 13913
car di 13913
ul ation</w> 13909
r h 13908
ed ited</w> 13907
el e</w> 13906
p ants</w> 13904
har ris</w> 13904
k om 13901
ell er</w> 13901
ab bey</w> 13899
as sin 13898
convinc ed</w> 13895
je ans</w> 13893
st akes</w> 13886
den mark</w> 13886
fl ash</w> 13885
immedi ate</w> 13884
ne e</w> 13880
v y 13878
ex tra 13878
tr ading</w> 13876
smar t</w> 13872
190 6</w> 13861
lun ch</w> 13860
col our</w> 13859
is sa</w> 13858
bel gium</w> 13858
san g</w> 13854
extre me</w> 13852
shi r 13851
w ound</w> 13848
cri ed</w> 13846
in stan 13843
gl as 13838
sol ve</w> 13825
ed in 13818
sur ed</w> 13808
cl oud</w> 13801
bom b</w> 13800
f led</w> 13799
ni ghts</w> 13799
neu ro 13798
ma i 13792
practic es</w> 13789
pre vent 13775
rif le</w> 13775
it ted</w> 13774
me etings</w> 13773
gr as 13772
th ed</w> 13769
f ai 13767
ho sts</w> 13764
or leans</w> 13759
cor rid 13759
licen se</w> 13759
j ay 13758
inten se</w> 13756
v ec 13753
the - 13746
bro ws</w> 13744
u pri 13740
correc t</w> 13740
quali fying</w> 13739
fu ck</w> 13736
de pression</w> 13733
spr ings</w> 13730
newspap ers</w> 13729
er ies</w> 13728
scre en 13726
critici zed</w> 13726
industri es</w> 13724
descri be</w> 13720
caval ry</w> 13719
braz ilian</w> 13714
6 00</w> 13710
a ar 13708
n s 13708
sur vey 13708
grad ually</w> 13705
se bas 13699
corpor ate</w> 13694
d ak 13693
or al</w> 13693
broad way</w> 13691
ac u 13684
c on</w> 13682
ch o</w> 13682
wh el 13675
kic ked</w> 13674
ver ing</w> 13665
190 7</w> 13665
ru ss 13664
commission er</w> 13663
connec tic 13662
sc ru 13661
ed it 13660
cont ra 13659
sent ence</w> 13658
use ful</w> 13657
ge on</w> 13649
int ell 13647
190 9</w> 13643
colum n</w> 13640
ves sel</w> 13639
dol lars</w> 13637
p ages</w> 13635
requi rements</w> 13634
comman ded</w> 13632
ott oman</w> 13630
de ar</w> 13629
escap ed</w> 13628
boun dary</w> 13622
i ous</w> 13621
voivo de 13616
r ounds</w> 13611
v als</w> 13609
circum stances</w> 13609
custom ers</w> 13608
indi genous</w> 13607
bor ne</w> 13605
cou ch</w> 13602
ous ness</w> 13597
t es 13596
f ault</w> 13595
se an</w> 13593
vel and</w> 13592
connectic ut</w> 13591
hun gary</w> 13586
deni ed</w> 13584
ta h</w> 13582
desig ner</w> 13575
ul es</w> 13574
monu ment</w> 13568
se th</w> 13567
il legal</w> 13566
org an</w> 13560
be i 13556
critic ism</w> 13549
dec lined</w> 13547
qui si 13544
p ace</w> 13543
ten der</w> 13543
bru ce</w> 13540
inde x</w> 13539
t wit 13535
sc and 13534
aut onom 13525
ar n 13522
tran smis 13521
voivode ship</w> 13521
be ars</w> 13516
por ted</w> 13514
fac tion</w> 13512
success or</w> 13511
sha w</w> 13499
frequ ency</w> 13497
revolu tionary</w> 13495
du st</w> 13492
cri tic</w> 13490
s now 13486
ed die</w> 13486
6 , 13485
h u</w> 13480
net works</w> 13473
show er</w> 13472
h att 13469
ad mit</w> 13469
ex cu 13469
air e</w> 13468
j ective</w> 13461
celebr ated</w> 13461
na ked</w> 13460
ann er</w> 13458
chemi stry</w> 13452
inter ven 13449
hi sp 13441
1 ,000</w> 13439
par ks</w> 13438
n t</w> 13428
low ered</w> 13427
destruc tion</w> 13427
har t</w> 13421
cinem a</w> 13417
claim ing</w> 13414
for d 13412
b low</w> 13406
ex it</w> 13404
st un 13401
jon athan</w> 13393
bal ti 13389
break fast</w> 13387
cu tting</w> 13372
stret ched</w> 13369
edin burgh</w> 13366
ste ady</w> 13365
ba i</w> 13365
an xi 13362
defin ition</w> 13362
se u 13359
admir al</w> 13359
k h</w> 13355
me at</w> 13354
f ate</w> 13353
ab c</w> 13349
ec o 13340
experi ences</w> 13340
roman tic</w> 13338
propos al</w> 13338
survi ving</w> 13333
in ary</w> 13325
b are</w> 13323
occa sions</w> 13322
ta g</w> 13321
wel sh</w> 13316
ignor ed</w> 13309
dom ain</w> 13308
main tenance</w> 13305
do zen</w> 13303
gu ests</w> 13291
co ck</w> 13290
can cel 13289
cir cul 13289
t esti 13288
ukra ine</w> 13287
fant asy</w> 13287
influ ential</w> 13271
sha dows</w> 13265
ma h 13264
bar on</w> 13263
my ster 13256
modi fied</w> 13255
p ent 13251
is a</w> 13248
ra w</w> 13248
hal f 13248
haw k</w> 13245
hi ps</w> 13243
cl en 13243
au stin</w> 13237
twi sted</w> 13236
by e</w> 13232
psy chi 13232
car bon</w> 13231
pit ts 13229
austri an</w> 13226
tr ag 13223
strategi c</w> 13223
c af 13221
o ak</w> 13219
fu r</w> 13217
gra ham</w> 13217
p av 13213
t amil</w> 13205
te es</w> 13204
kno cked</w> 13201
g are 13198
stra igh 13197
boo k 13196
compon ents</w> 13196
contex t</w> 13190
mar shall</w> 13185
shor t- 13185
qu anti 13184
inf ra 13184
inju ries</w> 13184
mer ely</w> 13181
electric al</w> 13179
cla ire</w> 13178
do cu 13177
spirit ual</w> 13176
con fron 13170
fel low 13167
cl an</w> 13166
con feder 13164
la in</w> 13163
but ter 13162
sty les</w> 13161
medi um</w> 13160
liver pool</w> 13160
sound track</w> 13157
for gotten</w> 13155
in spir 13153
cop y</w> 13153
initi ative</w> 13147
vin ce</w> 13146
si gh</w> 13144
legislat ure</w> 13137
j amie</w> 13131
sc ope</w> 13130
no body</w> 13129
ai med</w> 13125
helic op 13124
cent ers</w> 13123
er t</w> 13122
ti ll</w> 13122
neigh bour 13119
lin d 13113
ambass ador</w> 13113
frank lin</w> 13112
ac re</w> 13107
h s</w> 13105
russ ell</w> 13105
tho logy</w> 13102
strong er</w> 13100
pa th 13098
kne e</w> 13092
fi a</w> 13090
ass assin 13089
se ed</w> 13083
k l 13079
clim bed</w> 13074
cryst al</w> 13070
pea ked</w> 13069
e v</w> 13068
person ality</w> 13063
honor ary</w> 13056
mil ls</w> 13055
12 th</w> 13052
p c</w> 13047
cle veland</w> 13047
re move</w> 13041
mon ster</w> 13039
ad ams</w> 13038
cover age</w> 13036
f** king</w> 13035
bo tt 13034
n ba</w> 13033
re ss</w> 13026
e ded</w> 13020
5 , 13019
aw a</w> 13018
comm em 13017
d .c.</w> 13016
sp l 13013
uni form</w> 13009
competi tions</w> 13007
jac ket</w> 13007
abs ence</w> 13007
replac ing</w> 13004
t ape</w> 13003
sa x 12998
b ble</w> 12997
k as 12997
happ ens</w> 12995
habit at</w> 12995
excep tion</w> 12992
hosp it 12988
voc al</w> 12988
in der</w> 12986
avo i 12986
electric ity</w> 12978
hy per 12976
bas in</w> 12973
lt d</w> 12971
kill er</w> 12958
ves sels</w> 12958
d less</w> 12957
ann ually</w> 12953
amaz ing</w> 12951
d ation</w> 12949
won dering</w> 12948
fil med</w> 12946
e k 12945
o ts</w> 12944
ser ver</w> 12943
dy nam 12943
malay sia</w> 12940
190 2</w> 12939
hon our</w> 12936
collec tions</w> 12931
mis sion 12929
w en 12925
tem por 12925
luc as</w> 12923
holi day</w> 12923
an ticip 12919
m oo 12917
j essi 12914
in duc 12910
stat ue</w> 12907
rar ely</w> 12903
hom o 12896
p son</w> 12895
ch ro 12893
six - 12892
en coun 12891
busin ess 12887
pro of</w> 12883
st aying</w> 12880
at us</w> 12880
jac ob</w> 12880
med als</w> 12874
cross - 12874
emi ly</w> 12872
f i</w> 12871
portu gal</w> 12870
190 4</w> 12861
au dio</w> 12858
e o</w> 12856
thu si 12856
com fort</w> 12851
rob in</w> 12850
desc end 12850
vi enna</w> 12849
sug gest</w> 12849
ex plan 12847
ent ation</w> 12843
ri val</w> 12841
serv ation</w> 12841
nor man</w> 12835
fal se</w> 12835
fil es</w> 12832
comple tion</w> 12830
spons ored</w> 12828
proces ses</w> 12826
r he 12824
effec tively</w> 12820
to kyo</w> 12819
b ite</w> 12815
bac ks</w> 12815
lu s</w> 12812
proces sing</w> 12812
le ep</w> 12811
revi val</w> 12811
ver sus</w> 12809
tr y 12808
resid ent</w> 12805
is er</w> 12804
o ta</w> 12797
w . 12796
ss a</w> 12793
g ym 12792
10 ,000</w> 12790
con ce 12787
8 00</w> 12785
u a</w> 12783
in ches</w> 12781
sear ching</w> 12779
ambi gu 12776
territ ories</w> 12774
ric o</w> 12766
bar a</w> 12765
christop her</w> 12763
minim um</w> 12758
great ly</w> 12751
mona stery</w> 12751
13 th</w> 12749
or i</w> 12745
ici ency</w> 12741
ru shed</w> 12739
never th 12739
chi ck 12738
warri ors</w> 12735
do s</w> 12734
posse ssion</w> 12733
ac knowle 12731
el der</w> 12729
ther ed</w> 12727
neverth eless</w> 12726
v ast</w> 12724
an no 12724
j et</w> 12723
gl aci 12722
ar o 12715
jo y</w> 12715
way ne</w> 12712
s ch</w> 12705
h r</w> 12705
ma ine</w> 12703
chron ic 12699
balti more</w> 12685
k le</w> 12684
ox y 12682
ran g</w> 12679
t ang 12678
sum mit</w> 12678
perfec tly</w> 12678
en thusi 12677
compe ting</w> 12677
docu ment</w> 12667
sh r 12666
encour aged</w> 12666
10 . 12664
190 3</w> 12664
ey ed</w> 12662
s ad</w> 12659
ag er</w> 12659
mechan ical</w> 12656
har dly</w> 12654
rel ation</w> 12652
ex hau 12651
far mers</w> 12651
po ems</w> 12649
c . 12642
gra b</w> 12640
execu ted</w> 12637
stor y 12627
symbo l</w> 12624
i di 12615
scienti sts</w> 12614
-y ard</w> 12614
le aning</w> 12608
excell ent</w> 12608
ar rest</w> 12607
ari o</w> 12607
bor ders</w> 12605
bad ly</w> 12595
vo ic 12589
grad es</w> 12586
re aches</w> 12585
c ited</w> 12581
g ang 12580
ju ris 12578
nel son</w> 12578
la kes</w> 12576
sing h</w> 12574
mat h</w> 12573
but ton</w> 12571
ch and 12569
c ed 12568
thro wn</w> 12568
musc les</w> 12558
bo x 12554
le ton</w> 12553
we d 12552
broo k</w> 12552
19 20s</w> 12548
ten d</w> 12547
190 1</w> 12546
0 8</w> 12544
exi sts</w> 12544
desc ent</w> 12540
fit ted</w> 12537
in formed</w> 12534
cre ature</w> 12534
integr ated</w> 12534
fun ded</w> 12532
harb or</w> 12527
thom pson</w> 12524
invol vement</w> 12523
domin ated</w> 12523
ch al 12521
om ing</w> 12516
l on</w> 12513
h ence</w> 12513
ren t</w> 12513
as leep</w> 12511
pro file</w> 12510
rest oration</w> 12507
car los</w> 12501
ell i</w> 12498
na zi</w> 12498
mit ch 12498
indone sia</w> 12498
gl en 12497
off - 12492
clo se 12488
commer ce</w> 12487
descrip tion</w> 12487
0 9</w> 12486
adverti sing</w> 12486
produc ers</w> 12485
fif ty</w> 12485
in ha 12483
m ates</w> 12482
hear t 12481
ph a</w> 12480
com prehen 12478
z ane</w> 12476
experim ental</w> 12476
bi ble</w> 12475
g mina</w> 12474
ex act</w> 12473
am p</w> 12472
on ym 12468
ho u</w> 12468
ga p</w> 12464
shar ing</w> 12458
simul tane 12458
advent ure</w> 12455
ge - 12454
architec tural</w> 12453
b ath</w> 12452
le t 12452
ea e</w> 12449
e at 12448
am end 12447
b alls</w> 12437
hel ps</w> 12436
cred its</w> 12433
p seu 12429
per mission</w> 12426
juli an</w> 12425
per su 12423
gri ff 12419
bar s</w> 12412
di al 12406
pho en 12405
te ach</w> 12398
t as 12397
re covered</w> 12397
de e</w> 12397
te sted</w> 12390
vo ting</w> 12390
ab solu 12387
are st</w> 12386
interrup ted</w> 12381
figh ters</w> 12378
em erg 12376
e x</w> 12375
bat tery</w> 12369
ra in 12365
hall way</w> 12358
relation ships</w> 12354
shar es</w> 12353
fi x</w> 12345
thin ks</w> 12343
ben ch</w> 12340
dec line</w> 12336
gradu ating</w> 12336
terri ble</w> 12334
w rec 12333
ea fter</w> 12329
simil arly</w> 12329
as ser 12322
dow ns</w> 12321
la b</w> 12319
mi stake</w> 12317
in fl 12315
thro wing</w> 12314
at t</w> 12310
contro vers 12309
deci sions</w> 12308
c kets</w> 12305
lu ck</w> 12305
dis ney</w> 12305
controvers y</w> 12303
s ke 12292
um es</w> 12292
w ing 12291
t ul 12290
le o</w> 12289
m ack 12278
i um</w> 12276
k im 12275
pregn ant</w> 12275
prac tical</w> 12274
gro ve</w> 12271
bu ll</w> 12270
cl ass 12270
elim inated</w> 12263
cab in</w> 12257
7 , 12253
roman ia</w> 12253
gl asses</w> 12250
classi fication</w> 12249
nichol as</w> 12249
mer chant</w> 12246
scre amed</w> 12245
conv enti 12243
col leges</w> 12242
emo tions</w> 12240
death s</w> 12240
se ssions</w> 12238
ro w 12233
ste wart</w> 12233
10 th</w> 12232
gene tic</w> 12232
g av 12224
war ren</w> 12222
ten sion</w> 12221
go al 12220
depar ture</w> 12217
vir gin</w> 12216
exter nal</w> 12214
ran ks</w> 12208
bloo dy</w> 12207
a to</w> 12200
li s 12200
ru pt</w> 12200
deep er</w> 12200
p anic</w> 12193
br y 12191
me - 12190
mil k</w> 12189
pre served</w> 12188
schol ar</w> 12186
col ored</w> 12185
po sted</w> 12183
gover nor 12183
youn gest</w> 12171
confu sion</w> 12171
es - 12170
a ked</w> 12169
girl friend</w> 12168
sp er 12165
remin ded</w> 12164
la dies</w> 12160
a sts</w> 12159
15 th</w> 12157
p pi 12155
q i</w> 12154
elev ation</w> 12151
c ers</w> 12148
logi c</w> 12148
jud g 12148
dru ms</w> 12147
r ant</w> 12145
alcoho l</w> 12144
be ar 12140
rele v 12137
j ury</w> 12136
sup pose</w> 12135
el se 12133
progre ssive</w> 12131
liqu id</w> 12131
bac ter 12129
vic e- 12123
discus sion</w> 12122
intell ec 12121
coo per</w> 12118
hel en</w> 12117
batt le 12116
app ly</w> 12115
bak er</w> 12114
hea ven</w> 12112
pitts burgh</w> 12110
competi tive</w> 12109
nov a</w> 12107
pri de</w> 12105
gen re</w> 12104
bl ind</w> 12103
da wn</w> 12102
cul tiv 12101
lim its</w> 12099
m ingham</w> 12097
re luc 12095
domin ant</w> 12092
out put</w> 12089
we i 12087
controversi al</w> 12087
y ours</w> 12085
recomm ended</w> 12083
sc hi 12080
shi p 12076
h ull</w> 12072
- day</w> 12068
e a</w> 12066
oper ational</w> 12066
ati vely</w> 12065
indi ans</w> 12065
statisti cs</w> 12064
m ess</w> 12060
par tly</w> 12058
comm ent 12058
pro - 12056
mu s</w> 12054
eg gs</w> 12054
me l</w> 12052
pier re</w> 12051
stop s</w> 12049
an cy</w> 12047
identi fy</w> 12047
strugg led</w> 12041
f s</w> 12040
she et</w> 12039
pat rol</w> 12037
m ood</w> 12033
phar mac 12033
substan tial</w> 12032
susp ended</w> 12031
a king</w> 12030
le m 12030
recogni ze</w> 12027
0 7</w> 12026
ish ment</w> 12024
appar ent</w> 12024
fun eral</w> 12021
instan tly</w> 12021
mur ray</w> 12020
suppor ters</w> 12017
inter section</w> 12012
hisp anic</w> 12012
s ley</w> 12011
wal ks</w> 12010
life time</w> 12007
e o 12005
gabri el</w> 12001
frequ ent</w> 11996
occa sion</w> 11991
ou se</w> 11987
song writer</w> 11987
instru ment</w> 11987
g em 11986
reven ue</w> 11984
pen alty</w> 11978
pur ple</w> 11972
m all</w> 11971
sebas tian</w> 11971
pro vinc 11970
sho ts</w> 11969
tour ing</w> 11965
dram atic</w> 11965
fi es</w> 11961
scholar ship</w> 11961
pit ch</w> 11959
affili ated</w> 11959
ele y</w> 11956
stan ley</w> 11953
argu ment</w> 11953
en for 11952
infra structure</w> 11949
rema inder</w> 11947
ext ent</w> 11942
dir ty</w> 11941
co tt 11940
go w</w> 11939
in sec 11938
dri vers</w> 11938
opport uni 11933
ell o</w> 11931
ag ement</w> 11930
d as</w> 11926
par ker</w> 11925
plac ing</w> 11925
ko v</w> 11925
un fortunately</w> 11924
sli de</w> 11922
represent ation</w> 11918
pres sing</w> 11914
co ck 11909
swe e 11909
e tr 11907
on er</w> 11906
compil ation</w> 11906
n bc</w> 11901
remo te</w> 11896
disc uss</w> 11890
d ar</w> 11889
rob inson</w> 11888
hon ey</w> 11882
licen sed</w> 11882
an c 11880
chec ked</w> 11876
d or</w> 11875
al fred</w> 11875
om a</w> 11875
tran sit</w> 11875
princi ples</w> 11875
victori an</w> 11874
go sla 11871
concentr ation</w> 11866
d ad 11865
particip ation</w> 11864
enem ies</w> 11864
v la 11863
le ban 11862
lat est</w> 11860
astr onom 11859
d ently</w> 11858
solu tions</w> 11858
touch down</w> 11858
fig ur 11856
transi tion</w> 11856
concer ts</w> 11853
pre ferred</w> 11849
14 th</w> 11847
suspec ted</w> 11847
boo ts</w> 11846
la yer</w> 11842
emo tional</w> 11842
0 5</w> 11839
g ear</w> 11836
juli a</w> 11836
t u</w> 11835
repor ter</w> 11835
engine ers</w> 11832
dist ant</w> 11831
en han 11829
pul se</w> 11828
a ks</w> 11827
min es</w> 11826
bio graphy</w> 11822
el ine</w> 11821
parti ally</w> 11820
f at</w> 11819
n ak 11818
par ent</w> 11817
c bs</w> 11815
ther eafter</w> 11815
dra fted</w> 11814
su san</w> 11812
su itable</w> 11811
scre am</w> 11811
comm ented</w> 11810
no vel 11803
over whel 11799
camp bell</w> 11792
per cent 11791
el ing</w> 11790
mur m 11783
inten tion</w> 11780
sie ge</w> 11778
fun dam 11777
ligh ting</w> 11777
pe ace 11775
acc essi 11774
vo y 11773
t ent</w> 11770
- to- 11767
bir mingham</w> 11766
discus sed</w> 11765
portra yed</w> 11762
ra d</w> 11759
ear ning</w> 11758
intro duc 11757
mar sh 11756
ag encies</w> 11753
ai de</w> 11748
benef its</w> 11748
wi desp 11747
murm ured</w> 11744
ar kansas</w> 11743
gu ine 11742
t ale</w> 11740
ea st 11740
widesp read</w> 11740
guar an 11737
p in</w> 11730
ban e</w> 11729
sc rat 11727
p ec 11723
hor n</w> 11723
car go</w> 11722
en cing</w> 11719
gener ated</w> 11718
phen om 11716
lea f</w> 11715
ran ean</w> 11714
yu gosla 11713
st ev 11712
clin ical</w> 11711
li an</w> 11708
transmis sion</w> 11708
sla ve</w> 11705
chann els</w> 11704
cr ying</w> 11701
beat en</w> 11695
loo p</w> 11694
mol ecu 11694
b lake</w> 11690
anim ated</w> 11686
tri bes</w> 11685
pa int</w> 11685
aff air</w> 11682
vide os</w> 11677
d anny</w> 11667
dur e</w> 11667
be tra 11665
righ t- 11665
guar dian</w> 11663
we ird</w> 11662
sain ts</w> 11662
defen ding</w> 11653
mar ath 11651
enti ally</w> 11651
swal lowed</w> 11650
conn or</w> 11644
deta iled</w> 11644
0 1</w> 11639
co tton</w> 11638
opportuni ties</w> 11634
manag ing</w> 11625
re tt</w> 11624
indic ate</w> 11622
tur n 11620
musc le</w> 11619
sp en 11617
re ser 11616
bang la 11615
p o</w> 11611
civili an</w> 11611
writ es</w> 11605
resear chers</w> 11605
ri char 11602
nom ination</w> 11602
oli ver</w> 11602
li thu 11599
im mun 11597
op h 11595
tra ditionally</w> 11595
nin th</w> 11595
particip ants</w> 11594
absolu tely</w> 11592
is le</w> 11589
oun ced</w> 11586
g lar 11582
yel led</w> 11581
fair ly</w> 11581
diam ond</w> 11581
sh am 11577
ab er 11571
ou l</w> 11564
lin ks</w> 11564
v ow 11562
po d</w> 11561
el ite</w> 11560
commem or 11553
i v 11551
du o</w> 11551
y on</w> 11550
kil ome 11542
arrang ement</w> 11541
end or 11540
organ ised</w> 11540
m am 11535
w es 11533
mor ris</w> 11525
them es</w> 11515
st ag 11514
be half</w> 11510
b at</w> 11505
friend ship</w> 11504
2 50</w> 11503
ven ue</w> 11499
ce ased</w> 11499
per si 11495
sheri ff</w> 11491
e ased</w> 11490
f old</w> 11487
de tail</w> 11487
y am 11485
no ble</w> 11484
mi es</w> 11482
egyp tian</w> 11480
n ell</w> 11479
di st</w> 11479
pro c 11478
fin land</w> 11477
govern ments</w> 11476
al lies</w> 11473
door way</w> 11473
man or</w> 11469
app ing</w> 11466
j es 11463
pu ts</w> 11463
sun g</w> 11457
fur ther 11454
ke l</w> 11452
symph ony</w> 11448
c ats</w> 11445
ob tain</w> 11444
big ger</w> 11443
rele ases</w> 11441
logi sts</w> 11439
di ameter</w> 11437
wa ved</w> 11437
jud ges</w> 11434
rati o</w> 11434
instru mental</w> 11432
def end</w> 11429
g age</w> 11424
car ri 11423
vul ner 11423
cel er 11420
provinc es</w> 11420
ru ling</w> 11419
ru m 11416
sec ured</w> 11413
pa st 11412
co s</w> 11407
ab road</w> 11406
liter ally</w> 11406
perio ds</w> 11404
con fes 11400
ess ential</w> 11397
er ected</w> 11394
189 8</w> 11393
popul ations</w> 11391
rep air</w> 11388
alle ged</w> 11387
abu se</w> 11386
sti r 11383
regi me</w> 11380
suppor ts</w> 11379
atten ding</w> 11378
do ck</w> 11376
don ated</w> 11372
z en 11370
di rt</w> 11368
fo li 11368
al leg 11361
oc k</w> 11361
therap y</w> 11361
y ers</w> 11358
boy friend</w> 11357
sh an 11354
tel eph 11353
pre dec 11344
11 th</w> 11344
c el</w> 11343
dou ble 11339
ac res</w> 11336
pl ying</w> 11331
fi st</w> 11328
10 00</w> 11325
else where</w> 11320
detec tive</w> 11316
ben jam 11313
shoc ked</w> 11313
squ e</w> 11312
pho to</w> 11310
exper t</w> 11307
ly - 11306
w ells</w> 11304
conn ect</w> 11304
sh ri 11303
mor al</w> 11303
hurric ane</w> 11300
t ing 11299
sil k</w> 11299
loc k 11287
bili ties</w> 11283
ti ally</w> 11281
o tic</w> 11275
histor ically</w> 11270
ec h 11268
jo han 11268
vill a</w> 11266
m ere</w> 11264
desper ate</w> 11264
dy n 11263
ac quisi 11262
confi dence</w> 11262
ex ce 11258
achiev ement</w> 11256
devi l</w> 11256
189 9</w> 11255
refu ge 11253
mach ines</w> 11250
du m</w> 11249
answ ers</w> 11248
189 0</w> 11245
man - 11244
le man</w> 11243
???? ??</w> 11242
commer ci 11242
athle tes</w> 11239
s man</w> 11238
port land</w> 11234
i den 11231
full- time</w> 11228
conventi onal</w> 11224
al g 11217
e ur 11216
conte sted</w> 11215
touri sm</w> 11212
er ia</w> 11211
displa yed</w> 11210
deli ber 11209
corrid or</w> 11209
t to</w> 11205
wonder ful</w> 11202
ne il</w> 11201
tai wan</w> 11201
ma x 11199
vent ure</w> 11198
e ase</w> 11197
p aying</w> 11193
g le 11190
l la</w> 11189
ta il 11188
se ven 11178
ag o 11175
premi ere</w> 11173
whisp er</w> 11172
l led</w> 11171
sub marine</w> 11168
ger mans</w> 11166
fiel der</w> 11165
warri or</w> 11165
tri als</w> 11164
vi br 11162
it ate</w> 11158
ac celer 11155
p assi 11153
fic tional</w> 11149
sym pa 11149
co di 11146
exc it 11142
ther es</w> 11141
wild life</w> 11137
r at</w> 11135
sti mul 11135
bio logical</w> 11133
wh en 11132
brook lyn</w> 11128
produc es</w> 11126
th ail 11118
s ag 11108
victi m</w> 11106
med iter 11104
0 6</w> 11102
et ary</w> 11098
l ingu 11096
spec im 11096
evol ution</w> 11095
peop les</w> 11089
dic t</w> 11089
ro cky</w> 11087
benjam in</w> 11087
ha ir 11085
ga ining</w> 11084
swit ch</w> 11081
chan cell 11080
gr un 11077
arri ve</w> 11076
v au 11074
m ati 11072
connec ting</w> 11072
resi ding</w> 11069
bar ry</w> 11068
autom atic</w> 11068
ha i 11067
s ket 11065
fer ry</w> 11065
fri ed 11062
cl as 11061
se as 11058
doub les</w> 11058
character istics</w> 11057
exerc ise</w> 11054
incre di 11053
tex ts</w> 11053
re tri 11052
je an- 11049
insi sted</w> 11048
fo ster</w> 11046
li ga</w> 11045
to s</w> 11045
war ner</w> 11043
be ast</w> 11042
mitch ell</w> 11042
vinc ent</w> 11040
s ville</w> 11037
manu el</w> 11037
g w 11036
publi sher</w> 11036
pleas ant</w> 11032
thail and</w> 11032
emp lo 11030
tour ed</w> 11029
bo bby</w> 11024
with drew</w> 11024
attribu ted</w> 11023
categ ories</w> 11019
co inci 11018
eli gible</w> 11018
swe pt</w> 11016
el ed</w> 11014
mu m 11012
jo sh</w> 11011
al tar</w> 11010
dr unk</w> 11006
pre n 11001
techno logies</w> 10997
pr oud</w> 10996
gent le</w> 10996
win ds</w> 10993
fu ri 10989
r as</w> 10985
reci pi 10983
d g 10982
sculp ture</w> 10980
bel ong</w> 10977
conclu sion</w> 10976
mar cus</w> 10975
ni k</w> 10973
k ay 10967
portra it</w> 10966
arri ving</w> 10963
arc tic</w> 10962
princi ple</w> 10961
read s</w> 10955
inno cent</w> 10953
hamp shire</w> 10951
s p</w> 10948
over seas</w> 10943
ma kers</w> 10942
dismis sed</w> 10942
jer ry</w> 10940
brea the</w> 10937
i o 10934
travel ing</w> 10933
set tle</w> 10932
asse ts</w> 10930
u tah</w> 10926
rich mond</w> 10925
lin ear</w> 10920
d ness</w> 10916
reg ard</w> 10916
ent y</w> 10908
n un 10905
lor ds</w> 10905
jer u 10905
m are</w> 10903
demo lished</w> 10903
inst ant</w> 10902
reser vo 10901
wit ness</w> 10892
fo ssi 10888
vol umes</w> 10888
dra w 10886
2 ,000</w> 10885
patter ns</w> 10883
o ak 10879
in ate</w> 10879
en se 10876
contribu tion</w> 10875
m ason</w> 10873
deci des</w> 10873
teleph one</w> 10868
spac es</w> 10867
wor thy</w> 10866
di s</w> 10865
or m 10863
sa iled</w> 10860
har rison</w> 10860
ent re 10858
in al</w> 10857
r ings</w> 10855
y ang</w> 10853
percent age</w> 10853
0 4</w> 10852
re sort</w> 10850
cor rup 10850
ob jec 10849
magne tic</w> 10844
d ity</w> 10843
dro pping</w> 10838
believ es</w> 10838
afgh ani 10835
compon ent</w> 10834
z hou</w> 10831
glas gow</w> 10829
sla ves</w> 10828
in door</w> 10827
bri lli 10825
cri mes</w> 10822
well- known</w> 10822
mur dered</w> 10821
volunte er</w> 10820
mo tiv 10819
189 7</w> 10817
fil m 10813
assi sted</w> 10806
fil ling</w> 10800
sy mp 10798
a stro 10796
is ation</w> 10795
ran dom</w> 10795
im pressed</w> 10793
189 6</w> 10791
blin ked</w> 10788
repor tedly</w> 10783
pho sp 10780
mon day</w> 10779
se i 10778
poin ting</w> 10778
1. 5</w> 10777
k ow 10776
afghani stan</w> 10776
s mi 10775
pre f 10775
rail ways</w> 10774
arch bishop</w> 10774
deli very</w> 10769
de aling</w> 10768
lu is</w> 10765
regul ations</w> 10764
as sign 10760
op tions</w> 10756
phi l</w> 10754
ul timate</w> 10751
189 5</w> 10750
8 , 10748
thir teen</w> 10747
j ail</w> 10745
ra f</w> 10744
fif a</w> 10744
oppon ent</w> 10743
re ll</w> 10742
photo graphy</w> 10742
ev ans</w> 10738
ca therine</w> 10738
cla u 10738
spo ts</w> 10738
z am 10736
awar eness</w> 10735
adap tation</w> 10735
u l</w> 10733
car rier</w> 10732
my stery</w> 10732
tr e</w> 10729
r in 10726
cooper ation</w> 10724
lan g 10723
magaz ines</w> 10721
van cou 10721
phoen ix</w> 10721
attemp ting</w> 10720
s light</w> 10719
c attle</w> 10719
requ ested</w> 10718
when ever</w> 10718
li ly</w> 10717
sac red</w> 10717
i p 10713
pun k</w> 10713
jeru salem</w> 10711
t z 10706
st o</w> 10706
pre sti 10705
t ool</w> 10701
gu es</w> 10701
seg ment</w> 10701
low ing</w> 10700
a er 10699
a z</w> 10698
tou ching</w> 10695
s nor 10693
su gg 10691
ul ties</w> 10691
bel gian</w> 10690
e ous</w> 10686
po sing</w> 10680
ende mic</w> 10679
n ai 10675
ap ol 10675
war ned</w> 10675
isol ated</w> 10673
disp u 10668
lo ver</w> 10667
abo ard</w> 10667
organi c</w> 10665
y ar 10663
ro b</w> 10661
six teen</w> 10661
weal thy</w> 10661
m in</w> 10660
wri st</w> 10659
re tail</w> 10658
pas sion</w> 10653
ti ps</w> 10649
psycho logy</w> 10649
ho sti 10647
spr ing 10647
an ce 10640
deploy ed</w> 10636
r ing 10634
pu zz 10632
lo dge</w> 10628
vi o 10627
mediter ranean</w> 10627
deb t</w> 10624
zz y</w> 10623
continu ous</w> 10618
hu gh</w> 10617
o xi 10616
nur se</w> 10615
cre am</w> 10612
wol ves</w> 10609
en ni 10606
d j</w> 10603
c e- 10600
re built</w> 10599
arab ic</w> 10597
j ag 10595
mu d</w> 10595
w ire</w> 10594
bio logy</w> 10594
car ib 10589
sp un</w> 10586
further more</w> 10586
lon gest</w> 10585
ne arest</w> 10581
man hatt 10580
fortun e</w> 10580
pl ates</w> 10573
bi c</w> 10573
swit ched</w> 10566
drum mer</w> 10566
de em 10562
be am</w> 10562
wit ch</w> 10560
au tum 10558
st ard</w> 10557
on i</w> 10555
public ly</w> 10553
p at</w> 10552
ab ra 10552
ex trac 10549
tar ge 10549
d are</w> 10546
sho ved</w> 10540
fin ite</w> 10535
ini st</w> 10532
mon thly</w> 10531
hit ting</w> 10529
earth qu 10525
photograph s</w> 10525
cre atures</w> 10524
bru sh</w> 10524
r ami 10521
p alities</w> 10521
g ger</w> 10516
disa ster</w> 10512
ur i</w> 10509
vancou ver</w> 10508
spo tted</w> 10506
sensi tive</w> 10505
dru m</w> 10504
grand mother</w> 10504
fac il 10503
k le 10502
no ah</w> 10499
decor ated</w> 10494
to ssed</w> 10491
pit ched</w> 10489
plat forms</w> 10487
ar gue</w> 10483
bre w</w> 10483
character ized</w> 10474
vic h</w> 10473
pro pag 10471
ser bian</w> 10470
oppon ents</w> 10466
mar ines</w> 10464
h tt 10463
yor kshire</w> 10461
tic a</w> 10460
f lies</w> 10459
pre ce 10459
har t 10459
a ero 10456
p es 10456
b iting</w> 10456
ne ath</w> 10456
i o</w> 10454
tom s</w> 10454
ment ed</w> 10452
n hl</w> 10451
sm en</w> 10451
democr acy</w> 10450
volunte ers</w> 10450
th al</w> 10448
ev es</w> 10441
gre e 10440
on y 10438
ran gers</w> 10436
slo ven 10436
sett lers</w> 10435
connec tions</w> 10435
comp ound</w> 10433
st le</w> 10431
every where</w> 10430
scri min 10429
list ened</w> 10428
az er 10426
relev ant</w> 10425
lo - 10422
clo sure</w> 10422
pursu e</w> 10420
vo ters</w> 10418
sh ee 10417
buff alo</w> 10415
u x</w> 10414
ti ghtly</w> 10409
sol ute</w> 10407
sc an 10405
188 9</w> 10405
jo se 10402
sugg es 10401
t elec 10399
ne v 10399
comp ens 10399
bi bli 10399
business man</w> 10398
m ask</w> 10396
ne phe 10394
tru ste 10393
hu dson</w> 10390
reas on 10389
gather ing</w> 10385
fin nish</w> 10384
es sive</w> 10381
rec alled</w> 10381
por ch</w> 10377
hou sed</w> 10376
n us</w> 10374
pro spec 10374
atmo sphere</w> 10374
m . 10373
mor tal</w> 10371
chi ll</w> 10370
ru bbed</w> 10369
or - 10368
su s 10368
as m</w> 10367
cy lin 10367
valu able</w> 10367
wh ats</w> 10364
ri di 10360
justi n</w> 10359
ne ed 10355
vene zu 10355
iden tical</w> 10355
l ining</w> 10352
is lam</w> 10351
cu ts</w> 10350
ef a</w> 10349
citiz en</w> 10349
bar on 10348
c rit 10347
scrip ts</w> 10344
susta in 10344
st air 10343
s mu 10339
re t 10339
terr ori 10339
op ti 10338
min ority</w> 10338
wan g</w> 10332
hol ders</w> 10330
189 4</w> 10330
sc he</w> 10328
wi der</w> 10326
dro me</w> 10324
don t</w> 10323
oper ator</w> 10321
fing er 10318
mar t 10317
brea ks</w> 10317
m atic</w> 10315
j as 10311
ma ster 10311
eff icient</w> 10311
sar a</w> 10310
clim b</w> 10310
restric ted</w> 10306
cas u 10304
su rely</w> 10302
ow en</w> 10302
carib bean</w> 10302
brid ges</w> 10301
manhatt an</w> 10301
k g</w> 10299
189 3</w> 10297
hel lo</w> 10296
pp y</w> 10294
loc ally</w> 10294
k ap 10293
inter medi 10288
gi b 10284
lu cy</w> 10281
d ges</w> 10280
u c 10279
ti de</w> 10279
mini sters</w> 10276
li fting</w> 10273
slam med</w> 10269
fl ames</w> 10268
reve als</w> 10268
fil ming</w> 10264
188 5</w> 10262
tr aded</w> 10257
en ne</w> 10256
st ad 10255
wil l 10252
ss y</w> 10251
s ai 10250
stop ping</w> 10249
establi shing</w> 10244
for um</w> 10243
dat ab 10235
ri x</w> 10234
har a</w> 10233
12 . 10233
coun t 10229
cop per</w> 10228
g ari 10226
z om 10226
es a</w> 10226
ani e</w> 10223
nic ol 10222
del hi</w> 10218
thir ty- 10218
batt les</w> 10217
gi ants</w> 10216
bel ly</w> 10216
eag le</w> 10215
kar l</w> 10214
roo t</w> 10214
accessi ble</w> 10214
re located</w> 10213
enterpri se</w> 10211
c un 10210
mun d</w> 10210
tri bun 10209
na than</w> 10207
al lo 10202
l loy 10200
ma dison</w> 10200
exc av 10199
reve al</w> 10197
be aring</w> 10196
ap h 10196
der by</w> 10195
scre aming</w> 10195
ro ad 10194
dar ies</w> 10194
sevent e 10193
per ry</w> 10192
vir us</w> 10192
consist ent</w> 10192
v - 10187
man sion</w> 10187
doc tors</w> 10187
onym ous</w> 10185
fi x 10183
autum n</w> 10182
co l</w> 10181
ten ure</w> 10180
fe e</w> 10178
ari ties</w> 10178
fur nit 10178
n .</w> 10176
bu ses</w> 10175
be e</w> 10174
tic ket</w> 10174
i us</w> 10171
ol ds</w> 10168
co sta</w> 10168
vers ity</w> 10167
termin us</w> 10166
it i</w> 10162
bri stol</w> 10162
ge ome 10159
fir ing</w> 10157
3 d</w> 10155
wi ki</w> 10154
for ti 10152
ki dn 10152
col in</w> 10151
activ ated</w> 10150
ve gas</w> 10149
concer ning</w> 10148
ap s</w> 10146
certi fied</w> 10145
ro d</w> 10144
exc ited</w> 10140
gar age</w> 10137
p p</w> 10136
f icial</w> 10135
god de 10135
grad ed</w> 10134
belong s</w> 10134
v ary</w> 10130
so- called</w> 10129
coll ins</w> 10126
tur ner</w> 10125
number ed</w> 10122
har m</w> 10121
pup ils</w> 10121
ci st</w> 10120
invol ves</w> 10119
bl ame</w> 10117
inv ent 10117
sh ine</w> 10115
er ra</w> 10112
du al</w> 10112
ed a</w> 10112
initi ated</w> 10105
fit z 10104
t ori 10103
out door</w> 10103
189 2</w> 10101
reco very</w> 10100
hawai i</w> 10100
close st</w> 10100
sent enced</w> 10098
tan ks</w> 10097
st ea 10095
loc ks</w> 10095
0 2</w> 10090
sch ar 10090
bec k</w> 10089
a g</w> 10087
bar bara</w> 10086
tr inity</w> 10085
nu cle 10084
dis cover</w> 10079
a x</w> 10077
o g 10076
de voted</w> 10075
spea kers</w> 10075
roman ized</w> 10073
b ha 10071
first- class</w> 10071
ill ness</w> 10066
electr on 10066
r ors</w> 10064
enfor cement</w> 10064
di scre 10063
s inc 10061
reven ge</w> 10061
bill s</w> 10060
subur b</w> 10060
z im 10059
floo d</w> 10058
furnit ure</w> 10055
immigr ants</w> 10054
stol en</w> 10054
spor ting</w> 10053
ev acu 10050
lic a</w> 10047
je al 10045
c lan 10044
ran ging</w> 10040
mechan ism</w> 10040
al ised</w> 10038
h ul 10031
um a</w> 10030
lan ka</w> 10030
co s 10028
mil it 10028
el dest</w> 10027
sli p</w> 10026
tol er 10025
m ons</w> 10024
fin ed</w> 10024
prepar e</w> 10023
kni ghts</w> 10022
simultane ously</w> 10022
inter cep 10021
tra ditions</w> 10021
house holder</w> 10020
ul ate</w> 10019
clin ton</w> 10018
ec tions</w> 10017
il led</w> 10016
arch y</w> 10016
tri ple</w> 10015
certi fic 10015
hun gry</w> 10014
ti ger</w> 10009
mil an</w> 10009
phr ase</w> 10009
respec tive</w> 10006
boun daries</w> 10005
roman ian</w> 10004
ac eae</w> 10003
vie wing</w> 10000
cur ve</w> 9999
tow ers</w> 9999
san k</w> 9999
lat ino</w> 9994
per sian</w> 9991
rep ly</w> 9988
mer chan 9985
ade qu 9981
186 5</w> 9979
coll ective</w> 9978
st own</w> 9975
rebel lion</w> 9972
r s</w> 9968
n is 9966
gro ws</w> 9966
colle gi 9965
bre ad</w> 9963
pl enty</w> 9958
squee zed</w> 9956
pione er</w> 9955
con soli 9954
bi ke</w> 9954
0 3</w> 9953
ser bia</w> 9952
wor ker</w> 9951
ori gins</w> 9951
mad rid</w> 9945
chi le</w> 9942
oc e 9939
ple ased</w> 9938
l om 9936
u efa</w> 9936
hy bri 9935
thru st</w> 9935
sw ung</w> 9934
cli ff</w> 9934
supp le 9932
me tal 9931
bangla desh</w> 9930
pra yer</w> 9928
sk ull</w> 9924
war m 9917
spen cer</w> 9916
b or</w> 9913
recep tion</w> 9912
aff ect</w> 9907
regar dless</w> 9904
entre pre 9901
expla ins</w> 9899
ear n</w> 9898
tra pped</w> 9898
festiv als</w> 9895
dr o</w> 9893
accur ate</w> 9892
lu m 9891
excu se</w> 9891
plan ted</w> 9890
to dd</w> 9889
sha h</w> 9889
me al</w> 9888
ral ph</w> 9888
b u</w> 9887
ad m 9886
munici palities</w> 9886
mil li 9879
liber ty</w> 9877
bu tt 9875
tal es</w> 9873
b ric 9872
ani st</w> 9872
aw k 9872
kis sing</w> 9872
rhyth m</w> 9871
li kes</w> 9868
em y</w> 9868
subsi diary</w> 9868
r ons</w> 9867
jam a 9867
e ditions</w> 9860
li sa</w> 9860
der ek</w> 9857
asse ss 9857
s oo 9856
double - 9853
i ties</w> 9848
bre ast</w> 9847
musli ms</w> 9846
exclu sively</w> 9845
stre tch</w> 9844
s its</w> 9835
satis fied</w> 9835
st en</w> 9834
thum b</w> 9834
heal thy</w> 9832
bei jing</w> 9831
less ly</w> 9830
bru shed</w> 9829
christi an 9819
mani pul 9819
repor ting</w> 9817
gi gg 9813
emi gr 9813
quali fy</w> 9812
en orm 9811
189 1</w> 9811
188 8</w> 9809
inter nationally</w> 9808
con dem 9807
compu ters</w> 9805
mid night</w> 9800
188 0</w> 9799
exp lic 9797
azer bai 9796
e b</w> 9795
186 1</w> 9793
depar ted</w> 9793
br ings</w> 9788
l er 9787
186 4</w> 9787
prison er</w> 9787
tal ks</w> 9786
cro sses</w> 9784
tim ber</w> 9782
syst em 9781
ma ps</w> 9780
four teen</w> 9780
on going</w> 9777
belong ing</w> 9777
be st- 9775
susp en 9775
sle pt</w> 9773
y ester 9771
inc in 9770
hon est</w> 9770
alo g</w> 9767
1 20</w> 9766
f lights</w> 9766
por tions</w> 9766
m cc 9763
ti gers</w> 9763
str on 9763
p i</w> 9762
mat ure</w> 9762
lic ked</w> 9761
di verse</w> 9760
settle ments</w> 9759
implement ed</w> 9759
re sting</w> 9758
stan ts</w> 9758
er up 9756
al pha</w> 9756
ori th 9755
sin k</w> 9753
imp lic 9753
scienti st</w> 9752
fr ame 9751
ter ry</w> 9750
co aching</w> 9749
tr ace</w> 9747
deman ds</w> 9746
na po 9744
con version</w> 9743
t ours</w> 9738
gi o</w> 9738
negoti ations</w> 9737
mor t 9736
shi pping</w> 9735
fis her 9734
hol es</w> 9732
da w 9732
ang els</w> 9731
til ity</w> 9731
mo on 9730
in ti 9729
refl ected</w> 9728
9 , 9727
top - 9727
alg orith 9726
and o</w> 9722
rad ar</w> 9721
s ample</w> 9720
sh an</w> 9719
ber k 9718
186 2</w> 9714
ali en</w> 9713
explan ation</w> 9712
ro s</w> 9710
reli eved</w> 9708
y a 9707
tom my</w> 9707
du m 9704
com ment</w> 9703
exclu sive</w> 9703
p earl</w> 9702
v as</w> 9701
mu hammad</w> 9701
bit ch</w> 9699
ess ors</w> 9697
chancell or</w> 9697
g es 9693
un successful</w> 9692
at edly</w> 9691
camer on</w> 9690
comple ting</w> 9689
fi res</w> 9688
re duction</w> 9687
sch u 9686
refer ences</w> 9686
del ta</w> 9681
person ally</w> 9681
expo sure</w> 9680
po sts</w> 9678
collap sed</w> 9677
di scrimin 9672
d wi 9671
an thro 9669
harb our</w> 9668
lar ry</w> 9667
pric es</w> 9667
under neath</w> 9666
gas ped</w> 9664
lo west</w> 9662
substitu te</w> 9661
k em 9658
meas ured</w> 9658
at ri 9654
gl y 9653
ti sm</w> 9650
k op 9649
hon est 9649
194 0s</w> 9648
ter - 9643
en sis</w> 9641
sco res</w> 9640
go s</w> 9639
sc or 9639
ori ented</w> 9637
ag ers</w> 9636
fer ences</w> 9636
disp ute</w> 9636
archae ological</w> 9634
kan e</w> 9633
celebr ation</w> 9632
demonstr ated</w> 9632
k it</w> 9631
go sp 9629
incre ases</w> 9628
ci gare 9626
t ance</w> 9624
hero es</w> 9622
sw ing</w> 9611
pl ing</w> 9609
swe at</w> 9609
proper ly</w> 9604
bri s 9602
t rick</w> 9600
oli via</w> 9599
sav ing</w> 9598
tribu te</w> 9598
bu ri 9594
recogn ised</w> 9590
advis ory</w> 9586
la ura</w> 9584
kno ck</w> 9583
susp ici 9581
d ental</w> 9576
co aches</w> 9576
p ers</w> 9574
di versity</w> 9573
juris diction</w> 9573
7 00</w> 9570
doc tr 9569
emo tion</w> 9569
cho ir</w> 9567
t ine</w> 9566
aar on</w> 9565
wor ship</w> 9560
sp her 9559
conven i 9559
playo ffs</w> 9559
ad i</w> 9557
meas u 9549
amend ment</w> 9547
diffic ulty</w> 9545
main stream</w> 9544
prepar ation</w> 9544
manufac tured</w> 9539
ess entially</w> 9537
mani fe 9537
fro zen</w> 9535
a j</w> 9534
j ection</w> 9534
bas es</w> 9533
de vo 9531
travel led</w> 9531
bre eding</w> 9530
gradu ation</w> 9530
per spective</w> 9528
rober ts</w> 9526
pack age</w> 9525
der ly</w> 9524
ch in 9523
sel ect</w> 9519
clu t 9519
n ab 9515
explo sion</w> 9515
k s 9513
north western</w> 9513
mer ger</w> 9512
rac ed</w> 9512
elev ator</w> 9511
re mark 9510
hin du</w> 9508
op ens</w> 9505
form ers</w> 9505
refer ring</w> 9500
dyn amic</w> 9499
sub mitted</w> 9498
ri ley</w> 9497
pre d 9493
sha ke 9490
inc um 9489
g ural</w> 9488
exp and</w> 9485
shor t 9485
foc uses</w> 9483
sy ria</w> 9480
un incorporated</w> 9475
su its</w> 9474
mur phy</w> 9474
locomo tives</w> 9472
u ri 9470
radi cal</w> 9470
touri st</w> 9468
inau gural</w> 9467
am bu 9461
mar gin</w> 9450
cho col 9450
ch op 9445
sc oo 9444
j ol 9442
al aska</w> 9442
tri o</w> 9442
li am</w> 9441
descri bing</w> 9435
depart ments</w> 9435
attac king</w> 9435
is ab 9434
experim ent</w> 9432
l ington</w> 9431
ke ith</w> 9430
bal let</w> 9427
whe els</w> 9420
temper atures</w> 9420
ar - 9419
no - 9418
ter ror</w> 9416
186 3</w> 9416
lloy d</w> 9415
pl as 9412
but ler</w> 9411
c age</w> 9408
hel m</w> 9406
dest ination</w> 9406
shel ter</w> 9406
dre ssing</w> 9405
consum er</w> 9405
ver tical</w> 9404
congre gation</w> 9404
d . 9403
co g 9402
quali fication</w> 9401
def ended</w> 9396
end ar</w> 9395
is ms</w> 9394
inter state</w> 9394
interpre tation</w> 9393
histori ans</w> 9390
for tress</w> 9388
i vy</w> 9387
el abor 9386
qu ad 9386
de pos 9382
bour g</w> 9382
pro secu 9378
fir mly</w> 9377
car ries</w> 9377
cam ps</w> 9377
188 7</w> 9377
5 0,000</w> 9374
cr yp 9374
grand son</w> 9371
d ining</w> 9368
rec ur 9368
tri um 9365
cra ig</w> 9365
c ated</w> 9363
gre g</w> 9360
vis its</w> 9360
comm ons</w> 9358
inter views</w> 9358
speci alized</w> 9357
ten ing</w> 9356
signific ance</w> 9356
ter ies</w> 9353
te amm 9351
far ming</w> 9350
el - 9349
assu me</w> 9346
drag ged</w> 9341
mon it 9340
187 0</w> 9339
dev on</w> 9339
statisti cal</w> 9339
bee tle</w> 9336
re sumed</w> 9331
compani on</w> 9329
o id</w> 9328
at titude</w> 9328
ac ou 9327
zi e</w> 9325
ban ded</w> 9321
re i 9319
hei ghts</w> 9319
ta ke 9318
light ning</w> 9315
yester day</w> 9313
bo xes</w> 9312
cy clo 9311
pe te</w> 9310
cli ents</w> 9310
gen u 9304
fa x</w> 9304
collap se</w> 9301
con vince</w> 9300
e z 9297
impro vement</w> 9297
th en- 9294
so ver 9292
cu ba</w> 9292
par tial</w> 9291
bag s</w> 9286
stu art</w> 9285
or ph 9283
surren der</w> 9283
by z 9282
evol ved</w> 9281
d war 9280
al um 9280
ar sen 9278
con spir 9278
ate ful</w> 9278
in san 9277
cir cles</w> 9274
impres sive</w> 9274
e c</w> 9273
b . 9270
ent ers</w> 9270
origin ated</w> 9270
comprehen sive</w> 9268
ra w 9267
ty ler</w> 9266
depen dent</w> 9266
re treat</w> 9263
te x</w> 9261
fav our</w> 9261
car ved</w> 9260
pul ls</w> 9260
sk ill</w> 9259
indic ates</w> 9259
co ins</w> 9258
tt es</w> 9257
ban ned</w> 9257
f .c.</w> 9256
se al</w> 9254
colum ns</w> 9254
alter nate</w> 9253
bapti st</w> 9253
hi d</w> 9250
exp ecting</w> 9250
for ty</w> 9249
natur ally</w> 9248
di ver 9247
re sig 9243
di schar 9243
hon ors</w> 9243
niger ia</w> 9243
anc est 9243
vir tual</w> 9242
thir d- 9238
bern ard</w> 9237
n ity</w> 9236
sc out</w> 9234
mi st 9233
distinc tion</w> 9232
so ap</w> 9230
restaur ants</w> 9229
tor pe 9223
j ur 9222
k ai 9222
bri de</w> 9222
ab solute</w> 9219
sna ke</w> 9218
es sed</w> 9216
w au 9215
2 1st</w> 9214
in hi 9214
implement ation</w> 9214
mar s</w> 9212
mar ble</w> 9209
i eld</w> 9205
p airs</w> 9204
imag ined</w> 9204
de z</w> 9203
bon us</w> 9203
compar ison</w> 9201
foc using</w> 9197
ann i</w> 9196
ri ders</w> 9195
er nal</w> 9194
mess ages</w> 9192
v et</w> 9190
micro soft</w> 9190
lic s</w> 9187
st even</w> 9186
is cop 9186
promo ting</w> 9184
sover ei 9184
embar ras 9183
exam ination</w> 9182
acquisi tion</w> 9179
ic o</w> 9178
manufac turer</w> 9177
ad mini 9176
vo y</w> 9175
sw ear</w> 9175
lo ves</w> 9174
qu it</w> 9174
v ors</w> 9173
wa it 9173
o ch 9171
ant ine</w> 9169
sli ding</w> 9167
nephe w</w> 9166
as sum 9164
pun ishment</w> 9164
s ay 9163
adel aide</w> 9161
e i</w> 9160
sh ang 9159
narro wed</w> 9159
per cep 9157
bo xing</w> 9156
ash i</w> 9155
athle te</w> 9151
ath ens</w> 9150
i sts</w> 9149
e h 9148
d ome</w> 9147
inspir ation</w> 9147
be ver 9146
st om</w> 9145
fu cking</w> 9145
bre e 9142
sc attered</w> 9141
air lines</w> 9141
jo y 9139
jeff erson</w> 9139
air ing</w> 9134
guine a</w> 9132
cli ent</w> 9131
cur led</w> 9130
p ounds</w> 9129
tr am 9129
3 ,000</w> 9128
so m</w> 9125
bac king</w> 9123
empha sis</w> 9123
cal endar</w> 9122
assess ment</w> 9121
den nis</w> 9120
188 4</w> 9118
no wiki</w> 9117
top ics</w> 9117
gau ge</w> 9115
challeng ed</w> 9114
hol m</w> 9112
inher ited</w> 9109
keep s</w> 9108
isa ac</w> 9108
missi le</w> 9105
al pha 9104
bl on 9101
anim ation</w> 9099
g at 9096
e ed</w> 9093
fa iling</w> 9091
constan tly</w> 9091
kin ds</w> 9088
reservo ir</w> 9087
e ton</w> 9082
int ent</w> 9082
alber ta</w> 9082
re ed</w> 9081
amp ton</w> 9080
activi st</w> 9079
ori ous</w> 9078
survi val</w> 9078
som er 9076
dak ota</w> 9076
c ke 9072
p am 9071
ow ns</w> 9071
pe t 9071
glo be</w> 9071
prote sts</w> 9071
sy rian</w> 9068
ro cket</w> 9067
roman ce</w> 9065
ba h 9064
dun can</w> 9059
ro de</w> 9058
pic king</w> 9058
strugg ling</w> 9058
a in 9055
proce dure</w> 9052
tor n</w> 9049
sex y</w> 9048
shor ter</w> 9046
photo s</w> 9046
contro ls</w> 9045
mon um 9040
eigh teen</w> 9039
pri vi 9038
ic an</w> 9037
- e</w> 9035
bar cel 9035
fa int</w> 9034
low s</w> 9033
ta xes</w> 9031
clo th</w> 9031
he in 9030
ru ler</w> 9027
bris bane</w> 9026
del ic 9025
di ly</w> 9022
exten d</w> 9022
t ough</w> 9021
no where</w> 9021
gen o 9021
curi ous</w> 9021
in ser 9015
jer ked</w> 9015
z ard</w> 9014
tar gets</w> 9013
dem ons</w> 9013
ed ges</w> 9012
188 6</w> 9012
tun e</w> 9011
per u</w> 9010
dent ally</w> 9010
ti les</w> 9009
as er</w> 9009
sp in</w> 9009
character istic</w> 9008
188 1</w> 9007
collegi ate</w> 9004
fel d</w> 9003
cric ke 9001
n ered</w> 8999
go thic</w> 8999
ger ald</w> 8999
n ou 8998
augu st 8998
ach ment</w> 8997
cop y 8997
qu an 8994
vie wer</w> 8993
exten sively</w> 8992
indic ating</w> 8992
distinc tive</w> 8992
t ear</w> 8987
f aded</w> 8986
mom ent 8984
dra ke</w> 8982
mix ture</w> 8982
wo ke</w> 8981
th ful</w> 8977
vol ley 8975
t ful</w> 8972
ren e</w> 8972
b av 8971
ep s</w> 8968
deem ed</w> 8968
pat ent</w> 8965
ag an</w> 8964
ing en</w> 8964
travel s</w> 8964
cancel led</w> 8963
do - 8962
jer emy</w> 8960
um - 8958
mar tial</w> 8956
ak er</w> 8956
nu tri 8956
al ge 8954
equ ally</w> 8950
ir anian</w> 8946
godde ss</w> 8946
tra p</w> 8944
an- american</w> 8942
sh ep 8939
graphi cs</w> 8936
pay ment</w> 8936
ru shing</w> 8935
prin ting</w> 8933
par ade</w> 8932
bin ding</w> 8932
comm ents</w> 8931
direc tions</w> 8931
wid th</w> 8931
p ear 8930
execu tion</w> 8929
diplom atic</w> 8929
particip ating</w> 8928
regul ation</w> 8928
entrepre ne 8927
challeng es</w> 8926
fac e 8921
ess a</w> 8918
cardin al</w> 8918
inten sity</w> 8917
ra z 8916
sul tan</w> 8914
apo logi 8913
atten dance</w> 8912
dy lan</w> 8910
ky le</w> 8909
fav our 8907
helicop ter</w> 8906
bas ement</w> 8905
ide al</w> 8905
volley ball</w> 8905
mem bran 8903
f u</w> 8902
flow ing</w> 8901
serge ant</w> 8900
er i</w> 8899
den ver</w> 8897
experim ents</w> 8896
run ner 8894
ali gn</w> 8892
hop es</w> 8888
10 - 8886
k r 8885
o sity</w> 8883
can o 8883
influ ences</w> 8883
campaig ns</w> 8882
correspon ding</w> 8882
v s</w> 8879
le st</w> 8878
corrup tion</w> 8878
10 0,000</w> 8876
shar p 8876
per mitted</w> 8875
pra desh</w> 8875
the o 8874
le op 8872
j ab 8868
si c</w> 8866
enni al</w> 8866
gri m 8865
1 1. 8864
pre y</w> 8863
g el 8862
s by</w> 8860
nat i</w> 8860
pre domin 8857
tu de</w> 8856
fer n 8856
k re 8852
sc op 8852
na z 8851
smil es</w> 8851
en su 8850
pre serve</w> 8849
v ag 8848
ham mer</w> 8847
ev an</w> 8845
ru b 8842
nu t</w> 8842
2. 5</w> 8841
guil t</w> 8838
der - 8837
warm th</w> 8834
immigr ation</w> 8829
ligh tly</w> 8828
m im 8825
amoun ts</w> 8825
eng agement</w> 8820
ir rit 8818
bur ns</w> 8818
see ds</w> 8817
slov ak 8817
bo s 8813
far mer</w> 8812
oxy gen</w> 8811
democr at</w> 8809
k ho 8807
ver n</w> 8807
a is</w> 8806
le ap 8806
ob jective</w> 8806
nor folk</w> 8805
he els</w> 8805
gh ty</w> 8802
flo ors</w> 8794
for k</w> 8793
supp lied</w> 8793
prac tically</w> 8793
dis ambigu 8790
func tional</w> 8789
me i 8788
e in 8787
physi cian</w> 8787
resig nation</w> 8783
i op 8782
cap ita</w> 8780
wh er 8779
symp toms</w> 8779
far m 8778
tren t</w> 8777
desig nation</w> 8776
frame work</w> 8775
ch airs</w> 8774
pri s 8774
t enth</w> 8773
ab str 8771
en o 8768
convic ted</w> 8764
br ace</w> 8761
territ orial</w> 8761
c incin 8757
g m</w> 8757
secre ts</w> 8756
par adi 8747
id ance</w> 8747
a wake</w> 8746
ti ghtened</w> 8745
u h</w> 8744
re viewed</w> 8743
lo g</w> 8741
d ell</w> 8738
he brew</w> 8738
le eds</w> 8735
deli ver</w> 8735
rele asing</w> 8733
dol lar</w> 8732
le agues</w> 8727
en comp 8725
po is 8725
clou ds</w> 8725
sa o</w> 8724
wi dow</w> 8722
fe eding</w> 8713
sex u 8713
r ally</w> 8711
di er</w> 8711
ep iscop 8710
j r.</w> 8709
wash ed</w> 8702
physi cally</w> 8700
illustr ated</w> 8700
contribu ting</w> 8699
philipp ine</w> 8699
disambigu ation</w> 8699
me ad 8696
ran ch</w> 8695
car riage</w> 8695
playo ff</w> 8693
tempor arily</w> 8692
en counter</w> 8691
dra g</w> 8688
excit ement</w> 8687
har old</w> 8686
sm ir 8684
intellec tual</w> 8684
se ized</w> 8683
seri al</w> 8681
the ories</w> 8680
ww w. 8680
rela xed</w> 8678
prepar ing</w> 8676
li van</w> 8675
present -day</w> 8675
val ent 8674
judi cial</w> 8673
instruc tion</w> 8669
plan es</w> 8667
wi ped</w> 8658
m ali 8654
ab les</w> 8653
dise ases</w> 8652
es co</w> 8651
tru m</w> 8650
bri gh 8649
war e 8649
si ded</w> 8648
exhi bited</w> 8648
nick name</w> 8648
democr ats</w> 8647
gui ded</w> 8647
top ic</w> 8646
sign als</w> 8646
recomm end 8646
buddhi st</w> 8645
fl ashed</w> 8643
read ers</w> 8643
nev ada</w> 8642
er ror</w> 8639
concentr ated</w> 8639
ren a 8637
shu d 8635
appro aches</w> 8633
ro pe</w> 8630
liber ation</w> 8630
wel fare</w> 8623
hes itated</w> 8622
ma har 8621
cop e</w> 8621
prin ts</w> 8618
bul let</w> 8614
d op 8613
th under 8613
advent ures</w> 8610
veter an</w> 8610
out break</w> 8609
barcel ona</w> 8609
sand y</w> 8599
pi pe</w> 8596
scri bed</w> 8596
coll ect</w> 8596
mun ich</w> 8595
vio let</w> 8594
enorm ous</w> 8594
kar a</w> 8593
serv ant</w> 8592
en rolled</w> 8588
ro e</w> 8586
ack er</w> 8586
main land</w> 8586
c ec 8582
comman ding</w> 8581
greg ory</w> 8581
christian ity</w> 8578
cincin nati</w> 8578
th am</w> 8576
ridi cul 8576
ro gers</w> 8575
clim bing</w> 8574
h ali 8573
b re</w> 8572
attrac tive</w> 8571
f ay 8570
mari time</w> 8570
sh y</w> 8568
ense mble</w> 8568
bor e</w> 8567
pp ers</w> 8566
cul t</w> 8564
disp lac 8563
13 . 8563
gr o</w> 8561
eye brows</w> 8561
simp li 8557
d ley</w> 8555
186 0</w> 8554
g ical</w> 8553
th ai</w> 8553
ac les</w> 8553
diffic ulties</w> 8548
1 ,0 8547
188 2</w> 8547
ing e</w> 8546
writ ings</w> 8545
clen ched</w> 8545
arti ficial</w> 8543
ba stard</w> 8539
gre n 8536
incum bent</w> 8535
it arian</w> 8534
occa sional</w> 8534
ar c</w> 8533
ste am 8531
ai res</w> 8530
asp ect</w> 8530
hand ling</w> 8529
s field</w> 8525
long- term</w> 8523
ca ster</w> 8512
brilli ant</w> 8511
le m</w> 8510
bloo d 8508
n ol 8507
un d</w> 8504
journ alism</w> 8503
jes se</w> 8502
re now 8499
haw ks</w> 8499
autom atically</w> 8499
complic ated</w> 8495
vulner able</w> 8491
s no 8487
d oo 8487
renow ned</w> 8486
consci ousness</w> 8485
narr ative</w> 8485
ni k 8482
y u</w> 8481
ff led</w> 8480
o graphy</w> 8478
si erra</w> 8478
har sh</w> 8478
i van</w> 8477
ch es 8477
sou theastern</w> 8477
j in</w> 8476
ma z 8474
abo li 8473
thor ough 8473
b am 8472
tu ary</w> 8472
circu lar</w> 8471
sig nature</w> 8470
b old</w> 8469
ot ta 8469
instruc tions</w> 8469
confeder ate</w> 8469
christi ans</w> 8467
refl ect</w> 8467
boar ding</w> 8467
cro ps</w> 8461
sul livan</w> 8461
rebel s</w> 8457
prote ins</w> 8455
e h</w> 8454
eag les</w> 8451
bu l</w> 8450
and ers</w> 8450
mac ed 8449
situ ations</w> 8447
succ ession</w> 8445
hop e 8445
jac ob 8442
re verse</w> 8441
y i</w> 8439
ph ones</w> 8431
shu t 8431
ed ith</w> 8430
grow led</w> 8428
188 3</w> 8426
187 6</w> 8426
jo ke</w> 8425
187 8</w> 8425
min ster</w> 8424
rele gated</w> 8423
colom bia</w> 8423
radi ation</w> 8421
di vine</w> 8419
voc alist</w> 8418
myster ious</w> 8418
flo rence</w> 8417
the ology</w> 8416
repe atedly</w> 8416
and re</w> 8415
p ile</w> 8414
ro dri 8414
an nie</w> 8413
en vel 8413
am ster 8413
h ms</w> 8411
read er</w> 8410
has n</w> 8410
reduc ing</w> 8409
a es 8408
locomo tive</w> 8408
z h 8407
ne br 8402
die sel</w> 8402
ur us</w> 8399
g ant</w> 8398
bro ther 8398
every body</w> 8398
docum ented</w> 8398
al titude</w> 8395
ac on</w> 8394
ne pal</w> 8392
in ver 8391
re b 8391
en zy 8386
c dp</w> 8384
ch ev 8384
ib n</w> 8384
ch an</w> 8383
divor ce</w> 8383
f ool</w> 8381
gener ations</w> 8378
ja b</w> 8374
hit ler</w> 8374
ad dressed</w> 8373
o u</w> 8372
y o</w> 8370
tur ers</w> 8370
ed wards</w> 8370
ra ys</w> 8369
eng age</w> 8369
her bert</w> 8369
illu min 8369
resc u 8369
struc tural</w> 8368
metr e</w> 8368
le x 8367
armen ian</w> 8367
fl ash 8366
breath ed</w> 8366
oni sts</w> 8365
hel p 8363
appro aching</w> 8363
cler k</w> 8363
fundam ental</w> 8362
dec om 8360
dis solved</w> 8360
sc u 8357
mon itor</w> 8356
tournam ents</w> 8351
par k 8350
tr unk</w> 8349
cor n</w> 8349
transm it 8349
re f</w> 8347
hu gh 8347
te t</w> 8345
chick en</w> 8344
observ ation</w> 8342
gram mar</w> 8340
you tube</w> 8322
ow ed</w> 8321
ha un 8320
co t</w> 8319
lo go</w> 8318
tw ins</w> 8317
k ab 8316
se ated</w> 8314
ra ble</w> 8314
autom ob 8312
dro ps</w> 8310
fab ric</w> 8310
wi dened</w> 8309
li l 8308
ob ama</w> 8308
declar ation</w> 8307
was h</w> 8305
j ak 8304
pi lots</w> 8304
colon ies</w> 8303
fa ke</w> 8298
r ounded</w> 8296
v ar</w> 8296
comm enced</w> 8296
ang ered</w> 8296
ac tively</w> 8295
exten ding</w> 8292
arri ves</w> 8292
remo val</w> 8291
s wan 8290
gal ax 8290
ac cum 8289
tis sue</w> 8289
j ared</w> 8285
inha bited</w> 8285
leg ally</w> 8284
re source</w> 8283
gi ous</w> 8283
sk ele 8283
vi er</w> 8282
employ ee</w> 8277
ax is</w> 8275
ch t</w> 8274
si ck 8273
pen etr 8273
ban king</w> 8273
char le 8271
20 ,000</w> 8270
depic ted</w> 8268
hu g</w> 8267
mor oc 8266
archit ects</w> 8266
less ons</w> 8265
quarter back</w> 8261
p oured</w> 8260
f ail</w> 8259
du s</w> 8259
ran ges</w> 8258
l p</w> 8257
lan der</w> 8257
elev ated</w> 8255
el ic</w> 8249
cle aring</w> 8249
ken ny</w> 8248
midd le 8247
re sur 8245
as a</w> 8244
inter - 8244
p ause</w> 8242
ori um</w> 8242
ali zing</w> 8239
f ury</w> 8238
su ite</w> 8237
a ster 8235
cu stom</w> 8235
le tt</w> 8234
ssi onal</w> 8232
fi er 8229
nam ely</w> 8229
fran co 8228
187 1</w> 8226
fe wer</w> 8225
under graduate</w> 8224
re serves</w> 8223
lo e</w> 8223
pol l</w> 8223
lo vely</w> 8221
gg y</w> 8220
y al</w> 8219
tem ples</w> 8219
defen der</w> 8219
shee ts</w> 8219
ri val 8217
ab un 8217
vari ant</w> 8217
inc ar 8216
jo an</w> 8216
suspec t</w> 8216
sac rif 8214
su cked</w> 8212
kis ses</w> 8211
tom b</w> 8210
ro se 8209
ha ppi 8209
pe p 8207
ken ya</w> 8207
stri king</w> 8206
sequ el</w> 8206
bou lev 8206
mon go 8205
recei ves</w> 8205
bloc ked</w> 8205
eng li 8203
cur se</w> 8201
ga z 8200
connec ts</w> 8198
us age</w> 8195
slovak ia</w> 8195
amster dam</w> 8195
w u</w> 8194
ten tion</w> 8192
dre sses</w> 8191
g aria</w> 8190
ag onist</w> 8190
veter ans</w> 8188
sa iling</w> 8184
du g</w> 8183
bo ther</w> 8182
b b</w> 8180
molecu lar</w> 8180
187 5</w> 8178
del ayed</w> 8177
ir y</w> 8174
he ir</w> 8172
man ia</w> 8169
hospit als</w> 8168
contrac ts</w> 8167
-in- law</w> 8166
re vel 8165
en co 8165
cr ashed</w> 8165
authori zed</w> 8165
ignor e</w> 8165
h ans</w> 8164
re tro 8164
eff iciency</w> 8164
i on</w> 8163
sil ently</w> 8163
th y 8158
sc al 8158
ph d</w> 8158
ot to</w> 8158
believ ing</w> 8157
st ur 8156
mi st</w> 8156
stran ger</w> 8156
gi a</w> 8154
sha de</w> 8152
m t</w> 8150
or n</w> 8150
qu est</w> 8147
nebr aska</w> 8147
intermedi ate</w> 8145
sha ft</w> 8144
manu script</w> 8140
attrac tion</w> 8139
rabb i</w> 8139
ex emp 8138
s ar</w> 8137
posse ssed</w> 8137
ex ile</w> 8135
arm or</w> 8134
emerg ing</w> 8134
gr ass 8130
chocol ate</w> 8129
di ck 8128
gon z 8123
ro bo 8121
fear ed</w> 8121
g low</w> 8120
di l 8119
super vis 8119
ques tioned</w> 8118
st ored</w> 8117
phenom en 8112
lin er</w> 8111
less er</w> 8111
m w</w> 8106
autonom ous</w> 8105
mo thers</w> 8103
hal t</w> 8102
ent e</w> 8101
descend ants</w> 8100
ang lo- 8099
fa thers</w> 8099
pre mis 8093
ven ice</w> 8093
po d 8092
assi sts</w> 8091
eth iop 8090
mili tia</w> 8088
ro wed</w> 8086
ici an</w> 8085
collabor ated</w> 8085
dor f</w> 8084
y ale</w> 8083
arrang ements</w> 8083
mor s</w> 8082
inv itation</w> 8082
pp e</w> 8081
fem in 8081
congre ssional</w> 8081
rena issance</w> 8080
hand some</w> 8079
recipi ent</w> 8077
counc ill 8076
hor se 8075
advoc ate</w> 8075
stra ined</w> 8071
syn dic 8071
ford shire</w> 8069
encoun tered</w> 8069
o tt</w> 8068
mu tual</w> 8068
bic y 8068
en to</w> 8067
co ached</w> 8066
pol lu 8066
drag ons</w> 8066
bi es</w> 8063
investi gate</w> 8062
au x</w> 8061
peter sburg</w> 8061
ca de 8055
dom ini 8054
wo ol 8054
run ner</w> 8053
jen ni 8053
legi on</w> 8052
kilome ters</w> 8052
eri al</w> 8051
induc ted</w> 8051
de er</w> 8049
ai ds</w> 8048
ju lie</w> 8048
croati a</w> 8047
comp rises</w> 8046
camer as</w> 8044
reve aling</w> 8043
ac ces 8041
cont ents</w> 8041
custom s</w> 8041
p. m.</w> 8041
pla ins</w> 8040
f bi</w> 8039
war saw</w> 8039
hard ware</w> 8039
n ash 8037
par al 8037
they re</w> 8037
ga stro 8035
le ys</w> 8034
gil bert</w> 8031
mont gom 8027
per pe 8024
fle xi 8022
186 7</w> 8022
ad ol 8021
fre ight</w> 8020
dis banded</w> 8017
al arm</w> 8016
soci eties</w> 8016
sec ution</w> 8015
ten s</w> 8015
lef t- 8015
sa ke</w> 8013
r al</w> 8012
hol land</w> 8010
cor ners</w> 8009
sp ine</w> 8006
bom bing</w> 8006
argent ine</w> 8006
chor us</w> 8005
se ment</w> 8004
far ms</w> 8002
flo ating</w> 8000
predec essor</w> 7998
neighbor ing</w> 7997
car ed</w> 7993
ext inct</w> 7993
pris oned</w> 7991
el o 7990
ven s</w> 7990
gen es</w> 7988
impro vements</w> 7988
ri der</w> 7986
pe dro</w> 7986
foot age</w> 7986
rat ings</w> 7986
o be 7984
psycho logical</w> 7983
croati an</w> 7983
pac ked</w> 7982
in um</w> 7980
im prisoned</w> 7980
he m</w> 7979
some body</w> 7978
187 2</w> 7977
beng al</w> 7977
h ook</w> 7976
ab u</w> 7972
z oo 7969
commit ment</w> 7969
na ils</w> 7968
admini stered</w> 7968
t amp 7965
car ni 7964
gar rison</w> 7964
???? ???</w> 7964
lei gh</w> 7962
datab ase</w> 7962
sh re 7961
osc ar</w> 7961
can ton</w> 7957
cul tures</w> 7957
prote stant</w> 7956
ach t</w> 7955
happ iness</w> 7953
threat ening</w> 7953
half way</w> 7951
cle ar 7949
up stairs</w> 7948
con figur 7947
186 8</w> 7947
o d</w> 7946
bal an 7944
man ual</w> 7940
- like</w> 7939
om ed</w> 7939
pri ests</w> 7939
inter action</w> 7937
ca sting</w> 7937
cle an 7935
j . 7934
earthqu ake</w> 7934
la d</w> 7929
gr ateful</w> 7928
e di 7927
mat rix</w> 7924
exper ts</w> 7924
recru ited</w> 7922
anthro po 7920
real m</w> 7919
and ro 7918
per ceived</w> 7917
sh allow</w> 7916
speci alist</w> 7916
mont ana</w> 7915
horiz on 7913
tan g</w> 7912
s day</w> 7910
un comfortable</w> 7910
sid ers</w> 7910
ori an</w> 7909
profession als</w> 7907
consi st</w> 7906
custom er</w> 7905
in put</w> 7903
vel t</w> 7901
e ter</w> 7900
187 4</w> 7899
there by</w> 7899
comp li 7896
cassi e</w> 7896
exhi bit</w> 7892
ble w</w> 7891
inau gur 7891
inter n 7890
all an</w> 7889
cylin der</w> 7889
blan ket</w> 7888
k ath 7887
ro of 7886
pur se</w> 7886
sophi e</w> 7886
ur ge</w> 7885
em is 7881
cu sto 7881
leg acy</w> 7881
assemb led</w> 7881
w ounds</w> 7880
present ation</w> 7878
ky lie</w> 7878
di alogue</w> 7877
celebr ate</w> 7876
bar n</w> 7875
187 9</w> 7875
en os</w> 7873
ru th</w> 7873
ga ther</w> 7873
far ther</w> 7873
ali ze</w> 7872
worl ds</w> 7872
air line</w> 7870
mil len 7868
coo king</w> 7868
ff y</w> 7867
jenni fer</w> 7866
14 . 7864
organis ations</w> 7864
in ers</w> 7862
sin s</w> 7860
cou p</w> 7860
al ley</w> 7859
colle agues</w> 7858
ir on 7857
amp hi 7857
re d- 7855
vari able</w> 7854
m s.</w> 7852
human ity</w> 7852
ha gen</w> 7851
o logist</w> 7849
non- families</w> 7849
kill s</w> 7849
re ha 7847
is y</w> 7847
tr ad 7847
trans formed</w> 7846
gro aned</w> 7844
she ep</w> 7844
politici ans</w> 7844
exhibi tions</w> 7844
chuck led</w> 7844
mou se</w> 7842
al is</w> 7841
el ia</w> 7841
hoo ds</w> 7841
ca ke</w> 7840
gover ning</w> 7840
auth or 7840
it z</w> 7839
mo dul 7839
im pression</w> 7839
sil ver 7839
pe as 7837
ali e</w> 7836
ay an</w> 7835
comp iled</w> 7835
bul garian</w> 7835
fu sion</w> 7834
sp ite</w> 7833
inv ented</w> 7833
boulev ard</w> 7833
flu id</w> 7831
ff e</w> 7830
caf e</w> 7829
program mes</w> 7824
tru mp</w> 7823
liter acy</w> 7822
com mu 7821
hon ours</w> 7821
s enti 7817
rele ss</w> 7817
l u</w> 7816
main taining</w> 7814
dad dy</w> 7814
ad rian</w> 7813
del aware</w> 7813
lo ving</w> 7811
ak h 7809
chu ck</w> 7808
ap pren 7807
th en 7806
inc .</w> 7806
a w</w> 7804
den o 7804
h annah</w> 7802
mi e</w> 7802
pit cher</w> 7802
ro wing</w> 7799
war fare</w> 7798
hum or</w> 7798
mar qu 7797
m amm 7796
187 3</w> 7792
el ds</w> 7791
mu s 7791
y ton</w> 7790
up dated</w> 7788
follow ers</w> 7787
sp are</w> 7784
ra ft</w> 7783
ka i</w> 7780
mo ham 7778
ig n 7778
hand led</w> 7778
om et 7777
ju mping</w> 7777
wall ace</w> 7776
cr ack</w> 7775
wed nes 7773
carol ine</w> 7770
g ate 7768
land mark</w> 7767
tal ity</w> 7764
civi c</w> 7764
affili ate</w> 7764
hamp ton</w> 7764
produc tive</w> 7763
sing ers</w> 7763
ad ri 7761
gosp el</w> 7761
u z 7760
f** k</w> 7760
to i 7759
casu alties</w> 7759
pre servation</w> 7756
can yon</w> 7755
hear ts</w> 7755
s nar 7754
eat en</w> 7752
bul garia</w> 7751
survi vors</w> 7751
pla za</w> 7750
lo ading</w> 7748
prevent ed</w> 7747
p ond</w> 7746
bl ur 7743
auth ored</w> 7743
ar bit 7742
archi ves</w> 7740
leban on</w> 7740
b end</w> 7739
ach i</w> 7739
bec ca</w> 7738
spe ed 7737
pre li 7736
gener ate</w> 7736
s ap 7735
str ation</w> 7735
vari ation</w> 7734
al tered</w> 7733
186 6</w> 7733
sh ane</w> 7731
curren cy</w> 7731
sau di</w> 7731
s r 7728
philosop hi 7728
as y 7727
har vey</w> 7727
consu mption</w> 7727
c ester</w> 7726
ar ray</w> 7724
oun d- 7723
leon ard</w> 7722
hu h</w> 7721
ar mies</w> 7720
sp y</w> 7719
d h 7718
htt p</w> 7718
lo v 7717
de pot</w> 7717
pun ch</w> 7717
re forms</w> 7716
pres by 7716
vla di 7716
tri but 7713
sett ling</w> 7713
comp ati 7711
install ation</w> 7711
co tt</w> 7709
nan cy</w> 7708
o sa 7706
intro duce</w> 7706
cu lar</w> 7705
rev ised</w> 7703
berk eley</w> 7703
f um 7702
f ence</w> 7699
cl am 7699
arn old</w> 7699
op hy 7698
sens ation</w> 7698
serv ants</w> 7697
sanc tuary</w> 7697
tor ture</w> 7696
recei ver</w> 7691
sam ples</w> 7690
foun ders</w> 7689
equ ation</w> 7689
enzy me</w> 7685
azerbai jan</w> 7684
acknowle dged</w> 7682
pro ph 7681
gu t</w> 7679
al ger 7678
fac ade</w> 7678
por ter</w> 7677
ang li 7676
tribut ary</w> 7676
ai ms</w> 7674
protec ting</w> 7674
expl ore</w> 7673
m l</w> 7669
gi l</w> 7669
bish ops</w> 7668
photo grapher</w> 7663
fur n 7662
thre ats</w> 7662
jessi ca</w> 7661
t asks</w> 7658
kno ck 7658
exam ined</w> 7658
roo se 7658
otta wa</w> 7658
200 0s</w> 7653
del ay</w> 7653
escor t</w> 7652
ver i 7651
vari ations</w> 7651
bre ed</w> 7649
some time</w> 7647
contin ent</w> 7646
s ounding</w> 7645
inter face</w> 7642
pir ates</w> 7642
bass y</w> 7641
mo ther 7638
ru ins</w> 7638
cour age</w> 7638
integr ation</w> 7637
perman ently</w> 7637
ac o</w> 7635
certific ate</w> 7633
accomp lished</w> 7632
o y</w> 7630
re bel</w> 7630
mem o 7628
loy al</w> 7628
pra ise</w> 7628
no ting</w> 7627
af ford</w> 7625
184 8</w> 7625
sear ched</w> 7624
g ad 7623
pre ston</w> 7623
hugh es</w> 7623
k at</w> 7621
em bassy</w> 7621
blan k</w> 7621
suspen sion</w> 7621
am anda</w> 7619
manufac turers</w> 7619
187 7</w> 7618
th al 7615
th igh 7615
proce eded</w> 7613
gro ss</w> 7611
sor ts</w> 7610
concep ts</w> 7609
mag gie</w> 7604
announ cement</w> 7603
abra ham</w> 7603
gr ants</w> 7601
whit e 7601
mid fielder</w> 7600
k ati 7599
bit ter</w> 7599
her d</w> 7598
est ates</w> 7597
accommo date</w> 7596
nor theastern</w> 7594
dimen sional</w> 7594
ne ys</w> 7592
innov ation</w> 7592
new castle</w> 7591
sing ly</w> 7589
ra p 7588
consequ ently</w> 7587
adequ ate</w> 7587
spec trum</w> 7586
12 - 7586
to po 7585
presti gious</w> 7584
ten se</w> 7582
sh eff 7581
ro d 7580
sh en 7580
sever ely</w> 7580
mc car 7580
cor on 7577
hon ored</w> 7577
as sured</w> 7575
kar en</w> 7574
marath on</w> 7574
pow der</w> 7573
o ber 7572
m tv</w> 7571
cha os</w> 7571
coun ted</w> 7570
stati oned</w> 7570
ro land</w> 7569
great - 7569
cricke ter</w> 7569
di et</w> 7567
que ens</w> 7566
phi c</w> 7563
drin ks</w> 7563
spir its</w> 7561
mathemati cal</w> 7561
t ate</w> 7560
roose velt</w> 7560
reco ver</w> 7558
electron ics</w> 7558
stat ements</w> 7557
lun gs</w> 7556
work shop</w> 7553
susta ined</w> 7553
ep tion</w> 7550
spec tac 7550
lun g</w> 7550
consequ ences</w> 7548
bl ond</w> 7547
goo gle</w> 7547
mon k</w> 7546
mag ical</w> 7546
ell en</w> 7544
appreci ate</w> 7544
semin ary</w> 7543
journ alists</w> 7542
cent ered</w> 7540
man d 7539
c u</w> 7536
m l 7535
ol i</w> 7532
mo sque</w> 7530
m c</w> 7528
man ages</w> 7528
virtu ally</w> 7528
mil lions</w> 7527
fellow ship</w> 7526
deri v 7524
mp h</w> 7522
re lay</w> 7519
z z</w> 7516
z an 7516
po se 7514
promp ted</w> 7513
ar mor 7509
presid ency</w> 7509
to bac 7508
refuge es</w> 7508
cor d</w> 7507
cat aly 7506
ab rup 7505
ci o</w> 7505
recre ation</w> 7502
mist ak 7502
ste pping</w> 7501
cham bers</w> 7501
en er 7499
me tric</w> 7497
bre vi 7493
a ur 7492
cor p 7491
pi stol</w> 7489
mo z 7488
chi efs</w> 7488
bat ting</w> 7486
b oul 7485
o va</w> 7482
re yn 7482
abo lished</w> 7481
v ale</w> 7480
is - 7478
dan cer</w> 7478
c all 7475
li me 7475
com positions</w> 7475
encour age</w> 7475
cog ni 7468
' you</w> 7465
li ke 7463
well ington</w> 7461
ha us 7460
acou stic</w> 7460
i ans</w> 7459
voic ed</w> 7459
stan i</w> 7458
be th 7456
t v 7455
construc t</w> 7455
kri sh 7455
preli min 7455
gri d</w> 7454
separ ation</w> 7453
ati on 7452
t- shirt</w> 7452
broadca sts</w> 7452
ar es</w> 7451
bran ded</w> 7451
moder ate</w> 7451
gar cia</w> 7450
ra pe</w> 7449
si um</w> 7447
gu idance</w> 7446
c iting</w> 7444
pro xim 7443
two- year</w> 7443
dre am 7441
nation alist</w> 7440
anch or</w> 7439
sh ei 7438
enjo ying</w> 7438
mar vel</w> 7436
gg s</w> 7436
c n 7435
pic k 7432
ch au 7431
develop ments</w> 7431
gam e 7428
t ch 7427
mach in 7426
ste st</w> 7423
bl ings</w> 7423
d ella</w> 7421
cur ved</w> 7421
der ness</w> 7420
south western</w> 7420
** *</w> 7418
rese mb 7418
shang hai</w> 7417
seri e</w> 7416
ray mond</w> 7416
assign ment</w> 7416
ar di 7415
p y</w> 7412
li e 7412
186 9</w> 7410
co p</w> 7406
inter change</w> 7406
exhau sted</w> 7406
om on</w> 7405
s way</w> 7404
r in</w> 7404
advis or</w> 7403
frustr ation</w> 7402
2 4 7401
exter ior</w> 7401
re construction</w> 7400
quar tered</w> 7399
sacrif ice</w> 7396
- and- 7395
ben nett</w> 7395
dam ned</w> 7395
exten ds</w> 7393
or ly</w> 7391
sw ick</w> 7391
hur ry</w> 7391
mau rice</w> 7391
g and 7390
edit orial</w> 7389
no te 7386
absor bed</w> 7384
tri bal</w> 7383
suff er</w> 7383
par ame 7382
jac ques</w> 7382
for ty- 7381
back ward</w> 7381
you ve</w> 7381
n els</w> 7380
so le 7380
displa ys</w> 7380
ur u 7378
bra d</w> 7378
an t- 7376
str o</w> 7376
tri ps</w> 7376
touri sts</w> 7376
k ul 7373
sor ship</w> 7372
rol ls</w> 7371
promis ing</w> 7371
de on</w> 7370
ment ally</w> 7370
cent res</w> 7368
k au 7367
son y</w> 7364
w - 7363
theat rical</w> 7363
play - 7362
v s.</w> 7360
or da 7360
st atic</w> 7359
nash ville</w> 7358
c p 7357
de ut 7357
hur ried</w> 7355
tic ul 7354
boo m</w> 7354
spe are</w> 7354
fi er</w> 7352
bar rier</w> 7351
sla very</w> 7351
par ked</w> 7350
co x</w> 7350
x y</w> 7349
ste al</w> 7349
bor o</w> 7346
disp at 7346
sti ff 7345
18 50</w> 7344
appe als</w> 7344
interven tion</w> 7344
si zes</w> 7342
or bit</w> 7341
ri pped</w> 7341
we t 7341
stre ak</w> 7341
stan ford</w> 7341
fl ame</w> 7339
cel tic</w> 7339
montgom ery</w> 7339
en able</w> 7335
cur ricul 7335
wat son</w> 7331
bar rel</w> 7330
m d</w> 7329
jo in 7328
fa stest</w> 7328
mission ary</w> 7327
abrup tly</w> 7327
to es</w> 7326
dor o 7326
regre t</w> 7325
neutr al</w> 7324
pron ounced</w> 7323
on ies</w> 7321
z - 7320
speci fied</w> 7320
fl at 7318
e pic</w> 7317
ar do</w> 7317
mari o</w> 7317
witne sses</w> 7317
sheff ield</w> 7317
am ber</w> 7315
reti ring</w> 7315
top ped</w> 7315
prec ed 7315
nur sing</w> 7314
f in</w> 7313
ignor ing</w> 7313
hand ful</w> 7311
in fer 7310
el bow</w> 7310
necess arily</w> 7310
ent ing</w> 7309
bar t</w> 7309
bar ri 7309
conqu est</w> 7309
predomin antly</w> 7308
travel ling</w> 7307
ge dly</w> 7305
spea ks</w> 7305
aggre gate</w> 7304
associ ations</w> 7302
cru z</w> 7301
k ad 7300
practic ed</w> 7298
lay ers</w> 7296
nation wide</w> 7295
fr ac 7294
jen ny</w> 7293
rel ating</w> 7292
mer cy</w> 7292
pain ful</w> 7292
renew ed</w> 7291
horri ble</w> 7290
relati ves</w> 7287
discipl ine</w> 7287
contribu te</w> 7286
south- east</w> 7285
gl ory</w> 7284
eag er</w> 7284
favour ite</w> 7284
ar row</w> 7283
b hu 7281
ow l</w> 7281
aff ir 7281
desi red</w> 7281
shake speare</w> 7281
vi i</w> 7280
kir k</w> 7280
r . 7275
str ings</w> 7275
gra in</w> 7275
du res</w> 7274
shor ts</w> 7272
he ated</w> 7271
stre ams</w> 7271
up coming</w> 7271
tre vor</w> 7270
l ling</w> 7269
tu cked</w> 7266
ine e</w> 7266
hi er 7265
me te 7264
over head</w> 7264
sugge sting</w> 7264
we ster 7259
d ac 7258
conduc tor</w> 7258
reali zing</w> 7258
th under</w> 7257
citiz en 7253
uni ons</w> 7252
ato es</w> 7251
do z 7249
squ ir 7248
h int</w> 7247
il es</w> 7247
ter o 7245
roo kie</w> 7245
stra in</w> 7243
elli s</w> 7243
zz a</w> 7241
boo t</w> 7240
in fr 7238
qu inn</w> 7238
excell ence</w> 7237
ver mont</w> 7236
buri al</w> 7234
gin a</w> 7233
melo dy</w> 7233
bor g</w> 7232
un e</w> 7230
ther mal</w> 7228
w ishes</w> 7227
cor k</w> 7227
pro vo 7226
ann on</w> 7226
tor n 7226
wer e 7225
li z</w> 7223
pro li 7222
coun ts</w> 7219
ev angel 7218
broo ks</w> 7218
eg g</w> 7216
san ti 7215
cat ching</w> 7214
du bbed</w> 7213
d ame</w> 7211
curricul um</w> 7209
trans formation</w> 7208
reason able</w> 7207
thigh s</w> 7207
olym pi 7206
15 . 7205
disp er 7204
ro ster</w> 7202
ar ched</w> 7200
va e</w> 7199
cha ins</w> 7198
re pri 7195
dis order</w> 7194
sun light</w> 7193
s nu 7192
c ac 7192
over - 7192
mar king</w> 7191
bol t</w> 7191
m g</w> 7190
fin n</w> 7190
fli pped</w> 7190
byz antine</w> 7189
ri bb 7187
ish - 7187
invol ve</w> 7185
non- profit</w> 7185
co in</w> 7184
com po 7183
cul min 7183
the od 7182
t ina</w> 7181
vi e</w> 7181
coun try 7179
pat ch</w> 7179
phil lips</w> 7179
metho dist</w> 7178
argu ing</w> 7175
fre est 7173
mer it</w> 7172
th ough 7171
ma id</w> 7171
rec all</w> 7170
syn drome</w> 7170
priv ately</w> 7167
refer en 7166
boo th</w> 7165
stri kes</w> 7162
i da 7161
mol lu 7161
che ese</w> 7160
art work</w> 7160
gra vity</w> 7159
judg ment</w> 7157
eu gene</w> 7156
sharp ly</w> 7155
r ington</w> 7153
quan tum</w> 7150
d ine</w> 7149
ob sc 7149
re formed</w> 7148
lou ise</w> 7148
heal ing</w> 7148
gest ure</w> 7148
re served</w> 7147
hea vy 7146
den om 7146
sc ram 7145
ven ues</w> 7143
glar ed</w> 7143
t son</w> 7140
trac ed</w> 7139
vi si 7138
journ als</w> 7137
protec tive</w> 7134
fier ce</w> 7134
pl un 7131
ch amp 7130
de als</w> 7130
legen dary</w> 7130
- time</w> 7129
rit ual</w> 7128
cy c 7128
ban g</w> 7127
vict ories</w> 7127
sh ers</w> 7126
pan ama</w> 7125
bloc k 7125
satis faction</w> 7122
g ill</w> 7121
ham let</w> 7120
plat inum</w> 7120
aw ak 7118
t . 7117
v ital</w> 7114
do d 7114
bar o 7114
ira qi</w> 7108
episcop al</w> 7107
loc ate</w> 7106
lan g</w> 7106
circul ation</w> 7105
motor cycle</w> 7104
depen ds</w> 7102
bun ch</w> 7098
amp ed</w> 7097
ju ven 7095
col ours</w> 7088
con sec 7085
dis covers</w> 7085
disc our 7085
tw enti 7084
venezu ela</w> 7083
st ap 7082
navi gation</w> 7081
rec k 7078
identi fication</w> 7077
sw ir 7075
au ck 7074
im posed</w> 7074
whi r 7073
argu es</w> 7073
am ar 7072
ent - 7072
l ler</w> 7070
sp in 7070
a ha</w> 7069
eng ra 7068
t ore</w> 7067
indepen dently</w> 7067
den se</w> 7066
expl oration</w> 7066
j av 7064
est - 7064
s ally</w> 7063
d enti 7062
0 th</w> 7062
po l</w> 7062
kin son</w> 7061
hol low</w> 7060
er able</w> 7052
inf ection</w> 7051
desc ended</w> 7051
ad or 7043
expan ding</w> 7043
napo leon</w> 7042
uni tion</w> 7040
an te</w> 7038
enab led</w> 7038
n u</w> 7036
rem n 7035
el ena</w> 7034
ab by</w> 7032
bom bar 7032
d s 7031
hot els</w> 7030
fi ghts</w> 7028
more over</w> 7028
ter ly</w> 7027
sp reading</w> 7023
xi e</w> 7023
conduc ting</w> 7022
dis continued</w> 7019
proce dures</w> 7019
prelimin ary</w> 7019
behavi our</w> 7017
it - 7016
coun sel 7016
pr ague</w> 7016
provi sions</w> 7016
floo ding</w> 7016
for bi 7015
qu in 7014
a ine</w> 7013
pro stitu 7013
divor ced</w> 7013
proto col</w> 7012
oxi de</w> 7011
all- star</w> 7010
s ation</w> 7009
un expected</w> 7008
qu et</w> 7007
f t 7005
sustain able</w> 7005
s wa 7004
au x 7004
bow ling</w> 7004
cott age</w> 7004
hun ger</w> 7003
cher ry</w> 7003
in visible</w> 7001
te stam 7000
reli able</w> 7000
remark able</w> 7000
ber land</w> 6998
guil d</w> 6998
eye brow</w> 6998
con ferences</w> 6997
a o 6996
cr ou 6996
ss r</w> 6993
libr aries</w> 6990
185 9</w> 6990
pe ts</w> 6989
viet nam 6989
ev en 6986
rela x</w> 6986
as i</w> 6985
gi es</w> 6984
3. 5</w> 6984
dis appointed</w> 6983
re tain</w> 6982
sho e</w> 6982
stat e- 6982
e is 6980
ha v 6980
sur ing</w> 6979
re t</w> 6978
beli efs</w> 6978
di ll 6977
la sting</w> 6977
certain ty</w> 6977
auck land</w> 6976
under went</w> 6972
j u</w> 6970
am an</w> 6968
hol ly</w> 6966
differ enti 6966
chec king</w> 6966
r ams</w> 6964
ni kol 6963
so fia</w> 6962
doc torate</w> 6959
col t</w> 6957
cre ator</w> 6957
y m</w> 6956
proto type</w> 6956
civili ans</w> 6951
sas kat 6951
zo o</w> 6948
quo ted</w> 6947
an nex 6946
li on 6946
har per</w> 6946
foo ds</w> 6945
bu ying</w> 6943
ber ger</w> 6942
ph on 6942
mer cur 6942
tar a</w> 6941
agre ements</w> 6940
requ iring</w> 6939
yugosla via</w> 6938
cho re 6935
cre ates</w> 6934
seem ingly</w> 6933
c tu 6932
ph .d.</w> 6929
legi timate</w> 6929
em en</w> 6928
ed mon 6928
ri vals</w> 6927
step h 6927
ge e</w> 6926
hybri d</w> 6924
pur suit</w> 6923
tobac co</w> 6921
for got</w> 6919
audi ences</w> 6913
rest ore</w> 6912
k nu 6911
preci ous</w> 6910
can non</w> 6909
do t</w> 6908
adv ised</w> 6908
an ten 6905
clo set</w> 6905
main tains</w> 6904
tru cks</w> 6901
si blings</w> 6900
pi e</w> 6900
t uni 6898
v ina</w> 6898
vari ed</w> 6898
mar sh</w> 6897
c t</w> 6896
m ick</w> 6896
event ual</w> 6896
sm elled</w> 6894
seg ments</w> 6894
cardin als</w> 6894
poten tially</w> 6893
tiv eness</w> 6892
j in 6891
col m</w> 6891
touch downs</w> 6891
orda ined</w> 6891
targe ted</w> 6888
coll ecting</w> 6887
min ds</w> 6886
enti ty</w> 6886
hol dings</w> 6884
head quartered</w> 6884
ug ly</w> 6884
inspec tor</w> 6883
p ou 6882
ro sen 6881
rout ine</w> 6881
bo dy 6879
comm entary</w> 6878
s nat 6877
es sex</w> 6877
comp act</w> 6877
resi st</w> 6877
blon de</w> 6872
ec ho</w> 6866
face book</w> 6866
regi stration</w> 6865
pal ms</w> 6865
t ories</w> 6864
e ta</w> 6863
be ds</w> 6863
log ically</w> 6863
alle gedly</w> 6863
m our 6861
d ami 6861
vi vi 6861
hun ters</w> 6861
insec ts</w> 6861
c ements</w> 6860
e tta</w> 6860
ber y</w> 6860
sy mb 6860
mag i 6860
sp inning</w> 6858
mi gu 6858
f o</w> 6856
rub ber</w> 6855
consul tant</w> 6853
discrimin ation</w> 6848
it em</w> 6845
var ies</w> 6844
lar vae</w> 6843
185 7</w> 6842
st ent</w> 6838
can e</w> 6835
yu an</w> 6835
tu es 6833
chap ters</w> 6832
offen se</w> 6832
lec tures</w> 6830
mat ched</w> 6828
en listed</w> 6827
our ing</w> 6827
gor ge 6827
gene sis</w> 6826
jo ins</w> 6825
li u</w> 6824
s age</w> 6823
re moving</w> 6822
palest ine</w> 6822
w ning</w> 6821
pro pri 6821
mon y</w> 6821
fron tier</w> 6821
sevente en</w> 6821
voy age</w> 6820
lin da</w> 6818
deal t</w> 6818
h d</w> 6817
ter rain</w> 6817
determin ation</w> 6817
nati ves</w> 6816
ti p 6815
dri ves</w> 6815
commit tees</w> 6815
radi o 6815
ici a</w> 6814
ker ala</w> 6814
k ash 6812
th ick 6812
ol o</w> 6812
fis her</w> 6812
shi fting</w> 6811
nom inations</w> 6811
bran don</w> 6810
ch loe</w> 6809
pis sed</w> 6809
ab brevi 6808
im pe 6808
m u</w> 6807
fel ix</w> 6807
tru sted</w> 6805
popul ated</w> 6805
marsh al</w> 6804
per mit</w> 6802
ang a</w> 6802
cle aning</w> 6801
awk ward</w> 6801
associ ates</w> 6800
op le</w> 6796
butter fly</w> 6796
tre ating</w> 6795
ment ation</w> 6794
migr ation</w> 6794
py rami 6794
acci dentally</w> 6794
treas ure</w> 6793
def ine</w> 6792
confi dent</w> 6792
sh in 6789
ca b</w> 6789
oper ators</w> 6789
requi rement</w> 6788
si p</w> 6787
li fel 6787
sen ses</w> 6787
hal ed</w> 6787
ac king</w> 6785
pan els</w> 6785
invest ors</w> 6785
wag on</w> 6785
li ghter</w> 6783
amm unition</w> 6783
am al 6782
do l</w> 6782
sta ined</w> 6781
interpre ted</w> 6779
sexu ality</w> 6779
no tion</w> 6778
mar co</w> 6778
wednes day</w> 6778
mar gin 6776
br ed</w> 6776
cru ise</w> 6776
l ton</w> 6775
sla m</w> 6775
stric t</w> 6775
monit oring</w> 6775
refu ge</w> 6773
a. m.</w> 6771
ti ble</w> 6770
am use 6770
t ear 6769
refl ection</w> 6769
bo li 6767
doctr ine</w> 6767
s ali 6764
aggre ssive</w> 6762
ve ins</w> 6760
you ll</w> 6759
le a</w> 6758
tra iler</w> 6758
fr at 6757
chan ces</w> 6757
chi p</w> 6756
st ability</w> 6754
ob a</w> 6754
a ster</w> 6753
le u 6753
explo ded</w> 6753
re al- 6750
mer i 6750
ner ve</w> 6750
es h</w> 6749
di ving</w> 6744
la wn</w> 6743
mar c</w> 6743
att a</w> 6741
palest inian</w> 6741
co des</w> 6740
mass acre</w> 6740
f au 6739
new ton</w> 6739
dead ly</w> 6739
it ations</w> 6737
sk in 6736
who ever</w> 6736
inv en 6735
16 . 6734
neighbour ing</w> 6734
avoi ded</w> 6733
g ations</w> 6732
brac ed</w> 6732
do c</w> 6731
w ow</w> 6730
li sting</w> 6729
sub urban</w> 6729
out - 6728
col lar</w> 6727
star tled</w> 6724
gl en</w> 6724
citizen ship</w> 6722
succ eed</w> 6721
z on</w> 6720
ur ged</w> 6716
pp le</w> 6716
ani me</w> 6716
any a</w> 6715
symb ols</w> 6715
j am</w> 6714
min er 6714
ten ded</w> 6714
am o</w> 6712
vietnam ese</w> 6712
v u 6709
cra p</w> 6709
me th 6708
l ur 6707
wal d</w> 6707
cer e 6706
restric tions</w> 6706
o .</w> 6705
gram my</w> 6705
sti ll 6704
pun jab</w> 6704
fer r 6703
ste fan</w> 6702
peace ful</w> 6700
arsen al</w> 6698
dow ed</w> 6696
smo king</w> 6696
ca in</w> 6695
ang s</w> 6694
subur bs</w> 6693
si ci 6692
br yan</w> 6692
cla ude</w> 6691
clar ke</w> 6691
rac ks</w> 6690
over come</w> 6689
bal d</w> 6688
lu lar</w> 6687
dan te</w> 6687
deman ding</w> 6687
or o 6686
ch ard</w> 6686
repe at</w> 6686
horiz on</w> 6685
the ological</w> 6682
for give</w> 6680
pre fer</w> 6680
chel sea</w> 6680
arab ia</w> 6678
dr y 6676
t ent 6674
north- west</w> 6674
k ick 6673
fe ver</w> 6673
estim ate</w> 6672
se a 6671
celebr ity</w> 6670
h l 6669
un anim 6668
inst inc 6667
tra de 6663
ri p 6662
mon sters</w> 6662
aw ful</w> 6662
[...]
